{
  "version": "1.0",
  "truncation": null,
  "padding": null,
  "added_tokens": [
    {
      "id": 0,
      "content": "[UNK]",
      "single_word": false,
      "lstrip": false,
      "rstrip": false,
      "normalized": false,
      "special": true
    },
    {
      "id": 1,
      "content": "[PAD]",
      "single_word": false,
      "lstrip": false,
      "rstrip": false,
      "normalized": false,
      "special": true
    },
    {
      "id": 2,
      "content": "[SOS]",
      "single_word": false,
      "lstrip": false,
      "rstrip": false,
      "normalized": false,
      "special": true
    },
    {
      "id": 3,
      "content": "[EOS]",
      "single_word": false,
      "lstrip": false,
      "rstrip": false,
      "normalized": false,
      "special": true
    }
  ],
  "normalizer": null,
  "pre_tokenizer": {
    "type": "Whitespace"
  },
  "post_processor": null,
  "decoder": null,
  "model": {
    "type": "BPE",
    "dropout": null,
    "unk_token": "[UNK]",
    "continuing_subword_prefix": null,
    "end_of_word_suffix": null,
    "fuse_unk": false,
    "byte_fallback": false,
    "ignore_merges": false,
    "vocab": {
      "[UNK]": 0,
      "[PAD]": 1,
      "[SOS]": 2,
      "[EOS]": 3,
      "!": 4,
      "\"": 5,
      "%": 6,
      "&": 7,
      "'": 8,
      "(": 9,
      ")": 10,
      "*": 11,
      "+": 12,
      ",": 13,
      "-": 14,
      ".": 15,
      "/": 16,
      "0": 17,
      "1": 18,
      "2": 19,
      "3": 20,
      "4": 21,
      "5": 22,
      "6": 23,
      "7": 24,
      "8": 25,
      "9": 26,
      ":": 27,
      ";": 28,
      "=": 29,
      "?": 30,
      "A": 31,
      "B": 32,
      "C": 33,
      "D": 34,
      "E": 35,
      "F": 36,
      "G": 37,
      "H": 38,
      "I": 39,
      "J": 40,
      "K": 41,
      "L": 42,
      "M": 43,
      "N": 44,
      "O": 45,
      "P": 46,
      "Q": 47,
      "R": 48,
      "S": 49,
      "T": 50,
      "U": 51,
      "V": 52,
      "W": 53,
      "X": 54,
      "Y": 55,
      "Z": 56,
      "[": 57,
      "\\": 58,
      "]": 59,
      "`": 60,
      "a": 61,
      "b": 62,
      "c": 63,
      "d": 64,
      "e": 65,
      "f": 66,
      "g": 67,
      "h": 68,
      "i": 69,
      "j": 70,
      "k": 71,
      "l": 72,
      "m": 73,
      "n": 74,
      "o": 75,
      "p": 76,
      "q": 77,
      "r": 78,
      "s": 79,
      "t": 80,
      "u": 81,
      "v": 82,
      "w": 83,
      "x": 84,
      "y": 85,
      "z": 86,
      "{": 87,
      "}": 88,
      "": 89,
      "": 90,
      "": 91,
      "": 92,
      "": 93,
      "£": 94,
      "°": 95,
      "²": 96,
      "º": 97,
      "½": 98,
      "Â": 99,
      "â": 100,
      "ku": 101,
      "an": 102,
      "in": 103,
      "el": 104,
      "en": 105,
      "wa": 106,
      "zi": 107,
      "ng": 108,
      "th": 109,
      "is": 110,
      "ph": 111,
      "we": 112,
      "ye": 113,
      "yo": 114,
      "am": 115,
      "lu": 116,
      "kh": 117,
      "le": 118,
      "la": 119,
      "si": 120,
      "ba": 121,
      "ka": 122,
      "oku": 123,
      "kw": 124,
      "ana": 125,
      "ya": 126,
      "lo": 127,
      "uku": 128,
      "sh": 129,
      "ko": 130,
      "um": 131,
      "bo": 132,
      "ela": 133,
      "ez": 134,
      "qana": 135,
      "ga": 136,
      "se": 137,
      "on": 138,
      "bu": 139,
      "and": 140,
      "qanawa": 141,
      "li": 142,
      "za": 143,
      "om": 144,
      "nga": 145,
      "ile": 146,
      "kwa": 147,
      "ezi": 148,
      "elo": 149,
      "ama": 150,
      "ma": 151,
      "ulu": 152,
      "da": 153,
      "kan": 154,
      "int": 155,
      "ele": 156,
      "isi": 157,
      "bi": 158,
      "un": 159,
      "enzi": 160,
      "ini": 161,
      "ing": 162,
      "thi": 163,
      "kwi": 164,
      "em": 165,
      "eni": 166,
      "pha": 167,
      "kun": 168,
      "yi": 169,
      "isa": 170,
      "kwe": 171,
      "be": 172,
      "sa": 173,
      "tsh": 174,
      "wo": 175,
      "esi": 176,
      "eli": 177,
      "kanye": 178,
      "ant": 179,
      "tha": 180,
      "ke": 181,
      "okanye": 182,
      "enqanawa": 183,
      "ty": 184,
      "anga": 185,
      "ze": 186,
      "bh": 187,
      "ane": 188,
      "ent": 189,
      "na": 190,
      "xa": 191,
      "zo": 192,
      "kho": 193,
      "ca": 194,
      "ngoku": 195,
      "di": 196,
      "eng": 197,
      "qh": 198,
      "ang": 199,
      "im": 200,
      "lwa": 201,
      "thu": 202,
      "kum": 203,
      "ileyo": 204,
      "fun": 205,
      "ngo": 206,
      "kunye": 207,
      "khulu": 208,
      "tho": 209,
      "inqanawa": 210,
      "iso": 211,
      "xh": 212,
      "ise": 213,
      "inga": 214,
      "va": 215,
      "ambo": 216,
      "dawo": 217,
      "andle": 218,
      "olu": 219,
      "es": 220,
      "yoku": 221,
      "kwen": 222,
      "antsi": 223,
      "ezin": 224,
      "hla": 225,
      "qu": 226,
      "anzi": 227,
      "esh": 228,
      "seb": 229,
      "qa": 230,
      "khu": 231,
      "pham": 232,
      "lwe": 233,
      "cin": 234,
      "wu": 235,
      "de": 236,
      "Uku": 237,
      "lw": 238,
      "ukuba": 239,
      "kel": 240,
      "the": 241,
      "thwa": 242,
      "lela": 243,
      "ji": 244,
      "phez": 245,
      "phambi": 246,
      "ne": 247,
      "lung": 248,
      "do": 249,
      "enzis": 250,
      "bini": 251,
      "khe": 252,
      "nt": 253,
      "phe": 254,
      "nge": 255,
      "elwa": 256,
      "nj": 257,
      "fune": 258,
      "ona": 259,
      "tyenzis": 260,
      "mi": 261,
      "kwaye": 262,
      "elwe": 263,
      "fa": 264,
      "xesh": 265,
      "okuba": 266,
      "dlela": 267,
      "eku": 268,
      "khi": 269,
      "ene": 270,
      "xesha": 271,
      "qo": 272,
      "phezulu": 273,
      "phambili": 274,
      "qhu": 275,
      "ti": 276,
      "so": 277,
      "ha": 278,
      "hl": 279,
      "oya": 280,
      "cala": 281,
      "phantsi": 282,
      "indawo": 283,
      "phaka": 284,
      "Um": 285,
      "andla": 286,
      "no": 287,
      "inye": 288,
      "kileyo": 289,
      "izi": 290,
      "xho": 291,
      "phakathi": 292,
      "funeka": 293,
      "ani": 294,
      "ki": 295,
      "noku": 296,
      "iswa": 297,
      "In": 298,
      "Ng": 299,
      "khus": 300,
      "sebenzi": 301,
      "pho": 302,
      "weni": 303,
      "su": 304,
      "weyo": 305,
      "ngen": 306,
      "ling": 307,
      "qi": 308,
      "yu": 309,
      "setyenzis": 310,
      "bho": 311,
      "ganga": 312,
      "ci": 313,
      "kha": 314,
      "hlu": 315,
      "ham": 316,
      "hlo": 317,
      "umi": 318,
      "into": 319,
      "kile": 320,
      "ubu": 321,
      "fu": 322,
      "elw": 323,
      "rh": 324,
      "zin": 325,
      "tsa": 326,
      "phandle": 327,
      "eza": 328,
      "gangatho": 329,
      "ont": 330,
      "ce": 331,
      "enza": 332,
      "phu": 333,
      "yile": 334,
      "bon": 335,
      "zwe": 336,
      "xhobo": 337,
      "pa": 338,
      "kom": 339,
      "ina": 340,
      "loku": 341,
      "enqana": 342,
      "gcin": 343,
      "njeng": 344,
      "zoku": 345,
      "kwisi": 346,
      "thwalo": 347,
      "emi": 348,
      "Isi": 349,
      "kulu": 350,
      "khephe": 351,
      "intambo": 352,
      "yom": 353,
      "setyenziswa": 354,
      "ano": 355,
      "gqi": 356,
      "obu": 357,
      "phum": 358,
      "inzi": 359,
      "anda": 360,
      "Le": 361,
      "loko": 362,
      "aba": 363,
      "lingan": 364,
      "oko": 365,
      "dwa": 366,
      "manzi": 367,
      "qin": 368,
      "iswe": 369,
      "me": 370,
      "onke": 371,
      "apho": 372,
      "ish": 373,
      "tshane": 374,
      "intsh": 375,
      "lom": 376,
      "fum": 377,
      "phel": 378,
      "shumi": 379,
      "eleyo": 380,
      "yen": 381,
      "sont": 382,
      "enga": 383,
      "nye": 384,
      "kufuneka": 385,
      "kakhulu": 386,
      "jikel": 387,
      "Ku": 388,
      "ri": 389,
      "kuba": 390,
      "vu": 391,
      "phi": 392,
      "amandla": 393,
      "khona": 394,
      "khosi": 395,
      "antya": 396,
      "sem": 397,
      "gama": 398,
      "imi": 399,
      "elelo": 400,
      "entambo": 401,
      "enye": 402,
      "zima": 403,
      "amanzi": 404,
      "kwin": 405,
      "ban": 406,
      "et": 407,
      "sin": 408,
      "hamba": 409,
      "gca": 410,
      "kuma": 411,
      "suka": 412,
      "jo": 413,
      "nom": 414,
      "qala": 415,
      "ch": 416,
      "ukuya": 417,
      "fan": 418,
      "cha": 419,
      "mbi": 420,
      "ngaphandle": 421,
      "wenqanawa": 422,
      "bha": 423,
      "bona": 424,
      "kokuba": 425,
      "kwindawo": 426,
      "cinci": 427,
      "re": 428,
      "woku": 429,
      "entsi": 430,
      "zom": 431,
      "lwazi": 432,
      "wom": 433,
      "kqu": 434,
      "hle": 435,
      "nto": 436,
      "zulu": 437,
      "lwandle": 438,
      "ukwen": 439,
      "soku": 440,
      "elin": 441,
      "phin": 442,
      "enziwa": 443,
      "koku": 444,
      "mo": 445,
      "Xa": 446,
      "qon": 447,
      "yesi": 448,
      "lawu": 449,
      "ro": 450,
      "ankile": 451,
      "fazwe": 452,
      "enziwe": 453,
      "zela": 454,
      "ezim": 455,
      "kelo": 456,
      "tya": 457,
      "oma": 458,
      "andela": 459,
      "Oku": 460,
      "oni": 461,
      "uma": 462,
      "amashumi": 463,
      "zeka": 464,
      "elekileyo": 465,
      "leni": 466,
      "xwe": 467,
      "aman": 468,
      "phathi": 469,
      "bun": 470,
      "Ukuba": 471,
      "sebenza": 472,
      "elwandle": 473,
      "alo": 474,
      "kwicala": 475,
      "kela": 476,
      "eya": 477,
      "ra": 478,
      "Kw": 479,
      "iya": 480,
      "dlu": 481,
      "Izi": 482,
      "bela": 483,
      "iselo": 484,
      "indlela": 485,
      "kqubo": 486,
      "bane": 487,
      "ii": 488,
      "enqanawe": 489,
      "dla": 490,
      "gu": 491,
      "singa": 492,
      "ukuze": 493,
      "ingo": 494,
      "kwezi": 495,
      "hlobo": 496,
      "zini": 497,
      "thathu": 498,
      "sontelo": 499,
      "pu": 500,
      "qela": 501,
      "bhe": 502,
      "sti": 503,
      "bam": 504,
      "lin": 505,
      "som": 506,
      "zinto": 507,
      "kwakunye": 508,
      "senqanawa": 509,
      "entsimbi": 510,
      "ukusuka": 511,
      "ena": 512,
      "bom": 513,
      "kam": 514,
      "ukun": 515,
      "tsha": 516,
      "futshane": 517,
      "co": 518,
      "lunga": 519,
      "eneyo": 520,
      "asi": 521,
      "ey": 522,
      "lisa": 523,
      "hlaba": 524,
      "iinqanawa": 525,
      "enqanaweni": 526,
      "fi": 527,
      "kukho": 528,
      "lule": 529,
      "langa": 530,
      "nezi": 531,
      "yan": 532,
      "kodwa": 533,
      "ezantsi": 534,
      "emva": 535,
      "bonaka": 536,
      "qw": 537,
      "kuku": 538,
      "elu": 539,
      "zwa": 540,
      "thile": 541,
      "gi": 542,
      "phelo": 543,
      "tsala": 544,
      "kayo": 545,
      "shu": 546,
      "tshi": 547,
      "elwano": 548,
      "seyile": 549,
      "esin": 550,
      "nesi": 551,
      "wule": 552,
      "fana": 553,
      "yaka": 554,
      "kwazi": 555,
      "ngokuba": 556,
      "lelo": 557,
      "elinye": 558,
      "xo": 559,
      "isetyenzis": 560,
      "ngama": 561,
      "xha": 562,
      "xin": 563,
      "leyo": 564,
      "masti": 565,
      "ezimbini": 566,
      "vum": 567,
      "ngom": 568,
      "ukwenzela": 569,
      "enkulu": 570,
      "ngum": 571,
      "qanawe": 572,
      "eko": 573,
      "yin": 574,
      "kwesi": 575,
      "hlan": 576,
      "khawule": 577,
      "nen": 578,
      "ta": 579,
      "ayi": 580,
      "jini": 581,
      "thanda": 582,
      "yayi": 583,
      "kwenza": 584,
      "linganiselo": 585,
      "Ezi": 586,
      "ili": 587,
      "kuyo": 588,
      "doda": 589,
      "AN": 590,
      "xe": 591,
      "isiweyo": 592,
      "zonke": 593,
      "iin": 594,
      "phela": 595,
      "jika": 596,
      "ngaphezulu": 597,
      "ntu": 598,
      "zayo": 599,
      "IS": 600,
      "benzi": 601,
      "kwizi": 602,
      "ezinye": 603,
      "Ama": 604,
      "thuthi": 605,
      "thetho": 606,
      "Int": 607,
      "ezo": 608,
      "ngoko": 609,
      "gc": 610,
      "thuba": 611,
      "hlala": 612,
      "gcina": 613,
      "zu": 614,
      "phen": 615,
      "wesi": 616,
      "00": 617,
      "ezing": 618,
      "tshini": 619,
      "tywa": 620,
      "len": 621,
      "nke": 622,
      "to": 623,
      "er": 624,
      "umbi": 625,
      "didi": 626,
      "phezu": 627,
      "fumana": 628,
      "go": 629,
      "tshintsh": 630,
      "19": 631,
      "andelo": 632,
      "diban": 633,
      "semva": 634,
      "hlanu": 635,
      "landela": 636,
      "yama": 637,
      "zem": 638,
      "anzini": 639,
      "tham": 640,
      "khom": 641,
      "khitshane": 642,
      "yis": 643,
      "zinga": 644,
      "leka": 645,
      "kaku": 646,
      "yawo": 647,
      "bel": 648,
      "kisa": 649,
      "sen": 650,
      "she": 651,
      "ono": 652,
      "ento": 653,
      "qinise": 654,
      "EN": 655,
      "bum": 656,
      "bang": 657,
      "iza": 658,
      "anj": 659,
      "wayo": 660,
      "buko": 661,
      "dity": 662,
      "ibe": 663,
      "planga": 664,
      "yane": 665,
      "zing": 666,
      "qha": 667,
      "khusele": 668,
      "gcino": 669,
      "dityan": 670,
      "zim": 671,
      "yona": 672,
      "thatha": 673,
      "cu": 674,
      "cingo": 675,
      "waka": 676,
      "beka": 677,
      "qhubi": 678,
      "KU": 679,
      "kez": 680,
      "isantya": 681,
      "rho": 682,
      "du": 683,
      "moya": 684,
      "zen": 685,
      "ngu": 686,
      "dada": 687,
      "guqu": 688,
      "qwelo": 689,
      "iim": 690,
      "lenqanawa": 691,
      "bonisa": 692,
      "bin": 693,
      "mfazwe": 694,
      "wen": 695,
      "phakam": 696,
      "nyu": 697,
      "swa": 698,
      "tyi": 699,
      "amakhulu": 700,
      "wamanzi": 701,
      "phawu": 702,
      "banzi": 703,
      "gq": 704,
      "anye": 705,
      "anki": 706,
      "kwama": 707,
      "emanzini": 708,
      "ben": 709,
      "layo": 710,
      "uny": 711,
      "xweme": 712,
      "isel": 713,
      "kwenqanawa": 714,
      "ngaphantsi": 715,
      "zekelo": 716,
      "kelela": 717,
      "soloko": 718,
      "meko": 719,
      "qondo": 720,
      "Nga": 721,
      "nzima": 722,
      "ule": 723,
      "lula": 724,
      "isikhephe": 725,
      "sebenzisa": 726,
      "bhozo": 727,
      "any": 728,
      "kwinqanawa": 729,
      "kumgangatho": 730,
      "IN": 731,
      "injini": 732,
      "ezinkulu": 733,
      "lungu": 734,
      "Inqanawa": 735,
      "kakuhle": 736,
      "elel": 737,
      "bophel": 738,
      "sesi": 739,
      "cac": 740,
      "ngena": 741,
      "phenyane": 742,
      "eke": 743,
      "umoya": 744,
      "iseko": 745,
      "ngexesha": 746,
      "biso": 747,
      "kunga": 748,
      "kude": 749,
      "balule": 750,
      "botsh": 751,
      "lilo": 752,
      "intsi": 753,
      "bizwa": 754,
      "enge": 755,
      "ema": 756,
      "fumane": 757,
      "qam": 758,
      "sisi": 759,
      "xi": 760,
      "zibe": 761,
      "bude": 762,
      "ngenxa": 763,
      "ni": 764,
      "ukum": 765,
      "intsontelo": 766,
      "khiwo": 767,
      "phumo": 768,
      "beni": 769,
      "il": 770,
      "yenqanawa": 771,
      "ngqo": 772,
      "yim": 773,
      "Im": 774,
      "cw": 775,
      "qe": 776,
      "phaya": 777,
      "Ngoku": 778,
      "khusela": 779,
      "azi": 780,
      "bant": 781,
      "nang": 782,
      "zam": 783,
      "kanga": 784,
      "khoyo": 785,
      "aye": 786,
      "ezint": 787,
      "thandathu": 788,
      "inqanawe": 789,
      "bulu": 790,
      "jikeleza": 791,
      "nem": 792,
      "thint": 793,
      "caleni": 794,
      "isebenzi": 795,
      "okokuba": 796,
      "enxe": 797,
      "lobo": 798,
      "eleka": 799,
      "iseyile": 800,
      "intshi": 801,
      "candelo": 802,
      "icala": 803,
      "nama": 804,
      "yela": 805,
      "khw": 806,
      "funa": 807,
      "xhenxe": 808,
      "landelayo": 809,
      "Imi": 810,
      "bisa": 811,
      "sing": 812,
      "vel": 813,
      "kulung": 814,
      "kwim": 815,
      "thwala": 816,
      "njalo": 817,
      "jong": 818,
      "qond": 819,
      "kube": 820,
      "kham": 821,
      "kwamanzi": 822,
      "khawuleza": 823,
      "bantu": 824,
      "ip": 825,
      "qwa": 826,
      "phini": 827,
      "ezininzi": 828,
      "cedo": 829,
      "pahla": 830,
      "faniso": 831,
      "bunzima": 832,
      "isetyenziswa": 833,
      "kuphela": 834,
      "ngez": 835,
      "kelwe": 836,
      "linye": 837,
      "zezi": 838,
      "las": 839,
      "umthwalo": 840,
      "phatha": 841,
      "qhina": 842,
      "ange": 843,
      "qhuba": 844,
      "botshel": 845,
      "cam": 846,
      "izinto": 847,
      "waye": 848,
      "khon": 849,
      "amabini": 850,
      "bili": 851,
      "funeko": 852,
      "chule": 853,
      "iye": 854,
      "ixesha": 855,
      "zantsi": 856,
      "anesi": 857,
      "zazi": 858,
      "hluk": 859,
      "ngesi": 860,
      "loshe": 861,
      "ngaphambili": 862,
      "qhelekileyo": 863,
      "tiloshe": 864,
      "fle": 865,
      "yanga": 866,
      "zama": 867,
      "anya": 868,
      "thwe": 869,
      "yezi": 870,
      "kwenzeka": 871,
      "elinesi": 872,
      "18": 873,
      "EL": 874,
      "gumbi": 875,
      "qesh": 876,
      "yalelo": 877,
      "bhobho": 878,
      "jikelele": 879,
      "bamba": 880,
      "deli": 881,
      "nokuba": 882,
      "lala": 883,
      "lwen": 884,
      "pheleleyo": 885,
      "boku": 886,
      "suku": 887,
      "yaye": 888,
      "kwimi": 889,
      "swe": 890,
      "santya": 891,
      "zelelo": 892,
      "kufutshane": 893,
      "ngam": 894,
      "phina": 895,
      "kwenziwa": 896,
      "angqa": 897,
      "qhube": 898,
      "zinye": 899,
      "ango": 900,
      "lungileyo": 901,
      "khiwa": 902,
      "Ngoko": 903,
      "WA": 904,
      "kisi": 905,
      "land": 906,
      "mandla": 907,
      "ziya": 908,
      "uni": 909,
      "ingatha": 910,
      "khuselo": 911,
      "onto": 912,
      "vule": 913,
      "athu": 914,
      "hambo": 915,
      "kiso": 916,
      "zesi": 917,
      "kanani": 918,
      "angc": 919,
      "xhom": 920,
      "dibanisa": 921,
      "ay": 922,
      "po": 923,
      "kwan": 924,
      "kwis": 925,
      "kon": 926,
      "kunene": 927,
      "yokuba": 928,
      "phinda": 929,
      "flegi": 930,
      "qingatha": 931,
      "kweni": 932,
      "rhwe": 933,
      "njenge": 934,
      "xhomeke": 935,
      ").": 936,
      "ila": 937,
      "lis": 938,
      "nanga": 939,
      "tanki": 940,
      "ngileyo": 941,
      "malunga": 942,
      "dala": 943,
      "lwesi": 944,
      "cinane": 945,
      "je": 946,
      "lisi": 947,
      "kuzo": 948,
      "yayo": 949,
      "umsebenzi": 950,
      "ngaphaya": 951,
      "tshona": 952,
      "dib": 953,
      "engo": 954,
      "hlang": 955,
      "ishumi": 956,
      "oy": 957,
      "isonto": 958,
      "shushu": 959,
      "fanayo": 960,
      "xinzelelo": 961,
      "dubu": 962,
      "nk": 963,
      "sinye": 964,
      "yam": 965,
      "zeli": 966,
      "ino": 967,
      "elela": 968,
      "bala": 969,
      "kwili": 970,
      "kwem": 971,
      "bhu": 972,
      "esantya": 973,
      "lingana": 974,
      "lawula": 975,
      "ezinga": 976,
      "ngaba": 977,
      "enti": 978,
      "etro": 979,
      "fanele": 980,
      "iintambo": 981,
      "liswa": 982,
      "selwandle": 983,
      "ngon": 984,
      "lesi": 985,
      "koko": 986,
      "hlisa": 987,
      "sontela": 988,
      "etoni": 989,
      "cwangc": 990,
      "qondiso": 991,
      "PH": 992,
      "kulo": 993,
      "ngaphakathi": 994,
      "kwakhona": 995,
      "eziyi": 996,
      "imo": 997,
      "lwezi": 998,
      "elweyo": 999,
      "lawulo": 1000,
      "aku": 1001,
      "dini": 1002,
      "or": 1003,
      "kuthi": 1004,
      "zibuko": 1005,
      "ngezi": 1006,
      "ngakanani": 1007,
      "yithi": 1008,
      "khuseleko": 1009,
      "bophelela": 1010,
      "ndlela": 1011,
      "ru": 1012,
      "vili": 1013,
      "thelo": 1014,
      "vav": 1015,
      "nje": 1016,
      "funekayo": 1017,
      "Indawo": 1018,
      "khuseli": 1019,
      "gqibela": 1020,
      "qeqesh": 1021,
      "qwalas": 1022,
      "Ma": 1023,
      "meni": 1024,
      "eling": 1025,
      "ngx": 1026,
      "ngamandla": 1027,
      "umva": 1028,
      "buchule": 1029,
      "ulum": 1030,
      "kwemi": 1031,
      "thetha": 1032,
      "xwemeni": 1033,
      "qamle": 1034,
      "hlukeneyo": 1035,
      "Ii": 1036,
      "kele": 1037,
      "ndawo": 1038,
      "tye": 1039,
      "inyaka": 1040,
      "yonke": 1041,
      "sekunene": 1042,
      "bekwe": 1043,
      "Ngo": 1044,
      "ukwenza": 1045,
      "nemi": 1046,
      "vela": 1047,
      "yani": 1048,
      "elun": 1049,
      "kazi": 1050,
      "ngokukhawuleza": 1051,
      "lwenqanawa": 1052,
      "qhutywa": 1053,
      "phuma": 1054,
      "DIS": 1055,
      "Kwa": 1056,
      "disa": 1057,
      "jalo": 1058,
      "wenqanawe": 1059,
      "umzekelo": 1060,
      "bekwa": 1061,
      "ngendlela": 1062,
      "pawu": 1063,
      "yentsimbi": 1064,
      "kwelinye": 1065,
      "ukumo": 1066,
      "daweni": 1067,
      "sasa": 1068,
      "xabiso": 1069,
      "bhodi": 1070,
      "rhwebo": 1071,
      "Ba": 1072,
      "dwe": 1073,
      "uya": 1074,
      "yaba": 1075,
      "ond": 1076,
      "kwayo": 1077,
      "amaxesha": 1078,
      "mayi": 1079,
      "izixhobo": 1080,
      "qinileyo": 1081,
      "AM": 1082,
      "EE": 1083,
      "lelwa": 1084,
      "qum": 1085,
      "zizi": 1086,
      "thweni": 1087,
      "lum": 1088,
      "entsontelo": 1089,
      "angeni": 1090,
      "thoba": 1091,
      "quka": 1092,
      "phunga": 1093,
      "elele": 1094,
      "nganye": 1095,
      "asixhenxe": 1096,
      "nyusa": 1097,
      "elunxwemeni": 1098,
      "Na": 1099,
      "gam": 1100,
      "ung": 1101,
      "yem": 1102,
      "ombu": 1103,
      "amathathu": 1104,
      "kumele": 1105,
      "ceda": 1106,
      "tyaba": 1107,
      "qhubeke": 1108,
      "lama": 1109,
      "liso": 1110,
      "wama": 1111,
      "zileyo": 1112,
      "balwa": 1113,
      "bomi": 1114,
      "bukhulu": 1115,
      "kang": 1116,
      "intloko": 1117,
      "ingi": 1118,
      "entla": 1119,
      "xaki": 1120,
      "kumbi": 1121,
      "rhint": 1122,
      "kwindlela": 1123,
      "bangela": 1124,
      "kis": 1125,
      "ngenqanawa": 1126,
      "leko": 1127,
      "ngozi": 1128,
      "hlas": 1129,
      "gqibel": 1130,
      "intsika": 1131,
      "joni": 1132,
      "andi": 1133,
      "funyan": 1134,
      "kwenye": 1135,
      "khupha": 1136,
      "rhu": 1137,
      "bonakala": 1138,
      "Kh": 1139,
      "gwe": 1140,
      "mva": 1141,
      "oyile": 1142,
      "zelwe": 1143,
      "anisa": 1144,
      "thele": 1145,
      "zaku": 1146,
      "omnye": 1147,
      "ngayo": 1148,
      "ezibu": 1149,
      "bhombu": 1150,
      "khohlo": 1151,
      "engile": 1152,
      "imeko": 1153,
      "lwayo": 1154,
      "esinye": 1155,
      "khiwe": 1156,
      "vumela": 1157,
      "gcisa": 1158,
      "zemfazwe": 1159,
      "eyi": 1160,
      "us": 1161,
      "yish": 1162,
      "zisa": 1163,
      "besi": 1164,
      "fakwe": 1165,
      "entsika": 1166,
      "fumaneka": 1167,
      "yimfuneko": 1168,
      "lise": 1169,
      "sis": 1170,
      "wana": 1171,
      "xenye": 1172,
      "endaweni": 1173,
      "ngem": 1174,
      "yemi": 1175,
      "shi": 1176,
      "umntu": 1177,
      "eze": 1178,
      "seku": 1179,
      "omkhulu": 1180,
      "kwam": 1181,
      "qhele": 1182,
      "angoko": 1183,
      "amanye": 1184,
      "bombo": 1185,
      "NG": 1186,
      "eyo": 1187,
      "of": 1188,
      "unga": 1189,
      "enyawo": 1190,
      "yay": 1191,
      "khongo": 1192,
      "kiweyo": 1193,
      "qhagam": 1194,
      "ecaleni": 1195,
      "ve": 1196,
      "elanga": 1197,
      "thutha": 1198,
      "dekhi": 1199,
      "lungisel": 1200,
      "hlenga": 1201,
      "omatiloshe": 1202,
      "qinisekisa": 1203,
      "bindini": 1204,
      "khongozeli": 1205,
      "Bri": 1206,
      "keni": 1207,
      "zemi": 1208,
      "anyo": 1209,
      "eleni": 1210,
      "kwaku": 1211,
      "unya": 1212,
      "ente": 1213,
      "kelwa": 1214,
      "lungisa": 1215,
      "ubude": 1216,
      "amaninzi": 1217,
      "ANA": 1218,
      "khamandela": 1219,
      "xhomekeke": 1220,
      "oyeni": 1221,
      "nkqo": 1222,
      "qhagamsh": 1223,
      "Do": 1224,
      "ika": 1225,
      "ja": 1226,
      "pum": 1227,
      "ine": 1228,
      "seben": 1229,
      "yuka": 1230,
      "yusa": 1231,
      "ubunzima": 1232,
      "omatshini": 1233,
      "Igama": 1234,
      "Zi": 1235,
      "ebu": 1236,
      "nqanawa": 1237,
      "nezinye": 1238,
      "kule": 1239,
      "elana": 1240,
      "kalo": 1241,
      "yase": 1242,
      "lon": 1243,
      "ngalinye": 1244,
      "entloko": 1245,
      "valo": 1246,
      "yokuqala": 1247,
      "khitsh": 1248,
      "Inkqubo": 1249,
      "khompa": 1250,
      "cacileyo": 1251,
      "20": 1252,
      "Eku": 1253,
      "SA": 1254,
      "bileyo": 1255,
      "ig": 1256,
      "lelwe": 1257,
      "wanga": 1258,
      "zenqanawa": 1259,
      "kubu": 1260,
      "lahle": 1261,
      "sho": 1262,
      "kwii": 1263,
      "kwenkwezi": 1264,
      "ezine": 1265,
      "khutsh": 1266,
      "fakwa": 1267,
      "njengokuba": 1268,
      "sine": 1269,
      "jongo": 1270,
      "hlabathi": 1271,
      "eba": 1272,
      "elis": 1273,
      "ngeli": 1274,
      "ngasemva": 1275,
      "tshaba": 1276,
      "anti": 1277,
      "olun": 1278,
      "esis": 1279,
      "xhoty": 1280,
      "Indlela": 1281,
      "zombini": 1282,
      "ingozi": 1283,
      "xhasa": 1284,
      "dadayo": 1285,
      "QANA": 1286,
      "ZI": 1287,
      "cwa": 1288,
      "cono": 1289,
      "liswe": 1290,
      "pe": 1291,
      "qanda": 1292,
      "lobu": 1293,
      "zathu": 1294,
      "kumphambili": 1295,
      "ezincinci": 1296,
      "gqith": 1297,
      "chaza": 1298,
      "xokel": 1299,
      "Intambo": 1300,
      "bindi": 1301,
      "balulekileyo": 1302,
      "rhintyela": 1303,
      "TH": 1304,
      "banga": 1305,
      "esa": 1306,
      "ethile": 1307,
      "rha": 1308,
      "senqanawe": 1309,
      "zentsimbi": 1310,
      "umgangatho": 1311,
      "ngaphezu": 1312,
      "kuno": 1313,
      "thutho": 1314,
      "khulule": 1315,
      "fakelwe": 1316,
      "yutha": 1317,
      "ethi": 1318,
      "pyutha": 1319,
      "wonke": 1320,
      "kwisa": 1321,
      "kwane": 1322,
      "funo": 1323,
      "thotho": 1324,
      "qoqo": 1325,
      "Kufuneka": 1326,
      "yisha": 1327,
      "bumbulu": 1328,
      "BO": 1329,
      "Ubu": 1330,
      "benqanawa": 1331,
      "cing": 1332,
      "lele": 1333,
      "wane": 1334,
      "xulum": 1335,
      "eno": 1336,
      "enoku": 1337,
      "ende": 1338,
      "thum": 1339,
      "kwexesha": 1340,
      "sebenzis": 1341,
      "lungele": 1342,
      "hluko": 1343,
      "linganisa": 1344,
      "asibhozo": 1345,
      "ezintathu": 1346,
      "thintela": 1347,
      "botshelelwa": 1348,
      "etroli": 1349,
      "funyanwa": 1350,
      "pumelelo": 1351,
      "Wa": 1352,
      "abantu": 1353,
      "jelo": 1354,
      "pi": 1355,
      "sele": 1356,
      "tyo": 1357,
      "kuqala": 1358,
      "wase": 1359,
      "ngeza": 1360,
      "iselwe": 1361,
      "layisha": 1362,
      "ezinto": 1363,
      "mazi": 1364,
      "intlobo": 1365,
      "ngokupheleleyo": 1366,
      "kumgca": 1367,
      "setyenziselwa": 1368,
      "ishi": 1369,
      "lomoya": 1370,
      "jikelezi": 1371,
      "dlula": 1372,
      "engozi": 1373,
      "cwangciso": 1374,
      "Aba": 1375,
      "SI": 1376,
      "gx": 1377,
      "onga": 1378,
      "te": 1379,
      "ulwa": 1380,
      "wele": 1381,
      "zelwa": 1382,
      "kung": 1383,
      "aniso": 1384,
      "anamashumi": 1385,
      "elinga": 1386,
      "encinci": 1387,
      "wezi": 1388,
      "amane": 1389,
      "bayo": 1390,
      "kwintambo": 1391,
      "ukusu": 1392,
      "kwazo": 1393,
      "matshini": 1394,
      "ingx": 1395,
      "lwama": 1396,
      "thung": 1397,
      "Isixhobo": 1398,
      "ezibukweni": 1399,
      "UKU": 1400,
      "eka": 1401,
      "fane": 1402,
      "jeng": 1403,
      "linga": 1404,
      "owa": 1405,
      "wi": 1406,
      "zange": 1407,
      "isela": 1408,
      "yemfazwe": 1409,
      "babe": 1410,
      "ukuzi": 1411,
      "shish": 1412,
      "mali": 1413,
      "isiwe": 1414,
      "isixhobo": 1415,
      "kwiinqanawa": 1416,
      "qaleni": 1417,
      "bonda": 1418,
      "pheleni": 1419,
      "khweli": 1420,
      "botshelelwe": 1421,
      "ngonyaka": 1422,
      "qeqesho": 1423,
      "QANAWA": 1424,
      "xokelelwano": 1425,
      "Li": 1426,
      "Lo": 1427,
      "esetyenziswa": 1428,
      "pem": 1429,
      "uko": 1430,
      "inoku": 1431,
      "endawo": 1432,
      "ziwa": 1433,
      "ngentambo": 1434,
      "layish": 1435,
      "dabi": 1436,
      "ingqi": 1437,
      "elizayo": 1438,
      "naku": 1439,
      "lweni": 1440,
      "donga": 1441,
      "phetho": 1442,
      "khuselekileyo": 1443,
      "tsalwa": 1444,
      "gcinwe": 1445,
      "yenzeka": 1446,
      "sonto": 1447,
      "phiko": 1448,
      "000": 1449,
      "ngamnye": 1450,
      "dubula": 1451,
      "qoqosho": 1452,
      "Emva": 1453,
      "Ko": 1454,
      "LA": 1455,
      "UM": 1456,
      "YO": 1457,
      "belelo": 1458,
      "kru": 1459,
      "st": 1460,
      "sangqa": 1461,
      "yenza": 1462,
      "iselwa": 1463,
      "yokun": 1464,
      "andu": 1465,
      "amahlanu": 1466,
      "kani": 1467,
      "yilo": 1468,
      "ezinoku": 1469,
      "yure": 1470,
      "setyenziswe": 1471,
      "gangathweni": 1472,
      "ciph": 1473,
      "ubun": 1474,
      "jonga": 1475,
      "cho": 1476,
      "yesibini": 1477,
      "bhek": 1478,
      "tshintsho": 1479,
      "dityanisiweyo": 1480,
      "tyibili": 1481,
      "kulungwane": 1482,
      "al": 1483,
      "imasti": 1484,
      "jinga": 1485,
      "lenge": 1486,
      "sezantsi": 1487,
      "ube": 1488,
      "ving": 1489,
      "yenziwe": 1490,
      "kuya": 1491,
      "lun": 1492,
      "sika": 1493,
      "umgca": 1494,
      "kwaba": 1495,
      "isiphelo": 1496,
      "ngokun": 1497,
      "kumisa": 1498,
      "olunye": 1499,
      "lungelel": 1500,
      "imithwalo": 1501,
      "jonge": 1502,
      "chapha": 1503,
      "modeli": 1504,
      "kezela": 1505,
      "vulekileyo": 1506,
      "thotholo": 1507,
      "KH": 1508,
      "ehamba": 1509,
      "ow": 1510,
      "twa": 1511,
      "wano": 1512,
      "enk": 1513,
      "sekhohlo": 1514,
      "tsho": 1515,
      "esing": 1516,
      "doqo": 1517,
      "noko": 1518,
      "Ngen": 1519,
      "khaphu": 1520,
      "fuphi": 1521,
      "intsimbi": 1522,
      "konzo": 1523,
      "gqibeleni": 1524,
      "DoD": 1525,
      "Enye": 1526,
      "Mkhosi": 1527,
      "ep": 1528,
      "ethe": 1529,
      "iba": 1530,
      "pom": 1531,
      "qulu": 1532,
      "ringi": 1533,
      "siseko": 1534,
      "uhlobo": 1535,
      "iselelo": 1536,
      "latha": 1537,
      "anayo": 1538,
      "zala": 1539,
      "kwakhiwa": 1540,
      "amacala": 1541,
      "amadoda": 1542,
      "thim": 1543,
      "fundo": 1544,
      "isoloko": 1545,
      "esinga": 1546,
      "lwem": 1547,
      "bhokisi": 1548,
      "hambe": 1549,
      "kumacala": 1550,
      "mozulu": 1551,
      "bunzulu": 1552,
      "giye": 1553,
      "dityaniswe": 1554,
      "thwekhi": 1555,
      "vavanyo": 1556,
      "LE": 1557,
      "Nang": 1558,
      "fo": 1559,
      "ib": 1560,
      "iqela": 1561,
      "lini": 1562,
      "lane": 1563,
      "uka": 1564,
      "wel": 1565,
      "ywa": 1566,
      "leyi": 1567,
      "lasi": 1568,
      "kali": 1569,
      "umphathi": 1570,
      "isikhitshane": 1571,
      "kwixesha": 1572,
      "phathwa": 1573,
      "thathe": 1574,
      "thathwa": 1575,
      "tywe": 1576,
      "kumva": 1577,
      "kwenene": 1578,
      "phambu": 1579,
      "qhubela": 1580,
      "hambi": 1581,
      "ced": 1582,
      "pasi": 1583,
      "kqubela": 1584,
      "fika": 1585,
      "nendawo": 1586,
      "phakamileyo": 1587,
      "khitshana": 1588,
      "shishino": 1589,
      "OKU": 1590,
      "Un": 1591,
      "ali": 1592,
      "ong": 1593,
      "zeni": 1594,
      "kuza": 1595,
      "yakhe": 1596,
      "ukufumana": 1597,
      "kolwandle": 1598,
      "zabo": 1599,
      "zazo": 1600,
      "kancinci": 1601,
      "intsontela": 1602,
      "kwimeko": 1603,
      "kunoku": 1604,
      "yiphi": 1605,
      "kwezinye": 1606,
      "angaphambili": 1607,
      "nazo": 1608,
      "ngokuthe": 1609,
      "kumsebenzi": 1610,
      "ngo19": 1611,
      "yokutsala": 1612,
      "lwemi": 1613,
      "nee": 1614,
      "khatha": 1615,
      "fanelekileyo": 1616,
      "phinde": 1617,
      "elungileyo": 1618,
      "unyelwa": 1619,
      "giyeri": 1620,
      "15": 1621,
      "Imodeli": 1622,
      "Olu": 1623,
      "Ya": 1624,
      "ar": 1625,
      "dl": 1626,
      "nes": 1627,
      "vo": 1628,
      "yisa": 1629,
      "anoku": 1630,
      "ngamanzi": 1631,
      "khang": 1632,
      "khuni": 1633,
      "lem": 1634,
      "lasekunene": 1635,
      "bugcisa": 1636,
      "emoyeni": 1637,
      "phathe": 1638,
      "esikhulu": 1639,
      "bhi": 1640,
      "ngokunga": 1641,
      "qho": 1642,
      "qhel": 1643,
      "onakalo": 1644,
      "hlula": 1645,
      "boniso": 1646,
      "njengoko": 1647,
      "kwisiqu": 1648,
      "phindwe": 1649,
      "yanz": 1650,
      "tshintsha": 1651,
      "zinge": 1652,
      "rhoxa": 1653,
      "dibana": 1654,
      "Kodwa": 1655,
      "Nangona": 1656,
      "Eli": 1657,
      "Ezinye": 1658,
      "Fr": 1659,
      "Uko": 1660,
      "benza": 1661,
      "cwe": 1662,
      "dulu": 1663,
      "eetoni": 1664,
      "hu": 1665,
      "iindawo": 1666,
      "ophezulu": 1667,
      "sini": 1668,
      "inkqubo": 1669,
      "nges": 1670,
      "ngemi": 1671,
      "kwing": 1672,
      "ukugcina": 1673,
      "gaqo": 1674,
      "angoku": 1675,
      "ngokwan": 1676,
      "zinzo": 1677,
      "tsalo": 1678,
      "bonke": 1679,
      "emibini": 1680,
      "phumela": 1681,
      "jikeleze": 1682,
      "omathotholo": 1683,
      "lind": 1684,
      "izaku": 1685,
      "khampasi": 1686,
      "Brit": 1687,
      "bhekisel": 1688,
      "buku": 1689,
      "ek": 1690,
      "he": 1691,
      "hanj": 1692,
      "leli": 1693,
      "vi": 1694,
      "zez": 1695,
      "zint": 1696,
      "theng": 1697,
      "isen": 1698,
      "yocingo": 1699,
      "khanya": 1700,
      "siya": 1701,
      "kwisantya": 1702,
      "yazo": 1703,
      "umo": 1704,
      "ando": 1705,
      "omn": 1706,
      "dalo": 1707,
      "kuna": 1708,
      "esiphezulu": 1709,
      "tyw": 1710,
      "yokubophelela": 1711,
      "ezinzima": 1712,
      "eshumi": 1713,
      "khula": 1714,
      "qongileyo": 1715,
      "khuselwe": 1716,
      "hlulo": 1717,
      "intsha": 1718,
      "chas": 1719,
      "thambe": 1720,
      "pembelelo": 1721,
      "Iinqanawa": 1722,
      "Iqela": 1723,
      "Tambo": 1724,
      "WE": 1725,
      "Zonke": 1726,
      "banda": 1727,
      "jwa": 1728,
      "kro": 1729,
      "ying": 1730,
      "yinqanawa": 1731,
      "indoda": 1732,
      "enom": 1733,
      "kwentambo": 1734,
      "ukuyi": 1735,
      "liya": 1736,
      "zaba": 1737,
      "amawaka": 1738,
      "tshe": 1739,
      "naba": 1740,
      "engena": 1741,
      "thula": 1742,
      "ngokom": 1743,
      "olung": 1744,
      "kwendlela": 1745,
      "qaba": 1746,
      "faka": 1747,
      "kiyo": 1748,
      "pali": 1749,
      "linganiso": 1750,
      "intshukumo": 1751,
      "kubalule": 1752,
      "fikelela": 1753,
      "rhoqo": 1754,
      "nangona": 1755,
      "bululo": 1756,
      "khonkwane": 1757,
      "kuthiwa": 1758,
      "qhubekeka": 1759,
      "krufu": 1760,
      "pompo": 1761,
      "ngokwaneleyo": 1762,
      "'.": 1763,
      "10": 1764,
      "12": 1765,
      "Kum": 1766,
      "iflegi": 1767,
      "keli": 1768,
      "lan": 1769,
      "olw": 1770,
      "son": 1771,
      "tsi": 1772,
      "yamanzi": 1773,
      "zibu": 1774,
      "thela": 1775,
      "thini": 1776,
      "theni": 1777,
      "les": 1778,
      "ukusetyenziswa": 1779,
      "ukusebenza": 1780,
      "sha": 1781,
      "umphunga": 1782,
      "lika": 1783,
      "emo": 1784,
      "embindini": 1785,
      "kuni": 1786,
      "ngokwe": 1787,
      "hlabeni": 1788,
      "qubu": 1789,
      "ekupheleni": 1790,
      "ezahlukeneyo": 1791,
      "abasebenzi": 1792,
      "lawuli": 1793,
      "buninzi": 1794,
      "linamakhulu": 1795,
      "xeba": 1796,
      "gophe": 1797,
      "kezelwa": 1798,
      "zamo": 1799,
      "veliso": 1800,
      "IEE": 1801,
      "La": 1802,
      "Lento": 1803,
      "OM": 1804,
      "azin": 1805,
      "akukho": 1806,
      "eb": 1807,
      "endlela": 1808,
      "thand": 1809,
      "thanga": 1810,
      "isin": 1811,
      "lonke": 1812,
      "maka": 1813,
      "uno": 1814,
      "undoqo": 1815,
      "tshey": 1816,
      "xake": 1817,
      "khokelela": 1818,
      "ngokuthi": 1819,
      "engq": 1820,
      "impahla": 1821,
      "qaku": 1822,
      "lwana": 1823,
      "ngekho": 1824,
      "njani": 1825,
      "xeshana": 1826,
      "nobu": 1827,
      "gcinwa": 1828,
      "engaphambili": 1829,
      "phindi": 1830,
      "isetyenziswe": 1831,
      "isetyenziselwa": 1832,
      "thandabu": 1833,
      "khompyutha": 1834,
      "phakamisa": 1835,
      "gquma": 1836,
      "singqongileyo": 1837,
      "imodeli": 1838,
      "qumla": 1839,
      "Fren": 1840,
      "IEEE": 1841,
      "Ing": 1842,
      "Into": 1843,
      "YE": 1844,
      "ese": 1845,
      "iphenyane": 1846,
      "kiswa": 1847,
      "lenye": 1848,
      "lento": 1849,
      "man": 1850,
      "sond": 1851,
      "tu": 1852,
      "kufuphi": 1853,
      "inqwelo": 1854,
      "khany": 1855,
      "lezo": 1856,
      "lemi": 1857,
      "balo": 1858,
      "kala": 1859,
      "kabini": 1860,
      "umbu": 1861,
      "ngalo": 1862,
      "ngasinye": 1863,
      "kany": 1864,
      "kanun": 1865,
      "enzima": 1866,
      "kunjalo": 1867,
      "yimi": 1868,
      "tshukumo": 1869,
      "elide": 1870,
      "nase": 1871,
      "xalenye": 1872,
      "khokelo": 1873,
      "ime": 1874,
      "khulula": 1875,
      "esisi": 1876,
      "kelele": 1877,
      "izikhephe": 1878,
      "tsalane": 1879,
      "njengo": 1880,
      "kwisiphelo": 1881,
      "yomkhosi": 1882,
      "andathu": 1883,
      "kelayo": 1884,
      "Izixhobo": 1885,
      "eyenziwe": 1886,
      "xinwa": 1887,
      "zuzu": 1888,
      "zimba": 1889,
      "balulekile": 1890,
      "ngezel": 1891,
      "qhagamshelwano": 1892,
      "khompathim": 1893,
      "vingco": 1894,
      "Ngenxa": 1895,
      "Njeng": 1896,
      "gqa": 1897,
      "kama": 1898,
      "lishumi": 1899,
      "non": 1900,
      "nenqanawa": 1901,
      "odadayo": 1902,
      "pla": 1903,
      "ywe": 1904,
      "waba": 1905,
      "khuku": 1906,
      "leseyile": 1907,
      "ukukhusela": 1908,
      "seseyile": 1909,
      "liwe": 1910,
      "liti": 1911,
      "lileyo": 1912,
      "ezibini": 1913,
      "uncedo": 1914,
      "kwiindawo": 1915,
      "antse": 1916,
      "imisonto": 1917,
      "ngokwa": 1918,
      "kwendawo": 1919,
      "jiko": 1920,
      "Nge": 1921,
      "khaya": 1922,
      "zinoku": 1923,
      "njengom": 1924,
      "chazwa": 1925,
      "tyala": 1926,
      "sebenzayo": 1927,
      "tshati": 1928,
      "eyint": 1929,
      "anjalo": 1930,
      "leyiti": 1931,
      "bhekiselele": 1932,
      "khompathimenti": 1933,
      "50": 1934,
      "KA": 1935,
      "Yayi": 1936,
      "alu": 1937,
      "apha": 1938,
      "bile": 1939,
      "bama": 1940,
      "bani": 1941,
      "ephezulu": 1942,
      "fom": 1943,
      "fim": 1944,
      "gesi": 1945,
      "mbombo": 1946,
      "pani": 1947,
      "ugcino": 1948,
      "xandu": 1949,
      "yentambo": 1950,
      "yenziwa": 1951,
      "zweni": 1952,
      "eleli": 1953,
      "wakhe": 1954,
      "zika": 1955,
      "them": 1956,
      "thiso": 1957,
      "yeenqanawa": 1958,
      "kona": 1959,
      "one": 1960,
      "liweyo": 1961,
      "ezithile": 1962,
      "amathandathu": 1963,
      "kwesinye": 1964,
      "tyha": 1965,
      "khululo": 1966,
      "ingakumbi": 1967,
      "lungiswa": 1968,
      "lungiselelo": 1969,
      "doko": 1970,
      "khethe": 1971,
      "qonga": 1972,
      "Umgca": 1973,
      "Ngesi": 1974,
      "hlophe": 1975,
      "cedisa": 1976,
      "bonwa": 1977,
      "lomthwalo": 1978,
      "elung": 1979,
      "nendlela": 1980,
      "ENQANAWA": 1981,
      "zibekwe": 1982,
      "velisa": 1983,
      "ngxuma": 1984,
      "Frentshi": 1985,
      "xanduva": 1986,
      "DA": 1987,
      "IM": 1988,
      "bezi": 1989,
      "bisi": 1990,
      "bambo": 1991,
      "ebe": 1992,
      "eyona": 1993,
      "ge": 1994,
      "iing": 1995,
      "jwe": 1996,
      "nent": 1997,
      "olo": 1998,
      "olwa": 1999,
      "sentambo": 2000,
      "ter": 2001,
      "uye": 2002,
      "yini": 2003,
      "zelo": 2004,
      "zona": 2005,
      "kuwo": 2006,
      "kukuba": 2007,
      "kubude": 2008,
      "eleleyo": 2009,
      "enama": 2010,
      "ngezantsi": 2011,
      "ngemva": 2012,
      "ngesantya": 2013,
      "wekhulu": 2014,
      "yon": 2015,
      "laba": 2016,
      "sibe": 2017,
      "baleka": 2018,
      "kwano": 2019,
      "yayin": 2020,
      "umkhosi": 2021,
      "umgama": 2022,
      "omoya": 2023,
      "ombululo": 2024,
      "ulung": 2025,
      "emgangathweni": 2026,
      "emhlabeni": 2027,
      "phakany": 2028,
      "kune": 2029,
      "beko": 2030,
      "beenqanawa": 2031,
      "wolwandle": 2032,
      "elika": 2033,
      "bhet": 2034,
      "zorhwebo": 2035,
      "imisebenzi": 2036,
      "qula": 2037,
      "lwanga": 2038,
      "dokisi": 2039,
      "pheke": 2040,
      "hlulwe": 2041,
      "komgca": 2042,
      "zokulwa": 2043,
      "Isiphelo": 2044,
      "gqitha": 2045,
      "yenze": 2046,
      "bhaka": 2047,
      "eyayi": 2048,
      "iyaku": 2049,
      "ukunika": 2050,
      "bonakalisa": 2051,
      "esine": 2052,
      "xhaka": 2053,
      "vumelwano": 2054,
      "ezingamashumi": 2055,
      "zenze": 2056,
      "ezintandathu": 2057,
      "tshabala": 2058,
      "Eyona": 2059,
      "Isa": 2060,
      "LO": 2061,
      "LU": 2062,
      "MS": 2063,
      "Si": 2064,
      "at": 2065,
      "bana": 2066,
      "bemi": 2067,
      "iint": 2068,
      "jani": 2069,
      "keleyo": 2070,
      "lanzi": 2071,
      "neng": 2072,
      "oli": 2073,
      "pon": 2074,
      "puma": 2075,
      "tso": 2076,
      "ula": 2077,
      "usi": 2078,
      "uza": 2079,
      "ulwazi": 2080,
      "wela": 2081,
      "kusetyenziswa": 2082,
      "elise": 2083,
      "ziye": 2084,
      "ziswa": 2085,
      "ziphatha": 2086,
      "iseni": 2087,
      "phantse": 2088,
      "wem": 2089,
      "khelo": 2090,
      "kwintsontelo": 2091,
      "kwintsika": 2092,
      "kwangoko": 2093,
      "ukunga": 2094,
      "gada": 2095,
      "ezisetyenziswa": 2096,
      "undu": 2097,
      "phatho": 2098,
      "sayo": 2099,
      "esim": 2100,
      "elim": 2101,
      "qhelo": 2102,
      "lwamanzi": 2103,
      "kumlinganiselo": 2104,
      "olukhulu": 2105,
      "yokuhlala": 2106,
      "kelelo": 2107,
      "thwathwa": 2108,
      "neem": 2109,
      "phethe": 2110,
      "qhush": 2111,
      "Umsebenzi": 2112,
      "susa": 2113,
      "hlulwa": 2114,
      "bonelelo": 2115,
      "pazamo": 2116,
      "gqitywa": 2117,
      "phumelela": 2118,
      "qinisa": 2119,
      "sinyithi": 2120,
      "kumashumi": 2121,
      "nomoya": 2122,
      "gcwa": 2123,
      "thamo": 2124,
      "bume": 2125,
      "anesihlanu": 2126,
      "vulekile": 2127,
      "cwadi": 2128,
      "fanekiso": 2129,
      "kanunu": 2130,
      "Iin": 2131,
      "Nokuba": 2132,
      "aka": 2133,
      "bem": 2134,
      "ekanye": 2135,
      "ephakathi": 2136,
      "fe": 2137,
      "lokuba": 2138,
      "sentla": 2139,
      "tim": 2140,
      "tra": 2141,
      "wun": 2142,
      "wona": 2143,
      "yeng": 2144,
      "zon": 2145,
      "ininzi": 2146,
      "elisa": 2147,
      "elisetyenziswa": 2148,
      "enx": 2149,
      "zisetyenziswa": 2150,
      "thandelo": 2151,
      "yokwenza": 2152,
      "laphu": 2153,
      "ukuhamba": 2154,
      "ukusebenzisa": 2155,
      "shiye": 2156,
      "kolo": 2157,
      "ezintsha": 2158,
      "andisa": 2159,
      "kwakha": 2160,
      "amalungu": 2161,
      "eleko": 2162,
      "bikho": 2163,
      "yiphina": 2164,
      "thath": 2165,
      "kumphezulu": 2166,
      "lweenqanawa": 2167,
      "cinez": 2168,
      "lunganga": 2169,
      "njl": 2170,
      "fakelo": 2171,
      "qhuty": 2172,
      "qhutyo": 2173,
      "Umzekelo": 2174,
      "khala": 2175,
      "hlukileyo": 2176,
      "rhe": 2177,
      "phucu": 2178,
      "komgangatho": 2179,
      "lokuqala": 2180,
      "banye": 2181,
      "kumazibuko": 2182,
      "amanani": 2183,
      "dlulis": 2184,
      "bomvu": 2185,
      "elula": 2186,
      "dityaniswa": 2187,
      "Ngaphandle": 2188,
      "anyano": 2189,
      "etroyile": 2190,
      "kangang": 2191,
      "hlaselo": 2192,
      "ofisi": 2193,
      "xulumene": 2194,
      "thungelwano": 2195,
      "tware": 2196,
      "phambuka": 2197,
      "Ukongeza": 2198,
      "),": 2199,
      "Ar": 2200,
      "Esi": 2201,
      "Iintambo": 2202,
      "Ph": 2203,
      "Waye": 2204,
      "YA": 2205,
      "``": 2206,
      "ad": 2207,
      "ase": 2208,
      "ihamba": 2209,
      "iindlela": 2210,
      "nez": 2211,
      "namashumi": 2212,
      "oyi": 2213,
      "oomatiloshe": 2214,
      "quku": 2215,
      "sela": 2216,
      "toni": 2217,
      "uxinzelelo": 2218,
      "ukhuseleko": 2219,
      "veli": 2220,
      "zanga": 2221,
      "zinqanawa": 2222,
      "kuye": 2223,
      "kuko": 2224,
      "ink": 2225,
      "enze": 2226,
      "enobu": 2227,
      "yezulu": 2228,
      "lapho": 2229,
      "yaku": 2230,
      "yabo": 2231,
      "lola": 2232,
      "shiya": 2233,
      "konke": 2234,
      "umlilo": 2235,
      "qanaba": 2236,
      "inge": 2237,
      "kwemfazwe": 2238,
      "elikhulu": 2239,
      "nakwi": 2240,
      "xaso": 2241,
      "esenti": 2242,
      "thwali": 2243,
      "neen": 2244,
      "ekubotshelelwa": 2245,
      "hlelo": 2246,
      "Umgangatho": 2247,
      "sebenzise": 2248,
      "khali": 2249,
      "hluka": 2250,
      "komoya": 2251,
      "yomoya": 2252,
      "etanki": 2253,
      "sokulinganisa": 2254,
      "kokuqala": 2255,
      "tyathanga": 2256,
      "coce": 2257,
      "gquny": 2258,
      "elinesibhozo": 2259,
      "186": 2260,
      "hlangan": 2261,
      "khululekileyo": 2262,
      "30": 2263,
      "GA": 2264,
      "KW": 2265,
      "No": 2266,
      "as": 2267,
      "abe": 2268,
      "belo": 2269,
      "bele": 2270,
      "cama": 2271,
      "egcina": 2272,
      "fri": 2273,
      "id": 2274,
      "lambo": 2275,
      "nam": 2276,
      "nyama": 2277,
      "ok": 2278,
      "petroli": 2279,
      "ts": 2280,
      "uphawu": 2281,
      "won": 2282,
      "wumbi": 2283,
      "yeni": 2284,
      "yeli": 2285,
      "kufune": 2286,
      "inani": 2287,
      "yee": 2288,
      "yeyona": 2289,
      "yobu": 2290,
      "luhlu": 2291,
      "katha": 2292,
      "okun": 2293,
      "kwishumi": 2294,
      "yakho": 2295,
      "yathelo": 2296,
      "ukuthi": 2297,
      "ukuthatha": 2298,
      "ukungena": 2299,
      "zaye": 2300,
      "zazin": 2301,
      "ezizi": 2302,
      "kanjani": 2303,
      "biza": 2304,
      "thiweyo": 2305,
      "kwimasti": 2306,
      "yila": 2307,
      "eliphezulu": 2308,
      "zeenqanawa": 2309,
      "kumgama": 2310,
      "qayi": 2311,
      "ntla": 2312,
      "ngee": 2313,
      "njenga": 2314,
      "song": 2315,
      "nokurhoxa": 2316,
      "suswa": 2317,
      "cima": 2318,
      "lokuqhuba": 2319,
      "gcine": 2320,
      "phume": 2321,
      "lomgangatho": 2322,
      "lomkhosi": 2323,
      "yena": 2324,
      "yenzelwe": 2325,
      "imipu": 2326,
      "womgangatho": 2327,
      "rada": 2328,
      "gcini": 2329,
      "lenze": 2330,
      "thambileyo": 2331,
      "jikelezayo": 2332,
      "ayina": 2333,
      "dibeneyo": 2334,
      "zemithwalo": 2335,
      "Britane": 2336,
      "phindiweyo": 2337,
      "14": 2338,
      "BI": 2339,
      "HO": 2340,
      "Ixesha": 2341,
      "Ja": 2342,
      "Me": 2343,
      "Zazi": 2344,
      "ekwa": 2345,
      "ekwen": 2346,
      "ekhoyo": 2347,
      "hi": 2348,
      "itha": 2349,
      "ize": 2350,
      "iji": 2351,
      "igama": 2352,
      "klasi": 2353,
      "lentambo": 2354,
      "okwe": 2355,
      "ukwazi": 2356,
      "wentambo": 2357,
      "yango": 2358,
      "kungen": 2359,
      "kungekho": 2360,
      "aneleyo": 2361,
      "ziwe": 2362,
      "pheni": 2363,
      "yeseyile": 2364,
      "khwe": 2365,
      "siwe": 2366,
      "kweli": 2367,
      "ukubu": 2368,
      "ukutsala": 2369,
      "kota": 2370,
      "umsinga": 2371,
      "umqhubi": 2372,
      "sebe": 2373,
      "ande": 2374,
      "lixa": 2375,
      "ombo": 2376,
      "ngathi": 2377,
      "eziqhelekileyo": 2378,
      "daka": 2379,
      "isiqu": 2380,
      "phazam": 2381,
      "kwee": 2382,
      "kweenqanawa": 2383,
      "kwezo": 2384,
      "ber": 2385,
      "tyela": 2386,
      "entsontela": 2387,
      "nayo": 2388,
      "natha": 2389,
      "lwakhiwo": 2390,
      "kumanzi": 2391,
      "xhon": 2392,
      "oluthile": 2393,
      "yokulala": 2394,
      "yokugqibela": 2395,
      "hlawumbi": 2396,
      "qadi": 2397,
      "qalisa": 2398,
      "kelelwa": 2399,
      "dokis": 2400,
      "phepha": 2401,
      "hayi": 2402,
      "hliso": 2403,
      "xhoba": 2404,
      "njengesi": 2405,
      "kwisiqingatha": 2406,
      "linganiswa": 2407,
      "zomkhosi": 2408,
      "zombane": 2409,
      "bheka": 2410,
      "bambi": 2411,
      "bomthwalo": 2412,
      "ngamaxesha": 2413,
      "khawulezayo": 2414,
      "iimpawu": 2415,
      "thintelo": 2416,
      "khonk": 2417,
      "qwalasela": 2418,
      "verhe": 2419,
      "gqithis": 2420,
      "ciphisa": 2421,
      "chaphaz": 2422,
      "ngesandla": 2423,
      "tsheyina": 2424,
      "fomu": 2425,
      "16": 2426,
      "Is": 2427,
      "Iim": 2428,
      "Isantya": 2429,
      "Melika": 2430,
      "Roya": 2431,
      "Ukun": 2432,
      "bez": 2433,
      "bamanzi": 2434,
      "cinga": 2435,
      "ekho": 2436,
      "iy": 2437,
      "iz": 2438,
      "iwe": 2439,
      "ihambe": 2440,
      "ongo": 2441,
      "pt": 2442,
      "qukum": 2443,
      "qengq": 2444,
      "sama": 2445,
      "xu": 2446,
      "zamanzi": 2447,
      "kubo": 2448,
      "endu": 2449,
      "wabo": 2450,
      "ngamanye": 2451,
      "yeku": 2452,
      "yolwandle": 2453,
      "luya": 2454,
      "khelwe": 2455,
      "okum": 2456,
      "kwinto": 2457,
      "yalezo": 2458,
      "loo": 2459,
      "lolu": 2460,
      "ukujika": 2461,
      "ukuthwala": 2462,
      "umphambili": 2463,
      "ezenziwe": 2464,
      "ses": 2465,
      "zakuba": 2466,
      "omde": 2467,
      "ngapha": 2468,
      "kwakhe": 2469,
      "ezikhoyo": 2470,
      "unyu": 2471,
      "yiyo": 2472,
      "kwere": 2473,
      "zeseyile": 2474,
      "dizi": 2475,
      "imfazwe": 2476,
      "eso": 2477,
      "yokuma": 2478,
      "hlawu": 2479,
      "qalelo": 2480,
      "fakelwa": 2481,
      "qobo": 2482,
      "kiwe": 2483,
      "ubukhulu": 2484,
      "ubungakanani": 2485,
      "kwisikhephe": 2486,
      "Isikhephe": 2487,
      "gqibo": 2488,
      "obukhulu": 2489,
      "mehlo": 2490,
      "lomo": 2491,
      "jikelezo": 2492,
      "Kukho": 2493,
      "vula": 2494,
      "sind": 2495,
      "sindisa": 2496,
      "chazwe": 2497,
      "zomoya": 2498,
      "womoya": 2499,
      "rorho": 2500,
      "ezimbalwa": 2501,
      "bambe": 2502,
      "ukuni": 2503,
      "luleka": 2504,
      "bonakalayo": 2505,
      "khawulezileyo": 2506,
      "anjeni": 2507,
      "anjeng": 2508,
      "phakamo": 2509,
      "singisa": 2510,
      "kubekho": 2511,
      "ipetroyile": 2512,
      "ELA": 2513,
      "Mar": 2514,
      "yaying": 2515,
      "khompatim": 2516,
      "thumela": 2517,
      "dleleni": 2518,
      "khethekileyo": 2519,
      "Royal": 2520,
      "83": 2521,
      "Am": 2522,
      "Amandla": 2523,
      "Izinto": 2524,
      "Kwaye": 2525,
      "Phambi": 2526,
      "Se": 2527,
      "Uhlobo": 2528,
      "Za": 2529,
      "Zaye": 2530,
      "ekun": 2531,
      "gunya": 2532,
      "izin": 2533,
      "itsa": 2534,
      "lam": 2535,
      "od": 2536,
      "pringi": 2537,
      "uM": 2538,
      "ur": 2539,
      "yint": 2540,
      "kufanele": 2541,
      "kuyimfuneko": 2542,
      "elelwa": 2543,
      "zii": 2544,
      "zis": 2545,
      "thisa": 2546,
      "wesantya": 2547,
      "ambuku": 2548,
      "lezi": 2549,
      "leke": 2550,
      "kwelanga": 2551,
      "lona": 2552,
      "umn": 2553,
      "sezi": 2554,
      "sety": 2555,
      "lile": 2556,
      "ngakumbi": 2557,
      "kwiin": 2558,
      "kwigumbi": 2559,
      "kwehla": 2560,
      "elithile": 2561,
      "xaxh": 2562,
      "zobo": 2563,
      "iminyaka": 2564,
      "kumbindi": 2565,
      "iseka": 2566,
      "yokusebenza": 2567,
      "lwane": 2568,
      "jijwa": 2569,
      "ngeenqanawa": 2570,
      "ekufuneka": 2571,
      "ekuqaleni": 2572,
      "qoko": 2573,
      "ceba": 2574,
      "linganiswe": 2575,
      "bhabha": 2576,
      "wokunyusa": 2577,
      "yesikhephe": 2578,
      "tyalo": 2579,
      "kamva": 2580,
      "nezixhobo": 2581,
      "ISI": 2582,
      "gosa": 2583,
      "ENI": 2584,
      "phawula": 2585,
      "khwela": 2586,
      "ipetroli": 2587,
      "khondo": 2588,
      "nangasemva": 2589,
      "linganayo": 2590,
      "qamlezileyo": 2591,
      "Kwakhona": 2592,
      "xakeka": 2593,
      "fimbili": 2594,
      "ekwenzeni": 2595,
      "dokisini": 2596,
      "Amanzi": 2597,
      "Akukho": 2598,
      "BA": 2599,
      "KO": 2600,
      "ON": 2601,
      "ck": 2602,
      "cang": 2603,
      "gqubu": 2604,
      "ibi": 2605,
      "iweyo": 2606,
      "ithuba": 2607,
      "iintshi": 2608,
      "kana": 2609,
      "nkqubo": 2610,
      "othi": 2611,
      "peyint": 2612,
      "qina": 2613,
      "yw": 2614,
      "yent": 2615,
      "yenqanawe": 2616,
      "zan": 2617,
      "kulwandle": 2618,
      "kusoloko": 2619,
      "enesi": 2620,
      "thunyelwa": 2621,
      "isu": 2622,
      "wemi": 2623,
      "wewaka": 2624,
      "bazi": 2625,
      "okudada": 2626,
      "logcino": 2627,
      "kolu": 2628,
      "ume": 2629,
      "umlinganiselo": 2630,
      "buye": 2631,
      "bubanzi": 2632,
      "zase": 2633,
      "ezifana": 2634,
      "ezilishumi": 2635,
      "kanomathotholo": 2636,
      "unj": 2637,
      "unoku": 2638,
      "eme": 2639,
      "tyu": 2640,
      "anesine": 2641,
      "imbi": 2642,
      "fund": 2643,
      "funda": 2644,
      "yokuthutha": 2645,
      "thethe": 2646,
      "dolo": 2647,
      "ntlobo": 2648,
      "Umoya": 2649,
      "iziphumo": 2650,
      "Indi": 2651,
      "sukela": 2652,
      "hambisa": 2653,
      "zinkulu": 2654,
      "zinzisa": 2655,
      "ezazi": 2656,
      "komnye": 2657,
      "yombane": 2658,
      "sembindini": 2659,
      "imigca": 2660,
      "sinda": 2661,
      "hambayo": 2662,
      "bhatyi": 2663,
      "hleko": 2664,
      "sokuqala": 2665,
      "lawulwa": 2666,
      "ukunyuka": 2667,
      "bonakalo": 2668,
      "vumele": 2669,
      "AND": 2670,
      "kwizixhobo": 2671,
      "lendawo": 2672,
      "dibaniso": 2673,
      "ibekwe": 2674,
      "iimeko": 2675,
      "Ngako": 2676,
      "nika": 2677,
      "ukumisa": 2678,
      "jongene": 2679,
      "elinesihlanu": 2680,
      "lwendawo": 2681,
      "nangaphezulu": 2682,
      "ulumente": 2683,
      "lumkiso": 2684,
      "hlasela": 2685,
      "Khom": 2686,
      "qhelekanga": 2687,
      "lungiselela": 2688,
      "ukusukela": 2689,
      "enkc": 2690,
      "hanjiswa": 2691,
      "qhushum": 2692,
      "gqunywe": 2693,
      "-\"": 2694,
      "13": 2695,
      "Al": 2696,
      "Afri": 2697,
      "Bh": 2698,
      "Icala": 2699,
      "US": 2700,
      "Ubunzima": 2701,
      "abo": 2702,
      "aban": 2703,
      "celo": 2704,
      "dle": 2705,
      "eyom": 2706,
      "evulekileyo": 2707,
      "ft": 2708,
      "file": 2709,
      "idla": 2710,
      "ikhusele": 2711,
      "ibonisa": 2712,
      "ilungu": 2713,
      "namanzi": 2714,
      "olwandle": 2715,
      "qan": 2716,
      "sandla": 2717,
      "ukwa": 2718,
      "ulwandle": 2719,
      "wokuba": 2720,
      "kuhambo": 2721,
      "enzeka": 2722,
      "entsha": 2723,
      "ziweyo": 2724,
      "weenqanawa": 2725,
      "yesa": 2726,
      "yokumisa": 2727,
      "baso": 2728,
      "kwent": 2729,
      "ukube": 2730,
      "shenx": 2731,
      "umyalelo": 2732,
      "lizi": 2733,
      "lili": 2734,
      "eziqu": 2735,
      "mayile": 2736,
      "majoni": 2737,
      "yizi": 2738,
      "tyana": 2739,
      "bham": 2740,
      "naye": 2741,
      "naseku": 2742,
      "ngokubanzi": 2743,
      "lwaba": 2744,
      "kuman": 2745,
      "funyen": 2746,
      "khululwa": 2747,
      "xhasi": 2748,
      "olum": 2749,
      "esezantsi": 2750,
      "yokula": 2751,
      "kwenze": 2752,
      "qaty": 2753,
      "lwini": 2754,
      "lwimi": 2755,
      "ngekhoyo": 2756,
      "njongo": 2757,
      "ekugqibeleni": 2758,
      "qolo": 2759,
      "hlelwa": 2760,
      "hliswa": 2761,
      "phakathini": 2762,
      "nokuhlisa": 2763,
      "khuselwa": 2764,
      "lingi": 2765,
      "hlom": 2766,
      "hlolo": 2767,
      "futha": 2768,
      "cebiso": 2769,
      "boniswa": 2770,
      "zokuqala": 2771,
      "zokuthutha": 2772,
      "emithathu": 2773,
      "yomhlaba": 2774,
      "gqityi": 2775,
      "qine": 2776,
      "zomthwalo": 2777,
      "womkhosi": 2778,
      "Iziko": 2779,
      "linda": 2780,
      "somoya": 2781,
      "kampani": 2782,
      "tsalayo": 2783,
      "esincinci": 2784,
      "hlanje": 2785,
      "guquguqu": 2786,
      "INT": 2787,
      "isebenzisa": 2788,
      "elinesibini": 2789,
      "vavany": 2790,
      "qheleke": 2791,
      "lungiselelwe": 2792,
      "xhotyiswe": 2793,
      "gxina": 2794,
      "lanu": 2795,
      "ngezelelweyo": 2796,
      "Ngexesha": 2797,
      "gqithisileyo": 2798,
      "8320": 2799,
      "\".": 2800,
      "90": 2801,
      "ET": 2802,
      "Pha": 2803,
      "Th": 2804,
      "ic": 2805,
      "ithi": 2806,
      "ivulekile": 2807,
      "mbini": 2808,
      "mhlawumbi": 2809,
      "nan": 2810,
      "namandla": 2811,
      "nzulu": 2812,
      "nezinto": 2813,
      "ob": 2814,
      "othe": 2815,
      "okhoyo": 2816,
      "rd": 2817,
      "tishi": 2818,
      "ut": 2819,
      "uyi": 2820,
      "udidi": 2821,
      "utshintsho": 2822,
      "vunyelwa": 2823,
      "yingozi": 2824,
      "zenziwe": 2825,
      "kuquka": 2826,
      "aneni": 2827,
      "elona": 2828,
      "enj": 2829,
      "ngqu": 2830,
      "ngcono": 2831,
      "phando": 2832,
      "yodwa": 2833,
      "luka": 2834,
      "lulo": 2835,
      "lemfazwe": 2836,
      "lakhe": 2837,
      "kathi": 2838,
      "lolwandle": 2839,
      "ukuma": 2840,
      "ukubamba": 2841,
      "umphezulu": 2842,
      "umonakalo": 2843,
      "zaselwandle": 2844,
      "kwalo": 2845,
      "amazwe": 2846,
      "kane": 2847,
      "unja": 2848,
      "thiwa": 2849,
      "kunxweme": 2850,
      "kwemeko": 2851,
      "bekiweyo": 2852,
      "eliza": 2853,
      "antathu": 2854,
      "cazelo": 2855,
      "ngokucacileyo": 2856,
      "kumoya": 2857,
      "kumphantsi": 2858,
      "ngokwesi": 2859,
      "ezinom": 2860,
      "ezincinane": 2861,
      "hlaza": 2862,
      "qalo": 2863,
      "der": 2864,
      "theka": 2865,
      "thethweni": 2866,
      "khefu": 2867,
      "ntambo": 2868,
      "qokelela": 2869,
      "Umgama": 2870,
      "Umphathi": 2871,
      "nokun": 2872,
      "qikelelo": 2873,
      "phukileyo": 2874,
      "inzima": 2875,
      "phikis": 2876,
      "semoyeni": 2877,
      "sokutsala": 2878,
      "yesixhobo": 2879,
      "ukunqanda": 2880,
      "vume": 2881,
      "ngombane": 2882,
      "tafile": 2883,
      "kwizibuko": 2884,
      "wesikhephe": 2885,
      "thambeka": 2886,
      "senoku": 2887,
      "bumba": 2888,
      "bangelwa": 2889,
      "iimpahla": 2890,
      "baluleke": 2891,
      "nangoku": 2892,
      "PHA": 2893,
      "AMA": 2894,
      "lamawaka": 2895,
      "rhuqa": 2896,
      "Ekugqibeleni": 2897,
      "kunokwenzeka": 2898,
      "welonke": 2899,
      "lindele": 2900,
      "khanyisi": 2901,
      "qhutyelwa": 2902,
      "qukumbelo": 2903,
      "--": 2904,
      "BU": 2905,
      "EM": 2906,
      "EZ": 2907,
      "HA": 2908,
      "Ho": 2909,
      "Inga": 2910,
      "Jam": 2911,
      "Ka": 2912,
      "Kwe": 2913,
      "Kun": 2914,
      "Okokuba": 2915,
      "canya": 2916,
      "esebenza": 2917,
      "fti": 2918,
      "gane": 2919,
      "gubu": 2920,
      "iyi": 2921,
      "ibh": 2922,
      "iben": 2923,
      "kr": 2924,
      "lang": 2925,
      "liseko": 2926,
      "nolu": 2927,
      "osi": 2928,
      "pleyiti": 2929,
      "rom": 2930,
      "sent": 2931,
      "senziwa": 2932,
      "selunxwemeni": 2933,
      "uth": 2934,
      "uro": 2935,
      "ucingo": 2936,
      "vuny": 2937,
      "wini": 2938,
      "wenziwe": 2939,
      "yang": 2940,
      "kutsho": 2941,
      "inkulu": 2942,
      "elene": 2943,
      "encinane": 2944,
      "ziso": 2945,
      "isis": 2946,
      "isana": 2947,
      "isandla": 2948,
      "wemfazwe": 2949,
      "yoko": 2950,
      "lube": 2951,
      "lasekhohlo": 2952,
      "sim": 2953,
      "bakhe": 2954,
      "kathathu": 2955,
      "kwint": 2956,
      "kwintloko": 2957,
      "yala": 2958,
      "ukuqinisekisa": 2959,
      "ukuchaza": 2960,
      "umhlaba": 2961,
      "bopha": 2962,
      "sema": 2963,
      "sesa": 2964,
      "semi": 2965,
      "buya": 2966,
      "libe": 2967,
      "likhulu": 2968,
      "ngakwicala": 2969,
      "dade": 2970,
      "embi": 2971,
      "emfutshane": 2972,
      "kunzima": 2973,
      "yibili": 2974,
      "kwecala": 2975,
      "sakho": 2976,
      "sakhiwo": 2977,
      "tshon": 2978,
      "thaba": 2979,
      "tyhu": 2980,
      "naxa": 2981,
      "nayiphi": 2982,
      "nayiphina": 2983,
      "lwalu": 2984,
      "kumandla": 2985,
      "kumphakathi": 2986,
      "xhe": 2987,
      "ezinama": 2988,
      "lwenziwe": 2989,
      "thwalwa": 2990,
      "khepheni": 2991,
      "phefum": 2992,
      "ngeku": 2993,
      "mikhosi": 2994,
      "nokwenzeka": 2995,
      "hambeni": 2996,
      "tsalela": 2997,
      "njengezi": 2998,
      "yomgangatho": 2999,
      "yomthwalo": 3000,
      "phumla": 3001,
      "yenye": 3002,
      "yendawo": 3003,
      "kwinkqubo": 3004,
      "kwinqanawe": 3005,
      "kwincam": 3006,
      "sinya": 3007,
      "womhlaba": 3008,
      "elincinci": 3009,
      "umahluko": 3010,
      "lindi": 3011,
      "ukunyusa": 3012,
      "eyenza": 3013,
      "lisayo": 3014,
      "xolo": 3015,
      "ngumphathi": 3016,
      "Intsontelo": 3017,
      "zuz": 3018,
      "qhaphu": 3019,
      "cuka": 3020,
      "kezelwe": 3021,
      "nyuka": 3022,
      "kwamaza": 3023,
      "emacaleni": 3024,
      "zame": 3025,
      "thinteli": 3026,
      "landelwa": 3027,
      "landelel": 3028,
      "imozulu": 3029,
      "qamlezo": 3030,
      "ungqu": 3031,
      "yemipu": 3032,
      "NGA": 3033,
      "eyodwa": 3034,
      "sebenze": 3035,
      "elisezantsi": 3036,
      "lobushushu": 3037,
      "ubunzulu": 3038,
      "chasene": 3039,
      "Njengokuba": 3040,
      "qulathe": 3041,
      "canyath": 3042,
      "ganeko": 3043,
      "''": 3044,
      "11": 3045,
      "DO": 3046,
      "Jonga": 3047,
      "Lu": 3048,
      "Okokuqala": 3049,
      "So": 3050,
      "Yi": 3051,
      "aze": 3052,
      "bano": 3053,
      "benga": 3054,
      "com": 3055,
      "ed": 3056,
      "ephambili": 3057,
      "ephantsi": 3058,
      "ebonisa": 3059,
      "ebizwa": 3060,
      "gqo": 3061,
      "ho": 3062,
      "iplanga": 3063,
      "iqondo": 3064,
      "ibizwa": 3065,
      "ilandelayo": 3066,
      "nanjeng": 3067,
      "ophakathi": 3068,
      "ozulu": 3069,
      "othile": 3070,
      "ophakamileyo": 3071,
      "sisa": 3072,
      "tr": 3073,
      "tile": 3074,
      "usa": 3075,
      "usebenzisa": 3076,
      "ubomi": 3077,
      "xantathu": 3078,
      "yelo": 3079,
      "zentambo": 3080,
      "kudala": 3081,
      "ineli": 3082,
      "enjini": 3083,
      "wada": 3084,
      "ziba": 3085,
      "zisebenza": 3086,
      "ngelo": 3087,
      "ngamashumi": 3088,
      "thwele": 3089,
      "isweni": 3090,
      "phon": 3091,
      "phanda": 3092,
      "yeza": 3093,
      "yehlabathi": 3094,
      "yayis": 3095,
      "ukuza": 3096,
      "ukuthintela": 3097,
      "umthetho": 3098,
      "umqulu": 3099,
      "bono": 3100,
      "onyaka": 3101,
      "bungakanani": 3102,
      "lithi": 3103,
      "ezisi": 3104,
      "ezithe": 3105,
      "ezihamba": 3106,
      "ezifanayo": 3107,
      "ezidityanisiweyo": 3108,
      "macala": 3109,
      "inika": 3110,
      "ingxaki": 3111,
      "kwicandelo": 3112,
      "kwiimeko": 3113,
      "embu": 3114,
      "emininzi": 3115,
      "phahla": 3116,
      "nabo": 3117,
      "zothutho": 3118,
      "khosini": 3119,
      "engu": 3120,
      "engum": 3121,
      "engxaki": 3122,
      "qhwi": 3123,
      "kumkhosi": 3124,
      "kumphathi": 3125,
      "ngo18": 3126,
      "ngokwayo": 3127,
      "ezinesantya": 3128,
      "hlale": 3129,
      "anzima": 3130,
      "lwentambo": 3131,
      "jikayo": 3132,
      "jija": 3133,
      "lungelo": 3134,
      "fazweni": 3135,
      "ekubeni": 3136,
      "izithuthi": 3137,
      "Ngamanye": 3138,
      "yus": 3139,
      "yusi": 3140,
      "setyenziso": 3141,
      "elwanga": 3142,
      "tsaleka": 3143,
      "tsalwayo": 3144,
      "phuka": 3145,
      "gqiba": 3146,
      "semthethweni": 3147,
      "imigangatho": 3148,
      "banjwe": 3149,
      "noma": 3150,
      "bhala": 3151,
      "bhalwe": 3152,
      "reyi": 3153,
      "wokuqala": 3154,
      "zululwazi": 3155,
      "phindo": 3156,
      "Kwi": 3157,
      "ezingama": 3158,
      "ezingena": 3159,
      "dibanisi": 3160,
      "khombe": 3161,
      "kakubi": 3162,
      "zimbini": 3163,
      "benze": 3164,
      "kwiminyaka": 3165,
      "jongwe": 3166,
      "ELO": 3167,
      "kwimigangatho": 3168,
      "kwisangqa": 3169,
      "xhomekeka": 3170,
      "ilaphu": 3171,
      "qhubekekayo": 3172,
      "gqibeleleyo": 3173,
      "gwebu": 3174,
      "kwamkela": 3175,
      "khutshwa": 3176,
      "kwisakhiwo": 3177,
      "Ligama": 3178,
      "layishwa": 3179,
      "dokolwane": 3180,
      "phakanyiswa": 3181,
      "bhetele": 3182,
      "zenzekelayo": 3183,
      "tshabalalisi": 3184,
      "qukuva": 3185,
      "cangci": 3186,
      "Khompyutha": 3187,
      "40": 3188,
      "60": 3189,
      "EZI": 3190,
      "IC": 3191,
      "II": 3192,
      "Ine": 3193,
      "Isin": 3194,
      "ILE": 3195,
      "Kan": 3196,
      "OK": 3197,
      "Uno": 3198,
      "Zom": 3199,
      "ayo": 3200,
      "abanga": 3201,
      "din": 3202,
      "dlo": 3203,
      "danga": 3204,
      "dder": 3205,
      "eS": 3206,
      "eqinileyo": 3207,
      "esetyenziselwa": 3208,
      "fre": 3209,
      "feze": 3210,
      "hlwa": 3211,
      "ithe": 3212,
      "jing": 3213,
      "keza": 3214,
      "lana": 3215,
      "osuka": 3216,
      "qembu": 3217,
      "samanzi": 3218,
      "ub": 3219,
      "uzi": 3220,
      "ulo": 3221,
      "uji": 3222,
      "ulawulo": 3223,
      "uzinzo": 3224,
      "vy": 3225,
      "yindlela": 3226,
      "kuso": 3227,
      "kulandelayo": 3228,
      "kuyenzeka": 3229,
      "inkwili": 3230,
      "elandela": 3231,
      "end": 3232,
      "enzo": 3233,
      "endleleni": 3234,
      "zisi": 3235,
      "ziswe": 3236,
      "phesh": 3237,
      "yeen": 3238,
      "yeflegi": 3239,
      "amo": 3240,
      "luhlobo": 3241,
      "leenqanawa": 3242,
      "kwanda": 3243,
      "kwenziwe": 3244,
      "loba": 3245,
      "ukukhupha": 3246,
      "ukuvumela": 3247,
      "umz": 3248,
      "umsonto": 3249,
      "bone": 3250,
      "see": 3251,
      "seko": 3252,
      "buzo": 3253,
      "butho": 3254,
      "buyela": 3255,
      "andundu": 3256,
      "zakhe": 3257,
      "eziza": 3258,
      "amaqela": 3259,
      "amazibuko": 3260,
      "masi": 3261,
      "mabini": 3262,
      "isithuba": 3263,
      "kwibhodi": 3264,
      "phath": 3265,
      "kweem": 3266,
      "betha": 3267,
      "sala": 3268,
      "sasekunene": 3269,
      "tshiswa": 3270,
      "anto": 3271,
      "zokwenza": 3272,
      "imin": 3273,
      "imfaniso": 3274,
      "ngolwandle": 3275,
      "olunga": 3276,
      "oluphezulu": 3277,
      "yokulawula": 3278,
      "yokuziphatha": 3279,
      "ezinamandla": 3280,
      "hlalu": 3281,
      "qath": 3282,
      "neenqanawa": 3283,
      "qhubeka": 3284,
      "Umlinganiselo": 3285,
      "Umthetho": 3286,
      "Umyalelo": 3287,
      "nobunzima": 3288,
      "xhobisa": 3289,
      "ngenisa": 3290,
      "bhobh": 3291,
      "hambela": 3292,
      "hlola": 3293,
      "emitha": 3294,
      "emikhulu": 3295,
      "kulula": 3296,
      "obunzima": 3297,
      "qiniso": 3298,
      "phelweni": 3299,
      "kwinqwelo": 3300,
      "nomphathi": 3301,
      "phindwa": 3302,
      "dlule": 3303,
      "iitanki": 3304,
      "somgangatho": 3305,
      "fikelele": 3306,
      "elungu": 3307,
      "ngumntu": 3308,
      "qinisek": 3309,
      "wendawo": 3310,
      "INQANAWA": 3311,
      "bophelelo": 3312,
      "sesikhephe": 3313,
      "cacile": 3314,
      "cacisa": 3315,
      "emazantsi": 3316,
      "Imfaniso": 3317,
      "kulungele": 3318,
      "kwimim": 3319,
      "zesikhephe": 3320,
      "kwisiseko": 3321,
      "engozini": 3322,
      "dubulo": 3323,
      "qamleza": 3324,
      "Navy": 3325,
      "rhuq": 3326,
      "sebenzini": 3327,
      "sebenzisanayo": 3328,
      "wezithuthi": 3329,
      "lungelelanisa": 3330,
      "cedisi": 3331,
      "omncinci": 3332,
      "kubalulekile": 3333,
      "gqatso": 3334,
      "nonxweme": 3335,
      "camath": 3336,
      "kathalo": 3337,
      "khonkco": 3338,
      "qokobhe": 3339,
      "funyenwe": 3340,
      "yokulalisa": 3341,
      "zuzwana": 3342,
      "cukacha": 3343,
      "Kananjalo": 3344,
      "Zombini": 3345,
      "LI": 3346,
      "Ne": 3347,
      "SM": 3348,
      "Uma": 3349,
      "Ulawulo": 3350,
      "Yay": 3351,
      "ako": 3352,
      "azo": 3353,
      "aphezulu": 3354,
      "arh": 3355,
      "ayin": 3356,
      "ble": 3357,
      "brorho": 3358,
      "cango": 3359,
      "eqhelekileyo": 3360,
      "glasi": 3361,
      "hom": 3362,
      "iqa": 3363,
      "iintsontelo": 3364,
      "ivili": 3365,
      "irhintyela": 3366,
      "iintlobo": 3367,
      "kini": 3368,
      "lenqanawe": 3369,
      "lisiweyo": 3370,
      "misa": 3371,
      "msebenzi": 3372,
      "mlilo": 3373,
      "nenye": 3374,
      "oba": 3375,
      "okwenzeka": 3376,
      "oomatshini": 3377,
      "sona": 3378,
      "ton": 3379,
      "uli": 3380,
      "uze": 3381,
      "uqu": 3382,
      "usoloko": 3383,
      "ufuna": 3384,
      "uhambo": 3385,
      "veza": 3386,
      "wenza": 3387,
      "xwa": 3388,
      "yinto": 3389,
      "yento": 3390,
      "zokuba": 3391,
      "zenziwa": 3392,
      "kutheni": 3393,
      "inxenye": 3394,
      "elisi": 3395,
      "elelwe": 3396,
      "wawu": 3397,
      "ziza": 3398,
      "zilung": 3399,
      "zidla": 3400,
      "thuny": 3401,
      "isiseko": 3402,
      "phele": 3403,
      "yolwazi": 3404,
      "khandi": 3405,
      "lee": 3406,
      "lekayo": 3407,
      "bakho": 3408,
      "okuqala": 3409,
      "yaselwandle": 3410,
      "ukubonisa": 3411,
      "ukudibanisa": 3412,
      "umbane": 3413,
      "umqondiso": 3414,
      "ezona": 3415,
      "buyis": 3416,
      "bushushu": 3417,
      "liza": 3418,
      "ngale": 3419,
      "ngaphambi": 3420,
      "ezilayish": 3421,
      "ingena": 3422,
      "thiwe": 3423,
      "kwiintambo": 3424,
      "kwiqondo": 3425,
      "emfazweni": 3426,
      "phakama": 3427,
      "kunokuba": 3428,
      "isayo": 3429,
      "tshwa": 3430,
      "esikhepheni": 3431,
      "thayo": 3432,
      "thathwe": 3433,
      "nako": 3434,
      "nawo": 3435,
      "nakuba": 3436,
      "zolwandle": 3437,
      "dima": 3438,
      "engen": 3439,
      "qheba": 3440,
      "lwaleko": 3441,
      "thungo": 3442,
      "thutyana": 3443,
      "kumzantsi": 3444,
      "kumphetho": 3445,
      "ngobude": 3446,
      "khululeka": 3447,
      "olulungileyo": 3448,
      "esisetyenziswa": 3449,
      "esuka": 3450,
      "hlalo": 3451,
      "Ukusuka": 3452,
      "jikelo": 3453,
      "ngexa": 3454,
      "ngeKhompyutha": 3455,
      "tili": 3456,
      "sogcino": 3457,
      "iziqhubi": 3458,
      "anika": 3459,
      "photho": 3460,
      "ngenye": 3461,
      "ububanzi": 3462,
      "rhulumente": 3463,
      "phula": 3464,
      "bonisi": 3465,
      "boniswe": 3466,
      "komthwalo": 3467,
      "kwisithuba": 3468,
      "yendlela": 3469,
      "Kule": 3470,
      "Kubalulekile": 3471,
      "kubakho": 3472,
      "vuthu": 3473,
      "imithetho": 3474,
      "wokugqibela": 3475,
      "elinom": 3476,
      "umatshini": 3477,
      "Kwinqanawa": 3478,
      "Kwiinqanawa": 3479,
      "dlalo": 3480,
      "cos": 3481,
      "tshixo": 3482,
      "xowa": 3483,
      "ngomoya": 3484,
      "yinxalenye": 3485,
      "ilizwe": 3486,
      "tori": 3487,
      "goba": 3488,
      "197": 3489,
      "zimeleyo": 3490,
      "cutshe": 3491,
      "phawulwe": 3492,
      "unyeni": 3493,
      "jongwa": 3494,
      "anesibini": 3495,
      "elinesithandathu": 3496,
      "unithi": 3497,
      "politi": 3498,
      "qwalaselwe": 3499,
      "sasaza": 3500,
      "sasazo": 3501,
      "Nakanjani": 3502,
      "kangange": 3503,
      "gwegwe": 3504,
      "Ekuqaleni": 3505,
      "lahleka": 3506,
      "Ubungakanani": 3507,
      "luncedo": 3508,
      "chaphazela": 3509,
      "ard": 3510,
      "khangela": 3511,
      "phathekayo": 3512,
      "tywil": 3513,
      "bandayo": 3514,
      "wabalindi": 3515,
      "thathelwa": 3516,
      "Medi": 3517,
      "dizili": 3518,
      "xaxheba": 3519,
      "Afrika": 3520,
      "hlomelo": 3521,
      "arhente": 3522,
      "politiko": 3523,
      "17": 3524,
      "100": 3525,
      "80": 3526,
      "Apha": 3527,
      "CD": 3528,
      "Da": 3529,
      "Em": 3530,
      "Ibhombu": 3531,
      "Ke": 3532,
      "Kuma": 3533,
      "Nj": 3534,
      "Sof": 3535,
      "UN": 3536,
      "Ukwenza": 3537,
      "Ubude": 3538,
      "WO": 3539,
      "aya": 3540,
      "beli": 3541,
      "bentambo": 3542,
      "ee": 3543,
      "een": 3544,
      "ekwi": 3545,
      "etha": 3546,
      "efanayo": 3547,
      "ebekwe": 3548,
      "efanelekileyo": 3549,
      "ekhaya": 3550,
      "edokisini": 3551,
      "etsalayo": 3552,
      "ftware": 3553,
      "gh": 3554,
      "iv": 3555,
      "ikwa": 3556,
      "iankile": 3557,
      "ibhe": 3558,
      "ilanga": 3559,
      "ithetha": 3560,
      "ibhodi": 3561,
      "ibotshelelwe": 3562,
      "iphume": 3563,
      "kish": 3564,
      "kra": 3565,
      "leleyo": 3566,
      "mko": 3567,
      "nezin": 3568,
      "nesantya": 3569,
      "os": 3570,
      "pendu": 3571,
      "sfe": 3572,
      "ubume": 3573,
      "wengozi": 3574,
      "xela": 3575,
      "yant": 3576,
      "yise": 3577,
      "yene": 3578,
      "zele": 3579,
      "zent": 3580,
      "zenza": 3581,
      "kukwa": 3582,
      "kuthe": 3583,
      "anisi": 3584,
      "inom": 3585,
      "incinci": 3586,
      "elom": 3587,
      "enzelwe": 3588,
      "thsa": 3589,
      "phun": 3590,
      "yeshumi": 3591,
      "yemasti": 3592,
      "yohambo": 3593,
      "khumbu": 3594,
      "lase": 3595,
      "yalo": 3596,
      "yadi": 3597,
      "lorho": 3598,
      "lobuchule": 3599,
      "ukukhu": 3600,
      "ukuphuma": 3601,
      "ukuzinzisa": 3602,
      "umphini": 3603,
      "ezela": 3604,
      "ezom": 3605,
      "gaba": 3606,
      "bunga": 3607,
      "liqela": 3608,
      "kwabo": 3609,
      "kwawo": 3610,
      "kwakukho": 3611,
      "ezisuka": 3612,
      "ezilungileyo": 3613,
      "amaza": 3614,
      "amava": 3615,
      "amathuba": 3616,
      "amaqhina": 3617,
      "malu": 3618,
      "dad": 3619,
      "dawe": 3620,
      "isihlenga": 3621,
      "unzi": 3622,
      "kwidekhi": 3623,
      "emxinwa": 3624,
      "kunika": 3625,
      "yilwa": 3626,
      "isakhiwo": 3627,
      "beth": 3628,
      "sase": 3629,
      "sasekhohlo": 3630,
      "esibonisa": 3631,
      "esiphakathini": 3632,
      "esiphelweni": 3633,
      "elifutshane": 3634,
      "eliqhelekileyo": 3635,
      "zobu": 3636,
      "dibane": 3637,
      "angen": 3638,
      "lwazo": 3639,
      "ngokoku": 3640,
      "ngokwemi": 3641,
      "ngokwendlela": 3642,
      "khululwe": 3643,
      "olude": 3644,
      "esenziwe": 3645,
      "Ukunga": 3646,
      "Ukuze": 3647,
      "kelelwe": 3648,
      "lungiso": 3649,
      "ntlola": 3650,
      "phetha": 3651,
      "phethu": 3652,
      "ngecala": 3653,
      "software": 3654,
      "hleli": 3655,
      "Umkhosi": 3656,
      "Umntu": 3657,
      "Umqondiso": 3658,
      "iziphelo": 3659,
      "izikhitshane": 3660,
      "Inani": 3661,
      "tsalwe": 3662,
      "ezayo": 3663,
      "phuhlisa": 3664,
      "phuhliso": 3665,
      "komkhosi": 3666,
      "lokujika": 3667,
      "njengenqanawa": 3668,
      "zokun": 3669,
      "zokutsala": 3670,
      "kwisixhobo": 3671,
      "kuluhlu": 3672,
      "yomphambili": 3673,
      "obun": 3674,
      "qiniswa": 3675,
      "qiniswe": 3676,
      "lomsebenzi": 3677,
      "phelela": 3678,
      "ridi": 3679,
      "semgangathweni": 3680,
      "imitha": 3681,
      "nomva": 3682,
      "chiza": 3683,
      "fanelwe": 3684,
      "reji": 3685,
      "reki": 3686,
      "wompu": 3687,
      "sokunyusa": 3688,
      "phind": 3689,
      "umatiloshe": 3690,
      "amancinci": 3691,
      "dlulayo": 3692,
      "somphambili": 3693,
      "somhlaba": 3694,
      "ukunceda": 3695,
      "fike": 3696,
      "gidi": 3697,
      "kwaziyo": 3698,
      "ngamadoda": 3699,
      "xhathisa": 3700,
      "xinin": 3701,
      "ngomva": 3702,
      "yinyani": 3703,
      "kwesiqu": 3704,
      "iink": 3705,
      "iindidi": 3706,
      "iinjongo": 3707,
      "ISE": 3708,
      "Intloko": 3709,
      "gceni": 3710,
      "phendu": 3711,
      "lenkulungwane": 3712,
      "qinisekileyo": 3713,
      "qhawu": 3714,
      "guqula": 3715,
      "gqumo": 3716,
      "xibo": 3717,
      "zambuku": 3718,
      "bulumko": 3719,
      "singiselo": 3720,
      "hlukana": 3721,
      "lwesikhephe": 3722,
      "lisiwe": 3723,
      "Nakuba": 3724,
      "eyiyo": 3725,
      "shiywa": 3726,
      "kwaman": 3727,
      "khutshwe": 3728,
      "THI": 3729,
      "rhasi": 3730,
      "thumbu": 3731,
      "ingxelo": 3732,
      "chotho": 3733,
      "epesenti": 3734,
      "qhelanisa": 3735,
      "cwecwe": 3736,
      "xhakaxhaka": 3737,
      "dlulisela": 3738,
      "kangangokuba": 3739,
      "qengqeleka": 3740,
      "ywil": 3741,
      "kumanxweme": 3742,
      "gqityiwe": 3743,
      "landelelana": 3744,
      "phesheya": 3745,
      "qathango": 3746,
      "Software": 3747,
      "pendulo": 3748,
      "25": 3749,
      "AL": 3750,
      "Ise": 3751,
      "Ikwa": 3752,
      "Isetyenziswa": 3753,
      "Mzantsi": 3754,
      "Nayi": 3755,
      "TI": 3756,
      "Ubukhulu": 3757,
      "ala": 3758,
      "ayen": 3759,
      "alum": 3760,
      "cenkc": 3761,
      "efana": 3762,
      "efunekayo": 3763,
      "ekhohlo": 3764,
      "eyenzelwe": 3765,
      "fileyo": 3766,
      "fani": 3767,
      "gxinin": 3768,
      "heli": 3769,
      "hlela": 3770,
      "iS": 3771,
      "ih": 3772,
      "ithwa": 3773,
      "ifa": 3774,
      "ivu": 3775,
      "ifuna": 3776,
      "itanki": 3777,
      "ikhuselwe": 3778,
      "lamanzi": 3779,
      "nentambo": 3780,
      "namakhulu": 3781,
      "neshumi": 3782,
      "odeli": 3783,
      "ongam": 3784,
      "osezantsi": 3785,
      "pan": 3786,
      "qwe": 3787,
      "rwada": 3788,
      "sta": 3789,
      "ubo": 3790,
      "wan": 3791,
      "yindawo": 3792,
      "yiswa": 3793,
      "zuku": 3794,
      "zane": 3795,
      "zezo": 3796,
      "zwelonke": 3797,
      "kungenxa": 3798,
      "ananye": 3799,
      "incam": 3800,
      "zithi": 3801,
      "zisu": 3802,
      "zisoloko": 3803,
      "zifakwe": 3804,
      "zifakelwe": 3805,
      "ngentla": 3806,
      "than": 3807,
      "thom": 3808,
      "pheleka": 3809,
      "weseyile": 3810,
      "amhlanje": 3811,
      "lukwano": 3812,
      "luhlaza": 3813,
      "khun": 3814,
      "lekileyo": 3815,
      "lawo": 3816,
      "lakho": 3817,
      "lathiso": 3818,
      "okukhulu": 3819,
      "okunye": 3820,
      "kwanga": 3821,
      "kwento": 3822,
      "kwandisa": 3823,
      "lolwazi": 3824,
      "ukubeka": 3825,
      "ukuqhuba": 3826,
      "ukujonga": 3827,
      "ukufikelela": 3828,
      "shukuma": 3829,
      "umba": 3830,
      "ezwa": 3831,
      "galelo": 3832,
      "sesine": 3833,
      "liki": 3834,
      "ngazo": 3835,
      "ezivu": 3836,
      "ezifunekayo": 3837,
      "amaplanga": 3838,
      "amakhamandela": 3839,
      "maba": 3840,
      "mahlanu": 3841,
      "ulun": 3842,
      "isiqhubi": 3843,
      "isiqingatha": 3844,
      "unts": 3845,
      "ingqalelo": 3846,
      "kwizinto": 3847,
      "emp": 3848,
      "emsebenzini": 3849,
      "beke": 3850,
      "wotshi": 3851,
      "esiphantsi": 3852,
      "esihamba": 3853,
      "esithile": 3854,
      "bhanti": 3855,
      "nalu": 3856,
      "nasi": 3857,
      "nalo": 3858,
      "zobomi": 3859,
      "khokela": 3860,
      "caba": 3861,
      "ngokusebenzisa": 3862,
      "ngokunjalo": 3863,
      "engamashumi": 3864,
      "qheke": 3865,
      "angena": 3866,
      "impembelelo": 3867,
      "lwamandla": 3868,
      "lwaselwandle": 3869,
      "kumqadi": 3870,
      "funi": 3871,
      "vala": 3872,
      "valwe": 3873,
      "esise": 3874,
      "yokufumana": 3875,
      "yokuphatha": 3876,
      "kwenyani": 3877,
      "ezino": 3878,
      "ezinje": 3879,
      "qale": 3880,
      "lwehlabathi": 3881,
      "Ukusetyenziswa": 3882,
      "Ukuhamba": 3883,
      "Ukuqinisekisa": 3884,
      "jikwe": 3885,
      "jikela": 3886,
      "ngemasti": 3887,
      "tifomu": 3888,
      "izibuko": 3889,
      "izikhongozeli": 3890,
      "linge": 3891,
      "yuke": 3892,
      "yuswa": 3893,
      "hlukan": 3894,
      "intonga": 3895,
      "ubuchule": 3896,
      "ubushushu": 3897,
      "zinyo": 3898,
      "zinzileyo": 3899,
      "cebo": 3900,
      "lokusingisa": 3901,
      "kwisithathu": 3902,
      "obungozi": 3903,
      "abaphathi": 3904,
      "linganisi": 3905,
      "meya": 3906,
      "ishwa": 3907,
      "phelele": 3908,
      "yenkqubo": 3909,
      "vuza": 3910,
      "phithi": 3911,
      "semanzini": 3912,
      "eta": 3913,
      "nomgama": 3914,
      "nomgca": 3915,
      "chwe": 3916,
      "chaziwe": 3917,
      "wokungena": 3918,
      "womthwalo": 3919,
      "elinamashumi": 3920,
      "moto": 3921,
      "mosfe": 3922,
      "yesiqu": 3923,
      "amanqaku": 3924,
      "amanyathelo": 3925,
      "eyathi": 3926,
      "rasi": 3927,
      "dlala": 3928,
      "pucu": 3929,
      "tshay": 3930,
      "coca": 3931,
      "eyini": 3932,
      "bonakale": 3933,
      "qwen": 3934,
      "qwini": 3935,
      "nesixhobo": 3936,
      "xinez": 3937,
      "kwesibini": 3938,
      "ANYE": 3939,
      "ANGA": 3940,
      "Intsontela": 3941,
      "zulwini": 3942,
      "wesiqu": 3943,
      "kisayo": 3944,
      "zendawo": 3945,
      "ING": 3946,
      "ukumelana": 3947,
      "ukumkani": 3948,
      "ezintlanu": 3949,
      "Imithetho": 3950,
      "ngezandla": 3951,
      "yezixhobo": 3952,
      "yezithuthi": 3953,
      "bokutshona": 3954,
      "kwisandla": 3955,
      "zelizwe": 3956,
      "lwezithuthi": 3957,
      "elingangeni": 3958,
      "kwemigangatho": 3959,
      "uyaku": 3960,
      "qumle": 3961,
      "kangangoko": 3962,
      "thelekiswa": 3963,
      "Brith": 3964,
      "ebusuku": 3965,
      "kubungakanani": 3966,
      "xhotyiso": 3967,
      "xhotyiswa": 3968,
      "sebenzisana": 3969,
      "pido": 3970,
      "ukususa": 3971,
      "ubuninzi": 3972,
      "lwemithwalo": 3973,
      "phatheka": 3974,
      "duluka": 3975,
      "zintathu": 3976,
      "tywila": 3977,
      "chaseneyo": 3978,
      "isinyithi": 3979,
      "sondela": 3980,
      "dokolwana": 3981,
      "phekepheke": 3982,
      "inkxaso": 3983,
      "cocekileyo": 3984,
      "khompatimenti": 3985,
      "Sebenzi": 3986,
      "gqubuthelo": 3987,
      "shenxiso": 3988,
      "liziyo": 3989,
      "Jamani": 3990,
      "phondo": 3991,
      "Inethwekhi": 3992,
      "OKANYE": 3993,
      "cenkcesh": 3994,
      "mosfera": 3995,
      "pucuko": 3996,
      "''.": 3997,
      "5000": 3998,
      "82": 3999,
      "AB": 4000,
      "AS": 4001,
      "At": 4002,
      "Aus": 4003,
      "Bo": 4004,
      "EK": 4005,
      "En": 4006,
      "Euro": 4007,
      "IB": 4008,
      "Iz": 4009,
      "Iza": 4010,
      "Iqondo": 4011,
      "Iphenyane": 4012,
      "Iintsontelo": 4013,
      "QH": 4014,
      "Re": 4015,
      "SE": 4016,
      "TS": 4017,
      "Ukum": 4018,
      "Uvavanyo": 4019,
      "Xha": 4020,
      "XHO": 4021,
      "Yimodeli": 4022,
      "athe": 4023,
      "asetyenziswa": 4024,
      "alandelayo": 4025,
      "bise": 4026,
      "benqanawe": 4027,
      "bena": 4028,
      "bukumkani": 4029,
      "con": 4030,
      "cimbi": 4031,
      "eye": 4032,
      "ethwekhi": 4033,
      "etsalwayo": 4034,
      "gqu": 4035,
      "iT": 4036,
      "iku": 4037,
      "iga": 4038,
      "ide": 4039,
      "ithatha": 4040,
      "iiseyile": 4041,
      "iphini": 4042,
      "iqhina": 4043,
      "igumbi": 4044,
      "ifanele": 4045,
      "ifakwe": 4046,
      "igiyeri": 4047,
      "ithwathwa": 4048,
      "ju": 4049,
      "kem": 4050,
      "lla": 4051,
      "mane": 4052,
      "nda": 4053,
      "nezo": 4054,
      "nolung": 4055,
      "oh": 4056,
      "ozi": 4057,
      "ongaphezulu": 4058,
      "ongekhoyo": 4059,
      "pili": 4060,
      "ring": 4061,
      "rane": 4062,
      "tro": 4063,
      "uke": 4064,
      "uqeqesho": 4065,
      "veni": 4066,
      "welo": 4067,
      "yana": 4068,
      "yintambo": 4069,
      "zana": 4070,
      "kuM": 4071,
      "kungokuba": 4072,
      "kudidi": 4073,
      "kuthetha": 4074,
      "anel": 4075,
      "inqa": 4076,
      "inokuba": 4077,
      "eliswe": 4078,
      "eleneyo": 4079,
      "elishumi": 4080,
      "enezi": 4081,
      "ence": 4082,
      "enamandla": 4083,
      "ziinqanawa": 4084,
      "zigcinwe": 4085,
      "zisetyenziswe": 4086,
      "ngan": 4087,
      "ngent": 4088,
      "thri": 4089,
      "thandela": 4090,
      "phulu": 4091,
      "yezo": 4092,
      "yeetoni": 4093,
      "ambalwa": 4094,
      "khan": 4095,
      "khena": 4096,
      "khanyo": 4097,
      "khenk": 4098,
      "kalisa": 4099,
      "kwana": 4100,
      "kwang": 4101,
      "kwentloko": 4102,
      "yazi": 4103,
      "yasu": 4104,
      "lolo": 4105,
      "ukuhlala": 4106,
      "ukujikeleza": 4107,
      "ukulungisa": 4108,
      "umphantsi": 4109,
      "umphandle": 4110,
      "umdla": 4111,
      "umbhobho": 4112,
      "sekelwe": 4113,
      "buza": 4114,
      "bucala": 4115,
      "bungozi": 4116,
      "liye": 4117,
      "liba": 4118,
      "lixesha": 4119,
      "zawo": 4120,
      "kwaseku": 4121,
      "ezizo": 4122,
      "ezibekwe": 4123,
      "mawu": 4124,
      "maxesha": 4125,
      "uluhlu": 4126,
      "isiya": 4127,
      "isibini": 4128,
      "isikhuseli": 4129,
      "isikhitshana": 4130,
      "isigqibo": 4131,
      "bilisi": 4132,
      "unxantathu": 4133,
      "yiwe": 4134,
      "yiweyo": 4135,
      "kween": 4136,
      "kwesa": 4137,
      "kweyona": 4138,
      "sapho": 4139,
      "wokwenza": 4140,
      "eside": 4141,
      "esiphambili": 4142,
      "elilungileyo": 4143,
      "antla": 4144,
      "zeko": 4145,
      "bhen": 4146,
      "entanjeni": 4147,
      "nale": 4148,
      "zobe": 4149,
      "zogcino": 4150,
      "cali": 4151,
      "ngokuqinileyo": 4152,
      "imile": 4153,
      "imbumbulu": 4154,
      "lwam": 4155,
      "lwase": 4156,
      "lwakhe": 4157,
      "kumphandle": 4158,
      "kumsinga": 4159,
      "kumkani": 4160,
      "ngohlobo": 4161,
      "valwa": 4162,
      "olusuka": 4163,
      "olululo": 4164,
      "yokugcina": 4165,
      "yokubeka": 4166,
      "kwenqanawe": 4167,
      "ezineziqu": 4168,
      "khulayo": 4169,
      "jikwa": 4170,
      "jiweyo": 4171,
      "nekhulu": 4172,
      "necala": 4173,
      "neenyawo": 4174,
      "fakela": 4175,
      "qhushe": 4176,
      "hafu": 4177,
      "Umva": 4178,
      "nobude": 4179,
      "izim": 4180,
      "Inqanawe": 4181,
      "Indoda": 4182,
      "Inxenye": 4183,
      "Ngeli": 4184,
      "Ngil": 4185,
      "khapt": 4186,
      "ubungozi": 4187,
      "ezakhiwe": 4188,
      "ezahlukileyo": 4189,
      "komhlaba": 4190,
      "lokugqibela": 4191,
      "zokuhlala": 4192,
      "zokubophelela": 4193,
      "emipu": 4194,
      "yomsebenzi": 4195,
      "yomntu": 4196,
      "phumelele": 4197,
      "abakhweli": 4198,
      "ishini": 4199,
      "fuma": 4200,
      "engaphakathi": 4201,
      "Kungokuba": 4202,
      "rike": 4203,
      "phila": 4204,
      "philayo": 4205,
      "sinoku": 4206,
      "sindi": 4207,
      "sinyane": 4208,
      "bhata": 4209,
      "zomgangatho": 4210,
      "eline": 4211,
      "Kwangoko": 4212,
      "bhexi": 4213,
      "bambel": 4214,
      "linamashumi": 4215,
      "sombane": 4216,
      "tshat": 4217,
      "yaniso": 4218,
      "esinoku": 4219,
      "xhaxhe": 4220,
      "ngomthi": 4221,
      "ngumsebenzi": 4222,
      "kwesikhephe": 4223,
      "ayizange": 4224,
      "ANZI": 4225,
      "iinqanawe": 4226,
      "Amagama": 4227,
      "tor": 4228,
      "topido": 4229,
      "onophelo": 4230,
      "qinisekiso": 4231,
      "zimisela": 4232,
      "KUN": 4233,
      "nguM": 4234,
      "anyana": 4235,
      "sesikweni": 4236,
      "kungabikho": 4237,
      "emalunga": 4238,
      "xibel": 4239,
      "zezixhobo": 4240,
      "camini": 4241,
      "kwisin": 4242,
      "hlanganisa": 4243,
      "imoto": 4244,
      "oren": 4245,
      "rudder": 4246,
      "vavanya": 4247,
      "qwalasele": 4248,
      "ngxunya": 4249,
      "qhubekeke": 4250,
      "rhintyelo": 4251,
      "funyanwe": 4252,
      "rhuqo": 4253,
      "kwamanye": 4254,
      "lungiselelwa": 4255,
      "ngelixesha": 4256,
      "lobugcisa": 4257,
      "jikelezisa": 4258,
      "Abasebenzi": 4259,
      "ingxunya": 4260,
      "choyi": 4261,
      "tyibilika": 4262,
      "owona": 4263,
      "esingu": 4264,
      "ekrwada": 4265,
      "isenzo": 4266,
      "olwenziwa": 4267,
      "atmosfera": 4268,
      "ponti": 4269,
      "phucula": 4270,
      "kufuneke": 4271,
      "setyen": 4272,
      "isisombululo": 4273,
      "thabatha": 4274,
      "hlalutyo": 4275,
      "ezilayishelwa": 4276,
      "ongameli": 4277,
      "khundla": 4278,
      "untswana": 4279,
      "cenkceshela": 4280,
      "Austra": 4281,
      "120": 4282,
      "32": 4283,
      "78": 4284,
      "An": 4285,
      "Apho": 4286,
      "ALA": 4287,
      "Akufune": 4288,
      "DU": 4289,
      "Ezo": 4290,
      "Ezin": 4291,
      "Eyokuqala": 4292,
      "Imeko": 4293,
      "Iqhina": 4294,
      "Ilaphu": 4295,
      "Kwezi": 4296,
      "Nje": 4297,
      "Ntshona": 4298,
      "Pub": 4299,
      "Qin": 4300,
      "Ra": 4301,
      "Ulwazi": 4302,
      "Udidi": 4303,
      "Ubuchule": 4304,
      "USA": 4305,
      "Umatshini": 4306,
      "VA": 4307,
      "Yenza": 4308,
      "ZO": 4309,
      "Zazin": 4310,
      "ab": 4311,
      "bloko": 4312,
      "bentsontelo": 4313,
      "dam": 4314,
      "duma": 4315,
      "dleko": 4316,
      "dwel": 4317,
      "ehlo": 4318,
      "ekunene": 4319,
      "ekumisa": 4320,
      "ima": 4321,
      "izo": 4322,
      "ifun": 4323,
      "ikhu": 4324,
      "ikakhulu": 4325,
      "ikwazi": 4326,
      "iquka": 4327,
      "ilungele": 4328,
      "ityathanga": 4329,
      "iqine": 4330,
      "lga": 4331,
      "leng": 4332,
      "lentsimbi": 4333,
      "lisetyenziselwa": 4334,
      "mgangatho": 4335,
      "mkhosi": 4336,
      "mpawu": 4337,
      "neli": 4338,
      "nkulu": 4339,
      "nento": 4340,
      "oo": 4341,
      "osetyenziswa": 4342,
      "okwenza": 4343,
      "ongaphantsi": 4344,
      "ongaphambili": 4345,
      "oshushu": 4346,
      "obomi": 4347,
      "osembindini": 4348,
      "per": 4349,
      "pesenti": 4350,
      "qand": 4351,
      "qweni": 4352,
      "san": 4353,
      "sez": 4354,
      "sise": 4355,
      "sokuba": 4356,
      "sentsika": 4357,
      "sentloko": 4358,
      "sambuku": 4359,
      "utsa": 4360,
      "uhamba": 4361,
      "ufumane": 4362,
      "uzaku": 4363,
      "utsalo": 4364,
      "xibe": 4365,
      "xube": 4366,
      "yele": 4367,
      "yamandla": 4368,
      "yunithi": 4369,
      "zenqanawe": 4370,
      "zezinto": 4371,
      "zwi": 4372,
      "kuhamba": 4373,
      "kusen": 4374,
      "inyawo": 4375,
      "injongo": 4376,
      "inkqubela": 4377,
      "inxalenye": 4378,
      "elelw": 4379,
      "elisetyenziselwa": 4380,
      "enem": 4381,
      "wakho": 4382,
      "zihamba": 4383,
      "thw": 4384,
      "isangqa": 4385,
      "isond": 4386,
      "phene": 4387,
      "yesantya": 4388,
      "yedabi": 4389,
      "yogcino": 4390,
      "amva": 4391,
      "lunye": 4392,
      "kheni": 4393,
      "lewaka": 4394,
      "lali": 4395,
      "layi": 4396,
      "siye": 4397,
      "simbi": 4398,
      "sibekwe": 4399,
      "sizathu": 4400,
      "baye": 4401,
      "baba": 4402,
      "babo": 4403,
      "baxa": 4404,
      "bakwazi": 4405,
      "ka19": 4406,
      "kweng": 4407,
      "lohlobo": 4408,
      "loni": 4409,
      "ukubona": 4410,
      "ukulawula": 4411,
      "ukuxhasa": 4412,
      "ukulayisha": 4413,
      "ukudlula": 4414,
      "ukutshintsha": 4415,
      "ukuphakamisa": 4416,
      "ukuphawula": 4417,
      "kosi": 4418,
      "elawu": 4419,
      "elaphu": 4420,
      "ezwe": 4421,
      "gaqweni": 4422,
      "seenqanawa": 4423,
      "secaleni": 4424,
      "onj": 4425,
      "andulu": 4426,
      "andiso": 4427,
      "lide": 4428,
      "omsebenzi": 4429,
      "ombane": 4430,
      "ngakulo": 4431,
      "ngasemoyeni": 4432,
      "kwale": 4433,
      "eziphezulu": 4434,
      "amagama": 4435,
      "maku": 4436,
      "malwenziwe": 4437,
      "dayam": 4438,
      "kanti": 4439,
      "unxweme": 4440,
      "enziweyo": 4441,
      "kwixa": 4442,
      "kwiqela": 4443,
      "kwimozulu": 4444,
      "emileyo": 4445,
      "emisiweyo": 4446,
      "embalwa": 4447,
      "emine": 4448,
      "kunyaka": 4449,
      "kwezinto": 4450,
      "beku": 4451,
      "salela": 4452,
      "sakhe": 4453,
      "tshisa": 4454,
      "esithe": 4455,
      "esiqwini": 4456,
      "elithe": 4457,
      "eliqinileyo": 4458,
      "thala": 4459,
      "nasemva": 4460,
      "khokeli": 4461,
      "ngokuqhelekileyo": 4462,
      "ngokukhuselekileyo": 4463,
      "ngokubhekiselele": 4464,
      "dibi": 4465,
      "dilili": 4466,
      "qhek": 4467,
      "angamashumi": 4468,
      "imba": 4469,
      "imfuneko": 4470,
      "kumbhobho": 4471,
      "ngolo": 4472,
      "vaka": 4473,
      "oluthe": 4474,
      "oluhlobo": 4475,
      "olufutshane": 4476,
      "olunzima": 4477,
      "yokuqhuba": 4478,
      "yokutyela": 4479,
      "yokuloba": 4480,
      "ezinjalo": 4481,
      "khuph": 4482,
      "phamba": 4483,
      "lweyo": 4484,
      "lwesantya": 4485,
      "lwelwe": 4486,
      "lwanyana": 4487,
      "ukubaleka": 4488,
      "ukubaluleka": 4489,
      "lungela": 4490,
      "lungile": 4491,
      "ntloko": 4492,
      "ngeyure": 4493,
      "mithetho": 4494,
      "ekutsa": 4495,
      "ekuhlala": 4496,
      "ekuhambeni": 4497,
      "enekazi": 4498,
      "tic": 4499,
      "hashe": 4500,
      "hlam": 4501,
      "hlanga": 4502,
      "Umthwalo": 4503,
      "nolwazi": 4504,
      "nolwandle": 4505,
      "izikhuseli": 4506,
      "Ink": 4507,
      "sus": 4508,
      "sungu": 4509,
      "lingane": 4510,
      "qithi": 4511,
      "yuswe": 4512,
      "bhola": 4513,
      "ciphe": 4514,
      "hluke": 4515,
      "rhweni": 4516,
      "cety": 4517,
      "bonelela": 4518,
      "inaku": 4519,
      "inako": 4520,
      "njengen": 4521,
      "njengoku": 4522,
      "kwisihlenga": 4523,
      "yomva": 4524,
      "yomsinga": 4525,
      "yompu": 4526,
      "yomlilo": 4527,
      "phumeleli": 4528,
      "linganis": 4529,
      "linganiselwe": 4530,
      "linganiselwa": 4531,
      "lomhlaba": 4532,
      "Kukwa": 4533,
      "vuleka": 4534,
      "kumakhulu": 4535,
      "joliswe": 4536,
      "nomsebenzi": 4537,
      "nomsinga": 4538,
      "nomlinganiselo": 4539,
      "chitha": 4540,
      "fanela": 4541,
      "wokunk": 4542,
      "woma": 4543,
      "hlekazi": 4544,
      "umalunga": 4545,
      "amanqanaba": 4546,
      "rabha": 4547,
      "Iziphumo": 4548,
      "iibhombu": 4549,
      "gula": 4550,
      "kwezixhobo": 4551,
      "linoku": 4552,
      "cothayo": 4553,
      "fihla": 4554,
      "tshitshi": 4555,
      "ngamacala": 4556,
      "ngamaplanga": 4557,
      "xhaswe": 4558,
      "ngumn": 4559,
      "nenkqubo": 4560,
      "tafu": 4561,
      "iinqwelo": 4562,
      "Intsika": 4563,
      "wesibini": 4564,
      "umbilini": 4565,
      "tshintshwa": 4566,
      "senzo": 4567,
      "ibekwa": 4568,
      "khuselekile": 4569,
      "KUM": 4570,
      "zendalo": 4571,
      "phawuli": 4572,
      "elelaniso": 4573,
      "emayile": 4574,
      "zibekwa": 4575,
      "yimu": 4576,
      "veliswa": 4577,
      "ngezwa": 4578,
      "anesithathu": 4579,
      "anesibhozo": 4580,
      "anesithandathu": 4581,
      "ngesixhobo": 4582,
      "yangaphambili": 4583,
      "lwenkqubo": 4584,
      "rhwebi": 4585,
      "lwesiqu": 4586,
      "lwesibini": 4587,
      "dibene": 4588,
      "hlangula": 4589,
      "dubuli": 4590,
      "kwemisonto": 4591,
      "ngoncedo": 4592,
      "PHE": 4593,
      "yemfaniso": 4594,
      "sisombululo": 4595,
      "qhelekile": 4596,
      "sebenzela": 4597,
      "SAS": 4598,
      "lahleko": 4599,
      "khutshelwa": 4600,
      "cingelwa": 4601,
      "SIM": 4602,
      "ingxuma": 4603,
      "ingqiweyo": 4604,
      "andulo": 4605,
      "leminyaka": 4606,
      "thengiso": 4607,
      "isenokuba": 4608,
      "likaxakeka": 4609,
      "thandabuza": 4610,
      "tulo": 4611,
      "themba": 4612,
      "iingxaki": 4613,
      "enamaphiko": 4614,
      "phetheyo": 4615,
      "cinezelo": 4616,
      "Phantsi": 4617,
      "gciniweyo": 4618,
      "okwexeshana": 4619,
      "ombolo": 4620,
      "chaphazeleka": 4621,
      "izandla": 4622,
      "Indiya": 4623,
      "qanwa": 4624,
      "qatyisiweyo": 4625,
      "engumlwelwe": 4626,
      "qhwithelo": 4627,
      "elandelayo": 4628,
      "qinisekise": 4629,
      "coselelo": 4630,
      "ght": 4631,
      "ABCD": 4632,
      "Europe": 4633,
      "ranean": 4634,
      "khenkce": 4635,
      "khapteyini": 4636,
      "Australi": 4637,
      "wokunkcenkceshela": 4638,
      "..": 4639,
      "27": 4640,
      "45": 4641,
      "AF": 4642,
      "Bel": 4643,
      "Bla": 4644,
      "Edwa": 4645,
      "Elinye": 4646,
      "IG": 4647,
      "Ir": 4648,
      "Iya": 4649,
      "Iint": 4650,
      "Ibha": 4651,
      "Iindlela": 4652,
      "Isoloko": 4653,
      "Ilungu": 4654,
      "IZI": 4655,
      "Iintlobo": 4656,
      "KWA": 4657,
      "Kanti": 4658,
      "Mpuma": 4659,
      "Nan": 4660,
      "Oko": 4661,
      "Po": 4662,
      "PDU": 4663,
      "Qu": 4664,
      "Sh": 4665,
      "Sisi": 4666,
      "Unga": 4667,
      "Uluhlu": 4668,
      "Vic": 4669,
      "WENI": 4670,
      "YI": 4671,
      "Zinga": 4672,
      "awa": 4673,
      "abu": 4674,
      "asa": 4675,
      "awu": 4676,
      "aphe": 4677,
      "athile": 4678,
      "abang": 4679,
      "aselwandle": 4680,
      "beng": 4681,
      "belu": 4682,
      "dun": 4683,
      "ekum": 4684,
      "etho": 4685,
      "exho": 4686,
      "esasa": 4687,
      "edadayo": 4688,
      "ebalulekileyo": 4689,
      "edityanisiweyo": 4690,
      "ekhululekileyo": 4691,
      "gra": 4692,
      "giya": 4693,
      "henj": 4694,
      "iM": 4695,
      "ibin": 4696,
      "ixabiso": 4697,
      "jinge": 4698,
      "kelekileyo": 4699,
      "ll": 4700,
      "lani": 4701,
      "lanti": 4702,
      "mnye": 4703,
      "mthetho": 4704,
      "msinyane": 4705,
      "ncam": 4706,
      "oza": 4707,
      "okwa": 4708,
      "ophantsi": 4709,
      "owaye": 4710,
      "qingqiweyo": 4711,
      "seli": 4712,
      "seng": 4713,
      "senziwe": 4714,
      "sisetyenziswa": 4715,
      "sentsontelo": 4716,
      "tri": 4717,
      "ul": 4718,
      "uba": 4719,
      "uhlo": 4720,
      "uvu": 4721,
      "ukwenziwa": 4722,
      "uyilo": 4723,
      "uvavanyo": 4724,
      "vuma": 4725,
      "weleyo": 4726,
      "wentsimbi": 4727,
      "yintloko": 4728,
      "zany": 4729,
      "zentsontelo": 4730,
      "zintlobo": 4731,
      "kula": 4732,
      "kusi": 4733,
      "kuhlobo": 4734,
      "kurhwebo": 4735,
      "kubunzulu": 4736,
      "kushishino": 4737,
      "kufanelwe": 4738,
      "aniswa": 4739,
      "inda": 4740,
      "elweni": 4741,
      "enya": 4742,
      "encamini": 4743,
      "wambi": 4744,
      "waselwandle": 4745,
      "zise": 4746,
      "zixhobo": 4747,
      "zizonke": 4748,
      "zibizwa": 4749,
      "zilandelayo": 4750,
      "zilungele": 4751,
      "zibotshelelwe": 4752,
      "zikanomathotholo": 4753,
      "ngentsimbi": 4754,
      "thisi": 4755,
      "thelwe": 4756,
      "thunzi": 4757,
      "iselwano": 4758,
      "phem": 4759,
      "phanga": 4760,
      "wemozulu": 4761,
      "yolu": 4762,
      "amsebenzi": 4763,
      "lulu": 4764,
      "luni": 4765,
      "khono": 4766,
      "ley": 4767,
      "lekele": 4768,
      "baza": 4769,
      "bazo": 4770,
      "kaliswa": 4771,
      "okungena": 4772,
      "kwand": 4773,
      "kwentsika": 4774,
      "yalela": 4775,
      "yaso": 4776,
      "yaleli": 4777,
      "lodwa": 4778,
      "lonto": 4779,
      "lokhuselo": 4780,
      "ukutya": 4781,
      "ukuphatha": 4782,
      "ukuphinda": 4783,
      "ukukhulula": 4784,
      "ukuqinisa": 4785,
      "ukungenisa": 4786,
      "kobu": 4787,
      "kobunzima": 4788,
      "umjelo": 4789,
      "umxeba": 4790,
      "umthamo": 4791,
      "bolwazi": 4792,
      "qanaweni": 4793,
      "gal": 4794,
      "sesangqa": 4795,
      "onoku": 4796,
      "bula": 4797,
      "buka": 4798,
      "lilweni": 4799,
      "zaliswa": 4800,
      "zabeth": 4801,
      "ngako": 4802,
      "ngasentla": 4803,
      "kwade": 4804,
      "kwamandla": 4805,
      "ezibalulekileyo": 4806,
      "ezisebenzisanayo": 4807,
      "amacandelo": 4808,
      "may": 4809,
      "mathathu": 4810,
      "mathandathu": 4811,
      "ulula": 4812,
      "isibonda": 4813,
      "bizo": 4814,
      "bilini": 4815,
      "inikezela": 4816,
      "ingen": 4817,
      "ingcingo": 4818,
      "kwimfazwe": 4819,
      "kwiinqanawe": 4820,
      "kwiflegi": 4821,
      "kwirhintyela": 4822,
      "emini": 4823,
      "emgaqweni": 4824,
      "phawun": 4825,
      "isalatha": 4826,
      "kweseyile": 4827,
      "sazinge": 4828,
      "esiqhelekileyo": 4829,
      "esiqhutywa": 4830,
      "zee": 4831,
      "zeke": 4832,
      "zeki": 4833,
      "entlobo": 4834,
      "entlanzi": 4835,
      "naso": 4836,
      "zolwazi": 4837,
      "zocingo": 4838,
      "zokhuselo": 4839,
      "ngokusetyenziswa": 4840,
      "ngokulula": 4841,
      "ngokulungileyo": 4842,
      "ngokulandelelana": 4843,
      "qhino": 4844,
      "angangeni": 4845,
      "imiswe": 4846,
      "imfuno": 4847,
      "thuka": 4848,
      "kumthwalo": 4849,
      "ngolwazi": 4850,
      "ngokwenene": 4851,
      "xhesh": 4852,
      "xhoma": 4853,
      "ingalo": 4854,
      "yokuzi": 4855,
      "yokulwa": 4856,
      "yokungena": 4857,
      "kwenkqubo": 4858,
      "kwenzelwa": 4859,
      "lwezinto": 4860,
      "wuphi": 4861,
      "Ukulungisa": 4862,
      "thwale": 4863,
      "neku": 4864,
      "nemasti": 4865,
      "khetha": 4866,
      "ntle": 4867,
      "funekanga": 4868,
      "ekuqhu": 4869,
      "qongqo": 4870,
      "qhutywe": 4871,
      "tion": 4872,
      "soko": 4873,
      "hlise": 4874,
      "noM": 4875,
      "nolawulo": 4876,
      "izivalo": 4877,
      "nokunga": 4878,
      "nokuzala": 4879,
      "Ngonyaka": 4880,
      "phosa": 4881,
      "ngenzeka": 4882,
      "qiqo": 4883,
      "qikelela": 4884,
      "yuso": 4885,
      "citho": 4886,
      "citshiswa": 4887,
      "fula": 4888,
      "fuzis": 4889,
      "rhi": 4890,
      "zinyawo": 4891,
      "ceke": 4892,
      "cede": 4893,
      "phuli": 4894,
      "komlinganiselo": 4895,
      "inatha": 4896,
      "Isibini": 4897,
      "gqibe": 4898,
      "phumelo": 4899,
      "ishiye": 4900,
      "lombane": 4901,
      "lomlilo": 4902,
      "fuman": 4903,
      "phelisa": 4904,
      "yenqwelo": 4905,
      "engaphezulu": 4906,
      "Kuba": 4907,
      "Kuzo": 4908,
      "vuzo": 4909,
      "imilinganiselo": 4910,
      "kwinani": 4911,
      "kwindlu": 4912,
      "kumazwe": 4913,
      "chako": 4914,
      "womnatha": 4915,
      "qonda": 4916,
      "yesikhitshane": 4917,
      "omabini": 4918,
      "rake": 4919,
      "Kwizi": 4920,
      "Kwiminyaka": 4921,
      "iimasti": 4922,
      "gubo": 4923,
      "kwezithuthi": 4924,
      "bhethri": 4925,
      "enayo": 4926,
      "copho": 4927,
      "cochoyi": 4928,
      "eyenziwa": 4929,
      "tshiza": 4930,
      "esincinane": 4931,
      "kwazisa": 4932,
      "xhathiso": 4933,
      "xinano": 4934,
      "vumelana": 4935,
      "ngomhla": 4936,
      "ngumoya": 4937,
      "ayikho": 4938,
      "ANT": 4939,
      "iinkwili": 4940,
      "zula": 4941,
      "wesithathu": 4942,
      "lendlela": 4943,
      "tore": 4944,
      "tshintshelwa": 4945,
      "belana": 4946,
      "beleza": 4947,
      "ENZ": 4948,
      "bangwa": 4949,
      "dityaniso": 4950,
      "wenze": 4951,
      "gqume": 4952,
      "kwamazwe": 4953,
      "Ngapha": 4954,
      "INDA": 4955,
      "bophelele": 4956,
      "bopheleli": 4957,
      "botshwa": 4958,
      "xilo": 4959,
      "illi": 4960,
      "ileli": 4961,
      "namacala": 4962,
      "kulungile": 4963,
      "kwimisonto": 4964,
      "anesixhenxe": 4965,
      "ngesikhephe": 4966,
      "anyathelo": 4967,
      "lwendlela": 4968,
      "konxa": 4969,
      "ilahleko": 4970,
      "jeka": 4971,
      "hlangu": 4972,
      "kweminyaka": 4973,
      "bhudla": 4974,
      "lesikhephe": 4975,
      "ngeziweyo": 4976,
      "ngezixhobo": 4977,
      "qwalaseli": 4978,
      "nemigangatho": 4979,
      "velaphi": 4980,
      "Babe": 4981,
      "yabaphathi": 4982,
      "AMBO": 4983,
      "AMBI": 4984,
      "qumrhu": 4985,
      "lamajoni": 4986,
      "shici": 4987,
      "yusayo": 4988,
      "khitshaneni": 4989,
      "ngelixa": 4990,
      "oluninzi": 4991,
      "THO": 4992,
      "khululekile": 4993,
      "BON": 4994,
      "xulumano": 4995,
      "enokuthi": 4996,
      "sebenziswano": 4997,
      "kungcono": 4998,
      "esetyenziswayo": 4999,
      "ukongeza": 5000,
      "DoDI": 5001,
      "ibaleka": 5002,
      "esingaphambili": 5003,
      "lwemfaniso": 5004,
      "qhobo": 5005,
      "Elizabeth": 5006,
      "kwingingqi": 5007,
      "yinge": 5008,
      "ngokomthetho": 5009,
      "tsiba": 5010,
      "zibukweni": 5011,
      "Lawu": 5012,
      "unobangela": 5013,
      "tsheyini": 5014,
      "Intonga": 5015,
      "lemipu": 5016,
      "imehlo": 5017,
      "platifomu": 5018,
      "cedisayo": 5019,
      "olwalu": 5020,
      "bhakabhaka": 5021,
      "MSET": 5022,
      "oknaye": 5023,
      "ayinaku": 5024,
      "kungenzeka": 5025,
      "xhonywa": 5026,
      "xhonywe": 5027,
      "Iimpawu": 5028,
      "pteni": 5029,
      "hlawulwa": 5030,
      "ukunikezela": 5031,
      "abaninzi": 5032,
      "ikhuseleke": 5033,
      "vavanywa": 5034,
      "Phakathi": 5035,
      "ngokwesiqhelo": 5036,
      "phikisana": 5037,
      "vunyelwe": 5038,
      "semazantsi": 5039,
      "tyhubhu": 5040,
      "canyathiselwe": 5041,
      "nanjengoko": 5042,
      "freyimu": 5043,
      "SMC": 5044,
      "khandiweyo": 5045,
      "alumini": 5046,
      "Sebenzisa": 5047,
      "xibelelwano": 5048,
      "phawunda": 5049,
      "xhesho": 5050,
      "MSETT": 5051,
      "AK": 5052,
      "Aku": 5053,
      "Beka": 5054,
      "CE": 5055,
      "Ch": 5056,
      "Co": 5057,
      "DE": 5058,
      "DSMC": 5059,
      "ER": 5060,
      "ES": 5061,
      "Ezona": 5062,
      "Fa": 5063,
      "Gcin": 5064,
      "HLA": 5065,
      "Ip": 5066,
      "Iye": 5067,
      "Iing": 5068,
      "Ibh": 5069,
      "Izin": 5070,
      "Imasti": 5071,
      "Irhintyela": 5072,
      "Kha": 5073,
      "Kamva": 5074,
      "MP": 5075,
      "Mfazwe": 5076,
      "Mayi": 5077,
      "Nor": 5078,
      "Omnye": 5079,
      "Ro": 5080,
      "Ucingo": 5081,
      "Unyu": 5082,
      "Uphawu": 5083,
      "Ukwenziwa": 5084,
      "Ze": 5085,
      "athi": 5086,
      "akhe": 5087,
      "akwazi": 5088,
      "ahlala": 5089,
      "asezantsi": 5090,
      "bene": 5091,
      "cand": 5092,
      "celele": 5093,
      "dana": 5094,
      "dile": 5095,
      "ev": 5096,
      "ekhu": 5097,
      "ehlala": 5098,
      "edibanisa": 5099,
      "ethetha": 5100,
      "evela": 5101,
      "ethutha": 5102,
      "efakelwe": 5103,
      "ephakamileyo": 5104,
      "esebenzayo": 5105,
      "eemitha": 5106,
      "fes": 5107,
      "gr": 5108,
      "iH": 5109,
      "iP": 5110,
      "iphantsi": 5111,
      "ikhona": 5112,
      "iban": 5113,
      "ibha": 5114,
      "ifumane": 5115,
      "ilungileyo": 5116,
      "ibonakala": 5117,
      "ibalulekileyo": 5118,
      "iintsimbi": 5119,
      "ibhokisi": 5120,
      "ipali": 5121,
      "igophe": 5122,
      "keng": 5123,
      "kyu": 5124,
      "ly": 5125,
      "lisetyenziswa": 5126,
      "lanjeni": 5127,
      "mthwalo": 5128,
      "mfuneko": 5129,
      "mandundu": 5130,
      "nqwelo": 5131,
      "ohamba": 5132,
      "oto": 5133,
      "okwenziwa": 5134,
      "ofanayo": 5135,
      "okhuselekileyo": 5136,
      "sentsimbi": 5137,
      "sengozi": 5138,
      "uB": 5139,
      "ubum": 5140,
      "usebenzise": 5141,
      "ukwehla": 5142,
      "ukwamkela": 5143,
      "ugqatso": 5144,
      "ught": 5145,
      "wulu": 5146,
      "weng": 5147,
      "yel": 5148,
      "zani": 5149,
      "zezinye": 5150,
      "kud": 5151,
      "kubhetele": 5152,
      "ans": 5153,
      "anzulu": 5154,
      "inq": 5155,
      "inxaxheba": 5156,
      "elishwa": 5157,
      "enkwenkwezi": 5158,
      "wam": 5159,
      "walo": 5160,
      "wazo": 5161,
      "zila": 5162,
      "zizaku": 5163,
      "zihambe": 5164,
      "ngeng": 5165,
      "ngesin": 5166,
      "ngxaki": 5167,
      "thambo": 5168,
      "thingi": 5169,
      "isandi": 5170,
      "iswano": 5171,
      "weC": 5172,
      "weplanga": 5173,
      "wephenyane": 5174,
      "yeka": 5175,
      "yexesha": 5176,
      "yeqela": 5177,
      "yezinto": 5178,
      "yeenyawo": 5179,
      "yesine": 5180,
      "yemozulu": 5181,
      "yedokisi": 5182,
      "yoM": 5183,
      "yolawulo": 5184,
      "yokwenene": 5185,
      "ambe": 5186,
      "luza": 5187,
      "ludidi": 5188,
      "kheli": 5189,
      "khuma": 5190,
      "khenkc": 5191,
      "khrasi": 5192,
      "laku": 5193,
      "lalo": 5194,
      "sila": 5195,
      "sikwa": 5196,
      "sileyo": 5197,
      "basi": 5198,
      "baya": 5199,
      "base": 5200,
      "bali": 5201,
      "bayi": 5202,
      "okunga": 5203,
      "okuthe": 5204,
      "kwangoku": 5205,
      "anakho": 5206,
      "yale": 5207,
      "yakhiwe": 5208,
      "lokwenene": 5209,
      "ukubha": 5210,
      "ukulunga": 5211,
      "ukudada": 5212,
      "ukutsalwa": 5213,
      "ukudubula": 5214,
      "ukukhanya": 5215,
      "ukulungiswa": 5216,
      "ukuvelisa": 5217,
      "ukuphambuka": 5218,
      "ukuxhathisa": 5219,
      "kop": 5220,
      "koxinzelelo": 5221,
      "umeya": 5222,
      "umngxuma": 5223,
      "bobugcisa": 5224,
      "ezenziwa": 5225,
      "seyi": 5226,
      "onobu": 5227,
      "onamandla": 5228,
      "bulula": 5229,
      "busuku": 5230,
      "andleni": 5231,
      "lim": 5232,
      "zazing": 5233,
      "ngabo": 5234,
      "ngase": 5235,
      "ezithi": 5236,
      "ezikhulu": 5237,
      "ezivulekileyo": 5238,
      "ezisebenzayo": 5239,
      "amaphenyane": 5240,
      "amagumbi": 5241,
      "amafutha": 5242,
      "mazibe": 5243,
      "makube": 5244,
      "dayo": 5245,
      "kanya": 5246,
      "kaninzi": 5247,
      "kananjalo": 5248,
      "isivalo": 5249,
      "isizathu": 5250,
      "isikali": 5251,
      "isikhokelo": 5252,
      "isivingco": 5253,
      "isitishi": 5254,
      "bizane": 5255,
      "enzisiwe": 5256,
      "ingenza": 5257,
      "ingenzeka": 5258,
      "kwip": 5259,
      "kwibh": 5260,
      "kwikha": 5261,
      "kwimo": 5262,
      "kwiphenyane": 5263,
      "kwibala": 5264,
      "kwiyadi": 5265,
      "emele": 5266,
      "emlilweni": 5267,
      "kunom": 5268,
      "kunyusa": 5269,
      "kunyanz": 5270,
      "kweyiphi": 5271,
      "bethwa": 5272,
      "sayizi": 5273,
      "tshizi": 5274,
      "wobugcisa": 5275,
      "esikhephe": 5276,
      "esifutshane": 5277,
      "esibizwa": 5278,
      "esifunekayo": 5279,
      "tyulwa": 5280,
      "angaphezulu": 5281,
      "angaphandle": 5282,
      "aneshumi": 5283,
      "entle": 5284,
      "entsuku": 5285,
      "zoba": 5286,
      "zodidi": 5287,
      "zokhiwa": 5288,
      "zokhuni": 5289,
      "caca": 5290,
      "ngokuya": 5291,
      "ngokubeka": 5292,
      "ngokungena": 5293,
      "ngokudibanisa": 5294,
      "ngokufanayo": 5295,
      "ngokugqibeleleyo": 5296,
      "imini": 5297,
      "imim": 5298,
      "impawu": 5299,
      "impumelelo": 5300,
      "imveliso": 5301,
      "thuli": 5302,
      "thulwa": 5303,
      "kumhlaba": 5304,
      "kumqondiso": 5305,
      "funde": 5306,
      "funwayo": 5307,
      "ngobu": 5308,
      "ngosuku": 5309,
      "ngokwem": 5310,
      "thonga": 5311,
      "isong": 5312,
      "isekileyo": 5313,
      "isebenze": 5314,
      "ingaba": 5315,
      "olutsha": 5316,
      "olufunekayo": 5317,
      "olucacileyo": 5318,
      "esele": 5319,
      "esona": 5320,
      "yokujika": 5321,
      "yokubamba": 5322,
      "yokuxhasa": 5323,
      "ezinemi": 5324,
      "khule": 5325,
      "phambuko": 5326,
      "lween": 5327,
      "lwent": 5328,
      "lwando": 5329,
      "lwandiso": 5330,
      "jike": 5331,
      "nexesha": 5332,
      "lungiswe": 5333,
      "ntoni": 5334,
      "phephez": 5335,
      "ngeyona": 5336,
      "funeke": 5337,
      "funeki": 5338,
      "mila": 5339,
      "mihla": 5340,
      "ekuthwa": 5341,
      "ekulapho": 5342,
      "qhubo": 5343,
      "Umn": 5344,
      "Umphakathi": 5345,
      "nought": 5346,
      "izihlenga": 5347,
      "nokuzi": 5348,
      "nokuyi": 5349,
      "Inqwelo": 5350,
      "ngenjongo": 5351,
      "setyenziselwe": 5352,
      "cici": 5353,
      "hamile": 5354,
      "tsali": 5355,
      "ezakhelwe": 5356,
      "phuke": 5357,
      "phuphuma": 5358,
      "zokugcina": 5359,
      "zokuphatha": 5360,
      "zokubamba": 5361,
      "zokugqibela": 5362,
      "Isicwangciso": 5363,
      "obunye": 5364,
      "abazi": 5365,
      "lomgca": 5366,
      "lomphathi": 5367,
      "fumba": 5368,
      "yendalo": 5369,
      "engaphantsi": 5370,
      "engasentla": 5371,
      "engalunganga": 5372,
      "vulo": 5373,
      "vulwa": 5374,
      "semfazwe": 5375,
      "imibhobho": 5376,
      "gcayis": 5377,
      "kumagumbi": 5378,
      "nomphambili": 5379,
      "nomgangatho": 5380,
      "read": 5381,
      "wokutsala": 5382,
      "zomsebenzi": 5383,
      "zomhlaba": 5384,
      "elinoku": 5385,
      "kokun": 5386,
      "lawule": 5387,
      "rorhweni": 5388,
      "Okusingqongileyo": 5389,
      "amanxweme": 5390,
      "rafti": 5391,
      "Kwisi": 5392,
      "Kwindawo": 5393,
      "Kwimeko": 5394,
      "iyadi": 5395,
      "iyakuba": 5396,
      "bhekisa": 5397,
      "somthi": 5398,
      "bomkhosi": 5399,
      "ukunciphisa": 5400,
      "yaniswa": 5401,
      "bonakaliswa": 5402,
      "bonakalise": 5403,
      "qwel": 5404,
      "kukunga": 5405,
      "tshixi": 5406,
      "ngamaza": 5407,
      "xineneyo": 5408,
      "vumba": 5409,
      "tali": 5410,
      "yayikuku": 5411,
      "iinkqubo": 5412,
      "gcweleyo": 5413,
      "zulwanga": 5414,
      "godi": 5415,
      "195": 5416,
      "yamazwe": 5417,
      "zemozulu": 5418,
      "thambisa": 5419,
      "khombisa": 5420,
      "yisela": 5421,
      "zingasetyenziswa": 5422,
      "ENT": 5423,
      "izakuba": 5424,
      "zimela": 5425,
      "thathaka": 5426,
      "cutha": 5427,
      "kezelo": 5428,
      "zendlela": 5429,
      "guquka": 5430,
      "iimbumbulu": 5431,
      "phakamisi": 5432,
      "tyiweyo": 5433,
      "benoku": 5434,
      "Ngale": 5435,
      "sesibini": 5436,
      "yimpumelelo": 5437,
      "Imisonto": 5438,
      "nemfaniso": 5439,
      "velise": 5440,
      "jongana": 5441,
      "qondisi": 5442,
      "ipleyiti": 5443,
      "ngezinto": 5444,
      "zamaplanga": 5445,
      "187": 5446,
      "qhubekayo": 5447,
      "ilahle": 5448,
      "nangaphantsi": 5449,
      "ezingaphezulu": 5450,
      "lwezixhobo": 5451,
      "qeqeshwa": 5452,
      "ngxenge": 5453,
      "kwemithwalo": 5454,
      "qamleze": 5455,
      "sasazwa": 5456,
      "wamashumi": 5457,
      "Khus": 5458,
      "thelekiso": 5459,
      "besiqu": 5460,
      "sisu": 5461,
      "zemipu": 5462,
      "olunamandla": 5463,
      "esisezantsi": 5464,
      "pepho": 5465,
      "gqithisa": 5466,
      "THA": 5467,
      "rhawu": 5468,
      "enokusetyenziswa": 5469,
      "ulwakhiwo": 5470,
      "yokunyusa": 5471,
      "tyibilizi": 5472,
      "ubeko": 5473,
      "lundi": 5474,
      "ngokunqamlezileyo": 5475,
      "owenziwe": 5476,
      "OKUN": 5477,
      "alithoba": 5478,
      "khathali": 5479,
      "lindelekileyo": 5480,
      "thambekileyo": 5481,
      "zibuthe": 5482,
      "emokhrasi": 5483,
      "gqumathelo": 5484,
      "KATHI": 5485,
      "terranean": 5486,
      "tshabalalisa": 5487,
      "iintsinga": 5488,
      "thathelwe": 5489,
      "enobunzima": 5490,
      "sebenzisekayo": 5491,
      "hlanganiswe": 5492,
      "bezela": 5493,
      "khompatimente": 5494,
      "kufanelekile": 5495,
      "wemipu": 5496,
      "unjana": 5497,
      "phikisanayo": 5498,
      "PHAKATHI": 5499,
      "sesazinge": 5500,
      "phefumla": 5501,
      "rhuqwayo": 5502,
      "New": 5503,
      "Mediterranean": 5504,
      "ezomeleleyo": 5505,
      "Atlanti": 5506,
      "QHU": 5507,
      "Xhaswe": 5508,
      "XHOBO": 5509,
      "qhekeza": 5510,
      "Australia": 5511,
      "Edward": 5512,
      "esasaziweyo": 5513,
      "henjisi": 5514,
      "ekuqhubeni": 5515,
      "fuziselo": 5516,
      "gcayiseli": 5517,
      "readnought": 5518,
      "',": 5519,
      "24": 5520,
      "37": 5521,
      "41": 5522,
      "47": 5523,
      "500": 5524,
      "93": 5525,
      "Ayi": 5526,
      "Ara": 5527,
      "Aman": 5528,
      "Bam": 5529,
      "Baye": 5530,
      "Ca": 5531,
      "DMS": 5532,
      "Dard": 5533,
      "ESI": 5534,
      "EYO": 5535,
      "FU": 5536,
      "HLU": 5537,
      "IT": 5538,
      "Iko": 5539,
      "Inoku": 5540,
      "Iseyile": 5541,
      "Iplanga": 5542,
      "Isiseko": 5543,
      "Ipali": 5544,
      "Isebe": 5545,
      "Injongo": 5546,
      "JI": 5547,
      "Ji": 5548,
      "Jut": 5549,
      "King": 5550,
      "LOKU": 5551,
      "Nt": 5552,
      "OR": 5553,
      "Okanye": 5554,
      "Onke": 5555,
      "OYA": 5556,
      "Okwesibini": 5557,
      "St": 5558,
      "Su": 5559,
      "Sim": 5560,
      "Tha": 5561,
      "Tra": 5562,
      "Ter": 5563,
      "The": 5564,
      "Ukwa": 5565,
      "Ukhuseleko": 5566,
      "Uyilo": 5567,
      "ULU": 5568,
      "Ulwakhiwo": 5569,
      "WENQANAWA": 5570,
      "XX": 5571,
      "Yonke": 5572,
      "ZIN": 5573,
      "akun": 5574,
      "awo": 5575,
      "akum": 5576,
      "awaye": 5577,
      "aland": 5578,
      "asekhohlo": 5579,
      "band": 5580,
      "breki": 5581,
      "dya": 5582,
      "dela": 5583,
      "dingo": 5584,
      "dwen": 5585,
      "dumo": 5586,
      "eva": 5587,
      "epho": 5588,
      "eri": 5589,
      "eseyile": 5590,
      "ejika": 5591,
      "ethwala": 5592,
      "ebangela": 5593,
      "ebotshelelwe": 5594,
      "ekhuselekileyo": 5595,
      "ebomvu": 5596,
      "ethambileyo": 5597,
      "ejikelezayo": 5598,
      "gxo": 5599,
      "hlwe": 5600,
      "hemp": 5601,
      "honj": 5602,
      "iD": 5603,
      "iG": 5604,
      "iyo": 5605,
      "ikhe": 5606,
      "iphezulu": 5607,
      "ikha": 5608,
      "igo": 5609,
      "icandelo": 5610,
      "ithwala": 5611,
      "iphinda": 5612,
      "ilingana": 5613,
      "ivumela": 5614,
      "imali": 5615,
      "ijonge": 5616,
      "idityaniswe": 5617,
      "ikhampasi": 5618,
      "iintshukumo": 5619,
      "ikhokelela": 5620,
      "igosa": 5621,
      "ibuye": 5622,
      "ikhululwe": 5623,
      "jungqu": 5624,
      "kxaso": 5625,
      "landa": 5626,
      "lenga": 5627,
      "langoku": 5628,
      "mgama": 5629,
      "nu": 5630,
      "nel": 5631,
      "nya": 5632,
      "nela": 5633,
      "nca": 5634,
      "nezimbini": 5635,
      "ntshona": 5636,
      "ongena": 5637,
      "ojikeleza": 5638,
      "olingana": 5639,
      "obandayo": 5640,
      "rs": 5641,
      "ry": 5642,
      "res": 5643,
      "sel": 5644,
      "sam": 5645,
      "seni": 5646,
      "samandla": 5647,
      "senqanaweni": 5648,
      "tse": 5649,
      "uthi": 5650,
      "upha": 5651,
      "ukwe": 5652,
      "ukom": 5653,
      "ushu": 5654,
      "ujonge": 5655,
      "uthathe": 5656,
      "ujiko": 5657,
      "ufakelo": 5658,
      "uqhutyo": 5659,
      "vele": 5660,
      "ver": 5661,
      "wena": 5662,
      "xing": 5663,
      "xelwe": 5664,
      "yn": 5665,
      "yisi": 5666,
      "yelwa": 5667,
      "yelel": 5668,
      "zamandla": 5669,
      "zangaphambili": 5670,
      "°.": 5671,
      "kuban": 5672,
      "kudla": 5673,
      "kufumana": 5674,
      "kubantu": 5675,
      "kukhuseleko": 5676,
      "kufumaneka": 5677,
      "kuxhomekeke": 5678,
      "kuyilo": 5679,
      "kusenziwa": 5680,
      "anama": 5681,
      "insh": 5682,
      "inyanga": 5683,
      "indima": 5684,
      "eliso": 5685,
      "eliswa": 5686,
      "elson": 5687,
      "eninzi": 5688,
      "enzelwa": 5689,
      "waso": 5690,
      "wabisa": 5691,
      "zikwa": 5692,
      "ziyi": 5693,
      "zithe": 5694,
      "zizinto": 5695,
      "zithuthi": 5696,
      "ziquka": 5697,
      "zichazwe": 5698,
      "ngeni": 5699,
      "ngomatshini": 5700,
      "ngqukuva": 5701,
      "thana": 5702,
      "thanj": 5703,
      "thangeni": 5704,
      "isele": 5705,
      "isisa": 5706,
      "isenziwa": 5707,
      "iswanga": 5708,
      "pheli": 5709,
      "phani": 5710,
      "wee": 5711,
      "weenyawo": 5712,
      "yebhodi": 5713,
      "yeyiphi": 5714,
      "yokum": 5715,
      "yokokuba": 5716,
      "yobunzima": 5717,
      "yobukhulu": 5718,
      "ami": 5719,
      "lulandelayo": 5720,
      "luxhomekeke": 5721,
      "lusetyenziswe": 5722,
      "lekela": 5723,
      "levili": 5724,
      "leyini": 5725,
      "labantu": 5726,
      "siba": 5727,
      "silela": 5728,
      "siweyo": 5729,
      "sixhobo": 5730,
      "bahlala": 5731,
      "balekayo": 5732,
      "kalise": 5733,
      "kaxakeka": 5734,
      "kazwelonke": 5735,
      "okugqibela": 5736,
      "kwenzi": 5737,
      "kwintsh": 5738,
      "kwintsimbi": 5739,
      "yali": 5740,
      "yaze": 5741,
      "lophu": 5742,
      "loxolo": 5743,
      "ukulwa": 5744,
      "ukuhla": 5745,
      "ukuhlisa": 5746,
      "ukugquma": 5747,
      "ukuqokelela": 5748,
      "ukubopha": 5749,
      "ukuphakama": 5750,
      "shwa": 5751,
      "kogcino": 5752,
      "kokheli": 5753,
      "umsi": 5754,
      "umlo": 5755,
      "umhlala": 5756,
      "umzimba": 5757,
      "umkhondo": 5758,
      "bolwandle": 5759,
      "ezini": 5760,
      "onom": 5761,
      "bung": 5762,
      "buso": 5763,
      "bukeli": 5764,
      "zabekwa": 5765,
      "ome": 5766,
      "omkhosi": 5767,
      "omlinganiselo": 5768,
      "ngaso": 5769,
      "ngabantu": 5770,
      "kwaso": 5771,
      "kwakufuneka": 5772,
      "kwaphela": 5773,
      "ezili": 5774,
      "ezisebenza": 5775,
      "ezikhethekileyo": 5776,
      "amaqondo": 5777,
      "amavili": 5778,
      "amaxabiso": 5779,
      "mar": 5780,
      "mashumi": 5781,
      "mazinga": 5782,
      "makunga": 5783,
      "matiloshe": 5784,
      "kancinane": 5785,
      "kanyam": 5786,
      "intsuku": 5787,
      "elekayo": 5788,
      "isikwe": 5789,
      "isimo": 5790,
      "isibane": 5791,
      "isixokelelwano": 5792,
      "isikhonkwane": 5793,
      "isikrufu": 5794,
      "ingene": 5795,
      "kwiza": 5796,
      "kwiplanga": 5797,
      "kwiwaka": 5798,
      "kwivili": 5799,
      "kwixabiso": 5800,
      "kwidabi": 5801,
      "kwikota": 5802,
      "kwimehlo": 5803,
      "kwiRoyal": 5804,
      "emba": 5805,
      "emeko": 5806,
      "empahla": 5807,
      "eminyaka": 5808,
      "emgceni": 5809,
      "emveni": 5810,
      "kunceda": 5811,
      "yidi": 5812,
      "yiki": 5813,
      "isaziwa": 5814,
      "isakhelo": 5815,
      "kweentambo": 5816,
      "kwemasti": 5817,
      "kwedekhi": 5818,
      "saba": 5819,
      "salatha": 5820,
      "tshelwa": 5821,
      "wogcino": 5822,
      "wobunzima": 5823,
      "wobubanzi": 5824,
      "esid": 5825,
      "esilula": 5826,
      "esilungileyo": 5827,
      "esihlisa": 5828,
      "esikhitshaneni": 5829,
      "eliphantsi": 5830,
      "elitsha": 5831,
      "elibanzi": 5832,
      "elizweni": 5833,
      "antsa": 5834,
      "kekela": 5835,
      "zexesha": 5836,
      "zekiyo": 5837,
      "ents": 5838,
      "nazi": 5839,
      "nali": 5840,
      "nakum": 5841,
      "nakumva": 5842,
      "nakwezinye": 5843,
      "xabisa": 5844,
      "xakini": 5845,
      "zobunzima": 5846,
      "calu": 5847,
      "ngokukhululekileyo": 5848,
      "ngokuchasene": 5849,
      "engan": 5850,
      "engcingo": 5851,
      "engangeni": 5852,
      "qhin": 5853,
      "angu": 5854,
      "angemva": 5855,
      "imiselo": 5856,
      "imbombo": 5857,
      "impompo": 5858,
      "impazamo": 5859,
      "imbonakalo": 5860,
      "imingxunya": 5861,
      "imvelaphi": 5862,
      "lwabo": 5863,
      "thule": 5864,
      "kumboniso": 5865,
      "ngokwen": 5866,
      "ngokwama": 5867,
      "ngocoselelo": 5868,
      "thotywa": 5869,
      "isebenza": 5870,
      "val": 5871,
      "oluphantsi": 5872,
      "oluqhelekileyo": 5873,
      "olupheleleyo": 5874,
      "oludityanisiweyo": 5875,
      "olusezantsi": 5876,
      "yokuhamba": 5877,
      "yokukhusela": 5878,
      "kwenkulungwane": 5879,
      "ezinde": 5880,
      "ezindala": 5881,
      "khutha": 5882,
      "phambile": 5883,
      "lwebhombu": 5884,
      "wuphina": 5885,
      "Ukuzi": 5886,
      "Ukuza": 5887,
      "lwano": 5888,
      "lwentsimbi": 5889,
      "kelweyo": 5890,
      "neqela": 5891,
      "neseyile": 5892,
      "lunge": 5893,
      "khetho": 5894,
      "khethwa": 5895,
      "khethiweyo": 5896,
      "phethwe": 5897,
      "ngeko": 5898,
      "ngeentambo": 5899,
      "njini": 5900,
      "njineli": 5901,
      "fazi": 5902,
      "fake": 5903,
      "falga": 5904,
      "ekuba": 5905,
      "ekulung": 5906,
      "ekukhus": 5907,
      "qhubeli": 5908,
      "titshi": 5909,
      "sobomi": 5910,
      "har": 5911,
      "Umbhobho": 5912,
      "Umsonto": 5913,
      "noba": 5914,
      "nogcino": 5915,
      "nobuchule": 5916,
      "xhobe": 5917,
      "suke": 5918,
      "ngenx": 5919,
      "ngenyanga": 5920,
      "yuk": 5921,
      "yuko": 5922,
      "yukayo": 5923,
      "cipha": 5924,
      "ubukho": 5925,
      "futhe": 5926,
      "rhang": 5927,
      "zinzi": 5928,
      "tsalelwe": 5929,
      "pas": 5930,
      "pakish": 5931,
      "komn": 5932,
      "komva": 5933,
      "komfa": 5934,
      "komphezulu": 5935,
      "komphathi": 5936,
      "komlilo": 5937,
      "inakho": 5938,
      "lokun": 5939,
      "lokungena": 5940,
      "lokukhusela": 5941,
      "lokulungisa": 5942,
      "lokulola": 5943,
      "zokusebenza": 5944,
      "zokudada": 5945,
      "kwisithuthi": 5946,
      "kwisikhitshane": 5947,
      "emide": 5948,
      "Isikhuseli": 5949,
      "yomgca": 5950,
      "obunga": 5951,
      "obude": 5952,
      "phumlo": 5953,
      "phumlisi": 5954,
      "engaphandle": 5955,
      "Kuya": 5956,
      "Kunga": 5957,
      "Kungenxa": 5958,
      "vukelo": 5959,
      "semkhosini": 5960,
      "kwindidi": 5961,
      "etya": 5962,
      "kumakhamandela": 5963,
      "nomthwalo": 5964,
      "nomkhosi": 5965,
      "fanelo": 5966,
      "chaziweyo": 5967,
      "bhal": 5968,
      "bhalo": 5969,
      "bonakude": 5970,
      "rebe": 5971,
      "reyithi": 5972,
      "wokun": 5973,
      "elinamakhulu": 5974,
      "yesithathu": 5975,
      "yesihlanu": 5976,
      "Kwelinye": 5977,
      "Kwiimeko": 5978,
      "dlulisa": 5979,
      "dluliswa": 5980,
      "dluliswe": 5981,
      "dlulileyo": 5982,
      "bhedu": 5983,
      "stiki": 5984,
      "somgca": 5985,
      "somphini": 5986,
      "kamsinya": 5987,
      "fiki": 5988,
      "lulekileyo": 5989,
      "bonakali": 5990,
      "qwenga": 5991,
      "qweno": 5992,
      "kukuqinisekisa": 5993,
      "tshiwo": 5994,
      "esinesantya": 5995,
      "nesithandathu": 5996,
      "vumelekileyo": 5997,
      "ngomsebenzi": 5998,
      "yindoda": 5999,
      "khawuleze": 6000,
      "taka": 6001,
      "ANE": 6002,
      "ISA": 6003,
      "ISWA": 6004,
      "kwizikhephe": 6005,
      "Amacala": 6006,
      "Amalungiselelo": 6007,
      "ezohlukeneyo": 6008,
      "zulwano": 6009,
      "wesixhobo": 6010,
      "ezingen": 6011,
      "ezingangeni": 6012,
      "yamaqhina": 6013,
      "zembe": 6014,
      "zemfaniso": 6015,
      "khomba": 6016,
      "qinisekile": 6017,
      "ENG": 6018,
      "anjana": 6019,
      "khuseleka": 6020,
      "dutyulwa": 6021,
      "ngula": 6022,
      "guqulwa": 6023,
      "wendlela": 6024,
      "nyuswa": 6025,
      "phawulwa": 6026,
      "gqumi": 6027,
      "benda": 6028,
      "Ngaphantsi": 6029,
      "caciswe": 6030,
      "qameko": 6031,
      "sisixhobo": 6032,
      "sisigxina": 6033,
      "xiba": 6034,
      "xitywa": 6035,
      "ilele": 6036,
      "nangoko": 6037,
      "kangakanani": 6038,
      "nemisebenzi": 6039,
      "Imikhosi": 6040,
      "Imilinganiselo": 6041,
      "kwimfaniso": 6042,
      "ipla": 6043,
      "zezithuthi": 6044,
      "anesithoba": 6045,
      "anyazo": 6046,
      "yezibuko": 6047,
      "ELI": 6048,
      "kwanoku": 6049,
      "hlanganiso": 6050,
      "kwilizwe": 6051,
      "ezingaphantsi": 6052,
      "ngononophelo": 6053,
      "cwangciswe": 6054,
      "cwangcisiweyo": 6055,
      "PHAMBI": 6056,
      "elingana": 6057,
      "elingena": 6058,
      "qamlezayo": 6059,
      "nemithwalo": 6060,
      "Kwaku": 6061,
      "AMP": 6062,
      "qumlayo": 6063,
      "ungene": 6064,
      "kangeleko": 6065,
      "sisiseko": 6066,
      "yemithwalo": 6067,
      "shiywe": 6068,
      "yayinga": 6069,
      "qhagamshel": 6070,
      "sebenzo": 6071,
      "lonxweme": 6072,
      "khutshelwe": 6073,
      "THWA": 6074,
      "khululeke": 6075,
      "cingela": 6076,
      "piki": 6077,
      "jikeleziswa": 6078,
      "gxum": 6079,
      "gxuma": 6080,
      "kungan": 6081,
      "kruf": 6082,
      "kwabakho": 6083,
      "KHE": 6084,
      "owenziwa": 6085,
      "Ngenene": 6086,
      "ibrorho": 6087,
      "Uninzi": 6088,
      "nesiseko": 6089,
      "anokuthi": 6090,
      "qhosha": 6091,
      "khanyayo": 6092,
      "krolo": 6093,
      "zabakhweli": 6094,
      "nabasebenzi": 6095,
      "olwenziwe": 6096,
      "lesandla": 6097,
      "nobungozi": 6098,
      "thandabuzo": 6099,
      "thandabuzekiyo": 6100,
      "khanyiso": 6101,
      "banika": 6102,
      "fimfi": 6103,
      "MSMP": 6104,
      "Sir": 6105,
      "pontshwa": 6106,
      "elisebenza": 6107,
      "esimhlophe": 6108,
      "elimisiweyo": 6109,
      "shiyeka": 6110,
      "qhutyelwe": 6111,
      "1860": 6112,
      "Japani": 6113,
      "Meridi": 6114,
      "okwethutyana": 6115,
      "kungenza": 6116,
      "dizile": 6117,
      "yintoni": 6118,
      "zanamhlanje": 6119,
      "isuke": 6120,
      "kolunye": 6121,
      "vumelekile": 6122,
      "dlebe": 6123,
      "eyomileyo": 6124,
      "eyomeleleyo": 6125,
      "guquguqukiyo": 6126,
      "ngqubana": 6127,
      "lindeleke": 6128,
      "Kunzima": 6129,
      "nanjengokuba": 6130,
      "yuselwa": 6131,
      "ILEYO": 6132,
      "dlongo": 6133,
      "kwimimandla": 6134,
      "ayinyusayo": 6135,
      "Datshi": 6136,
      "yenethwekhi": 6137,
      "phindeneyo": 6138,
      "iinkcukacha": 6139,
      "helikop": 6140,
      "zukulwana": 6141,
      "zisuswe": 6142,
      "ezivuzayo": 6143,
      "naluphina": 6144,
      "qhekeka": 6145,
      "tshayelelo": 6146,
      "Brithishi": 6147,
      "phulukana": 6148,
      "kwasekuqaleni": 6149,
      "elinethoba": 6150,
      "KUNYE": 6151,
      "Akufunekanga": 6152,
      "khuphiswano": 6153,
      "ekutsaleni": 6154,
      "Inkcazelo": 6155,
      "cetyiswa": 6156,
      "tshitshili": 6157,
      "Victori": 6158,
      "ANTSI": 6159,
      "festile": 6160,
      "ekuthwaleni": 6161,
      "qwelomoya": 6162,
      "DMSO": 6163,
      "kanyamba": 6164,
      "falgar": 6165,
      "ekukhuseleni": 6166,
      "PHAMBILI": 6167,
      "helikopta": 6168,
      "-'": 6169,
      "21": 6170,
      "22": 6171,
      "200": 6172,
      "33": 6173,
      "59": 6174,
      "??": 6175,
      "Abo": 6176,
      "Ame": 6177,
      "APH": 6178,
      "BH": 6179,
      "Bonke": 6180,
      "Con": 6181,
      "CIN": 6182,
      "DI": 6183,
      "De": 6184,
      "Esinye": 6185,
      "Eyokugqibela": 6186,
      "FI": 6187,
      "Fle": 6188,
      "Ge": 6189,
      "Ithi": 6190,
      "Ina": 6191,
      "Iindawo": 6192,
      "KWE": 6193,
      "Nkonzo": 6194,
      "Nelson": 6195,
      "OS": 6196,
      "Obu": 6197,
      "Rh": 6198,
      "Ri": 6199,
      "SAND": 6200,
      "TSA": 6201,
      "Uni": 6202,
      "Uqeqesho": 6203,
      "Ubuninzi": 6204,
      "Whi": 6205,
      "WAND": 6206,
      "Willi": 6207,
      "Yaba": 6208,
      "Yenziwe": 6209,
      "Yaye": 6210,
      "Yuro": 6211,
      "YILE": 6212,
      "YENZ": 6213,
      "Zwelonke": 6214,
      "aza": 6215,
      "akho": 6216,
      "akha": 6217,
      "azima": 6218,
      "akhoyo": 6219,
      "afuna": 6220,
      "adadayo": 6221,
      "athathe": 6222,
      "abanye": 6223,
      "beza": 6224,
      "bentsimbi": 6225,
      "beleka": 6226,
      "belula": 6227,
      "bisana": 6228,
      "canda": 6229,
      "dli": 6230,
      "dom": 6231,
      "ding": 6232,
      "dro": 6233,
      "eda": 6234,
      "eenqanawa": 6235,
      "ech": 6236,
      "edla": 6237,
      "ebanzi": 6238,
      "ekumgangatho": 6239,
      "esesi": 6240,
      "epheleleyo": 6241,
      "evumela": 6242,
      "exhasa": 6243,
      "ejinga": 6244,
      "ekhaphu": 6245,
      "eyenze": 6246,
      "ekhawulezileyo": 6247,
      "exhotyiswe": 6248,
      "esebenzisanayo": 6249,
      "etshat": 6250,
      "ekhandiweyo": 6251,
      "fla": 6252,
      "fono": 6253,
      "grom": 6254,
      "hoy": 6255,
      "ir": 6256,
      "ibu": 6257,
      "igqi": 6258,
      "iphum": 6259,
      "itsala": 6260,
      "iqhutywa": 6261,
      "ihlabathi": 6262,
      "ithathe": 6263,
      "ifika": 6264,
      "iphinde": 6265,
      "ichazwa": 6266,
      "iklasi": 6267,
      "ibhatyi": 6268,
      "irudder": 6269,
      "ixhaswe": 6270,
      "lb": 6271,
      "lent": 6272,
      "lene": 6273,
      "lelona": 6274,
      "min": 6275,
      "manga": 6276,
      "mes": 6277,
      "miswa": 6278,
      "mgca": 6279,
      "mfutshane": 6280,
      "misebenzi": 6281,
      "mkani": 6282,
      "msinya": 6283,
      "ny": 6284,
      "nele": 6285,
      "nant": 6286,
      "neza": 6287,
      "nentsimbi": 6288,
      "nelinye": 6289,
      "nandi": 6290,
      "nesinye": 6291,
      "nolunye": 6292,
      "owo": 6293,
      "oban": 6294,
      "olwazi": 6295,
      "owom": 6296,
      "ongu": 6297,
      "oqhelekileyo": 6298,
      "ofunekayo": 6299,
      "obalulekileyo": 6300,
      "oshishino": 6301,
      "okokuqala": 6302,
      "qele": 6303,
      "qini": 6304,
      "qing": 6305,
      "qandi": 6306,
      "sp": 6307,
      "sli": 6308,
      "selo": 6309,
      "sanga": 6310,
      "siso": 6311,
      "senza": 6312,
      "senga": 6313,
      "selu": 6314,
      "sango": 6315,
      "sandi": 6316,
      "tingi": 6317,
      "uc": 6318,
      "uy": 6319,
      "uga": 6320,
      "ukho": 6321,
      "ungen": 6322,
      "ugqi": 6323,
      "udlu": 6324,
      "utsala": 6325,
      "ujikeleza": 6326,
      "uyalelo": 6327,
      "urhwebo": 6328,
      "udlula": 6329,
      "ucwangciso": 6330,
      "uqhagamshelwano": 6331,
      "uhlolo": 6332,
      "vezwa": 6333,
      "wani": 6334,
      "xam": 6335,
      "xulun": 6336,
      "yentsika": 6337,
      "yelanga": 6338,
      "zindawo": 6339,
      "zentsika": 6340,
      "": 6341,
      "kuka": 6342,
      "kukun": 6343,
      "kuhla": 6344,
      "kuqa": 6345,
      "kuhlala": 6346,
      "kugcino": 6347,
      "kukhusela": 6348,
      "kufuna": 6349,
      "kubunzima": 6350,
      "kubukhulu": 6351,
      "kuqeqesho": 6352,
      "kubuninzi": 6353,
      "kuchazwa": 6354,
      "kuqhutyo": 6355,
      "kulwakhiwo": 6356,
      "kucacile": 6357,
      "ance": 6358,
      "aniswe": 6359,
      "anch": 6360,
      "inkwenkwezi": 6361,
      "incwadi": 6362,
      "inkanunu": 6363,
      "elani": 6364,
      "elina": 6365,
      "enke": 6366,
      "enemi": 6367,
      "enzulu": 6368,
      "enesantya": 6369,
      "enjalo": 6370,
      "enceda": 6371,
      "enjongo": 6372,
      "wazi": 6373,
      "wale": 6374,
      "wala": 6375,
      "wayen": 6376,
      "wahamba": 6377,
      "zibini": 6378,
      "zikwazi": 6379,
      "ziqhutywa": 6380,
      "zidityaniswe": 6381,
      "zikhuselwe": 6382,
      "zigcinwa": 6383,
      "zibonakalisa": 6384,
      "zivulekile": 6385,
      "ngwe": 6386,
      "ngento": 6387,
      "ngeshumi": 6388,
      "ngcelele": 6389,
      "thise": 6390,
      "iseli": 6391,
      "isinga": 6392,
      "isha": 6393,
      "phan": 6394,
      "weku": 6395,
      "weza": 6396,
      "wemasti": 6397,
      "wezambuku": 6398,
      "yeM": 6399,
      "yetha": 6400,
      "yekhompyutha": 6401,
      "yesinyithi": 6402,
      "yeetanki": 6403,
      "yesandla": 6404,
      "yedizili": 6405,
      "yodidi": 6406,
      "yokhuselo": 6407,
      "yorhwebo": 6408,
      "yoqeqesho": 6409,
      "amele": 6410,
      "ampu": 6411,
      "luye": 6412,
      "luquka": 6413,
      "khand": 6414,
      "khelwa": 6415,
      "khumbi": 6416,
      "khunj": 6417,
      "leen": 6418,
      "leshumi": 6419,
      "lesin": 6420,
      "labo": 6421,
      "lazo": 6422,
      "lahla": 6423,
      "lahlwa": 6424,
      "lathisi": 6425,
      "siko": 6426,
      "siza": 6427,
      "sijini": 6428,
      "sixhomekeke": 6429,
      "babu": 6430,
      "baben": 6431,
      "kahlanu": 6432,
      "okusebenza": 6433,
      "okuthile": 6434,
      "okulandelayo": 6435,
      "kwelo": 6436,
      "kwange": 6437,
      "kwintsontela": 6438,
      "kwelungu": 6439,
      "yaziwa": 6440,
      "yaqhubekeka": 6441,
      "lowo": 6442,
      "lokwenza": 6443,
      "lobunzima": 6444,
      "lomatshini": 6445,
      "lojiko": 6446,
      "ukuye": 6447,
      "ukubo": 6448,
      "ukuwu": 6449,
      "ukuhlo": 6450,
      "ukume": 6451,
      "ukulandela": 6452,
      "ukulala": 6453,
      "ukubophelela": 6454,
      "ukuqhutywa": 6455,
      "ukuzala": 6456,
      "ukutyha": 6457,
      "ukuhambisa": 6458,
      "kozo": 6459,
      "kongez": 6460,
      "kohambo": 6461,
      "kolawulo": 6462,
      "koliso": 6463,
      "koomatshini": 6464,
      "kopi": 6465,
      "kobunzulu": 6466,
      "umg": 6467,
      "umth": 6468,
      "umphakathi": 6469,
      "umpu": 6470,
      "umbindi": 6471,
      "umphetho": 6472,
      "umgaqo": 6473,
      "umfanekiso": 6474,
      "umkhala": 6475,
      "umyalezo": 6476,
      "umlomo": 6477,
      "umqhino": 6478,
      "bopho": 6479,
      "ezon": 6480,
      "ezulu": 6481,
      "ezeni": 6482,
      "sexesha": 6483,
      "seponti": 6484,
      "onzima": 6485,
      "andule": 6486,
      "libekwe": 6487,
      "zakho": 6488,
      "zaliso": 6489,
      "zakhiwe": 6490,
      "omgangatho": 6491,
      "ngakwi": 6492,
      "ngaphesheya": 6493,
      "kwakun": 6494,
      "kwazeka": 6495,
      "kwahluka": 6496,
      "ezide": 6497,
      "ezifa": 6498,
      "eziphantsi": 6499,
      "ezitsha": 6500,
      "ezithwala": 6501,
      "ezixhasa": 6502,
      "ezifakelwe": 6503,
      "ezibonakalayo": 6504,
      "eziyingozi": 6505,
      "ezilikhulu": 6506,
      "amalahle": 6507,
      "amalungiselelo": 6508,
      "amazwi": 6509,
      "maxa": 6510,
      "makhulu": 6511,
      "malungu": 6512,
      "macaleni": 6513,
      "uluvo": 6514,
      "dadisa": 6515,
      "elekile": 6516,
      "isiza": 6517,
      "isithuthi": 6518,
      "isilenge": 6519,
      "isibambi": 6520,
      "uninzi": 6521,
      "undulu": 6522,
      "inikwa": 6523,
      "inikwe": 6524,
      "ingqokelela": 6525,
      "inguqu": 6526,
      "kwiz": 6527,
      "kwikhulu": 6528,
      "kwiindlela": 6529,
      "kwitanki": 6530,
      "kwihlabathi": 6531,
      "kwigophe": 6532,
      "kwitshati": 6533,
      "kwikhompathimenti": 6534,
      "kwibhobh": 6535,
      "emanzi": 6536,
      "eminye": 6537,
      "emfazwe": 6538,
      "emngx": 6539,
      "emveliso": 6540,
      "emhlophe": 6541,
      "emkhosini": 6542,
      "emincinci": 6543,
      "kunzi": 6544,
      "kunqand": 6545,
      "yili": 6546,
      "yiphu": 6547,
      "yimeko": 6548,
      "yikiso": 6549,
      "isazinge": 6550,
      "kwevili": 6551,
      "kwesiseko": 6552,
      "tshan": 6553,
      "tsheni": 6554,
      "wobuchule": 6555,
      "woomatiloshe": 6556,
      "esiza": 6557,
      "esitsha": 6558,
      "esibanzi": 6559,
      "esipheleleyo": 6560,
      "esiqingatha": 6561,
      "esibekwe": 6562,
      "esibheka": 6563,
      "esibekiweyo": 6564,
      "elihle": 6565,
      "elifanayo": 6566,
      "elifanelekileyo": 6567,
      "kethe": 6568,
      "tyh": 6569,
      "zemasti": 6570,
      "bheng": 6571,
      "anethoba": 6572,
      "entsinga": 6573,
      "nakho": 6574,
      "naban": 6575,
      "nakanjani": 6576,
      "xaxha": 6577,
      "zobuchule": 6578,
      "zoqoqosho": 6579,
      "car": 6580,
      "ngokujika": 6581,
      "ngokulinganayo": 6582,
      "ngokugqithisileyo": 6583,
      "ngokusemthethweni": 6584,
      "engama": 6585,
      "engentla": 6586,
      "engqayi": 6587,
      "engqongqo": 6588,
      "angamakhulu": 6589,
      "lwaye": 6590,
      "thunga": 6591,
      "kumntu": 6592,
      "kumphini": 6593,
      "kummandla": 6594,
      "kumsonto": 6595,
      "kumqulu": 6596,
      "funxa": 6597,
      "fundi": 6598,
      "ngolu": 6599,
      "ngokwezi": 6600,
      "ngobuchule": 6601,
      "ngobukhulu": 6602,
      "ngokwexesha": 6603,
      "ngobubanzi": 6604,
      "ngoluhlobo": 6605,
      "iseti": 6606,
      "vakala": 6607,
      "oluza": 6608,
      "oluyi": 6609,
      "oluno": 6610,
      "oluphakathi": 6611,
      "olungileyo": 6612,
      "esenza": 6613,
      "esong": 6614,
      "yokudada": 6615,
      "yokulayisha": 6616,
      "yokufika": 6617,
      "yokusingqongileyo": 6618,
      "kwenzela": 6619,
      "ezinqamlezileyo": 6620,
      "hlayo": 6621,
      "hlali": 6622,
      "hlathi": 6623,
      "qabisa": 6624,
      "khuphi": 6625,
      "khukhuma": 6626,
      "lwexesha": 6627,
      "lwecandelo": 6628,
      "cinywe": 6629,
      "wudi": 6630,
      "Ukususa": 6631,
      "lwelo": 6632,
      "lwenqanawe": 6633,
      "lwangaphambili": 6634,
      "lelayo": 6635,
      "jij": 6636,
      "ney": 6637,
      "neqondo": 6638,
      "nebhodi": 6639,
      "negiyeri": 6640,
      "nesakhiwo": 6641,
      "dokhi": 6642,
      "ntsontelo": 6643,
      "pheka": 6644,
      "ngeem": 6645,
      "ngethuba": 6646,
      "ngeqhina": 6647,
      "milo": 6648,
      "mitha": 6649,
      "miti": 6650,
      "fatyi": 6651,
      "fathom": 6652,
      "ekusetyenzis": 6653,
      "ekufutshane": 6654,
      "ekufakwa": 6655,
      "qhubele": 6656,
      "haki": 6657,
      "hleni": 6658,
      "hlelwe": 6659,
      "hliswe": 6660,
      "Umphambili": 6661,
      "Umsinga": 6662,
      "Umqhubi": 6663,
      "Umlilo": 6664,
      "Umphini": 6665,
      "Ummandla": 6666,
      "Umphetho": 6667,
      "noxa": 6668,
      "nokokuba": 6669,
      "iziqu": 6670,
      "izibane": 6671,
      "izizathu": 6672,
      "izilenge": 6673,
      "izikhonkwane": 6674,
      "izithwali": 6675,
      "anila": 6676,
      "nokuthi": 6677,
      "nokusetyenziswa": 6678,
      "nokuhamba": 6679,
      "nokusebenza": 6680,
      "nokufumana": 6681,
      "nokunyuka": 6682,
      "Incam": 6683,
      "Inkonzo": 6684,
      "Intshayelelo": 6685,
      "Ngelishwa": 6686,
      "sebenziyo": 6687,
      "bhoxo": 6688,
      "bhoyila": 6689,
      "ciko": 6690,
      "citsh": 6691,
      "hlukile": 6692,
      "futhan": 6693,
      "elwana": 6694,
      "elwane": 6695,
      "zine": 6696,
      "tsalelwa": 6697,
      "ezaphukileyo": 6698,
      "papa": 6699,
      "komphakathi": 6700,
      "komsebenzi": 6701,
      "komsinga": 6702,
      "lokufumana": 6703,
      "lokulawula": 6704,
      "lokudubula": 6705,
      "gciniso": 6706,
      "zokuqhuba": 6707,
      "zokulala": 6708,
      "zokunyusa": 6709,
      "zokumisa": 6710,
      "kwisibonda": 6711,
      "Isiqu": 6712,
      "Isithuthi": 6713,
      "Isiqhubi": 6714,
      "Isiqingatha": 6715,
      "Isibonda": 6716,
      "Isikhululo": 6717,
      "Isibonisi": 6718,
      "yomthi": 6719,
      "obung": 6720,
      "obuchule": 6721,
      "andayo": 6722,
      "abasindi": 6723,
      "okona": 6724,
      "qinelana": 6725,
      "qindilili": 6726,
      "ishiya": 6727,
      "lomlo": 6728,
      "lomlinganiselo": 6729,
      "fumanisa": 6730,
      "yenkwenkwezi": 6731,
      "engasemva": 6732,
      "Kulo": 6733,
      "Kungoko": 6734,
      "rika": 6735,
      "kubasebenzi": 6736,
      "phith": 6737,
      "khonathi": 6738,
      "semini": 6739,
      "semgceni": 6740,
      "imiphambili": 6741,
      "imikhosi": 6742,
      "kwinkulungwane": 6743,
      "kwinkonzo": 6744,
      "kwinqanaba": 6745,
      "kwinkampani": 6746,
      "kumaxesha": 6747,
      "kumalwandle": 6748,
      "kumatshini": 6749,
      "nomphandle": 6750,
      "nomthetho": 6751,
      "faniswa": 6752,
      "faneleka": 6753,
      "chaze": 6754,
      "mbiwa": 6755,
      "bhalwa": 6756,
      "bhashu": 6757,
      "reka": 6758,
      "womntu": 6759,
      "hlebo": 6760,
      "sokun": 6761,
      "sokujika": 6762,
      "sokufumana": 6763,
      "omahluko": 6764,
      "xwebhu": 6765,
      "xwesileyo": 6766,
      "buncinci": 6767,
      "bunono": 6768,
      "eyay": 6769,
      "Kwin": 6770,
      "Kwicala": 6771,
      "dlalwa": 6772,
      "gud": 6773,
      "singasetyenziswa": 6774,
      "bhexa": 6775,
      "bhexo": 6776,
      "bhekis": 6777,
      "line": 6778,
      "sombululo": 6779,
      "enakho": 6780,
      "enakalo": 6781,
      "bomgca": 6782,
      "kamsh": 6783,
      "ukunqumla": 6784,
      "asithoba": 6785,
      "eyam": 6786,
      "luleke": 6787,
      "yanzelwa": 6788,
      "esinom": 6789,
      "nesiqu": 6790,
      "nesiqingatha": 6791,
      "xobo": 6792,
      "xhadi": 6793,
      "yinxenye": 6794,
      "nenani": 6795,
      "Ezimbini": 6796,
      "Amaza": 6797,
      "Amaplanga": 6798,
      "Intsimbi": 6799,
      "ezothutho": 6800,
      "zuka": 6801,
      "wesiphelo": 6802,
      "wesikhitshane": 6803,
      "wesikhitshana": 6804,
      "lenkqubela": 6805,
      "tshintshe": 6806,
      "198": 6807,
      "dibanise": 6808,
      "yamaxesha": 6809,
      "thamba": 6810,
      "khombisi": 6811,
      "qiniseka": 6812,
      "ENQANA": 6813,
      "izakhelo": 6814,
      "zingena": 6815,
      "zimuth": 6816,
      "kezwa": 6817,
      "duli": 6818,
      "zenzelwe": 6819,
      "guquko": 6820,
      "guqulwe": 6821,
      "iimfuno": 6822,
      "wenyawo": 6823,
      "wenqwelo": 6824,
      "gqwe": 6825,
      "kwamakhulu": 6826,
      "kwamaxesha": 6827,
      "bendawo": 6828,
      "iselelwe": 6829,
      "Ngaphezulu": 6830,
      "INGA": 6831,
      "sesiqu": 6832,
      "caciso": 6833,
      "kungafuneka": 6834,
      "botshwe": 6835,
      "engekho": 6836,
      "fumaneke": 6837,
      "qamelo": 6838,
      "xide": 6839,
      "nikwa": 6840,
      "nikiweyo": 6841,
      "nikezela": 6842,
      "iland": 6843,
      "ngqongqo": 6844,
      "Imisebenzi": 6845,
      "cweng": 6846,
      "cwang": 6847,
      "qethu": 6848,
      "Ngokusebenzisa": 6849,
      "Ngokuphikisanayo": 6850,
      "khuselayo": 6851,
      "azikho": 6852,
      "nango": 6853,
      "nemeko": 6854,
      "nempumelelo": 6855,
      "thintele": 6856,
      "lobomi": 6857,
      "namagumbi": 6858,
      "khwele": 6859,
      "kwimisebenzi": 6860,
      "qondweni": 6861,
      "kubekwa": 6862,
      "ipeyint": 6863,
      "hlukene": 6864,
      "yangasemva": 6865,
      "thwekha": 6866,
      "ELIN": 6867,
      "bokuqala": 6868,
      "ngambini": 6869,
      "ziyakwazi": 6870,
      "unifomu": 6871,
      "zesiqu": 6872,
      "kwanom": 6873,
      "ilale": 6874,
      "ilayish": 6875,
      "lisu": 6876,
      "dibano": 6877,
      "nkqi": 6878,
      "kwemini": 6879,
      "kweminye": 6880,
      "ngabasebenzi": 6881,
      "ngabaphathi": 6882,
      "PHANTSI": 6883,
      "eziyi4": 6884,
      "eziyi5": 6885,
      "akufunekanga": 6886,
      "qwalaselo": 6887,
      "qwalaselwa": 6888,
      "ngxelo": 6889,
      "nemithetho": 6890,
      "Bal": 6891,
      "mayibe": 6892,
      "ungelwano": 6893,
      "kumbilini": 6894,
      "thelekelelwa": 6895,
      "ngempumelelo": 6896,
      "eyongezelelweyo": 6897,
      "zemifuno": 6898,
      "qhagamsheli": 6899,
      "lonelo": 6900,
      "Ekupheleni": 6901,
      "igesi": 6902,
      "igunya": 6903,
      "wangaphandle": 6904,
      "lahlekelwa": 6905,
      "elisuka": 6906,
      "oluncinci": 6907,
      "THE": 6908,
      "bangaba": 6909,
      "rhabaxa": 6910,
      "kwisazinge": 6911,
      "cinge": 6912,
      "cingis": 6913,
      "sebenziseni": 6914,
      "jelokazi": 6915,
      "jikelezileyo": 6916,
      "elingaphandle": 6917,
      "elingaveli": 6918,
      "thungwa": 6919,
      "shishini": 6920,
      "pempe": 6921,
      "ubuncinane": 6922,
      "jingayo": 6923,
      "kwabakhweli": 6924,
      "lungeleleneyo": 6925,
      "lungelelaniso": 6926,
      "KHO": 6927,
      "esingen": 6928,
      "lwempahla": 6929,
      "ibloko": 6930,
      "leyitingi": 6931,
      "cediswa": 6932,
      "Uncedo": 6933,
      "lwemithetho": 6934,
      "khathalela": 6935,
      "150": 6936,
      "ngokungathi": 6937,
      "yanzelo": 6938,
      "ngemihla": 6939,
      "British": 6940,
      "hanjiso": 6941,
      "viwo": 6942,
      "vido": 6943,
      "zezona": 6944,
      "omninzi": 6945,
      "thambeko": 6946,
      "thambekele": 6947,
      "kroba": 6948,
      "ukuyila": 6949,
      "nabakhweli": 6950,
      "ngokomlinganiselo": 6951,
      "kubaluleka": 6952,
      "kubaluleke": 6953,
      "1278": 6954,
      "Kumele": 6955,
      "tsibela": 6956,
      "ebrorhweni": 6957,
      "thandwa": 6958,
      "thandele": 6959,
      "xakeko": 6960,
      "yimigca": 6961,
      "plagi": 6962,
      "ngokwakhe": 6963,
      "alunaku": 6964,
      "thembe": 6965,
      "ebekiweyo": 6966,
      "labasebenzi": 6967,
      "ulungiso": 6968,
      "ulungiselelo": 6969,
      "ulungelelaniso": 6970,
      "bhetye": 6971,
      "lwangaphakathi": 6972,
      "tsobh": 6973,
      "neemeko": 6974,
      "qhusheko": 6975,
      "gcwala": 6976,
      "gcwalisa": 6977,
      "Iindidi": 6978,
      "zonwabisa": 6979,
      "dluliselwa": 6980,
      "Arm": 6981,
      "qukuqela": 6982,
      "enobude": 6983,
      "yakudala": 6984,
      "Noba": 6985,
      "oksijini": 6986,
      "wonye": 6987,
      "yelizwe": 6988,
      "Japan": 6989,
      "Japhani": 6990,
      "hich": 6991,
      "ijike": 6992,
      "kwintonga": 6993,
      "sesona": 6994,
      "esoloko": 6995,
      "uMphathi": 6996,
      "bhabhayo": 6997,
      "fundisi": 6998,
      "sindayo": 6999,
      "qhushumbisi": 7000,
      "lwabaphathi": 7001,
      "olumnyama": 7002,
      "kwenzeke": 7003,
      "gqityiweyo": 7004,
      "INTAMBO": 7005,
      "vavanywe": 7006,
      "ETYENZ": 7007,
      "Thungelwano": 7008,
      "Kwezinye": 7009,
      "gubungelo": 7010,
      "ibenoku": 7011,
      "semithwalo": 7012,
      "yibilikisa": 7013,
      "ezinamaphiko": 7014,
      "gqobho": 7015,
      "reyithingi": 7016,
      "dinwa": 7017,
      "fezekisa": 7018,
      "kweemeko": 7019,
      "iminxeba": 7020,
      "hambelayo": 7021,
      "kwimimoya": 7022,
      "iqabane": 7023,
      "thunyelwe": 7024,
      "buyisela": 7025,
      "vuthuza": 7026,
      "elinomkrolo": 7027,
      "elomileyo": 7028,
      "khumbula": 7029,
      "Ukungabikho": 7030,
      "ISEKO": 7031,
      "phendula": 7032,
      "Nayiphi": 7033,
      "likihlo": 7034,
      "ulundi": 7035,
      "nasiphina": 7036,
      "chweba": 7037,
      "qwenela": 7038,
      "xinezelelo": 7039,
      "ANGATHO": 7040,
      "ASTI": 7041,
      "Izandla": 7042,
      "TSH": 7043,
      "conywa": 7044,
      "ndawonye": 7045,
      "anelles": 7046,
      "lolonga": 7047,
      "lwamkelo": 7048,
      "kumkanikazi": 7049,
      "Ngelixesha": 7050,
      "bambelele": 7051,
      "orensi": 7052,
      "setyenzwa": 7053,
      "Rashiya": 7054,
      "dambisa": 7055,
      "dumasi": 7056,
      "elelwaniso": 7057,
      "thwelwe": 7058,
      "fihlakeleyo": 7059,
      "Blake": 7060,
      "Queen": 7061,
      "exhobileyo": 7062,
      "grafi": 7063,
      "phembel": 7064,
      "phangaleleyo": 7065,
      "BONDA": 7066,
      "qhoboshi": 7067,
      "aluminium": 7068,
      "Gcino": 7069,
      "dilesi": 7070,
      "weCandelo": 7071,
      "Dardanelles": 7072,
      "Jikelele": 7073,
      "Jutland": 7074,
      "Thatha": 7075,
      "Trafalgar": 7076,
      "akumelanga": 7077,
      "dyarho": 7078,
      "inshorensi": 7079,
      "pheliyo": 7080,
      "etyathangeni": 7081,
      "KHEPHE": 7082,
      "Rhulumente": 7083,
      "WANDLE": 7084,
      "William": 7085,
      "Yurophu": 7086,
      "azimathi": 7087,
      "etshatini": 7088,
      "emngxunyeni": 7089,
      "ekusetyenzisweni": 7090,
      "ENQANAWENI": 7091,
      "ETYENZISWA": 7092,
      ");": 7093,
      ".)": 7094,
      "300": 7095,
      "61": 7096,
      "92": 7097,
      "Ad": 7098,
      "Abenzi": 7099,
      "Abanye": 7100,
      "Azimuth": 7101,
      "Be": 7102,
      "Bu": 7103,
      "Bona": 7104,
      "Bubu": 7105,
      "BHO": 7106,
      "BER": 7107,
      "Car": 7108,
      "Dreadnought": 7109,
      "EX": 7110,
      "Eng": 7111,
      "Eyesibini": 7112,
      "Ezokuqala": 7113,
      "Esona": 7114,
      "Gre": 7115,
      "Grike": 7116,
      "HL": 7117,
      "Hlang": 7118,
      "Id": 7119,
      "Igumbi": 7120,
      "Ingaba": 7121,
      "Ivili": 7122,
      "Isangqa": 7123,
      "Ibhatyi": 7124,
      "IDO": 7125,
      "Isenzo": 7126,
      "Itali": 7127,
      "Joh": 7128,
      "Kuku": 7129,
      "LWA": 7130,
      "Musa": 7131,
      "MANZI": 7132,
      "NA": 7133,
      "Ndi": 7134,
      "Noko": 7135,
      "NOKU": 7136,
      "NOM": 7137,
      "Nanjeng": 7138,
      "Nenekazi": 7139,
      "Oo": 7140,
      "Okunye": 7141,
      "OLU": 7142,
      "Owona": 7143,
      "Pi": 7144,
      "Per": 7145,
      "Qh": 7146,
      "QAM": 7147,
      "Qhu": 7148,
      "RF": 7149,
      "ROM": 7150,
      "Rod": 7151,
      "SP": 7152,
      "SW": 7153,
      "SENQANAWA": 7154,
      "Span": 7155,
      "TA": 7156,
      "TY": 7157,
      "Tsh": 7158,
      "Tow": 7159,
      "Tsala": 7160,
      "Ush": 7161,
      "Uyalelo": 7162,
      "Ucwangciso": 7163,
      "Utshintsho": 7164,
      "Ubume": 7165,
      "UBU": 7166,
      "Usasazo": 7167,
      "Ushenxiso": 7168,
      "Xho": 7169,
      "Yinkqubo": 7170,
      "Zim": 7171,
      "awe": 7172,
      "ava": 7173,
      "ahla": 7174,
      "ahamba": 7175,
      "adla": 7176,
      "aphela": 7177,
      "abenzi": 7178,
      "aben": 7179,
      "asoloko": 7180,
      "aphinda": 7181,
      "afanayo": 7182,
      "ahlukeneyo": 7183,
      "avela": 7184,
      "aqinileyo": 7185,
      "ast": 7186,
      "asetyenziswe": 7187,
      "akunjalo": 7188,
      "akwenze": 7189,
      "acocekileyo": 7190,
      "by": 7191,
      "bina": 7192,
      "bamandla": 7193,
      "bezinto": 7194,
      "cum": 7195,
      "cela": 7196,
      "cimi": 7197,
      "coma": 7198,
      "dda": 7199,
      "ebh": 7200,
      "ekhus": 7201,
      "eqin": 7202,
      "echa": 7203,
      "eqela": 7204,
      "emasti": 7205,
      "ego": 7206,
      "edada": 7207,
      "eqhuba": 7208,
      "eqhutywa": 7209,
      "ekumele": 7210,
      "ebonakala": 7211,
      "efakwe": 7212,
      "ecacileyo": 7213,
      "ejikeleze": 7214,
      "ekhokelela": 7215,
      "ebonakalayo": 7216,
      "esembindini": 7217,
      "efunyenwe": 7218,
      "eepesenti": 7219,
      "eNgil": 7220,
      "ekhanyayo": 7221,
      "ethwekha": 7222,
      "fini": 7223,
      "feni": 7224,
      "for": 7225,
      "fone": 7226,
      "gum": 7227,
      "ger": 7228,
      "hlungu": 7229,
      "hlwayo": 7230,
      "iE": 7231,
      "ilu": 7232,
      "ikho": 7233,
      "idi": 7234,
      "ikhulu": 7235,
      "itho": 7236,
      "ibon": 7237,
      "iphi": 7238,
      "itsha": 7239,
      "idada": 7240,
      "ikude": 7241,
      "iyonke": 7242,
      "iDo": 7243,
      "ifakwa": 7244,
      "ifakelwe": 7245,
      "ijinga": 7246,
      "iphambu": 7247,
      "ijikeleze": 7248,
      "iqonga": 7249,
      "iphepha": 7250,
      "ibheka": 7251,
      "ikhonk": 7252,
      "ikamva": 7253,
      "ilawulwa": 7254,
      "ivumele": 7255,
      "iqheleke": 7256,
      "ibanjwe": 7257,
      "ijing": 7258,
      "idlule": 7259,
      "ikulungele": 7260,
      "iphawulwe": 7261,
      "ifike": 7262,
      "jenge": 7263,
      "jineli": 7264,
      "kezi": 7265,
      "kiswe": 7266,
      "kezo": 7267,
      "kcitho": 7268,
      "lamandla": 7269,
      "lenziwa": 7270,
      "lelinye": 7271,
      "mbo": 7272,
      "mbane": 7273,
      "mntu": 7274,
      "mbumbulu": 7275,
      "mkelekileyo": 7276,
      "nini": 7277,
      "nesin": 7278,
      "ndidi": 7279,
      "nono": 7280,
      "ncedo": 7281,
      "nceda": 7282,
      "ntshukumo": 7283,
      "ol": 7284,
      "okwi": 7285,
      "ongaphandle": 7286,
      "ogcino": 7287,
      "obonisa": 7288,
      "okhupha": 7289,
      "oMkhosi": 7290,
      "oshiye": 7291,
      "ophindiweyo": 7292,
      "ongumn": 7293,
      "pl": 7294,
      "qend": 7295,
      "rin": 7296,
      "ram": 7297,
      "reli": 7298,
      "sana": 7299,
      "sto": 7300,
      "sento": 7301,
      "somatshini": 7302,
      "samadoda": 7303,
      "sangaphambili": 7304,
      "sisetyenziswe": 7305,
      "santsa": 7306,
      "tt": 7307,
      "tishini": 7308,
      "uk": 7309,
      "uph": 7310,
      "uyoku": 7311,
      "uwu": 7312,
      "ude": 7313,
      "usu": 7314,
      "ukha": 7315,
      "usetyenziswa": 7316,
      "udla": 7317,
      "ujika": 7318,
      "uphakam": 7319,
      "uvule": 7320,
      "uyani": 7321,
      "uqoqosho": 7322,
      "ukwakhiwa": 7323,
      "ujikeleze": 7324,
      "uthandelo": 7325,
      "uhlaselo": 7326,
      "ugcine": 7327,
      "udibaniso": 7328,
      "uphando": 7329,
      "usetyenziso": 7330,
      "udubulo": 7331,
      "ukwandisa": 7332,
      "ubhudla": 7333,
      "uElizabeth": 7334,
      "vil": 7335,
      "wn": 7336,
      "welwa": 7337,
      "wene": 7338,
      "wuni": 7339,
      "wangc": 7340,
      "wentsontelo": 7341,
      "xinga": 7342,
      "xwayo": 7343,
      "yand": 7344,
      "yina": 7345,
      "yiswe": 7346,
      "yamashumi": 7347,
      "yamanani": 7348,
      "zangoku": 7349,
      "kuph": 7350,
      "kuwe": 7351,
      "kuse": 7352,
      "kuyi": 7353,
      "kuxa": 7354,
      "kufun": 7355,
      "kuvu": 7356,
      "kuleyo": 7357,
      "kukwenza": 7358,
      "kuthatha": 7359,
      "kulala": 7360,
      "kusuku": 7361,
      "kubuchule": 7362,
      "kubonakala": 7363,
      "kuvumela": 7364,
      "kuthutho": 7365,
      "kudonga": 7366,
      "kuMkhosi": 7367,
      "kudibana": 7368,
      "kuqhagamshelwano": 7369,
      "kuvingco": 7370,
      "kubume": 7371,
      "kulapho": 7372,
      "kubelula": 7373,
      "ank": 7374,
      "anina": 7375,
      "anamandla": 7376,
      "anamakhulu": 7377,
      "ankini": 7378,
      "inya": 7379,
      "inina": 7380,
      "indlu": 7381,
      "indidi": 7382,
      "inTambo": 7383,
      "inxeba": 7384,
      "inyango": 7385,
      "ell": 7386,
      "elezi": 7387,
      "eleza": 7388,
      "elenziwe": 7389,
      "elelwano": 7390,
      "enokuba": 7391,
      "enzela": 7392,
      "enje": 7393,
      "entshona": 7394,
      "enkwili": 7395,
      "enyuka": 7396,
      "waya": 7397,
      "waza": 7398,
      "wawo": 7399,
      "wadi": 7400,
      "wamandla": 7401,
      "wasemanzini": 7402,
      "zizo": 7403,
      "ziva": 7404,
      "zikhephe": 7405,
      "zivu": 7406,
      "zikhona": 7407,
      "ziwayo": 7408,
      "ziphumo": 7409,
      "zithwala": 7410,
      "zilungileyo": 7411,
      "ziphinde": 7412,
      "zidibana": 7413,
      "zisenoku": 7414,
      "zisebenze": 7415,
      "ngana": 7416,
      "ngezo": 7417,
      "ngentsika": 7418,
      "ngcwa": 7419,
      "ngciphe": 7420,
      "thsi": 7421,
      "thane": 7422,
      "thso": 7423,
      "iselweyo": 7424,
      "phambo": 7425,
      "pheleyo": 7426,
      "phanyazo": 7427,
      "wezinto": 7428,
      "wecandelo": 7429,
      "wetanki": 7430,
      "wesiseko": 7431,
      "wesinyithi": 7432,
      "wesandla": 7433,
      "wesakhiwo": 7434,
      "wezothutho": 7435,
      "yeF": 7436,
      "yep": 7437,
      "yephenyane": 7438,
      "yecandelo": 7439,
      "yephini": 7440,
      "yedekhi": 7441,
      "yesangqa": 7442,
      "yerada": 7443,
      "yobuchule": 7444,
      "yobomi": 7445,
      "yoMkhosi": 7446,
      "yobugcisa": 7447,
      "yobeko": 7448,
      "yografi": 7449,
      "ambini": 7450,
      "amxinwa": 7451,
      "lubizwa": 7452,
      "luvo": 7453,
      "lusini": 7454,
      "khring": 7455,
      "lekile": 7456,
      "lesinyithi": 7457,
      "laso": 7458,
      "sikhephe": 7459,
      "sihamba": 7460,
      "sixhenxe": 7461,
      "siqhutywa": 7462,
      "sizaku": 7463,
      "bathi": 7464,
      "baze": 7465,
      "balwe": 7466,
      "bafumane": 7467,
      "bakala": 7468,
      "kale": 7469,
      "kaZwelonke": 7470,
      "okuzi": 7471,
      "okuphezulu": 7472,
      "okutsha": 7473,
      "okunokwenzeka": 7474,
      "kwiseyile": 7475,
      "kwangaphambili": 7476,
      "kwanika": 7477,
      "anawa": 7478,
      "yaty": 7479,
      "yakhiwa": 7480,
      "low": 7481,
      "lowa": 7482,
      "lolawulo": 7483,
      "lorhwebo": 7484,
      "lokwakhiwa": 7485,
      "lokhwe": 7486,
      "ukug": 7487,
      "ukuwa": 7488,
      "ukung": 7489,
      "ukusi": 7490,
      "ukuqala": 7491,
      "ukuvela": 7492,
      "ukuthoba": 7493,
      "ukulinganisa": 7494,
      "ukuphathwa": 7495,
      "ukufika": 7496,
      "ukudibana": 7497,
      "ukuwela": 7498,
      "ukuqwalasela": 7499,
      "ukusindisa": 7500,
      "ukukhwela": 7501,
      "ukuthambeka": 7502,
      "ukuveza": 7503,
      "ukusasaza": 7504,
      "ukuvuza": 7505,
      "ukuvavanya": 7506,
      "ukuthabatha": 7507,
      "ukulungela": 7508,
      "shun": 7509,
      "shini": 7510,
      "koo": 7511,
      "kolwazi": 7512,
      "kohliso": 7513,
      "kolundi": 7514,
      "umlawuli": 7515,
      "umphakamo": 7516,
      "boka": 7517,
      "bodwa": 7518,
      "elala": 7519,
      "elali": 7520,
      "ezu": 7521,
      "ezinqanawa": 7522,
      "ezaneleyo": 7523,
      "gazi": 7524,
      "gafu": 7525,
      "gadwe": 7526,
      "galoni": 7527,
      "seka": 7528,
      "sese": 7529,
      "secala": 7530,
      "sephenyane": 7531,
      "onxweme": 7532,
      "buxhomekeke": 7533,
      "bubonke": 7534,
      "bubulumko": 7535,
      "andlo": 7536,
      "andileyo": 7537,
      "lima": 7538,
      "ligama": 7539,
      "lidla": 7540,
      "lifumana": 7541,
      "litye": 7542,
      "omo": 7543,
      "omileyo": 7544,
      "omthwalo": 7545,
      "ngawo": 7546,
      "ngasem": 7547,
      "ngalunye": 7548,
      "ngalendlela": 7549,
      "ileye": 7550,
      "eziya": 7551,
      "ezixhobo": 7552,
      "ezibamba": 7553,
      "eziphinda": 7554,
      "eziqhutywa": 7555,
      "ezifakwe": 7556,
      "ezikhongozeli": 7557,
      "ezilayisha": 7558,
      "ezithambileyo": 7559,
      "ezikhawulezayo": 7560,
      "ezibekiweyo": 7561,
      "amade": 7562,
      "amatyathanga": 7563,
      "mas": 7564,
      "magama": 7565,
      "mayenziwe": 7566,
      "ulunge": 7567,
      "daba": 7568,
      "dadi": 7569,
      "kanjalo": 7570,
      "isixa": 7571,
      "isiphumo": 7572,
      "isikhongozeli": 7573,
      "isicelo": 7574,
      "isigxina": 7575,
      "isikhundla": 7576,
      "bizwe": 7577,
      "bilisa": 7578,
      "unt": 7579,
      "unomathotholo": 7580,
      "unako": 7581,
      "unyiweyo": 7582,
      "unxibelelwano": 7583,
      "inike": 7584,
      "inikez": 7585,
      "inikezelwe": 7586,
      "ingu": 7587,
      "kwid": 7588,
      "kwima": 7589,
      "kwica": 7590,
      "kwizinga": 7591,
      "kwilungu": 7592,
      "kwikhamandela": 7593,
      "kwimatshini": 7594,
      "kwiklasi": 7595,
      "kwiverhe": 7596,
      "kwikhondo": 7597,
      "kwipleyiti": 7598,
      "kwigiya": 7599,
      "kwiingcingo": 7600,
      "embumbulu": 7601,
      "enikiweyo": 7602,
      "phako": 7603,
      "kunesi": 7604,
      "kundla": 7605,
      "kunyuso": 7606,
      "yikisa": 7607,
      "isalathiso": 7608,
      "kweshumi": 7609,
      "kwesin": 7610,
      "kweqondo": 7611,
      "kwephenyane": 7612,
      "kwesantya": 7613,
      "kweendawo": 7614,
      "kwezint": 7615,
      "beetoni": 7616,
      "saku": 7617,
      "sawo": 7618,
      "sahluko": 7619,
      "sahlulo": 7620,
      "sazulwini": 7621,
      "tshwe": 7622,
      "tshana": 7623,
      "tshelwe": 7624,
      "tshoni": 7625,
      "wobude": 7626,
      "woMkhosi": 7627,
      "wolwimi": 7628,
      "wobukumkani": 7629,
      "esibu": 7630,
      "esiqu": 7631,
      "esijika": 7632,
      "esiqinileyo": 7633,
      "esibaleka": 7634,
      "elithi": 7635,
      "elihamba": 7636,
      "elijika": 7637,
      "elibizwa": 7638,
      "elidala": 7639,
      "elibomvu": 7640,
      "antywil": 7641,
      "thathiweyo": 7642,
      "thathiwe": 7643,
      "keka": 7644,
      "tyulu": 7645,
      "tyenzi": 7646,
      "tyeni": 7647,
      "tyhe": 7648,
      "zeentambo": 7649,
      "zeflegi": 7650,
      "zekhompyutha": 7651,
      "bhuku": 7652,
      "entweni": 7653,
      "nakwisi": 7654,
      "nakwin": 7655,
      "nabantu": 7656,
      "naphina": 7657,
      "nakweyiphi": 7658,
      "zotywa": 7659,
      "khokhonathi": 7660,
      "khoboka": 7661,
      "cal": 7662,
      "cazo": 7663,
      "catho": 7664,
      "ngokukhu": 7665,
      "ngokuphel": 7666,
      "ngokutsha": 7667,
      "ngokukodwa": 7668,
      "ngokuphinda": 7669,
      "ngokuqinisekileyo": 7670,
      "ngokuchaseneyo": 7671,
      "ngokucothayo": 7672,
      "engcono": 7673,
      "engundoqo": 7674,
      "engunxantathu": 7675,
      "qhelis": 7676,
      "angan": 7677,
      "angxa": 7678,
      "angqu": 7679,
      "imele": 7680,
      "imandla": 7681,
      "imvume": 7682,
      "lwaphu": 7683,
      "lwahlulo": 7684,
      "lwaman": 7685,
      "kumg": 7686,
      "kumlo": 7687,
      "fundwa": 7688,
      "fundisa": 7689,
      "ngoba": 7690,
      "ngokw": 7691,
      "ngobuninzi": 7692,
      "ngo16": 7693,
      "thotywe": 7694,
      "xhu": 7695,
      "xhuma": 7696,
      "isety": 7697,
      "isekisa": 7698,
      "ingasetyenziswa": 7699,
      "ingafunyanwa": 7700,
      "vali": 7701,
      "oluya": 7702,
      "olubu": 7703,
      "oluhlu": 7704,
      "olungaphezulu": 7705,
      "olungena": 7706,
      "olusisi": 7707,
      "olumandla": 7708,
      "olufanayo": 7709,
      "oluzenzekelayo": 7710,
      "oluphangaleleyo": 7711,
      "esish": 7712,
      "esandi": 7713,
      "esisetyenziselwa": 7714,
      "esinzima": 7715,
      "yokusetyenziswa": 7716,
      "yokudibanisa": 7717,
      "yokutshona": 7718,
      "yokuthintela": 7719,
      "yokuzala": 7720,
      "yokuthumela": 7721,
      "yokuphumla": 7722,
      "yokuhlola": 7723,
      "kwencam": 7724,
      "ezinesi": 7725,
      "ezinzileyo": 7726,
      "ezinjeng": 7727,
      "ezinqanaweni": 7728,
      "hlaleni": 7729,
      "eshi": 7730,
      "eshiye": 7731,
      "eshushu": 7732,
      "qabane": 7733,
      "qaqam": 7734,
      "qabileyo": 7735,
      "qakathi": 7736,
      "khukhu": 7737,
      "khuphe": 7738,
      "khupho": 7739,
      "lwee": 7740,
      "lweqhina": 7741,
      "Ukuya": 7742,
      "Ukujika": 7743,
      "Ukufumana": 7744,
      "Ukubeka": 7745,
      "Ukusebenzisa": 7746,
      "Ukudibanisa": 7747,
      "Ukulawula": 7748,
      "Ukulungiswa": 7749,
      "Ukubetha": 7750,
      "lweng": 7751,
      "lwentsika": 7752,
      "kelwayo": 7753,
      "kelelweyo": 7754,
      "jiwe": 7755,
      "jijeka": 7756,
      "jiyografi": 7757,
      "neM": 7758,
      "nese": 7759,
      "neentsontelo": 7760,
      "neendawo": 7761,
      "neendlela": 7762,
      "ntlo": 7763,
      "phephela": 7764,
      "ngeseyile": 7765,
      "ngeetoni": 7766,
      "ngeenyawo": 7767,
      "njwe": 7768,
      "tyenziswa": 7769,
      "xeshi": 7770,
      "ekung": 7771,
      "ekubo": 7772,
      "ekuza": 7773,
      "ekupha": 7774,
      "ekubam": 7775,
      "ekukhw": 7776,
      "ekufuphi": 7777,
      "ekuthiwa": 7778,
      "ekulayishwa": 7779,
      "ekuxhonywa": 7780,
      "ekusebenziseni": 7781,
      "khitshi": 7782,
      "khiwayo": 7783,
      "qhuqho": 7784,
      "tiki": 7785,
      "soze": 7786,
      "solwandle": 7787,
      "socingo": 7788,
      "sokhuselo": 7789,
      "sokhuni": 7790,
      "hakish": 7791,
      "hlenge": 7792,
      "Umphezulu": 7793,
      "Umhlaba": 7794,
      "Umlawuli": 7795,
      "Umthamo": 7796,
      "Umnatha": 7797,
      "nohlobo": 7798,
      "nokwenza": 7799,
      "nokwenziwa": 7800,
      "nokwakhiwa": 7801,
      "nobuninzi": 7802,
      "izithuba": 7803,
      "izityalo": 7804,
      "izibaso": 7805,
      "anikezelwa": 7806,
      "kilowa": 7807,
      "nokuhla": 7808,
      "nokuthatha": 7809,
      "nokudibanisa": 7810,
      "nokulawula": 7811,
      "nokuphuma": 7812,
      "nokunyusa": 7813,
      "nokulayisha": 7814,
      "nokuthula": 7815,
      "Intshukumo": 7816,
      "Ngokuba": 7817,
      "sukeli": 7818,
      "ngendawo": 7819,
      "ngenene": 7820,
      "ngenqwelo": 7821,
      "ngenjalo": 7822,
      "ngenkathalo": 7823,
      "ngenkxaso": 7824,
      "qikelelwa": 7825,
      "yuse": 7826,
      "hluzo": 7827,
      "hlukane": 7828,
      "hambelana": 7829,
      "hloni": 7830,
      "ubung": 7831,
      "ubuphi": 7832,
      "futhi": 7833,
      "rhumo": 7834,
      "zinza": 7835,
      "zininzi": 7836,
      "zindlu": 7837,
      "cedi": 7838,
      "phukayo": 7839,
      "komo": 7840,
      "komkhulu": 7841,
      "komphambili": 7842,
      "komphantsi": 7843,
      "komqondiso": 7844,
      "inaliti": 7845,
      "inalithi": 7846,
      "lokuzi": 7847,
      "lokutsala": 7848,
      "lokulala": 7849,
      "lokusingqongileyo": 7850,
      "lokuphumla": 7851,
      "lokuqengqeleka": 7852,
      "gcinweni": 7853,
      "gcinci": 7854,
      "njengentambo": 7855,
      "njengangoko": 7856,
      "zokuthi": 7857,
      "zokufumana": 7858,
      "zokuthwala": 7859,
      "zokulawula": 7860,
      "zokulayisha": 7861,
      "zokusingqongileyo": 7862,
      "zokusindisa": 7863,
      "kwisikali": 7864,
      "kwisikhitshana": 7865,
      "kwisikhululo": 7866,
      "Isibane": 7867,
      "Isithuba": 7868,
      "Isikhitshane": 7869,
      "Isiphumo": 7870,
      "Isizathu": 7871,
      "Isilenge": 7872,
      "yomphunga": 7873,
      "yomyalezo": 7874,
      "setyenziswayo": 7875,
      "gqibezela": 7876,
      "obuyi": 7877,
      "obuphezulu": 7878,
      "obungama": 7879,
      "obufileyo": 7880,
      "abasebenza": 7881,
      "abatshabalalisi": 7882,
      "okokoko": 7883,
      "phelelwa": 7884,
      "yenzelwa": 7885,
      "Kufanele": 7886,
      "Kulapho": 7887,
      "Kutshiwo": 7888,
      "rithi": 7889,
      "kubaphathi": 7890,
      "imigama": 7891,
      "imiyalelo": 7892,
      "kwindoda": 7893,
      "kwinyawo": 7894,
      "kwinyanga": 7895,
      "kwincwadi": 7896,
      "kwinethwekhi": 7897,
      "banini": 7898,
      "banjwa": 7899,
      "etyibili": 7900,
      "kumaza": 7901,
      "kumadoda": 7902,
      "kumaqondo": 7903,
      "kumalungu": 7904,
      "kumaphenyane": 7905,
      "kumazantsi": 7906,
      "nomphezulu": 7907,
      "nomzantsi": 7908,
      "choy": 7909,
      "faneleyo": 7910,
      "chasi": 7911,
      "chatsha": 7912,
      "bhadu": 7913,
      "wokuqhuba": 7914,
      "wokubhabha": 7915,
      "zomsinga": 7916,
      "zompu": 7917,
      "zomntu": 7918,
      "zomlilo": 7919,
      "womgca": 7920,
      "wombhobho": 7921,
      "womsonto": 7922,
      "sokuphatha": 7923,
      "sokulawula": 7924,
      "elineshumi": 7925,
      "elinesine": 7926,
      "kokusetyenziswa": 7927,
      "kokuhamba": 7928,
      "kokugqibela": 7929,
      "yesikhongozeli": 7930,
      "roje": 7931,
      "zelaphu": 7932,
      "ezimeleyo": 7933,
      "ezimxinwa": 7934,
      "omas": 7935,
      "Okulandelayo": 7936,
      "bunyani": 7937,
      "eyadi": 7938,
      "eyayin": 7939,
      "eyakhiwa": 7940,
      "eyaziwa": 7941,
      "eyadlulayo": 7942,
      "ral": 7943,
      "Kwindlela": 7944,
      "Kwixesha": 7945,
      "Izikhephe": 7946,
      "Iziphelo": 7947,
      "iip": 7948,
      "iigiyeri": 7949,
      "iipesenti": 7950,
      "iiyunithi": 7951,
      "gudu": 7952,
      "gutyu": 7953,
      "gudle": 7954,
      "kwezikhephe": 7955,
      "bheringi": 7956,
      "stili": 7957,
      "bameli": 7958,
      "bambeka": 7959,
      "linesi": 7960,
      "lineshumi": 7961,
      "somthwalo": 7962,
      "somlinganiselo": 7963,
      "somqondiso": 7964,
      "sombizane": 7965,
      "bomoya": 7966,
      "bomzimba": 7967,
      "ukunyuswa": 7968,
      "tshatyala": 7969,
      "cocwa": 7970,
      "cochoy": 7971,
      "eyin": 7972,
      "eyintloko": 7973,
      "hlabathini": 7974,
      "fikelelwa": 7975,
      "filiba": 7976,
      "nezithuthi": 7977,
      "neziphumo": 7978,
      "yaneni": 7979,
      "bonakalisi": 7980,
      "kukuthi": 7981,
      "esino": 7982,
      "esineziqu": 7983,
      "nesixa": 7984,
      "nesikhephe": 7985,
      "nesithathu": 7986,
      "nesikhitshane": 7987,
      "nesiphumo": 7988,
      "nesibhakabhaka": 7989,
      "kwaziswa": 7990,
      "isetyenziswayo": 7991,
      "xhaso": 7992,
      "xhaswa": 7993,
      "xinana": 7994,
      "ngombhobho": 7995,
      "ngomsonto": 7996,
      "ngumyalelo": 7997,
      "kwesibane": 7998,
      "kwesiqhubi": 7999,
      "tar": 8000,
      "yayizi": 8001,
      "Ezim": 8002,
      "iinxenye": 8003,
      "ISISEKO": 8004,
      "kwizikhuseli": 8005,
      "Amaxesha": 8006,
      "Intetho": 8007,
      "wesithuthi": 8008,
      "wesikhokelo": 8009,
      "ezinge": 8010,
      "lenda": 8011,
      "tshintshiselwano": 8012,
      "196": 8013,
      "1914": 8014,
      "yamaNenekazi": 8015,
      "zemisebenzi": 8016,
      "thamsan": 8017,
      "zingaba": 8018,
      "sentshona": 8019,
      "onobumba": 8020,
      "qiniseko": 8021,
      "qiniseke": 8022,
      "izakhiwo": 8023,
      "zingen": 8024,
      "khuseleke": 8025,
      "dityanisiwe": 8026,
      "cuthwa": 8027,
      "cubeko": 8028,
      "rhoxo": 8029,
      "dutyu": 8030,
      "zenzela": 8031,
      "guqulo": 8032,
      "iimfuneko": 8033,
      "iimodeli": 8034,
      "wendlu": 8035,
      "wenqaba": 8036,
      "tyiwa": 8037,
      "tyiwe": 8038,
      "tyiki": 8039,
      "gqunyiweyo": 8040,
      "kwamacala": 8041,
      "kwamaplanga": 8042,
      "kwamalungu": 8043,
      "kwamazibuko": 8044,
      "Ngalo": 8045,
      "Ngaphambili": 8046,
      "elelanga": 8047,
      "sesivalo": 8048,
      "caciswa": 8049,
      "kungaba": 8050,
      "baluleka": 8051,
      "engekhoyo": 8052,
      "ukumela": 8053,
      "ilisi": 8054,
      "Impahla": 8055,
      "cwt": 8056,
      "Ngokunjalo": 8057,
      "azise": 8058,
      "nange": 8059,
      "nempahla": 8060,
      "nemozulu": 8061,
      "nemodeli": 8062,
      "namazwe": 8063,
      "namalungu": 8064,
      "khwelisa": 8065,
      "khweliswe": 8066,
      "Imizekelo": 8067,
      "jongane": 8068,
      "jongiswe": 8069,
      "jongiwe": 8070,
      "kubekwe": 8071,
      "qwazi": 8072,
      "zezikhephe": 8073,
      "camango": 8074,
      "yangaphantsi": 8075,
      "yangaphakathi": 8076,
      "yeziphumo": 8077,
      "elinesixhenxe": 8078,
      "qeshwa": 8079,
      "lwenze": 8080,
      "lwenzeka": 8081,
      "lwendlu": 8082,
      "lwenyanga": 8083,
      "kwimitha": 8084,
      "kwimigca": 8085,
      "ngamele": 8086,
      "lands": 8087,
      "ziyafuneka": 8088,
      "zesikrufu": 8089,
      "ayelelo": 8090,
      "kwisinye": 8091,
      "konxweme": 8092,
      "njengeenqanawa": 8093,
      "xhomekekanga": 8094,
      "lisha": 8095,
      "nangaphandle": 8096,
      "lisiko": 8097,
      "hlangana": 8098,
      "yameko": 8099,
      "inokwenziwa": 8100,
      "kwemfaniso": 8101,
      "fanelekanga": 8102,
      "lesiqu": 8103,
      "PHIN": 8104,
      "PHEZ": 8105,
      "eziyi2": 8106,
      "eziyi6": 8107,
      "lweziqu": 8108,
      "orge": 8109,
      "rusi": 8110,
      "qeqesha": 8111,
      "Maka": 8112,
      "Maxa": 8113,
      "ngxam": 8114,
      "kwemipu": 8115,
      "tyebileyo": 8116,
      "Ngokwen": 8117,
      "Ngokwezi": 8118,
      "yanikezelwa": 8119,
      "phumayo": 8120,
      "sasazeka": 8121,
      "zizixhobo": 8122,
      "lumko": 8123,
      "Nalu": 8124,
      "lisoloko": 8125,
      "hlaseli": 8126,
      "Khetha": 8127,
      "zakudala": 8128,
      "eyiji": 8129,
      "besikhitshane": 8130,
      "yemithetho": 8131,
      "NGEN": 8132,
      "NGOKU": 8133,
      "yasekhohlo": 8134,
      "loncedo": 8135,
      "igh": 8136,
      "igiya": 8137,
      "kububanzi": 8138,
      "olundi": 8139,
      "cwadana": 8140,
      "lobuntlola": 8141,
      "esakhelwe": 8142,
      "xulumeneyo": 8143,
      "Abaphathi": 8144,
      "SIKA": 8145,
      "ulwaleko": 8146,
      "elingaphantsi": 8147,
      "ukususwa": 8148,
      "ukususela": 8149,
      "ukona": 8150,
      "yokunethwekha": 8151,
      "yiloni": 8152,
      "ciphiso": 8153,
      "bhekiswa": 8154,
      "tyibiliko": 8155,
      "tyibilikayo": 8156,
      "jingajing": 8157,
      "kwabasebenzi": 8158,
      "KHUS": 8159,
      "owenza": 8160,
      "esingena": 8161,
      "epleyiti": 8162,
      "qulun": 8163,
      "esingaphandle": 8164,
      "lwemisebenzi": 8165,
      "bunzululwazi": 8166,
      "LEYO": 8167,
      "lanethi": 8168,
      "ongentla": 8169,
      "ngo197": 8170,
      "Yayis": 8171,
      "bhikhi": 8172,
      "qhotyo": 8173,
      "qhelan": 8174,
      "qheliso": 8175,
      "dulula": 8176,
      "Britani": 8177,
      "bhekiselela": 8178,
      "viwa": 8179,
      "thengisi": 8180,
      "omnyama": 8181,
      "kunaxa": 8182,
      "WEYO": 8183,
      "bandakanye": 8184,
      "bandakanya": 8185,
      "kroliweyo": 8186,
      "yingxaki": 8187,
      "zabasebenzi": 8188,
      "tshebeleza": 8189,
      "Kumkhosi": 8190,
      "emori": 8191,
      "qubuliso": 8192,
      "azinaku": 8193,
      "unoxanduva": 8194,
      "thandabuzeka": 8195,
      "esekelwe": 8196,
      "sondele": 8197,
      "sondelel": 8198,
      "tur": 8199,
      "esisikhuselo": 8200,
      "ngezelelekileyo": 8201,
      "noncedo": 8202,
      "plastiki": 8203,
      "khukulisa": 8204,
      "khukuliso": 8205,
      "khukuliseko": 8206,
      "tyhala": 8207,
      "lungiswayo": 8208,
      "elungelo": 8209,
      "elungele": 8210,
      "IMI": 8211,
      "IMASTI": 8212,
      "geyithi": 8213,
      "iingcingo": 8214,
      "yondla": 8215,
      "yayinoku": 8216,
      "bhetri": 8217,
      "qulatho": 8218,
      "yenzeke": 8219,
      "Isakhiwo": 8220,
      "banako": 8221,
      "iintlanzi": 8222,
      "pondo": 8223,
      "tsolo": 8224,
      "phumelelayo": 8225,
      "yengelele": 8226,
      "dluliselwe": 8227,
      "zangaphantsi": 8228,
      "neenqwelo": 8229,
      "coceko": 8230,
      "cocekile": 8231,
      "frigeyithi": 8232,
      "namhlanje": 8233,
      "okuninzi": 8234,
      "okuncinci": 8235,
      "ngeemasti": 8236,
      "songwa": 8237,
      "ekwakheni": 8238,
      "ukubuya": 8239,
      "phazamisa": 8240,
      "bert": 8241,
      "iyant": 8242,
      "qengqele": 8243,
      "yekutsala": 8244,
      "okumkani": 8245,
      "unyuko": 8246,
      "sindisi": 8247,
      "yayingu": 8248,
      "Amanyathelo": 8249,
      "gunyaziswa": 8250,
      "itsalelwe": 8251,
      "lamano": 8252,
      "uMnu": 8253,
      "setyenzisiwe": 8254,
      "peyintwe": 8255,
      "ywili": 8256,
      "enesiqhubeli": 8257,
      "tyuwa": 8258,
      "fundela": 8259,
      "dolophu": 8260,
      "qhushumbiso": 8261,
      "USS": 8262,
      "ikhuselekile": 8263,
      "yesalatha": 8264,
      "ukubetheka": 8265,
      "qolobi": 8266,
      "nanina": 8267,
      "obumalunga": 8268,
      "lindelekile": 8269,
      "EZA": 8270,
      "James": 8271,
      "Kapteni": 8272,
      "vunyelweyo": 8273,
      "simile": 8274,
      "xhebo": 8275,
      "Luhlu": 8276,
      "como": 8277,
      "yuselwe": 8278,
      "Unobhala": 8279,
      "phathiswa": 8280,
      "yantlukwano": 8281,
      "thsaba": 8282,
      "khumbuza": 8283,
      "ukukhuthuka": 8284,
      "dadela": 8285,
      "angenwa": 8286,
      "obuninzi": 8287,
      "ISEYILE": 8288,
      "kwamanani": 8289,
      "ALSP": 8290,
      "gxininiso": 8291,
      "ifatyi": 8292,
      "qweqwe": 8293,
      "naluphi": 8294,
      "qumleza": 8295,
      "benako": 8296,
      "julwayo": 8297,
      "ohan": 8298,
      "tropiki": 8299,
      "khankan": 8300,
      "ezizodwa": 8301,
      "qhushekwe": 8302,
      "Ngilani": 8303,
      "bhatalwa": 8304,
      "orenji": 8305,
      "Qiniseka": 8306,
      "dweliso": 8307,
      "andululwa": 8308,
      "dayameta": 8309,
      "vakalayo": 8310,
      "duneyiji": 8311,
      "enyakeni": 8312,
      "galeleka": 8313,
      "rhityela": 8314,
      "fumaniseka": 8315,
      "INDAWO": 8316,
      "abazihambelayo": 8317,
      "Atlantic": 8318,
      "Ikomiti": 8319,
      "Simon": 8320,
      "dwendwe": 8321,
      "ekulungiseni": 8322,
      "qhagamshelanisi": 8323,
      "gxumeko": 8324,
      "APHO": 8325,
      "Flegi": 8326,
      "SANDF": 8327,
      "White": 8328,
      "gromethi": 8329,
      "obaneleyo": 8330,
      "owomileyo": 8331,
      "slip": 8332,
      "umthunj": 8333,
      "kunqandwa": 8334,
      "tshaneli": 8335,
      "esongwayo": 8336,
      "futhanisela": 8337,
      "phithaniso": 8338,
      "cwengileyo": 8339,
      "Bubulumko": 8340,
      "BERG": 8341,
      "John": 8342,
      "Rodney": 8343,
      "Town": 8344,
      "gumbini": 8345,
      "ongumncedisi": 8346,
      "khringili": 8347,
      "khukhuliseko": 8348,
      "ekubambeni": 8349,
      "hakisho": 8350,
      "cochoyini": 8351,
      "thamsanqa": 8352,
      ".\"": 8353,
      "/-": 8354,
      "01": 8355,
      "31": 8356,
      "35": 8357,
      "39": 8358,
      "42": 8359,
      "49": 8360,
      "54": 8361,
      "63": 8362,
      "84": 8363,
      "98": 8364,
      "Aga": 8365,
      "Abantu": 8366,
      "CB": 8367,
      "CM": 8368,
      "CO": 8369,
      "Cana": 8370,
      "Cor": 8371,
      "Char": 8372,
      "DB": 8373,
      "Du": 8374,
      "Dar": 8375,
      "EKU": 8376,
      "Ezinqanawa": 8377,
      "Elona": 8378,
      "Ekongez": 8379,
      "Fish": 8380,
      "Gun": 8381,
      "GANGATHO": 8382,
      "Ha": 8383,
      "IF": 8384,
      "Ila": 8385,
      "Ibi": 8386,
      "Ibizwa": 8387,
      "Iiseyile": 8388,
      "Iphini": 8389,
      "Ibhu": 8390,
      "Ixabiso": 8391,
      "Ibhodi": 8392,
      "Ijoni": 8393,
      "Ikhamandela": 8394,
      "Isetyenziselwa": 8395,
      "Ibhi": 8396,
      "Ikhampasi": 8397,
      "Ileli": 8398,
      "Igophe": 8399,
      "Iqonga": 8400,
      "Iyaku": 8401,
      "Igosa": 8402,
      "Imayile": 8403,
      "Isenoku": 8404,
      "Isisombululo": 8405,
      "JA": 8406,
      "Kang": 8407,
      "Kona": 8408,
      "Kwesi": 8409,
      "Lonke": 8410,
      "Lor": 8411,
      "Lung": 8412,
      "Misa": 8413,
      "Mazi": 8414,
      "Meyi": 8415,
      "MBO": 8416,
      "Manyano": 8417,
      "Noku": 8418,
      "Non": 8419,
      "Nqanawa": 8420,
      "OO": 8421,
      "Obona": 8422,
      "Oomatiloshe": 8423,
      "Ober": 8424,
      "Panama": 8425,
      "RO": 8426,
      "Sa": 8427,
      "Sal": 8428,
      "Sep": 8429,
      "SOKU": 8430,
      "SBERG": 8431,
      "TW": 8432,
      "To": 8433,
      "Tr": 8434,
      "Ugcino": 8435,
      "Ukhuselo": 8436,
      "Uxinzelelo": 8437,
      "Ubomi": 8438,
      "Udonga": 8439,
      "Ubunzulu": 8440,
      "Ulinganiso": 8441,
      "Ubeko": 8442,
      "Uhlaselo": 8443,
      "Uthungelwano": 8444,
      "Ulwimi": 8445,
      "Uhlolo": 8446,
      "Uphando": 8447,
      "Ukwazisa": 8448,
      "Udityaniso": 8449,
      "Ulwando": 8450,
      "Uphumlo": 8451,
      "Ukwenzela": 8452,
      "Ukhukuliso": 8453,
      "Yint": 8454,
      "Yenziwa": 8455,
      "Yeyona": 8456,
      "Yimfaniso": 8457,
      "YUSA": 8458,
      "ZE": 8459,
      "Zing": 8460,
      "ZOKU": 8461,
      "Zininzi": 8462,
      "ac": 8463,
      "aqo": 8464,
      "aphantsi": 8465,
      "aphakathi": 8466,
      "asem": 8467,
      "asebenza": 8468,
      "ayis": 8469,
      "ave": 8470,
      "athathwa": 8471,
      "abana": 8472,
      "akana": 8473,
      "athom": 8474,
      "benzis": 8475,
      "beleyo": 8476,
      "bande": 8477,
      "bentsontela": 8478,
      "ct": 8479,
      "cisa": 8480,
      "coko": 8481,
      "dy": 8482,
      "dzi": 8483,
      "dum": 8484,
      "dyu": 8485,
      "dleni": 8486,
      "dlele": 8487,
      "eh": 8488,
      "ex": 8489,
      "ebo": 8490,
      "ethu": 8491,
      "ekileyo": 8492,
      "ebho": 8493,
      "ekha": 8494,
      "ebon": 8495,
      "epa": 8496,
      "eyen": 8497,
      "evu": 8498,
      "ekhona": 8499,
      "ekwindawo": 8500,
      "etsha": 8501,
      "efi": 8502,
      "ekayo": 8503,
      "esebenzisa": 8504,
      "ecandelo": 8505,
      "efuna": 8506,
      "eqhina": 8507,
      "ekhupha": 8508,
      "ebesi": 8509,
      "eyenzeka": 8510,
      "edubula": 8511,
      "ekwakhiwa": 8512,
      "edityaniswe": 8513,
      "ekunoku": 8514,
      "ebhi": 8515,
      "ephindwe": 8516,
      "ephumela": 8517,
      "ekhuselwe": 8518,
      "eyeyona": 8519,
      "egqibeleleyo": 8520,
      "ephathekayo": 8521,
      "ehleli": 8522,
      "esemgangathweni": 8523,
      "ephilayo": 8524,
      "erhuqwayo": 8525,
      "ehlabathini": 8526,
      "flo": 8527,
      "from": 8528,
      "gxa": 8529,
      "hen": 8530,
      "huku": 8531,
      "hli": 8532,
      "hlweni": 8533,
      "holi": 8534,
      "iA": 8535,
      "iN": 8536,
      "it": 8537,
      "iw": 8538,
      "iwa": 8539,
      "iph": 8540,
      "ilo": 8541,
      "iile": 8542,
      "iqh": 8543,
      "ihla": 8544,
      "ifuneka": 8545,
      "ipho": 8546,
      "iimi": 8547,
      "ikwindawo": 8548,
      "ire": 8549,
      "ihle": 8550,
      "ilawu": 8551,
      "ikwicala": 8552,
      "ikuku": 8553,
      "ithanda": 8554,
      "ihlala": 8555,
      "itham": 8556,
      "iwaka": 8557,
      "iphakam": 8558,
      "ilula": 8559,
      "idibanisa": 8560,
      "ibala": 8561,
      "ibotshelelwa": 8562,
      "iphiko": 8563,
      "iringi": 8564,
      "ithambe": 8565,
      "ithand": 8566,
      "ibalulekile": 8567,
      "itshati": 8568,
      "idokisi": 8569,
      "ibambe": 8570,
      "iRoyal": 8571,
      "ilinganiswe": 8572,
      "ifimbili": 8573,
      "ijongene": 8574,
      "igqunywe": 8575,
      "ikhululwa": 8576,
      "iyodwa": 8577,
      "ikhefu": 8578,
      "iyenye": 8579,
      "ifunyenwe": 8580,
      "iboniswe": 8581,
      "icebo": 8582,
      "ikhompatimenti": 8583,
      "ilungiswe": 8584,
      "ivelise": 8585,
      "izembe": 8586,
      "iqhutyelwe": 8587,
      "jana": 8588,
      "julu": 8589,
      "jeke": 8590,
      "jengo": 8591,
      "jung": 8592,
      "jula": 8593,
      "klu": 8594,
      "kise": 8595,
      "kno": 8596,
      "lel": 8597,
      "lya": 8598,
      "lantsi": 8599,
      "lha": 8600,
      "lish": 8601,
      "lamashumi": 8602,
      "lelwano": 8603,
      "lentsika": 8604,
      "linako": 8605,
      "mhlaba": 8606,
      "mzuzu": 8607,
      "nelo": 8608,
      "nkqu": 8609,
      "noni": 8610,
      "ndla": 8611,
      "nanye": 8612,
      "namanye": 8613,
      "nengozi": 8614,
      "nkonzo": 8615,
      "nqaku": 8616,
      "ola": 8617,
      "obo": 8618,
      "oon": 8619,
      "okho": 8620,
      "owu": 8621,
      "ongen": 8622,
      "ohlu": 8623,
      "obon": 8624,
      "osebenza": 8625,
      "obanzi": 8626,
      "osisi": 8627,
      "olandelayo": 8628,
      "othwala": 8629,
      "opheleleyo": 8630,
      "okhuselo": 8631,
      "oqinileyo": 8632,
      "ous": 8633,
      "ocacileyo": 8634,
      "odonga": 8635,
      "ohanj": 8636,
      "obomvu": 8637,
      "ohambayo": 8638,
      "obekiweyo": 8639,
      "oqingqiweyo": 8640,
      "pulu": 8641,
      "pleyini": 8642,
      "qelo": 8643,
      "qama": 8644,
      "qano": 8645,
      "ron": 8646,
      "selwa": 8647,
      "sonke": 8648,
      "sangoku": 8649,
      "sinzima": 8650,
      "suntswana": 8651,
      "telwe": 8652,
      "tyesi": 8653,
      "uw": 8654,
      "ux": 8655,
      "utsh": 8656,
      "ulwe": 8657,
      "uthe": 8658,
      "uphezulu": 8659,
      "uso": 8660,
      "uphantsi": 8661,
      "upho": 8662,
      "uphu": 8663,
      "uri": 8664,
      "uyan": 8665,
      "ugo": 8666,
      "ubonisa": 8667,
      "ubizwa": 8668,
      "uqhube": 8669,
      "uthetha": 8670,
      "ubekwe": 8671,
      "ubekwa": 8672,
      "ufumaneka": 8673,
      "udonga": 8674,
      "usetyenziswe": 8675,
      "uMkhosi": 8676,
      "uphinde": 8677,
      "ubani": 8678,
      "uxanduva": 8679,
      "ubambo": 8680,
      "ushiye": 8681,
      "uthungelwano": 8682,
      "ulinganiswa": 8683,
      "ujikelezo": 8684,
      "ulwini": 8685,
      "usenoku": 8686,
      "usebenze": 8687,
      "uphahla": 8688,
      "ukwanda": 8689,
      "uqiniso": 8690,
      "uphuhliso": 8691,
      "uxhotyiso": 8692,
      "urhintyelo": 8693,
      "uthuli": 8694,
      "uxinezelelo": 8695,
      "velo": 8696,
      "vundu": 8697,
      "vemba": 8698,
      "went": 8699,
      "wenziwa": 8700,
      "wentsika": 8701,
      "which": 8702,
      "xeni": 8703,
      "xeko": 8704,
      "xus": 8705,
      "xinge": 8706,
      "yenzi": 8707,
      "yeneyo": 8708,
      "yentloko": 8709,
      "yengozi": 8710,
      "yangoku": 8711,
      "yintshukumo": 8712,
      "yandisa": 8713,
      "ylene": 8714,
      "zel": 8715,
      "zeng": 8716,
      "zang": 8717,
      "zintsha": 8718,
      "": 8719,
      "": 8720,
      "kuV": 8721,
      "kubini": 8722,
      "kukhe": 8723,
      "kunge": 8724,
      "kugqi": 8725,
      "kujika": 8726,
      "kungoko": 8727,
      "kungu": 8728,
      "kubonisa": 8729,
      "kungena": 8730,
      "kuphinda": 8731,
      "kuxinzelelo": 8732,
      "kulawulo": 8733,
      "kuphuma": 8734,
      "kusasa": 8735,
      "kubangela": 8736,
      "kufakwa": 8737,
      "kufakelwe": 8738,
      "kufunyanwa": 8739,
      "kugcinwe": 8740,
      "kuqoqosho": 8741,
      "kujonge": 8742,
      "kukhang": 8743,
      "kutsalo": 8744,
      "kugcinwa": 8745,
      "kubonakalisa": 8746,
      "kuhlaselo": 8747,
      "kujijwa": 8748,
      "kulendawo": 8749,
      "kuboniswa": 8750,
      "kujongwe": 8751,
      "kuxhomekeka": 8752,
      "kuchaphazela": 8753,
      "kuxela": 8754,
      "kudityaniso": 8755,
      "anom": 8756,
      "anile": 8757,
      "aneno": 8758,
      "anyanz": 8759,
      "antshukumo": 8760,
      "inem": 8761,
      "inobu": 8762,
      "inamandla": 8763,
      "inxe": 8764,
      "injalo": 8765,
      "inqaku": 8766,
      "inyuke": 8767,
      "inkosi": 8768,
      "inyuswe": 8769,
      "incede": 8770,
      "elyo": 8771,
      "ella": 8772,
      "eland": 8773,
      "elena": 8774,
      "enam": 8775,
      "endi": 8776,
      "eniso": 8777,
      "enki": 8778,
      "enamashumi": 8779,
      "endala": 8780,
      "enamacala": 8781,
      "enxulumene": 8782,
      "enqamleza": 8783,
      "enqatyisiweyo": 8784,
      "waku": 8785,
      "wahlala": 8786,
      "ziyo": 8787,
      "zilu": 8788,
      "ziqu": 8789,
      "zikhu": 8790,
      "zifa": 8791,
      "zime": 8792,
      "ziben": 8793,
      "zilula": 8794,
      "zifanele": 8795,
      "zibangela": 8796,
      "zibonakala": 8797,
      "zikhongozeli": 8798,
      "zifakwa": 8799,
      "zisiya": 8800,
      "zigqunywe": 8801,
      "ziqine": 8802,
      "zixhotyiswe": 8803,
      "zitsalwe": 8804,
      "ziphumelele": 8805,
      "ziphethwe": 8806,
      "ngela": 8807,
      "ngun": 8808,
      "ngxa": 8809,
      "ngca": 8810,
      "thileyo": 8811,
      "theleyo": 8812,
      "thenga": 8813,
      "thwano": 8814,
      "thombo": 8815,
      "isiso": 8816,
      "isiselo": 8817,
      "isto": 8818,
      "isine": 8819,
      "istra": 8820,
      "isuntswana": 8821,
      "phileyo": 8822,
      "wed": 8823,
      "wes": 8824,
      "wexesha": 8825,
      "wegumbi": 8826,
      "wehlabathi": 8827,
      "wemoto": 8828,
      "yes": 8829,
      "yethu": 8830,
      "yeplanga": 8831,
      "yesiseko": 8832,
      "yebhokisi": 8833,
      "yetsheyina": 8834,
      "yemehlo": 8835,
      "yedizile": 8836,
      "yoo": 8837,
      "yohlobo": 8838,
      "yobude": 8839,
      "yoni": 8840,
      "yoxinzelelo": 8841,
      "yokhuseleko": 8842,
      "yothutho": 8843,
      "yomatshini": 8844,
      "yoshishino": 8845,
      "yozinzo": 8846,
      "yohlaselo": 8847,
      "yothungelwano": 8848,
      "yokwenyani": 8849,
      "amente": 8850,
      "lus": 8851,
      "luy": 8852,
      "luba": 8853,
      "luthi": 8854,
      "lukho": 8855,
      "lude": 8856,
      "lunoku": 8857,
      "lusoloko": 8858,
      "lubonakala": 8859,
      "luyimfuneko": 8860,
      "luphinde": 8861,
      "lusenziwa": 8862,
      "khelela": 8863,
      "lemeko": 8864,
      "lezibuko": 8865,
      "lemozulu": 8866,
      "lepetroli": 8867,
      "lekhefu": 8868,
      "lat": 8869,
      "laya": 8870,
      "lathi": 8871,
      "laziwa": 8872,
      "lakudala": 8873,
      "sikhulu": 8874,
      "sithe": 8875,
      "sibini": 8876,
      "simi": 8877,
      "siphezulu": 8878,
      "sibon": 8879,
      "sifakwe": 8880,
      "sigcinwe": 8881,
      "sikwere": 8882,
      "sifikelele": 8883,
      "bakhona": 8884,
      "bathatha": 8885,
      "babantu": 8886,
      "balas": 8887,
      "babenga": 8888,
      "kade": 8889,
      "kati": 8890,
      "kathandathu": 8891,
      "kaliswe": 8892,
      "ka186": 8893,
      "ka187": 8894,
      "okung": 8895,
      "okungen": 8896,
      "okuhamba": 8897,
      "okulala": 8898,
      "okulungileyo": 8899,
      "okufunekayo": 8900,
      "okudadisa": 8901,
      "kwela": 8902,
      "kwini": 8903,
      "kwentsontelo": 8904,
      "kwingozi": 8905,
      "kwintshukumo": 8906,
      "anako": 8907,
      "yaya": 8908,
      "yaqala": 8909,
      "yaphinda": 8910,
      "yabekwa": 8911,
      "yaziswa": 8912,
      "yatshintshelwa": 8913,
      "lob": 8914,
      "lokhuseleko": 8915,
      "lobukhulu": 8916,
      "loMkhosi": 8917,
      "lotsalo": 8918,
      "lokwakha": 8919,
      "lokwenyani": 8920,
      "ukusa": 8921,
      "ukungen": 8922,
      "ukuphum": 8923,
      "ukusom": 8924,
      "ukukwazi": 8925,
      "ukuzama": 8926,
      "ukuquka": 8927,
      "ukuzisa": 8928,
      "ukufakwa": 8929,
      "ukutsho": 8930,
      "ukuphumelela": 8931,
      "ukubiza": 8932,
      "ukuqina": 8933,
      "ukuhlasela": 8934,
      "ukulungiselela": 8935,
      "ukuhlola": 8936,
      "ukufuma": 8937,
      "ukuhlanganisa": 8938,
      "ukuthandabuza": 8939,
      "ukuvumelana": 8940,
      "ukumila": 8941,
      "ukuthambisa": 8942,
      "ukucutha": 8943,
      "ukungqubana": 8944,
      "ukucanda": 8945,
      "shelwe": 8946,
      "shoni": 8947,
      "ship": 8948,
      "kov": 8949,
      "kobo": 8950,
      "kothu": 8951,
      "kophezulu": 8952,
      "kono": 8953,
      "kokokuba": 8954,
      "kocingo": 8955,
      "kowona": 8956,
      "ummandla": 8957,
      "umboniso": 8958,
      "umnatha": 8959,
      "umqadi": 8960,
      "umcimbi": 8961,
      "umkhenkce": 8962,
      "bolo": 8963,
      "bobo": 8964,
      "bobu": 8965,
      "ezelo": 8966,
      "ezele": 8967,
      "ezenze": 8968,
      "ezenzelwe": 8969,
      "seplanga": 8970,
      "seqondo": 8971,
      "secandelo": 8972,
      "onya": 8973,
      "onesi": 8974,
      "onti": 8975,
      "onyama": 8976,
      "oncedo": 8977,
[...]
