<unk>	0
<s>	0
</s>	0
[UNK]	0
[PAD]	0
[SOS]	0
[EOS]	0
ku	-0
an	-1
en	-2
▁n	-3
in	-4
el	-5
wa	-6
▁u	-7
th	-8
ba	-9
zi	-10
▁k	-11
▁e	-12
is	-13
am	-14
ph	-15
kh	-16
yo	-17
la	-18
▁ku	-19
we	-20
on	-21
▁ng	-22
▁i	-23
ye	-24
le	-25
lu	-26
si	-27
ka	-28
ya	-29
lo	-30
ga	-31
oku	-32
▁a	-33
ana	-34
▁uku	-35
▁o	-36
ela	-37
sh	-38
▁z	-39
li	-40
bu	-41
thi	-42
se	-43
bo	-44
ko	-45
ma	-46
wen	-47
da	-48
ama	-49
za	-50
be	-51
ele	-52
▁wa	-53
▁in	-54
ini	-55
yi	-56
and	-57
▁I	-58
▁U	-59
▁kw	-60
um	-61
bi	-62
▁ba	-63
ke	-64
eli	-65
om	-66
un	-67
sa	-68
di	-69
▁um	-70
kho	-71
qana	-72
▁en	-73
elo	-74
ho	-75
▁kwa	-76
ulu	-77
wo	-78
isi	-79
▁na	-80
ing	-81
tsh	-82
eni	-83
kan	-84
isa	-85
▁yo	-86
▁l	-87
va	-88
mi	-89
pha	-90
tha	-91
ng	-92
ang	-93
qanawa	-94
▁N	-95
ha	-96
the	-97
zin	-98
▁ne	-99
anga	-100
ile	-101
khe	-102
ant	-103
ze	-104
▁ezi	-105
▁nga	-106
▁ya	-107
▁K	-108
▁s	-109
hla	-110
phe	-111
ane	-112
ona	-113
▁zi	-114
ben	-115
yen	-116
Ye	-117
ise	-118
xa	-119
▁ye	-120
▁lo	-121
to	-122
▁ukuba	-123
thu	-124
de	-125
zo	-126
▁ngoku	-127
▁ka	-128
▁ama	-129
▁kwi	-130
▁kun	-131
hi	-132
weni	-133
hl	-134
eng	-135
onke	-136
wu	-137
khulu	-138
tho	-139
▁ngo	-140
kanye	-141
▁kwe	-142
fun	-143
kwa	-144
▁nge	-145
▁em	-146
ani	-147
▁okanye	-148
do	-149
iso	-150
▁no	-151
Yeho	-152
qa	-153
▁m	-154
Yehova	-155
▁za	-156
▁el	-157
xo	-158
ca	-159
lung	-160
▁W	-161
▁aba	-162
kile	-163
▁ke	-164
ambi	-165
ent	-166
▁we	-167
su	-168
qu	-169
▁ezin	-170
qh	-171
▁A	-172
▁kum	-173
bh	-174
▁esi	-175
sin	-176
lwa	-177
dl	-178
▁isi	-179
▁yoku	-180
▁le	-181
ti	-182
▁si	-183
andle	-184
dawo	-185
okuba	-186
phez	-187
xe	-188
bini	-189
phambi	-190
fa	-191
▁w	-192
▁Uku	-193
▁nj	-194
khu	-195
▁b	-196
ong	-197
ina	-198
ra	-199
▁li	-200
▁ze	-201
yana	-202
▁ko	-203
antsi	-204
▁un	-205
ty	-206
▁y	-207
elwe	-208
▁yen	-209
phaka	-210
ki	-211
wi	-212
▁ma	-213
anzi	-214
▁E	-215
elwa	-216
▁la	-217
seben	-218
▁eku	-219
▁be	-220
andla	-221
▁Ng	-222
▁wen	-223
int	-224
▁Wa	-225
phu	-226
▁eli	-227
yu	-228
ambo	-229
kwen	-230
▁ndi	-231
inga	-232
sha	-233
▁B	-234
lw	-235
▁In	-236
zis	-237
eka	-238
▁olu	-239
Thi	-240
Thixo	-241
ji	-242
phakathi	-243
ene	-244
mo	-245
re	-246
qo	-247
gc	-248
thwa	-249
umi	-250
▁kunye	-251
kani	-252
qi	-253
▁lu	-254
kwe	-255
▁am	-256
▁se	-257
zwe	-258
▁ubu	-259
vu	-260
▁L	-261
ham	-262
▁izi	-263
dlela	-264
so	-265
hlo	-266
▁oku	-267
fu	-268
kun	-269
mp	-270
▁sa	-271
▁ngen	-272
▁njeng	-273
mkani	-274
weyo	-275
xesha	-276
▁kwen	-277
kha	-278
iswa	-279
kileyo	-280
anda	-281
▁Y	-282
bon	-283
▁xa	-284
pho	-285
Si	-286
▁O	-287
tu	-288
ce	-289
ci	-290
phantsi	-291
ta	-292
bona	-293
▁kwin	-294
tyen	-295
▁Um	-296
bha	-297
funeka	-298
me	-299
▁noku	-300
hlu	-301
phi	-302
bant	-303
▁kwaye	-304
yeli	-305
▁Ku	-306
phezulu	-307
▁wam	-308
tyenzis	-309
▁ez	-310
phambili	-311
▁lwe	-312
tsha	-313
▁imi	-314
▁kuba	-315
bho	-316
enqanawa	-317
gu	-318
khi	-319
qhu	-320
nga	-321
dlu	-322
ro	-323
▁uYehova	-324
▁int	-325
xho	-326
ri	-327
sebenzi	-328
▁iin	-329
fum	-330
son	-331
leyo	-332
shumi	-333
cala	-334
gqi	-335
ling	-336
elele	-337
▁(	-338
▁inqanawa	-339
▁is	-340
mbi	-341
gama	-342
onyana	-343
ena	-344
▁ni	-345
ban	-346
dwa	-347
elela	-348
▁loku	-349
nye	-350
doda	-351
go	-352
ine	-353
ileyo	-354
fi	-355
dla	-356
phandle	-357
Sira	-358
bantu	-359
leni	-360
Sirayeli	-361
oya	-362
▁es	-363
na	-364
khus	-365
▁im	-366
▁wo	-367
▁bu	-368
inzi	-369
ntu	-370
▁kom	-371
du	-372
kele	-373
▁lwa	-374
▁phakathi	-375
xh	-376
▁ngokuba	-377
vi	-378
▁om	-379
alo	-380
ganga	-381
▁zonke	-382
▁nom	-383
▁ngu	-384
phezu	-385
setyenzis	-386
zu	-387
tsa	-388
ango	-389
thetho	-390
kw	-391
▁M	-392
▁ukuze	-393
▁Ba	-394
rh	-395
yile	-396
▁zoku	-397
cin	-398
▁zo	-399
zela	-400
mba	-401
bhe	-402
hle	-403
elelo	-404
loko	-405
▁apho	-406
tya	-407
suka	-408
beni	-409
kela	-410
▁ben	-411
iswe	-412
ish	-413
kulu	-414
hlaba	-415
▁Z	-416
khon	-417
qala	-418
hamba	-419
xhobo	-420
▁Isi	-421
khosi	-422
▁baka	-423
elw	-424
qon	-425
wele	-426
zinto	-427
gangatho	-428
▁yom	-429
▁ii	-430
phum	-431
▁nto	-432
▁phambi	-433
▁kuye	-434
▁uThixo	-435
bing	-436
▁kwisi	-437
zwi	-438
langa	-439
▁Ukuba	-440
lingan	-441
thanda	-442
yaka	-443
ano	-444
anj	-445
▁nama	-446
▁nd	-447
▁kufuneka	-448
oni	-449
▁yi	-450
oko	-451
onga	-452
tshi	-453
lisa	-454
khephe	-455
tshane	-456
bhi	-457
▁kuma	-458
inye	-459
zulu	-460
zini	-461
▁kuku	-462
ziwa	-463
▁ngoko	-464
te	-465
zima	-466
thwalo	-467
pu	-468
▁Ke	-469
▁kh	-470
▁ngom	-471
sem	-472
▁bo	-473
▁bonke	-474
bun	-475
▁aku	-476
tsho	-477
shu	-478
setyenziswa	-479
lawu	-480
fe	-481
cha	-482
▁Le	-483
lela	-484
pa	-485
▁woku	-486
thathu	-487
▁nen	-488
▁Wathi	-489
▁ngenxa	-490
he	-491
she	-492
▁kakhulu	-493
▁yam	-494
▁unyana	-495
▁yon	-496
▁yakhe	-497
fan	-498
tye	-499
thetha	-500
kam	-501
▁an	-502
kayo	-503
▁iint	-504
qin	-505
bela	-506
lwandle	-507
eleni	-508
▁ngum	-509
▁ili	-510
anye	-511
andi	-512
▁esin	-513
▁wom	-514
▁soku	-515
▁lom	-516
▁ukuya	-517
yan	-518
▁khona	-519
▁uya	-520
zayo	-521
▁bam	-522
qanawe	-523
▁obu	-524
kosi	-525
▁X	-526
iselo	-527
▁zin	-528
ru	-529
phuma	-530
▁ngama	-531
ung	-532
▁ngaphandle	-533
▁.	-534
▁ing	-535
▁wathi	-536
▁Ndi	-537
▁inga	-538
isela	-539
kwi	-540
▁yesi	-541
▁wakhe	-542
wule	-543
mpa	-544
▁eng	-545
▁bakhe	-546
hlala	-547
sont	-548
wini	-549
▁yonke	-550
qe	-551
▁Ya	-552
thaba	-553
antya	-554
▁lwen	-555
anu	-556
co	-557
▁koku	-558
▁Xa	-559
ziwe	-560
kqu	-561
▁zom	-562
▁phantsi	-563
hu	-564
andela	-565
ni	-566
▁nda	-567
▁nezi	-568
▁ngam	-569
eleli	-570
▁nam	-571
yin	-572
lwe	-573
▁Kwa	-574
▁into	-575
▁ukwen	-576
▁kwam	-577
phela	-578
kelo	-579
▁kubo	-580
cinci	-581
▁wenqanawa	-582
zeka	-583
zantsi	-584
waka	-585
esi	-586
kuba	-587
Yo	-588
▁abe	-589
bane	-590
bula	-591
phen	-592
▁phezu	-593
gi	-594
Da	-595
▁emi	-596
▁ukumkani	-597
thile	-598
zwa	-599
▁kuyo	-600
▁S	-601
phin	-602
phathi	-603
Yu	-604
▁naba	-605
bonaka	-606
▁abantu	-607
▁wakho	-608
tsi	-609
eleyo	-610
▁ema	-611
▁kodwa	-612
gca	-613
lelo	-614
hlobo	-615
hlang	-616
▁so	-617
bang	-618
bani	-619
▁waba	-620
▁elin	-621
Yuda	-622
ziyo	-623
uny	-624
▁oko	-625
▁zen	-626
dini	-627
sen	-628
ongo	-629
▁Oku	-630
▁asi	-631
enxe	-632
elekileyo	-633
▁kwindawo	-634
▁Izi	-635
qela	-636
xhenxe	-637
enga	-638
vide	-639
kum	-640
▁wesi	-641
Davide	-642
kqubo	-643
ankile	-644
beka	-645
ve	-646
vum	-647
iseben	-648
cwa	-649
xwe	-650
▁yakho	-651
jalo	-652
hlanu	-653
▁enga	-654
jikele	-655
▁nang	-656
sebenza	-657
ingo	-658
onge	-659
lwana	-660
ono	-661
bala	-662
Mo	-663
et	-664
▁ezim	-665
sontelo	-666
▁nesi	-667
lilo	-668
shi	-669
▁emva	-670
gcin	-671
▁ent	-672
▁kung	-673
dle	-674
yama	-675
yise	-676
fazwe	-677
khona	-678
futshane	-679
lungu	-680
▁Kuba	-681
▁Ama	-682
▁izinto	-683
▁ibe	-684
lule	-685
suku	-686
▁yena	-687
xha	-688
▁nokuba	-689
gwe	-690
▁ezing	-691
enza	-692
▁indawo	-693
▁Nga	-694
lungisa	-695
em	-696
lwazi	-697
▁iya	-698
kwazi	-699
▁kuni	-700
Yesu	-701
kazi	-702
▁onke	-703
kunye	-704
enxa	-705
fana	-706
kisa	-707
▁ukusuka	-708
meko	-709
▁ngokwe	-710
▁Ma	-711
ente	-712
▁anga	-713
▁nase	-714
▁som	-715
▁eya	-716
nyu	-717
iseko	-718
phakam	-719
▁oonyana	-720
inyaka	-721
▁wase	-722
▁kwakhe	-723
eko	-724
▁1	-725
qanaweni	-726
gcina	-727
bingeleli	-728
▁ung	-729
▁umntu	-730
zinye	-731
zele	-732
layo	-733
yawo	-734
▁unga	-735
▁ane	-736
▁ise	-737
▁on	-738
isiweyo	-739
ingu	-740
thuba	-741
fumana	-742
▁kulo	-743
cand	-744
yim	-745
kumkani	-746
diban	-747
▁kwakunye	-748
lungileyo	-749
ses	-750
yam	-751
ambu	-752
▁enye	-753
mpahla	-754
sti	-755
phelo	-756
liziyo	-757
yeni	-758
▁ukuthi	-759
▁nje	-760
▁kwesi	-761
▁eza	-762
xi	-763
▁indlela	-764
khan	-765
unga	-766
Yi	-767
tywa	-768
khonzi	-769
▁senqanawa	-770
▁ebu	-771
▁endl	-772
rha	-773
elel	-774
jika	-775
Nkosi	-776
lunga	-777
▁Ngokuba	-778
leka	-779
lin	-780
khawule	-781
▁kwicala	-782
xin	-783
zisa	-784
▁abo	-785
andleni	-786
ondo	-787
▁kuwe	-788
lungis	-789
▁enkulu	-790
qw	-791
yis	-792
seyile	-793
rho	-794
amashumi	-795
lem	-796
moya	-797
wana	-798
▁Ezi	-799
▁len	-800
phefum	-801
qha	-802
mfazwe	-803
▁yin	-804
elelwe	-805
▁kwaba	-806
theth	-807
▁kwama	-808
▁eline	-809
▁bakho	-810
▁kukho	-811
zibu	-812
enge	-813
khun	-814
landela	-815
thandathu	-816
Yeru	-817
▁uA	-818
ishumi	-819
loku	-820
▁sen	-821
cu	-822
▁lika	-823
▁enqanaweni	-824
umbi	-825
▁kaYehova	-826
kwenza	-827
bhu	-828
▁lowo	-829
kelele	-830
▁iinqanawa	-831
funa	-832
▁amanzi	-833
salem	-834
Yerusalem	-835
lis	-836
elwano	-837
lise	-838
▁intambo	-839
▁phambili	-840
▁aka	-841
▁ang	-842
tambo	-843
vela	-844
entambo	-845
▁kuthi	-846
▁njenge	-847
eneyo	-848
▁nemi	-849
lele	-850
kweni	-851
tshin	-852
lum	-853
oma	-854
▁zabo	-855
fika	-856
▁yama	-857
diso	-858
singa	-859
bomi	-860
▁kube	-861
mbo	-862
jini	-863
bhozo	-864
▁ndiya	-865
disa	-866
▁kokuba	-867
Ya	-868
▁mna	-869
ron	-870
bisa	-871
anzini	-872
eleleyo	-873
eke	-874
Moses	-875
wandle	-876
▁kunga	-877
▁kaku	-878
▁amabini	-879
▁kwezi	-880
amo	-881
zalwana	-882
linganiselo	-883
▁babe	-884
▁ezimbini	-885
mon	-886
puta	-887
kanga	-888
thuny	-889
thum	-890
sela	-891
Yiputa	-892
▁kaloku	-893
tsala	-894
kon	-895
zala	-896
▁elo	-897
pro	-898
thela	-899
▁nobu	-900
yini	-901
▁ayi	-902
hleli	-903
phefumlo	-904
▁umthetho	-905
khom	-906
▁baya	-907
kr	-908
▁naku	-909
▁wena	-910
▁yabo	-911
qam	-912
khitshane	-913
▁uS	-914
sika	-915
daweni	-916
▁ezo	-917
masti	-918
▁ube	-919
caleni	-920
kokuba	-921
AN	-922
▁awa	-923
Bh	-924
qum	-925
qwelo	-926
▁ngokwa	-927
▁umoya	-928
▁yayi	-929
▁kuYehova	-930
▁ukwenzela	-931
▁kwabo	-932
▁lase	-933
Ga	-934
santya	-935
hlabathi	-936
▁kwakho	-937
Bha	-938
qhubi	-939
▁sesi	-940
▁kwint	-941
▁P	-942
zweni	-943
endawo	-944
thini	-945
cinane	-946
amandla	-947
guqu	-948
banzi	-949
▁Yi	-950
▁kubu	-951
▁ong	-952
▁yaba	-953
kelela	-954
qinise	-955
▁uYesu	-956
▁zakhe	-957
▁Na	-958
thuthi	-959
isebenzi	-960
po	-961
mbe	-962
tyi	-963
zim	-964
▁ngesi	-965
kel	-966
▁elwandle	-967
▁owa	-968
▁,	-969
sing	-970
▁endlwini	-971
▁leyo	-972
▁zibe	-973
fazi	-974
anjalo	-975
▁Aba	-976
▁elu	-977
candelo	-978
Ma	-979
▁lama	-980
simbi	-981
▁lakhe	-982
zen	-983
ombi	-984
00	-985
amba	-986
ange	-987
▁Imi	-988
lisi	-989
tshe	-990
▁ubun	-991
dada	-992
yane	-993
thabatha	-994
bin	-995
▁kuzo	-996
▁kude	-997
qwa	-998
semva	-999
inqanawa	-1000
phendu	-1001
ris	-1002
▁aman	-1003
enye	-1004
cingo	-1005
▁ezweni	-1006
unya	-1007
phula	-1008
▁ngaba	-1009
▁njengoko	-1010
▁H	-1011
▁wama	-1012
▁azi	-1013
▁emanzini	-1014
beke	-1015
liya	-1016
bonisa	-1017
keni	-1018
profe	-1019
▁amadoda	-1020
tshini	-1021
boph	-1022
chu	-1023
▁zinga	-1024
▁kakuhle	-1025
▁bakaSirayeli	-1026
▁ngayo	-1027
▁yayo	-1028
xu	-1029
▁umn	-1030
isele	-1031
▁igama	-1032
▁loo	-1033
elana	-1034
hlabeni	-1035
qondo	-1036
▁Ngoko	-1037
loo	-1038
yela	-1039
yuka	-1040
yalelo	-1041
▁Ngoku	-1042
biso	-1043
zing	-1044
fumane	-1045
▁ezint	-1046
▁yenqanawa	-1047
▁sisi	-1048
obu	-1049
ande	-1050
▁ukun	-1051
▁elinesi	-1052
weli	-1053
dele	-1054
▁kuwo	-1055
khusele	-1056
▁anesi	-1057
▁kwizi	-1058
cam	-1059
▁zama	-1060
▁ngexesha	-1061
swa	-1062
▁Ubu	-1063
thatha	-1064
▁Zi	-1065
rhwe	-1066
▁lonke	-1067
▁zam	-1068
yanga	-1069
▁ngendlela	-1070
lon	-1071
cw	-1072
▁yokuba	-1073
planga	-1074
thwe	-1075
▁Ii	-1076
dity	-1077
qinga	-1078
▁ndawo	-1079
▁ngobu	-1080
▁Ko	-1081
jong	-1082
▁ilizwi	-1083
▁sakhe	-1084
enj	-1085
▁besi	-1086
▁kwaku	-1087
banga	-1088
lomo	-1089
dityan	-1090
phatha	-1091
ristu	-1092
▁waye	-1093
siseko	-1094
▁Aku	-1095
jeng	-1096
kelwe	-1097
lweni	-1098
▁kwinqanawa	-1099
angeni	-1100
▁ezininzi	-1101
▁zakho	-1102
lawulo	-1103
▁wamanzi	-1104
cac	-1105
sho	-1106
▁nanga	-1107
▁omnye	-1108
▁kwenqanawa	-1109
lini	-1110
elisa	-1111
▁amandla	-1112
tan	-1113
▁yase	-1114
▁neen	-1115
sandla	-1116
▁waya	-1117
▁umsebenzi	-1118
zana	-1119
liswa	-1120
bizwa	-1121
ulum	-1122
▁eyo	-1123
mihla	-1124
cedo	-1125
sebenzisa	-1126
▁lin	-1127
▁kwel	-1128
▁esithi	-1129
▁kan	-1130
▁yezi	-1131
bele	-1132
▁iza	-1133
dala	-1134
▁nee	-1135
bunzima	-1136
elwandle	-1137
elelwa	-1138
phakade	-1139
lwini	-1140
▁kuphela	-1141
▁isa	-1142
▁lam	-1143
▁baba	-1144
tsimbi	-1145
xweme	-1146
▁lenqanawa	-1147
tshona	-1148
kiso	-1149
thint	-1150
mbu	-1151
▁sika	-1152
lelwa	-1153
▁koko	-1154
mva	-1155
ezi	-1156
khiwo	-1157
yithi	-1158
bonakala	-1159
▁lesi	-1160
shushu	-1161
tyala	-1162
thwala	-1163
▁Kw	-1164
▁Ndiya	-1165
phenyane	-1166
▁bom	-1167
▁kwis	-1168
kisi	-1169
lala	-1170
ekho	-1171
land	-1172
▁ziya	-1173
▁wakwa	-1174
mini	-1175
▁endaweni	-1176
▁ngaphantsi	-1177
sini	-1178
qondiso	-1179
▁phezulu	-1180
lula	-1181
fo	-1182
hlwa	-1183
zileyo	-1184
▁ezinkulu	-1185
▁ji	-1186
minyaka	-1187
kis	-1188
lahle	-1189
▁boku	-1190
funeko	-1191
▁esandleni	-1192
▁Lo	-1193
riya	-1194
thele	-1195
▁indlu	-1196
uku	-1197
zandla	-1198
▁ixesha	-1199
phaya	-1200
phumo	-1201
▁bona	-1202
▁emhlabeni	-1203
Le	-1204
balule	-1205
qingatha	-1206
▁ngaphezulu	-1207
entla	-1208
ngena	-1209
thoba	-1210
▁uthe	-1211
zibuko	-1212
didi	-1213
▁nina	-1214
botsh	-1215
qhuba	-1216
khang	-1217
phini	-1218
▁aban	-1219
fanele	-1220
▁Nda	-1221
▁uM	-1222
bana	-1223
▁iNkosi	-1224
▁onga	-1225
▁kwayo	-1226
etro	-1227
▁oo	-1228
kham	-1229
▁Kwi	-1230
lileyo	-1231
khawuleza	-1232
▁zezi	-1233
bhobho	-1234
dum	-1235
zelwa	-1236
pe	-1237
▁uDavide	-1238
▁ngaphezu	-1239
zekelo	-1240
amakhulu	-1241
zelelo	-1242
qhina	-1243
zelwe	-1244
▁zesi	-1245
▁kwamanzi	-1246
buya	-1247
cwele	-1248
thunywa	-1249
▁bathi	-1250
▁zinto	-1251
▁ilizwe	-1252
lide	-1253
landelayo	-1254
mpu	-1255
▁Li	-1256
bingelelo	-1257
▁nt	-1258
zeli	-1259
▁naye	-1260
▁konke	-1261
gazi	-1262
phawu	-1263
▁amakhulu	-1264
19	-1265
ge	-1266
kunene	-1267
khusela	-1268
▁T	-1269
onaka	-1270
khuselo	-1271
▁elinye	-1272
He	-1273
lishumi	-1274
gqib	-1275
hambo	-1276
mikhosi	-1277
▁jikelele	-1278
▁ngaphakathi	-1279
golide	-1280
tshabala	-1281
sine	-1282
▁kaThixo	-1283
▁Inqanawa	-1284
ceba	-1285
selwandle	-1286
▁lwesi	-1287
▁ebe	-1288
tham	-1289
tilo	-1290
yisa	-1291
gunya	-1292
IS	-1293
gam	-1294
▁Am	-1295
▁kuya	-1296
tiloshe	-1297
▁Int	-1298
hluk	-1299
▁Kwathi	-1300
andu	-1301
hlangan	-1302
profeti	-1303
angqa	-1304
intshi	-1305
▁ene	-1306
▁Yehova	-1307
▁indoda	-1308
▁Ngo	-1309
thand	-1310
liweyo	-1311
▁ese	-1312
▁isikhephe	-1313
mali	-1314
xolo	-1315
▁apha	-1316
phinda	-1317
▁Za	-1318
gcino	-1319
▁kwimi	-1320
zelo	-1321
▁eme	-1322
khoyo	-1323
sinye	-1324
phondo	-1325
tyenziswa	-1326
▁2	-1327
khupha	-1328
▁ngase	-1329
▁ngokun	-1330
krele	-1331
▁icala	-1332
gqu	-1333
ceda	-1334
misa	-1335
▁imihla	-1336
meni	-1337
lelwe	-1338
gcwele	-1339
▁lakho	-1340
phendula	-1341
thetheli	-1342
▁ukwenza	-1343
usa	-1344
▁uthi	-1345
▁omkhulu	-1346
gumbi	-1347
▁olun	-1348
▁zazi	-1349
nyusa	-1350
Fa	-1351
onto	-1352
▁akhe	-1353
khum	-1354
injini	-1355
▁Un	-1356
▁ase	-1357
bili	-1358
▁utsho	-1359
sasa	-1360
tshaba	-1361
▁Nd	-1362
▁nabo	-1363
▁sakho	-1364
▁Uya	-1365
entsimbi	-1366
▁aya	-1367
▁sam	-1368
qhelekileyo	-1369
ying	-1370
▁wabo	-1371
KU	-1372
▁Si	-1373
xhom	-1374
▁uyi	-1375
awule	-1376
qwala	-1377
).	-1378
fle	-1379
lam	-1380
▁isandla	-1381
qamle	-1382
iselwe	-1383
▁ezinga	-1384
EN	-1385
▁uba	-1386
▁kanye	-1387
IN	-1388
lingana	-1389
▁okokuba	-1390
Bhe	-1391
phina	-1392
▁yobu	-1393
hlangu	-1394
ja	-1395
▁singa	-1396
kanani	-1397
ram	-1398
▁Eku	-1399
kelwa	-1400
kobi	-1401
nt	-1402
chi	-1403
komo	-1404
thelo	-1405
▁eling	-1406
▁ninga	-1407
gqibela	-1408
hambe	-1409
liso	-1410
▁nem	-1411
▁babo	-1412
▁umva	-1413
▁wayo	-1414
rhu	-1415
anti	-1416
enze	-1417
▁uYo	-1418
swe	-1419
tathu	-1420
▁akho	-1421
bophelela	-1422
hlweni	-1423
▁athi	-1424
soloko	-1425
▁ngezi	-1426
▁Ngenxa	-1427
qina	-1428
wela	-1429
▁ezine	-1430
zulwini	-1431
angc	-1432
disi	-1433
nika	-1434
vule	-1435
ombu	-1436
▁ngako	-1437
anya	-1438
▁Ngu	-1439
lwayo	-1440
lawula	-1441
▁yaye	-1442
▁asixhenxe	-1443
▁kumgangatho	-1444
yani	-1445
▁wonke	-1446
▁ngokwen	-1447
wane	-1448
Yakobi	-1449
pheleleyo	-1450
xinzelelo	-1451
ch	-1452
hlisa	-1453
yona	-1454
khiwa	-1455
▁ngamandla	-1456
qini	-1457
▁kwii	-1458
Kristu	-1459
xhomeke	-1460
bulala	-1461
kro	-1462
▁uE	-1463
chule	-1464
▁maka	-1465
yon	-1466
▁njengokuba	-1467
xwemeni	-1468
▁UYehova	-1469
olo	-1470
indawo	-1471
ungu	-1472
▁lobu	-1473
▁zing	-1474
▁akukho	-1475
EL	-1476
una	-1477
▁[	-1478
▁sin	-1479
rhwebo	-1480
sisi	-1481
flegi	-1482
okwen	-1483
angoko	-1484
bikho	-1485
▁umphefumlo	-1486
▁ngaphambili	-1487
linye	-1488
gx	-1489
ehlo	-1490
lobo	-1491
xenye	-1492
sele	-1493
lumko	-1494
ongam	-1495
▁kwakhona	-1496
▁amathathu	-1497
dela	-1498
zaku	-1499
konzo	-1500
▁eYerusalem	-1501
zam	-1502
▁eyen	-1503
Na	-1504
▁mi	-1505
wanga	-1506
Pa	-1507
▁ukum	-1508
▁uMoses	-1509
Gi	-1510
ywa	-1511
phume	-1512
▁zenu	-1513
khohlo	-1514
xabiso	-1515
▁kwenu	-1516
▁ngalo	-1517
▁koonyana	-1518
yint	-1519
▁umthwalo	-1520
yika	-1521
▁yona	-1522
elweni	-1523
▁emehlweni	-1524
WA	-1525
ika	-1526
kra	-1527
▁esa	-1528
donga	-1529
ento	-1530
funekayo	-1531
▁kaSirayeli	-1532
vo	-1533
vel	-1534
phambu	-1535
▁eziyi	-1536
▁ngokom	-1537
ozi	-1538
▁noA	-1539
hlale	-1540
st	-1541
▁iing	-1542
▁okun	-1543
▁banga	-1544
▁likaYehova	-1545
▁lwenqanawa	-1546
▁akwa	-1547
cwangc	-1548
▁wethu	-1549
pheleni	-1550
▁andi	-1551
fanayo	-1552
▁nakwi	-1553
Ka	-1554
theng	-1555
▁ezinye	-1556
▁iintambo	-1557
▁ngqo	-1558
elizwe	-1559
ngakanani	-1560
bone	-1561
kholo	-1562
▁moya	-1563
▁umzi	-1564
▁ubude	-1565
▁malunga	-1566
Ha	-1567
▁aye	-1568
▁uze	-1569
khuseli	-1570
qhutywa	-1571
▁ecaleni	-1572
unxwemeni	-1573
▁yentsimbi	-1574
mn	-1575
vili	-1576
▁zika	-1577
▁abang	-1578
kwezi	-1579
sindo	-1580
elanga	-1581
▁Ing	-1582
▁ayo	-1583
hlulo	-1584
kumbi	-1585
miselo	-1586
▁njalo	-1587
isonto	-1588
yaniso	-1589
thumela	-1590
▁iseyile	-1591
Levi	-1592
▁bama	-1593
▁bazi	-1594
▁mayi	-1595
▁zaba	-1596
gq	-1597
dwe	-1598
▁siya	-1599
matshini	-1600
rd	-1601
gqa	-1602
leko	-1603
▁ela	-1604
tyela	-1605
phunga	-1606
▁isantya	-1607
keli	-1608
▁ali	-1609
Fi	-1610
▁Im	-1611
deni	-1612
zeni	-1613
kulung	-1614
enti	-1615
qambi	-1616
qhele	-1617
thixo	-1618
veni	-1619
▁endi	-1620
Me	-1621
kunzi	-1622
▁ngon	-1623
elu	-1624
won	-1625
▁nk	-1626
deli	-1627
▁uzi	-1628
▁zizi	-1629
▁kwemi	-1630
bam	-1631
hom	-1632
cwadi	-1633
faniso	-1634
▁inqanawe	-1635
yiphi	-1636
▁mini	-1637
▁wazi	-1638
-1	-1639
koku	-1640
xaki	-1641
aman	-1642
bekwa	-1643
dlula	-1644
▁umbingeleli	-1645
je	-1646
zon	-1647
▁ban	-1648
▁neent	-1649
yina	-1650
wabhi	-1651
funyan	-1652
mpi	-1653
fane	-1654
gcine	-1655
lango	-1656
▁Kodwa	-1657
ingi	-1658
qoph	-1659
gqith	-1660
petro	-1661
▁ubomi	-1662
Gaqo	-1663
tyaba	-1664
ino	-1665
▁ib	-1666
▁oma	-1667
▁amaxesha	-1668
qeqe	-1669
yusa	-1670
▁nan	-1671
▁kule	-1672
hlukeneyo	-1673
wun	-1674
▁sis	-1675
khutsh	-1676
khwe	-1677
qhubeke	-1678
▁eyi	-1679
liswe	-1680
nyaka	-1681
hlanga	-1682
mashumi	-1683
jwa	-1684
phele	-1685
▁wayi	-1686
angoku	-1687
fileyo	-1688
khuseleko	-1689
▁mntu	-1690
bheli	-1691
thiwa	-1692
▁kang	-1693
▁zayo	-1694
dibanisa	-1695
▁lwam	-1696
▁Yabona	-1697
ndi	-1698
fakwe	-1699
thethe	-1700
▁amazwi	-1701
▁amaSirayeli	-1702
bene	-1703
okumkani	-1704
fanelekileyo	-1705
pi	-1706
qho	-1707
live	-1708
theni	-1709
▁bayo	-1710
▁intliziyo	-1711
lwane	-1712
us	-1713
biza	-1714
▁noko	-1715
▁wenu	-1716
khulule	-1717
0.	-1718
▁Emva	-1719
▁buka	-1720
dibano	-1721
kwan	-1722
▁uye	-1723
bhodi	-1724
▁elung	-1725
▁mabini	-1726
gaqo	-1727
sontela	-1728
qinileyo	-1729
phakamisa	-1730
▁ngokukhawuleza	-1731
bung	-1732
ongameli	-1733
▁Inkqubo	-1734
▁enqanawa	-1735
lile	-1736
mele	-1737
▁usi	-1738
tabeni	-1739
▁njengom	-1740
mvu	-1741
qolo	-1742
▁Oonyana	-1743
wayo	-1744
sixhenxe	-1745
mpawu	-1746
▁xesha	-1747
▁Indawo	-1748
▁esinye	-1749
liwe	-1750
hambi	-1751
▁nawe	-1752
▁kwazo	-1753
bangela	-1754
▁yemi	-1755
▁zase	-1756
▁elise	-1757
▁ngaphaya	-1758
enjalo	-1759
▁ngeli	-1760
ulumente	-1761
balulekileyo	-1762
zathu	-1763
▁izixhobo	-1764
rhin	-1765
saba	-1766
yango	-1767
▁base	-1768
▁manzi	-1769
jikeleza	-1770
▁zenqanawa	-1771
▁ngenqanawa	-1772
▁iye	-1773
banda	-1774
bande	-1775
qwen	-1776
andulu	-1777
chas	-1778
zile	-1779
ingqi	-1780
▁sama	-1781
yish	-1782
▁sibe	-1783
▁yoko	-1784
olomon	-1785
yukayo	-1786
▁lwezi	-1787
She	-1788
etoni	-1789
fundi	-1790
▁kuza	-1791
▁ngent	-1792
),	-1793
khiwe	-1794
livere	-1795
qophiso	-1796
▁ndlela	-1797
▁zombini	-1798
oyile	-1799
▁kuse	-1800
vumela	-1801
▁Iint	-1802
thabathela	-1803
▁oyi	-1804
▁zemi	-1805
kwaYuda	-1806
▁njengo	-1807
fumaneka	-1808
kwenkwezi	-1809
▁zazo	-1810
▁ezintathu	-1811
lambo	-1812
▁izin	-1813
thanga	-1814
▁ubunzima	-1815
dulu	-1816
thweni	-1817
phinde	-1818
vav	-1819
▁We	-1820
aneni	-1821
tanki	-1822
qulu	-1823
luhlu	-1824
phiko	-1825
▁nako	-1826
▁ababe	-1827
▁kwindlela	-1828
▁Ni	-1829
Filis	-1830
tshuku	-1831
▁amane	-1832
▁ukuzi	-1833
Filisti	-1834
▁nganye	-1835
▁ngalinye	-1836
daba	-1837
leli	-1838
enyawo	-1839
▁kwenye	-1840
konge	-1841
sango	-1842
khongo	-1843
▁ngesandla	-1844
▁–	-1845
gesi	-1846
hlophe	-1847
modeli	-1848
▁umlilo	-1849
tshukumo	-1850
▁wemikhosi	-1851
er	-1852
bra	-1853
susa	-1854
bamba	-1855
shish	-1856
▁baku	-1857
▁kwawo	-1858
angweni	-1859
▁Kufuneka	-1860
khamandela	-1861
▁wenqanawe	-1862
yisi	-1863
kwili	-1864
▁kune	-1865
mozulu	-1866
PH	-1867
ngen	-1868
▁ithe	-1869
▁kwan	-1870
▁impahla	-1871
hashe	-1872
▁Njeng	-1873
mthetho	-1874
▁amawaka	-1875
Ne	-1876
▁de	-1877
isu	-1878
wimi	-1879
zisi	-1880
▁ani	-1881
▁kuka	-1882
dadayo	-1883
▁amahlanu	-1884
Faro	-1885
▁Kun	-1886
kwane	-1887
▁laba	-1888
▁libe	-1889
▁yenu	-1890
▁lwama	-1891
isayo	-1892
sweni	-1893
▁Thixo	-1894
▁kuThixo	-1895
xhomekeke	-1896
▁umphathi	-1897
mandla	-1898
Bhabheli	-1899
qinisekisa	-1900
hluko	-1901
▁yint	-1902
bindini	-1903
▁elikhulu	-1904
aba	-1905
buye	-1906
quka	-1907
zuku	-1908
▁Kum	-1909
anani	-1910
▁mazi	-1911
▁esing	-1912
▁amehlo	-1913
▁imisebenzi	-1914
SI	-1915
thuma	-1916
▁emin	-1917
engile	-1918
▁kwelinye	-1919
▁elowo	-1920
▁elinga	-1921
▁kuqala	-1922
▁ngukumkani	-1923
qale	-1924
▁ethe	-1925
khanya	-1926
qhagam	-1927
▁kumele	-1928
▁intsontelo	-1929
La	-1930
▁eso	-1931
bindi	-1932
fakwa	-1933
iselwa	-1934
▁ngemi	-1935
▁nqanawa	-1936
▁noonyana	-1937
AM	-1938
oli	-1939
▁Iin	-1940
khuni	-1941
tyebi	-1942
▁wawa	-1943
▁kwent	-1944
▁Akukho	-1945
bantwana	-1946
▁-	-1947
▁non	-1948
▁layo	-1949
▁iminyaka	-1950
kuni	-1951
fuphi	-1952
hlanj	-1953
▁nani	-1954
ziweyo	-1955
qula	-1956
qanda	-1957
endele	-1958
▁Be	-1959
gozi	-1960
▁Uze	-1961
kubhi	-1962
▁aben	-1963
qhagamsh	-1964
linganisa	-1965
TH	-1966
ishi	-1967
jelo	-1968
▁ize	-1969
▁inoku	-1970
omatiloshe	-1971
18	-1972
ziswa	-1973
▁Waye	-1974
▁lula	-1975
Zwe	-1976
xhe	-1977
gwen	-1978
valo	-1979
gcisa	-1980
▁nent	-1981
Bhunga	-1982
▁ezantsi	-1983
▁ekupheleni	-1984
▁Igama	-1985
▁benqanawa	-1986
vaka	-1987
yoku	-1988
▁wobu	-1989
wisela	-1990
▁Bathi	-1991
▁linga	-1992
▁asibhozo	-1993
▁kancinci	-1994
▁kufutshane	-1995
▁C	-1996
cho	-1997
kama	-1998
▁liya	-1999
▁ukwa	-2000
sukela	-2001
▁esise	-2002
▁kwalo	-2003
▁Ezinye	-2004
kiya	-2005
vula	-2006
▁Nge	-2007
wonye	-2008
▁bezi	-2009
▁nayo	-2010
▁tyaba	-2011
rhulumente	-2012
dlo	-2013
sefu	-2014
oyise	-2015
sibini	-2016
okwenzeka	-2017
yimfuneko	-2018
▁ow	-2019
khala	-2020
▁athe	-2021
bale	-2022
yenza	-2023
▁ukuyi	-2024
▁Indlela	-2025
khongozeli	-2026
▁elunxwemeni	-2027
buy	-2028
cwe	-2029
▁th	-2030
▁uyise	-2031
endlela	-2032
▁njenga	-2033
khonkwane	-2034
ciki	-2035
dleni	-2036
shuwa	-2037
wuphi	-2038
kubhite	-2039
▁wazala	-2040
▁umzekelo	-2041
qaba	-2042
wulo	-2043
jongo	-2044
▁mhla	-2045
▁zine	-2046
▁ndiku	-2047
kwaSirayeli	-2048
ywe	-2049
▁Wo	-2050
anan	-2051
▁nalo	-2052
▁La	-2053
▁ngawo	-2054
▁koYehova	-2055
engu	-2056
tywe	-2057
bonda	-2058
braham	-2059
khatha	-2060
khonza	-2061
fakelwe	-2062
sindisa	-2063
enk	-2064
kise	-2065
khali	-2066
wumbi	-2067
xokel	-2068
angena	-2069
thotho	-2070
thutha	-2071
lungele	-2072
▁3	-2073
▁UM	-2074
fune	-2075
▁kwee	-2076
phethe	-2077
▁besithi	-2078
hlula	-2079
layish	-2080
qwalas	-2081
Se	-2082
ju	-2083
daka	-2084
faka	-2085
qong	-2086
bakho	-2087
cacileyo	-2088
hili	-2089
▁uko	-2090
kiswa	-2091
xhoty	-2092
▁zawo	-2093
khitsh	-2094
▁intloko	-2095
kre	-2096
vavan	-2097
xhasa	-2098
▁bubu	-2099
petroli	-2100
▁ezilungileyo	-2101
kuma	-2102
mpom	-2103
tyha	-2104
sonde	-2105
khweli	-2106
▁wenza	-2107
▁yethu	-2108
kulungwane	-2109
▁kukumkani	-2110
▁emfutshane	-2111
qhamo	-2112
sonto	-2113
▁Kung	-2114
qaleni	-2115
▁Zonke	-2116
▁ndawonye	-2117
Zi	-2118
kru	-2119
anisa	-2120
kiweyo	-2121
lawuli	-2122
Ze	-2123
fra	-2124
mpum	-2125
iseni	-2126
Sawule	-2127
▁ubuso	-2128
▁ethile	-2129
thabathe	-2130
▁umkhosi	-2131
Mi	-2132
ando	-2133
gaba	-2134
lulo	-2135
betha	-2136
dlebe	-2137
khaya	-2138
▁kwem	-2139
khw	-2140
zise	-2141
▁emo	-2142
▁lawo	-2143
▁nakw	-2144
▁baben	-2145
▁ndithi	-2146
thintela	-2147
quba	-2148
thun	-2149
▁eni	-2150
elani	-2151
Ndibano	-2152
gxo	-2153
belo	-2154
funo	-2155
sentla	-2156
▁ezibu	-2157
▁entsha	-2158
▁emibini	-2159
▁nezinye	-2160
rhintyela	-2161
▁kolwandle	-2162
tyu	-2163
▁yent	-2164
gwenxa	-2165
▁kweli	-2166
▁lunga	-2167
▁"	-2168
▁kam	-2169
lwimi	-2170
usani	-2171
elwane	-2172
gcinwe	-2173
gqitha	-2174
hlenga	-2175
▁Ngako	-2176
funyanwa	-2177
dana	-2178
sala	-2179
▁ngaloo	-2180
Isa	-2181
cama	-2182
dade	-2183
isiwe	-2184
▁Musa	-2185
▁bayi	-2186
▁Utsho	-2187
▁ngazo	-2188
cing	-2189
enzi	-2190
zama	-2191
▁emn	-2192
▁lun	-2193
wayini	-2194
▁amaninzi	-2195
▁amathandathu	-2196
▁D	-2197
▁Kwe	-2198
jinga	-2199
▁ndim	-2200
▁Nkosi	-2201
▁enoku	-2202
▁Intambo	-2203
▁iindawo	-2204
▁umkhonzi	-2205
▁Sa	-2206
yame	-2207
▁uli	-2208
lenge	-2209
▁sent	-2210
▁izandla	-2211
▁umhlaba	-2212
▁Ha	-2213
▁ndo	-2214
lunye	-2215
▁beku	-2216
▁wona	-2217
khompa	-2218
▁kwisa	-2219
phumela	-2220
tshintsh	-2221
▁zokulwa	-2222
cwangciso	-2223
▁esikhulu	-2224
▁yokubophelela	-2225
LA	-2226
ZI	-2227
uni	-2228
cinga	-2229
kelayo	-2230
unaphakade	-2231
bisi	-2232
vuma	-2233
zuzu	-2234
▁yem	-2235
isana	-2236
▁esinga	-2237
hlangana	-2238
sinyithi	-2239
dli	-2240
sis	-2241
qoqo	-2242
mehlo	-2243
yihlo	-2244
▁zobu	-2245
▁kunene	-2246
▁yokuqala	-2247
hen	-2248
ving	-2249
yure	-2250
qheke	-2251
shiya	-2252
▁nkqo	-2253
sezantsi	-2254
zukulwana	-2255
▁kaDavide	-2256
EE	-2257
▁J	-2258
jwe	-2259
▁(1	-2260
file	-2261
zint	-2262
▁zim	-2263
▁undi	-2264
enziwe	-2265
▁ukudla	-2266
▁iintlanga	-2267
babini	-2268
baleka	-2269
kelelo	-2270
▁thina	-2271
▁ngamnye	-2272
▁umgangatho	-2273
yweni	-2274
dibana	-2275
▁zentsimbi	-2276
joni	-2277
qubu	-2278
gorha	-2279
▁othe	-2280
▁mzi	-2281
cimbi	-2282
khula	-2283
enziwa	-2284
▁kwela	-2285
thotholo	-2286
▁ngomhla	-2287
▁`	-2288
▁awu	-2289
inike	-2290
xulum	-2291
▁engu	-2292
diliya	-2293
khumbu	-2294
fanekiso	-2295
khangela	-2296
▁entlango	-2297
▁isiphelo	-2298
▁isixhobo	-2299
Re	-2300
fike	-2301
bhaka	-2302
jonge	-2303
layis	-2304
mpuma	-2305
▁Kukho	-2306
buninzi	-2307
tshintsha	-2308
▁ngasemva	-2309
▁zemfazwe	-2310
▁ezilishumi	-2311
▁ngokupheleleyo	-2312
thin	-2313
khuku	-2314
▁kusi	-2315
khulula	-2316
▁ndinga	-2317
▁ngeenxa	-2318
xokelelwano	-2319
ANA	-2320
banye	-2321
▁kobu	-2322
▁ngem	-2323
▁yini	-2324
▁zona	-2325
keleyo	-2326
zindlu	-2327
zalwane	-2328
▁ngamanzi	-2329
jo	-2330
din	-2331
ren	-2332
ciph	-2333
kana	-2334
nike	-2335
▁ana	-2336
ringi	-2337
▁kuso	-2338
amanci	-2339
lungile	-2340
▁elizayo	-2341
khundleni	-2342
▁ebusweni	-2343
▁iindlela	-2344
▁Bu	-2345
▁Kh	-2346
balo	-2347
aniso	-2348
▁ende	-2349
bhombu	-2350
▁lokuba	-2351
tshintsho	-2352
kude	-2353
chaza	-2354
▁yazo	-2355
▁esisi	-2356
▁imizi	-2357
setyenziselwa	-2358
▁V	-2359
dom	-2360
▁Esi	-2361
▁Kan	-2362
▁kuyi	-2363
thutho	-2364
▁kuloo	-2365
bunzulu	-2366
▁Ngubani	-2367
▁ngokuthi	-2368
▁olukhulu	-2369
botshelelwe	-2370
LE	-2371
hlam	-2372
lane	-2373
bheka	-2374
qonda	-2375
▁bant	-2376
▁nazo	-2377
▁ngee	-2378
nikelo	-2379
▁inani	-2380
▁Nokuba	-2381
▁namhla	-2382
▁Isixhobo	-2383
▁ngokunga	-2384
dise	-2385
zeke	-2386
bekwe	-2387
xhoba	-2388
▁bani	-2389
▁yalo	-2390
▁nange	-2391
▁ngonyaka	-2392
gcwa	-2393
lanu	-2394
sebe	-2395
jonga	-2396
khonk	-2397
qumla	-2398
▁Nang	-2399
▁ezizi	-2400
▁ngabo	-2401
▁engena	-2402
lungelel	-2403
tso	-2404
bhan	-2405
dalo	-2406
wiso	-2407
xuma	-2408
▁yee	-2409
gqiba	-2410
hlambu	-2411
▁anamashumi	-2412
ple	-2413
tyo	-2414
lizi	-2415
rdan	-2416
tyhi	-2417
thiso	-2418
▁baye	-2419
▁mnye	-2420
▁niya	-2421
▁ngaye	-2422
tyibili	-2423
lungiswa	-2424
▁nendawo	-2425
▁imithwalo	-2426
setyenziswe	-2427
any	-2428
▁Mna	-2429
jenge	-2430
laphu	-2431
suswa	-2432
phathwa	-2433
shishino	-2434
thethayo	-2435
▁19	-2436
gubo	-2437
Nyana	-2438
bhali	-2439
bombo	-2440
wenza	-2441
▁ison	-2442
▁mane	-2443
▁ndin	-2444
▁sayo	-2445
▁ntoni	-2446
▁ububi	-2447
kuva	-2448
ingubo	-2449
▁lomoya	-2450
▁ndingu	-2451
▁emoyeni	-2452
linganiso	-2453
philileyo	-2454
ami	-2455
yale	-2456
phathe	-2457
▁olung	-2458
lonyeni	-2459
qeqesho	-2460
kwaneleyo	-2461
▁mathathu	-2462
▁ezincinci	-2463
▁ukusebenza	-2464
▁iim	-2465
▁ine	-2466
kunga	-2467
▁Baya	-2468
▁Waba	-2469
▁saba	-2470
dubula	-2471
tsalwa	-2472
▁engum	-2473
▁eYiputa	-2474
gqibeleni	-2475
hliso	-2476
chapha	-2477
tyelwa	-2478
▁imini	-2479
entlanga	-2480
▁wesizwe	-2481
liziyweni	-2482
▁ophezulu	-2483
▁IN	-2484
Aron	-2485
zuko	-2486
▁alu	-2487
gxina	-2488
menti	-2489
bonani	-2490
▁emveni	-2491
mpumelelo	-2492
doqo	-2493
nyuka	-2494
anjeng	-2495
gcinwa	-2496
▁lwakhe	-2497
▁amashumi	-2498
Ke	-2499
Ra	-2500
Bri	-2501
twa	-2502
▁esis	-2503
▁izwi	-2504
▁labo	-2505
buyela	-2506
▁Kananjalo	-2507
qwe	-2508
dabi	-2509
sono	-2510
▁Yini	-2511
▁neng	-2512
▁wezi	-2513
fikelela	-2514
▁ngokuthe	-2515
dityanisiweyo	-2516
QANA	-2517
hlwe	-2518
pasi	-2519
sayi	-2520
vuka	-2521
zinge	-2522
▁Athi	-2523
▁Uthe	-2524
▁ning	-2525
▁sing	-2526
▁waku	-2527
mpompo	-2528
tshati	-2529
▁Bonke	-2530
Mowabhi	-2531
▁namnye	-2532
▁yamanzi	-2533
▁kungekho	-2534
hlabathini	-2535
▁kwintambo	-2536
gangathweni	-2537
lungiselelo	-2538
▁elungileyo	-2539
kolo	-2540
▁uma	-2541
thung	-2542
▁kuna	-2543
tshisa	-2544
xelela	-2545
andathu	-2546
khuselwe	-2547
▁ezintsha	-2548
angaphambili	-2549
Ba	-2550
▁No	-2551
sithi	-2552
▁benu	-2553
▁ekun	-2554
▁wali	-2555
▁went	-2556
▁nango	-2557
isoloko	-2558
kqubela	-2559
thathwa	-2560
bantwini	-2561
▁ulwandle	-2562
▁G	-2563
kube	-2564
▁isin	-2565
bileyo	-2566
▁nangoku	-2567
phakamileyo	-2568
▁engaphambili	-2569
SA	-2570
sesi	-2571
▁omn	-2572
dekhi	-2573
isile	-2574
▁luka	-2575
Yordan	-2576
isithi	-2577
▁iqela	-2578
▁inyama	-2579
▁yemfazwe	-2580
botshelelwa	-2581
▁ee	-2582
hayi	-2583
wula	-2584
zimba	-2585
isileyo	-2586
▁esikhundleni	-2587
ombo	-2588
▁Olu	-2589
▁yenza	-2590
▁ehamba	-2591
▁uhlobo	-2592
▁entabeni	-2593
▁ukugcina	-2594
▁endleleni	-2595
▁mhlawumbi	-2596
▁ngentambo	-2597
lungiselela	-2598
DIS	-2599
eno	-2600
ter	-2601
cine	-2602
wuli	-2603
zoku	-2604
▁uza	-2605
diswa	-2606
zinga	-2607
▁yawo	-2608
phetho	-2609
thathe	-2610
jenjalo	-2611
▁esetyenziswa	-2612
uka	-2613
amin	-2614
tron	-2615
balwa	-2616
kazana	-2617
▁ndiba	-2618
anduluka	-2619
▁nabantu	-2620
▁ngokwaneleyo	-2621
nge	-2622
lili	-2623
vuny	-2624
▁nel	-2625
▁yim	-2626
gcini	-2627
elwana	-2628
▁igazi	-2629
▁kwiin	-2630
or	-2631
▁uP	-2632
▁Wena	-2633
sangqa	-2634
▁ilifa	-2635
phakama	-2636
▁intombi	-2637
▁uSawule	-2638
onaphakade	-2639
▁Iinqanawa	-2640
▁ababingeleli	-2641
Pha	-2642
gqo	-2643
cebo	-2644
cela	-2645
qaqa	-2646
enkce	-2647
mbalwa	-2648
▁imasti	-2649
▁imithetho	-2650
Ti	-2651
wel	-2652
cono	-2653
kiyo	-2654
wona	-2655
dlala	-2656
zenza	-2657
▁isen	-2658
frayim	-2659
▁wenze	-2660
▁encinci	-2661
▁okulungileyo	-2662
fri	-2663
tse	-2664
▁Bam	-2665
▁Kha	-2666
▁iyi	-2667
dweni	-2668
hlolo	-2669
thulu	-2670
▁sase	-2671
veliso	-2672
kongeza	-2673
sondela	-2674
▁naseku	-2675
▁kubekho	-2676
▁mahlanu	-2677
▁laseYiputa	-2678
▁kwiinqanawa	-2679
boni	-2680
▁UKU	-2681
▁bem	-2682
▁ulu	-2683
▁zii	-2684
Bhili	-2685
bambi	-2686
bhedu	-2687
cango	-2688
krufu	-2689
tyeya	-2690
zanga	-2691
▁bantu	-2692
▁ngeng	-2693
▁abanga	-2694
qhubekeka	-2695
▁elinesibhozo	-2696
▁5	-2697
kona	-2698
lasi	-2699
wano	-2700
▁ibi	-2701
lapho	-2702
shiye	-2703
▁ukunga	-2704
▁iingubo	-2705
▁njengesi	-2706
▁kumphambili	-2707
▁isikhitshane	-2708
▁UA	-2709
bawo	-2710
▁eno	-2711
fundo	-2712
phala	-2713
▁kuzi	-2714
▁Kwaku	-2715
▁kuthe	-2716
▁nding	-2717
▁Kristu	-2718
kwenziwa	-2719
▁ezibini	-2720
khuselekileyo	-2721
▁ngonaphakade	-2722
GA	-2723
LU	-2724
selo	-2725
shwa	-2726
siko	-2727
phila	-2728
thula	-2729
tsalo	-2730
▁bang	-2731
▁okwe	-2732
engubo	-2733
kundla	-2734
bhokisi	-2735
enjamin	-2736
▁ngathi	-2737
▁phandle	-2738
khitshana	-2739
▁ebantwini	-2740
▁yolwandle	-2741
one	-2742
tra	-2743
anto	-2744
dima	-2745
qaku	-2746
yiti	-2747
ziso	-2748
anayo	-2749
gweba	-2750
▁bobu	-2751
anjeni	-2752
entloko	-2753
▁Nangona	-2754
▁ihlabathi	-2755
▁abasebenzi	-2756
ako	-2757
qele	-2758
qhum	-2759
dinga	-2760
zenze	-2761
▁lakwa	-2762
Bhenjamin	-2763
▁kumacala	-2764
▁yokutsala	-2765
ON	-2766
▁4	-2767
bise	-2768
loni	-2769
▁oya	-2770
futha	-2771
▁Enye	-2772
▁yenziwa	-2773
▁ngokwemi	-2774
suke	-2775
rhoqo	-2776
▁kwane	-2777
melwane	-2778
▁ephezulu	-2779
▁yesibini	-2780
KH	-2781
beli	-2782
gosa	-2783
xesh	-2784
zamo	-2785
gqibo	-2786
yalezo	-2787
▁kwing	-2788
onakalo	-2789
▁emlonyeni	-2790
▁Q	-2791
bono	-2792
kali	-2793
xhon	-2794
gquma	-2795
▁Yayi	-2796
▁embi	-2797
qinisa	-2798
susela	-2799
undoqo	-2800
chasene	-2801
qhubela	-2802
▁inceba	-2803
▁kuthiwa	-2804
▁yocingo	-2805
phulaphula	-2806
▁senqanawe	-2807
veli	-2808
▁ini	-2809
bethe	-2810
manga	-2811
▁Into	-2812
▁nawo	-2813
bilini	-2814
▁olunga	-2815
▁kubakho	-2816
Asi	-2817
▁lona	-2818
▁nguye	-2819
qoqosho	-2820
▁umlomo	-2821
jikeleze	-2822
▁umyalelo	-2823
vulekileyo	-2824
▁ukufumana	-2825
Sa	-2826
ne	-2827
of	-2828
hali	-2829
miya	-2830
xeba	-2831
▁lee	-2832
Tambo	-2833
elung	-2834
▁lezi	-2835
▁wawu	-2836
▁lokuqala	-2837
▁umnqophiso	-2838
undu	-2839
enaku	-2840
▁ling	-2841
▁walo	-2842
QANAWA	-2843
▁itsho	-2844
▁kwabantu	-2845
▁kwixesha	-2846
▁elinyukayo	-2847
▁ezibukweni	-2848
Yona	-2849
bile	-2850
pala	-2851
▁(1)	-2852
phath	-2853
▁elim	-2854
▁kwim	-2855
▁wasi	-2856
Yosefu	-2857
▁nakuba	-2858
isebenza	-2859
▁namadoda	-2860
▁esiphezulu	-2861
▁lasekunene	-2862
wili	-2863
etros	-2864
phuka	-2865
yutha	-2866
▁akun	-2867
bandla	-2868
sipala	-2869
▁kukuba	-2870
▁lwakho	-2871
lulekile	-2872
▁Waphendula	-2873
bemi	-2874
yuke	-2875
gwebo	-2876
ngozi	-2877
stile	-2878
tsika	-2879
uweli	-2880
wulos	-2881
▁meko	-2882
bhekis	-2883
▁kwezo	-2884
▁linye	-2885
▁lwaba	-2886
vavanyo	-2887
▁wahlala	-2888
▁kwendawo	-2889
dityaniswe	-2890
▁ubukumkani	-2891
▁komgangatho	-2892
cuka	-2893
dong	-2894
sane	-2895
woku	-2896
yiswa	-2897
▁nomoya	-2898
elelweyo	-2899
▁nangona	-2900
▁yenziwe	-2901
omatshini	-2902
thethweni	-2903
pla	-2904
▁Em	-2905
▁Ye	-2906
fudu	-2907
jiko	-2908
lwen	-2909
qeng	-2910
rhum	-2911
yiki	-2912
▁iba	-2913
▁tye	-2914
▁enom	-2915
▁kuli	-2916
enteni	-2917
lisayo	-2918
▁ngokung	-2919
▁odadayo	-2920
gqibeleleyo	-2921
▁ehlabathini	-2922
OM	-2923
▁6	-2924
ngu	-2925
lani	-2926
pali	-2927
Kanan	-2928
▁Hayi	-2929
khethe	-2930
velisa	-2931
layisha	-2932
lilweni	-2933
▁kunoku	-2934
sebenzis	-2935
▁ezinoku	-2936
▁umsindo	-2937
▁seseyile	-2938
▁kananjalo	-2939
athu	-2940
endu	-2941
hanj	-2942
zani	-2943
▁and	-2944
▁Andi	-2945
gubung	-2946
pyutha	-2947
▁Iqela	-2948
▁imeko	-2949
kwicala	-2950
▁umfazi	-2951
hlangula	-2952
sebenzayo	-2953
▁umprofeti	-2954
-2	-2955
beko	-2956
buza	-2957
jani	-2958
lang	-2959
liti	-2960
▁Wam	-2961
▁wem	-2962
bhala	-2963
qhelo	-2964
▁ekwa	-2965
▁nazi	-2966
▁weza	-2967
zalise	-2968
▁nento	-2969
khundla	-2970
Do	-2971
000	-2972
Yere	-2973
keka	-2974
seku	-2975
sema	-2976
▁zee	-2977
elane	-2978
hlalo	-2979
linda	-2980
njalo	-2981
xinwa	-2982
vumele	-2983
▁esine	-2984
▁izaku	-2985
yiphina	-2986
▁kwenza	-2987
▁olunye	-2988
▁ekubeni	-2989
linganiswa	-2990
▁linamakhulu	-2991
zom	-2992
bhisa	-2993
gophe	-2994
henyu	-2995
katha	-2996
▁lili	-2997
mbombo	-2998
zelayo	-2999
▁enzima	-3000
▁abaninzi	-3001
▁kwezinye	-3002
▁ezintandathu	-3003
▁F	-3004
OKU	-3005
eya	-3006
lom	-3007
xoki	-3008
thisa	-3009
▁ethi	-3010
ambuku	-3011
▁akayi	-3012
▁kumva	-3013
hambisa	-3014
thileyo	-3015
▁othile	-3016
▁kwisiqu	-3017
▁emininzi	-3018
▁Ngaphandle	-3019
▁wakwaSirayeli	-3020
dubu	-3021
bomvu	-3022
▁sezi	-3023
chazwe	-3024
phatho	-3025
qanaba	-3026
▁abazi	-3027
fundisa	-3028
sindiso	-3029
▁kwiint	-3030
elelweni	-3031
khampasi	-3032
▁ngokoku	-3033
▁njengoku	-3034
▁iphenyane	-3035
▁ukukhusela	-3036
gum	-3037
▁(2	-3038
Moya	-3039
hazi	-3040
xela	-3041
▁awo	-3042
▁azo	-3043
inika	-3044
zinzo	-3045
kholwa	-3046
▁ibing	-3047
▁kween	-3048
thwekhi	-3049
▁amaYuda	-3050
▁abafundi	-3051
▁namashumi	-3052
Ge	-3053
▁8	-3054
kizi	-3055
▁Isa	-3056
Ziyon	-3057
gqubu	-3058
hluka	-3059
lenze	-3060
mbulu	-3061
thamo	-3062
vutha	-3063
zenzo	-3064
▁lung	-3065
elweyo	-3066
onyama	-3067
▁ukung	-3068
Solomon	-3069
khutshwa	-3070
thandaza	-3071
tyenziswe	-3072
candelwana	-3073
ii	-3074
lun	-3075
▁iz	-3076
vuzo	-3077
▁Aka	-3078
▁kuA	-3079
sinya	-3080
▁Maka	-3081
▁eben	-3082
▁onge	-3083
boniso	-3084
enzeka	-3085
thambo	-3086
▁kwethu	-3087
▁namandla	-3088
▁nguThixo	-3089
▁abakhonzi	-3090
▁ngamaxesha	-3091
xam	-3092
Khom	-3093
elika	-3094
zange	-3095
▁bawa	-3096
▁luya	-3097
▁maba	-3098
bheham	-3099
lwanga	-3100
▁enama	-3101
bonakalo	-3102
▁Izixhobo	-3103
YO	-3104
anase	-3105
lenye	-3106
▁bali	-3107
▁kuko	-3108
dlwini	-3109
Ngcwele	-3110
Pawulos	-3111
iseyile	-3112
yathelo	-3113
thimenti	-3114
▁kanjalo	-3115
▁ngubani	-3116
▁eyenziwe	-3117
▁ukusetyenziswa	-3118
elene	-3119
gusha	-3120
hlaza	-3121
▁Lowo	-3122
phepha	-3123
thuthu	-3124
▁elide	-3125
▁nakum	-3126
▁rhoqo	-3127
▁umgca	-3128
▁UThixo	-3129
▁ebusuku	-3130
▁ezithile	-3131
▁uSolomon	-3132
▁wakwaYuda	-3133
▁isithunywa	-3134
▁yokuhlangana	-3135
ts	-3136
bhen	-3137
▁nin	-3138
zibulo	-3139
▁ngaku	-3140
▁sakwa	-3141
▁unoku	-3142
Efrayim	-3143
▁inkosi	-3144
▁inkulu	-3145
hlambulu	-3146
▁enokuba	-3147
▁inkqubo	-3148
▁ngabantu	-3149
▁ukungena	-3150
mpumalanga	-3151
Ar	-3152
▁aw	-3153
bewu	-3154
▁iku	-3155
lindi	-3156
▁yimi	-3157
chitha	-3158
hlambi	-3159
mnyama	-3160
▁lwemi	-3161
khokelo	-3162
▁yowiso	-3163
▁kunjalo	-3164
▁nawuphi	-3165
▁ezinzima	-3166
▁sikaYehova	-3167
WE	-3168
aka	-3169
▁Ne	-3170
anyu	-3171
qadi	-3172
vana	-3173
yazi	-3174
▁Ndo	-3175
▁Yin	-3176
kwisi	-3177
lanzi	-3178
▁yaku	-3179
phindi	-3180
▁Ukuze	-3181
▁kwada	-3182
▁zethu	-3183
gqitywa	-3184
▁ikrele	-3185
khangele	-3186
▁kumanzi	-3187
Aram	-3188
▁nye	-3189
▁ono	-3190
hleni	-3191
▁Kuya	-3192
liyadi	-3193
pleyiti	-3194
▁ukwazi	-3195
▁bamanzi	-3196
▁Umthetho	-3197
▁ngemihla	-3198
▁ububanzi	-3199
▁ukuhamba	-3200
▁anesihlanu	-3201
celo	-3202
gada	-3203
shen	-3204
tele	-3205
▁Ili	-3206
▁Pha	-3207
buyis	-3208
▁masi	-3209
chazwa	-3210
chukum	-3211
pheshe	-3212
phumla	-3213
▁hlobo	-3214
▁nonke	-3215
amuweli	-3216
hlwempu	-3217
Giliyadi	-3218
▁kwangoko	-3219
▁kungabikho	-3220
▁7	-3221
anam	-3222
cang	-3223
coce	-3224
kwere	-3225
mbini	-3226
rhoxa	-3227
▁okwa	-3228
cedisa	-3229
khaphu	-3230
malunga	-3231
Yeremiya	-3232
▁Yabonani	-3233
▁ngamanye	-3234
▁kwisantya	-3235
bingelelweni	-3236
-3	-3237
angu	-3238
ntla	-3239
▁aze	-3240
benzi	-3241
belelo	-3242
dibene	-3243
ingozi	-3244
▁kwesa	-3245
▁uncedo	-3246
▁uYakobi	-3247
▁yesiZwe	-3248
linganayo	-3249
▁ngasinye	-3250
tyenziselwa	-3251
Ri	-3252
Ta	-3253
kom	-3254
bhin	-3255
gidi	-3256
▁Iya	-3257
elise	-3258
▁ekum	-3259
▁nibe	-3260
▁uben	-3261
anduva	-3262
▁eyona	-3263
▁nyana	-3264
▁kumgca	-3265
lwakhiwo	-3266
bhaliweyo	-3267
▁amalungu	-3268
▁yomkhosi	-3269
▁ngokunjalo	-3270
anki	-3271
hadi	-3272
wabo	-3273
zona	-3274
▁eye	-3275
▁noE	-3276
isani	-3277
pheni	-3278
▁ithi	-3279
salela	-3280
thambe	-3281
▁isonka	-3282
▁ngapha	-3283
jikelezo	-3284
phulaphu	-3285
▁uKristu	-3286
phakadeni	-3287
▁lamawaka	-3288
▁emazulwini	-3289
kq	-3290
dolo	-3291
feni	-3292
giye	-3293
hane	-3294
lola	-3295
sent	-3296
vume	-3297
▁Eli	-3298
yenze	-3299
▁Waza	-3300
hlathi	-3301
isweni	-3302
yibili	-3303
Asiriya	-3304
lungiso	-3305
xanduva	-3306
▁umgama	-3307
▁zinoku	-3308
▁zorhwebo	-3309
bonakalisa	-3310
tshabalalisa	-3311
khompathimenti	-3312
▁Lu	-3313
▁uH	-3314
kala	-3315
toni	-3316
▁Nan	-3317
natha	-3318
tyeni	-3319
▁bazo	-3320
▁sise	-3321
▁ziye	-3322
thwele	-3323
▁ezili	-3324
▁nathi	-3325
lawulwa	-3326
lungelo	-3327
▁ibandla	-3328
▁inqwelo	-3329
qongileyo	-3330
▁nenqanawa	-3331
▁ezimashumi	-3332
▁ezisixhenxe	-3333
qhagamshelwano	-3334
Brit	-3335
kwin	-3336
taba	-3337
vile	-3338
▁lon	-3339
batha	-3340
esile	-3341
▁bawo	-3342
▁ungu	-3343
andisa	-3344
hlungu	-3345
khombe	-3346
kosini	-3347
▁Kwaye	-3348
▁yinto	-3349
jongene	-3350
▁engama	-3351
phesheya	-3352
▁kwelanga	-3353
▁msebenzi	-3354
▁ngomnyaka	-3355
▁yokuhlala	-3356
engo	-3357
liki	-3358
tshu	-3359
▁hle	-3360
▁kon	-3361
funda	-3362
qonga	-3363
▁Ngum	-3364
▁kufa	-3365
▁sele	-3366
Mkhosi	-3367
qalisa	-3368
▁mihla	-3369
▁nakwe	-3370
▁obung	-3371
qhubeka	-3372
▁eetoni	-3373
▁anamanci	-3374
khawulezileyo	-3375
▁entliziyweni	-3376
mpe	-3377
fung	-3378
gqum	-3379
seko	-3380
bonwa	-3381
ziswe	-3382
▁enda	-3383
▁woba	-3384
ngxuma	-3385
phakan	-3386
phazam	-3387
▁bethu	-3388
▁ekwen	-3389
▁hleze	-3390
▁imali	-3391
▁iyaku	-3392
▁ngelo	-3393
lindele	-3394
rentshi	-3395
▁omtsha	-3396
▁wokuba	-3397
▁kwimeko	-3398
▁okunene	-3399
qhelekanga	-3400
fom	-3401
deka	-3402
tywi	-3403
▁one	-3404
lenga	-3405
▁Unga	-3406
▁abam	-3407
▁ndlu	-3408
amanzi	-3409
gameni	-3410
hlulwa	-3411
khwele	-3412
▁elina	-3413
▁ukuza	-3414
qaqawuli	-3415
▁anesine	-3416
▁kwexesha	-3417
▁ngesantya	-3418
▁kwisiphelo	-3419
▁ezingamashumi	-3420
The	-3421
Bawo	-3422
Sama	-3423
cima	-3424
doko	-3425
sisa	-3426
▁enu	-3427
bambe	-3428
kanun	-3429
▁wemi	-3430
▁ying	-3431
banika	-3432
lisela	-3433
▁Inene	-3434
▁akuyi	-3435
▁nithe	-3436
▁nithi	-3437
tsalane	-3438
▁ilanga	-3439
khululwa	-3440
▁ngemini	-3441
▁ingakumbi	-3442
▁kumsebenzi	-3443
▁eN	-3444
Heze	-3445
moto	-3446
puma	-3447
yeza	-3448
Isake	-3449
tsare	-3450
▁beza	-3451
▁enze	-3452
▁inxa	-3453
▁Umntu	-3454
▁ayina	-3455
▁yanga	-3456
▁yokwa	-3457
phindwe	-3458
▁ityala	-3459
tyathanga	-3460
▁Ukumkani	-3461
▁kwesinye	-3462
▁ukuthetha	-3463
Ph	-3464
▁*	-3465
dan	-3466
lowo	-3467
lusi	-3468
Simon	-3469
dlelo	-3470
▁lise	-3471
elinye	-3472
elizwi	-3473
hlanje	-3474
ishini	-3475
qalelo	-3476
thango	-3477
themba	-3478
▁Yathi	-3479
▁ndizi	-3480
▁nezin	-3481
▁nzima	-3482
▁uMoya	-3483
▁zazin	-3484
▁Phambi	-3485
▁kabini	-3486
▁umzimba	-3487
▁kwathiwa	-3488
▁yentambo	-3489
▁ekufuneka	-3490
▁ngezantsi	-3491
▁nabazalwana	-3492
▁ndinguYehova	-3493
qobo	-3494
risi	-3495
yuni	-3496
▁eyin	-3497
▁lent	-3498
▁sokun	-3499
▁ubani	-3500
bhokhwe	-3501
▁eninzi	-3502
Hezekiya	-3503
▁ezingama	-3504
▁ngokwesi	-3505
dityaniswa	-3506
jikelezayo	-3507
▁emithathu	-3508
▁ephakathi	-3509
▁ubugwenxa	-3510
▁umzalwana	-3511
khululekileyo	-3512
0°	-3513
feze	-3514
ishe	-3515
vuya	-3516
dlule	-3517
phosa	-3518
yinga	-3519
▁kuno	-3520
▁lemi	-3521
▁zalo	-3522
bulale	-3523
liseko	-3524
okanye	-3525
seleyo	-3526
ziwayo	-3527
▁Wenza	-3528
boniswa	-3529
▁ithuba	-3530
buyisela	-3531
kwindawo	-3532
qinelana	-3533
▁iindaba	-3534
▁uhlanga	-3535
▁yeenqanawa	-3536
▁kwaSirayeli	-3537
qhe	-3538
▁An	-3539
▁En	-3540
onde	-3541
qhel	-3542
xelo	-3543
yeka	-3544
▁abu	-3545
▁bun	-3546
▁ish	-3547
betho	-3548
bopha	-3549
zonka	-3550
▁hayi	-3551
khelwe	-3552
khwela	-3553
▁Eyona	-3554
▁ndibe	-3555
▁yathi	-3556
antathu	-3557
cwadini	-3558
sebenze	-3559
▁ekanye	-3560
▁mbombo	-3561
▁womntu	-3562
▁nayiphi	-3563
▁nezinto	-3564
Mongameli	-3565
sebenzise	-3566
Kale	-3567
beth	-3568
hlawu	-3569
thath	-3570
▁ziza	-3571
giyeri	-3572
thambi	-3573
vingco	-3574
▁Yonke	-3575
▁enesi	-3576
▁lwase	-3577
thiweyo	-3578
▁inxenye	-3579
▁iimpahla	-3580
▁ngakumbi	-3581
▁emacaleni	-3582
''	-3583
SE	-3584
Sha	-3585
kiwe	-3586
simi	-3587
sindi	-3588
lalisa	-3589
▁ndithe	-3590
▁nendlu	-3591
▁womoya	-3592
bandakan	-3593
layishwa	-3594
▁egameni	-3595
▁kuMoses	-3596
▁umsinga	-3597
▁kwiindawo	-3598
▁(2)	-3599
▁qha	-3600
▁uno	-3601
▁bemi	-3602
▁owen	-3603
banjwa	-3604
dodana	-3605
▁yakwa	-3606
khenkce	-3607
khumbula	-3608
▁kwindlu	-3609
▁wekhulu	-3610
sebenzini	-3611
▁uYoshuwa	-3612
▁wolwandle	-3613
▁abazalwana	-3614
▁oyiNgcwele	-3615
▁abathetheli	-3616
▁ezahlukeneyo	-3617
KA	-3618
aku	-3619
der	-3620
kca	-3621
ngx	-3622
▁eb	-3623
fomu	-3624
vuyo	-3625
▁une	-3626
frika	-3627
omoya	-3628
rorho	-3629
▁sabo	-3630
Phondo	-3631
fesane	-3632
yameni	-3633
▁imipu	-3634
▁kudla	-3635
▁ngawe	-3636
cukacha	-3637
▁Musani	-3638
▁mkhulu	-3639
▁ukuhla	-3640
▁imfazwe	-3641
▁umqhubi	-3642
thunyelwa	-3643
▁izikhephe	-3644
▁yokumkani	-3645
▁anamakhulu	-3646
▁ubulungisa	-3647
▁kuyimfuneko	-3648
▁isetyenziswa	-3649
zii	-3650
isin	-3651
qhwi	-3652
sile	-3653
yiso	-3654
▁eze	-3655
▁lube	-3656
sukuba	-3657
thwali	-3658
▁abemi	-3659
khululo	-3660
▁Indoda	-3661
▁ihambe	-3662
▁ityeya	-3663
▁kusasa	-3664
▁UDavide	-3665
▁mthetho	-3666
▁omabini	-3667
▁abakhulu	-3668
▁Umsebenzi	-3669
▁embindini	-3670
▁ookumkani	-3671
▁kwicandelo	-3672
▁zeenqanawa	-3673
Ru	-3674
rhe	-3675
qaty	-3676
yele	-3677
▁ezu	-3678
khawu	-3679
▁Inga	-3680
▁enge	-3681
▁musa	-3682
▁neem	-3683
phetha	-3684
▁kwana	-3685
khosini	-3686
kwenene	-3687
▁komoya	-3688
▁uNyana	-3689
ethwekhi	-3690
thwathwa	-3691
tsheyina	-3692
▁waphuma	-3693
▁kuDavide	-3694
▁ekuqaleni	-3695
▁waseBhabheli	-3696
▁ezisetyenziswa	-3697
MA	-3698
YE	-3699
pti	-3700
▁obe	-3701
butho	-3702
danga	-3703
fihla	-3704
▁zent	-3705
hlamba	-3706
▁ungum	-3707
Yonatan	-3708
▁zezulu	-3709
Frentshi	-3710
▁lisithi	-3711
▁Isikhephe	-3712
▁eliphezulu	-3713
Shi	-3714
dam	-3715
Amon	-3716
yolo	-3717
yuse	-3718
▁nim	-3719
▁won	-3720
▁Babe	-3721
▁noYo	-3722
phanga	-3723
▁bathe	-3724
▁lwayo	-3725
lamente	-3726
langeni	-3727
▁komgca	-3728
▁iinyawo	-3729
phumelela	-3730
▁kwenziwa	-3731
omathotholo	-3732
▁emgangathweni	-3733
2.	-3734
▁c	-3735
qoko	-3736
tyhu	-3737
▁bel	-3738
▁koo	-3739
▁uni	-3740
bhalo	-3741
sinda	-3742
bhapti	-3743
khutha	-3744
thando	-3745
▁kusen	-3746
▁kakubi	-3747
▁ngemva	-3748
nqophiso	-3749
▁zooyise	-3750
qwalasela	-3751
▁komhlaba	-3752
long	-3753
yiyo	-3754
▁oli	-3755
thuli	-3756
▁kuwa	-3757
▁ziin	-3758
▁zint	-3759
khondo	-3760
qolowa	-3761
tafile	-3762
zeleka	-3763
▁Lento	-3764
▁ndini	-3765
▁ndiyi	-3766
▁yokun	-3767
▁ilungu	-3768
thintelo	-3769
▁indlebe	-3770
▁ukunika	-3771
khokelela	-3772
▁imisonto	-3773
▁nendlela	-3774
▁wathetha	-3775
▁nezixhobo	-3776
khawulezayo	-3777
DA	-3778
AMB	-3779
lale	-3780
song	-3781
▁aza	-3782
▁uwu	-3783
habhi	-3784
hlelo	-3785
kakhe	-3786
▁ibha	-3787
▁nali	-3788
▁olwa	-3789
▁siye	-3790
▁wazo	-3791
bhanti	-3792
mayile	-3793
mileyo	-3794
▁njani	-3795
ciphisa	-3796
kelelwa	-3797
kelelwe	-3798
▁kubude	-3799
khanyisi	-3800
sithathu	-3801
▁Imodeli	-3802
▁Ukongeza	-3803
▁elishumi	-3804
▁leseyile	-3805
▁sentambo	-3806
▁umphunga	-3807
▁wokuqala	-3808
▁bukaThixo	-3809
▁umlinganiselo	-3810
4.	-3811
es	-3812
xwa	-3813
enje	-3814
fati	-3815
jike	-3816
qalo	-3817
selu	-3818
them	-3819
vele	-3820
▁kha	-3821
▁phi	-3822
hlela	-3823
phant	-3824
▁Baye	-3825
▁Zaye	-3826
▁azin	-3827
Manase	-3828
hlulwe	-3829
tyelwe	-3830
▁lingu	-3831
▁ngale	-3832
▁wandi	-3833
▁andiyi	-3834
▁ezelwe	-3835
▁iflegi	-3836
kwenzeka	-3837
ombululo	-3838
▁Amandla	-3839
matiloshe	-3840
▁engcwele	-3841
▁inyaniso	-3842
▁wentambo	-3843
▁oomatiloshe	-3844
▁elinesihlanu	-3845
Ho	-3846
KO	-3847
ft	-3848
sel	-3849
dili	-3850
leke	-3851
shum	-3852
shwe	-3853
vala	-3854
▁olo	-3855
▁sim	-3856
gquny	-3857
selwa	-3858
thiya	-3859
thole	-3860
tshon	-3861
▁Ngom	-3862
▁Wawa	-3863
▁sobu	-3864
▁waza	-3865
khuphe	-3866
qubuda	-3867
▁Khawu	-3868
▁isiqu	-3869
Bhahali	-3870
khankan	-3871
lahleko	-3872
sindisi	-3873
thathwe	-3874
xeshana	-3875
▁yezulu	-3876
▁kufuphi	-3877
▁kulwandle	-3878
▁Ize	-3879
▁eba	-3880
▁zon	-3881
Bhete	-3882
khobo	-3883
kiswe	-3884
qatha	-3885
▁bako	-3886
▁zaye	-3887
▁enobu	-3888
▁inene	-3889
▁lizwe	-3890
dongeni	-3891
mpazamo	-3892
▁uhleli	-3893
▁wokudla	-3894
vumelwano	-3895
▁Isiphelo	-3896
▁iintsuku	-3897
▁lwamanzi	-3898
▁obukhulu	-3899
▁okukhulu	-3900
▁uAbraham	-3901
▁ubunzulu	-3902
▁yephondo	-3903
▁encwadini	-3904
▁weenqanawa	-3905
..	-3906
zare	-3907
zila	-3908
▁sem	-3909
▁zem	-3910
tyalo	-3911
▁Zazi	-3912
▁esem	-3913
▁etsa	-3914
Samari	-3915
bonile	-3916
▁abayi	-3917
▁ngokw	-3918
fakelwa	-3919
hambela	-3920
luhlobo	-3921
sabatha	-3922
▁ingozi	-3923
▁ngeent	-3924
bhisalom	-3925
embelelo	-3926
ziphatha	-3927
▁abafazi	-3928
▁babantu	-3929
sesikweni	-3930
▁ophakathi	-3931
▁ubushushu	-3932
▁kumazibuko	-3933
UN	-3934
▁Bo	-3935
hamn	-3936
kuku	-3937
▁nde	-3938
▁wan	-3939
▁woM	-3940
longo	-3941
mbewu	-3942
phucu	-3943
vuthu	-3944
▁Ezin	-3945
▁balo	-3946
▁line	-3947
▁obun	-3948
hlwele	-3949
kwenze	-3950
▁amaza	-3951
▁ndaba	-3952
sondeza	-3953
yenzeka	-3954
phelweni	-3955
qathango	-3956
thendele	-3957
vulekile	-3958
▁kuphuma	-3959
▁yabantu	-3960
hlolokazi	-3961
okwenziwa	-3962
▁ezulwini	-3963
▁ngomlilo	-3964
▁Njengokuba	-3965
▁ngamashumi	-3966
▁ukuqinisekisa	-3967
▁esibingelelweni	-3968
Ki	-3969
ck	-3970
DoD	-3971
wan	-3972
yuko	-3973
▁uwa	-3974
andlo	-3975
bhere	-3976
bhine	-3977
bhiya	-3978
▁yeen	-3979
▁yeku	-3980
▁benza	-3981
singisa	-3982
tshiswa	-3983
▁imbewu	-3984
▁yomoya	-3985
▁ipetroli	-3986
▁lomkhosi	-3987
▁ngohlobo	-3988
▁umqondiso	-3989
qamlezileyo	-3990
▁kumaSirayeli	-3991
▁'	-3992
mela	-3993
pani	-3994
shan	-3995
vayo	-3996
yike	-3997
▁oba	-3998
▁see	-3999
angen	-4000
kathi	-4001
shenx	-4002
thuka	-4003
▁nasi	-4004
▁engen	-4005
▁ubung	-4006
dleleni	-4007
khonkco	-4008
▁ihamba	-4009
▁izizwe	-4010
▁yendlu	-4011
phambuka	-4012
▁amacala	-4013
▁zibekwe	-4014
▁yomhlaba	-4015
▁umphambili	-4016
singqongileyo	-4017
bel	-4018
don	-4019
qhi	-4020
kwam	-4021
▁ano	-4022
▁ena	-4023
mitha	-4024
rhasi	-4025
tempi	-4026
▁ingu	-4027
khukhu	-4028
misela	-4029
xelele	-4030
yiweyo	-4031
▁benga	-4032
▁ndoda	-4033
▁neeng	-4034
elwanga	-4035
▁Ixesha	-4036
▁Izinto	-4037
▁kwezin	-4038
thambeka	-4039
▁inkunzi	-4040
tempileni	-4041
▁Umphathi	-4042
▁Umzekelo	-4043
▁yeseyile	-4044
▁bazalwana	-4045
▁kumashumi	-4046
▁ngokwakhe	-4047
▁KW	-4048
▁Ze	-4049
▁eA	-4050
dare	-4051
leki	-4052
tyho	-4053
wada	-4054
yadi	-4055
▁son	-4056
Ngesi	-4057
gqibe	-4058
lunge	-4059
thayo	-4060
▁nalu	-4061
▁neli	-4062
▁umnt	-4063
▁zeen	-4064
banjwe	-4065
fakelo	-4066
▁esuka	-4067
▁eyayi	-4068
▁lento	-4069
▁ngeen	-4070
▁nokun	-4071
▁okubi	-4072
▁wayen	-4073
fundisi	-4074
hlandlo	-4075
kokuqala	-4076
phendule	-4077
▁kumgama	-4078
▁ezingena	-4079
▁kwenziwe	-4080
▁oluthile	-4081
▁ezimbalwa	-4082
▁abaprofeti	-4083
khethekileyo	-4084
▁elinesibini	-4085
.)	-4086
50	-4087
Ja	-4088
ELA	-4089
che	-4090
yel	-4091
diya	-4092
emva	-4093
fake	-4094
lona	-4095
qing	-4096
tyun	-4097
wani	-4098
▁kaE	-4099
canda	-4100
denge	-4101
krazu	-4102
latha	-4103
nyama	-4104
qithi	-4105
zinyo	-4106
qingqi	-4107
zelela	-4108
▁evela	-4109
▁sonke	-4110
qhekeza	-4111
▁kuhlala	-4112
▁yokulala	-4113
▁zomkhosi	-4114
hlanganisa	-4115
khompyutha	-4116
thambileyo	-4117
▁lasekhohlo	-4118
1.	-4119
SH	-4120
qun	-4121
phile	-4122
senti	-4123
xhaka	-4124
▁nanko	-4125
▁yayin	-4126
lahleka	-4127
xhobisa	-4128
▁Ndathi	-4129
▁lesono	-4130
▁kubantu	-4131
▁ngomoya	-4132
▁ukujika	-4133
bonakalayo	-4134
kufutshane	-4135
▁kwemfazwe	-4136
bhekiselele	-4137
▁yesikhephe	-4138
▁zemithwalo	-4139
lungiselelwe	-4140
▁yaselwandle	-4141
▁elisetyenziswa	-4142
No	-4143
Sh	-4144
gon	-4145
vun	-4146
▁su	-4147
buzo	-4148
mori	-4149
sawu	-4150
▁ipa	-4151
▁owe	-4152
bhuka	-4153
rhamn	-4154
thana	-4155
bhabha	-4156
funyen	-4157
luleka	-4158
thwale	-4159
wisele	-4160
▁ababa	-4161
▁kwelo	-4162
▁nasem	-4163
aniyeli	-4164
▁Afrika	-4165
▁abanye	-4166
▁komnye	-4167
▁musani	-4168
▁ulwazi	-4169
▁yokuma	-4170
▁zokuba	-4171
▁namanzi	-4172
hlukileyo	-4173
▁imashumi	-4174
▁sokuqala	-4175
mpembelelo	-4176
▁nokurhoxa	-4177
▁Intsontelo	-4178
▁ekugqibeleni	-4179
ran	-4180
Yaro	-4181
bano	-4182
fele	-4183
gqwe	-4184
tali	-4185
bheke	-4186
tishi	-4187
vumba	-4188
▁nezo	-4189
dokisi	-4190
ngekho	-4191
qukuva	-4192
thatya	-4193
zimela	-4194
▁Ubude	-4195
kezelwa	-4196
phantse	-4197
▁nakuma	-4198
elungelo	-4199
yintloko	-4200
▁yenzeka	-4201
Palamente	-4202
zelelweyo	-4203
▁isithuba	-4204
▁ententeni	-4205
▁ebalulekileyo	-4206
▁ekubotshelelwa	-4207
EEE	-4208
ILE	-4209
amp	-4210
dyo	-4211
▁ab	-4212
Edom	-4213
jing	-4214
lana	-4215
▁isu	-4216
qukum	-4217
zwana	-4218
▁mali	-4219
▁othi	-4220
konaka	-4221
zalisa	-4222
▁Umgca	-4223
▁Wonke	-4224
▁eyiyo	-4225
▁kanti	-4226
semzini	-4227
▁ndathi	-4228
▁wewaka	-4229
thandayo	-4230
▁isoloko	-4231
▁bobabini	-4232
▁elithile	-4233
▁kangange	-4234
Yarobheham	-4235
▁nangasemva	-4236
▁lweenqanawa	-4237
5.	-4238
Tsi	-4239
▁EN	-4240
qash	-4241
xeko	-4242
xibe	-4243
▁alo	-4244
canya	-4245
▁engc	-4246
▁kaYo	-4247
▁sona	-4248
▁zisi	-4249
kanunu	-4250
phando	-4251
▁lwabo	-4252
▁ukufa	-4253
phakamo	-4254
▁Amanzi	-4255
▁emzini	-4256
▁uluhlu	-4257
▁incwadi	-4258
▁uPetros	-4259
▁zabantu	-4260
▁emashumi	-4261
▁iziphumo	-4262
▁kwabakho	-4263
▁ubulumko	-4264
▁yokumisa	-4265
▁ukuthatha	-4266
▁zehlabathi	-4267
▁akwaSirayeli	-4268
LO	-4269
hlon	-4270
lwan	-4271
gwebi	-4272
khelo	-4273
ngcwa	-4274
zekel	-4275
▁Apho	-4276
▁laku	-4277
▁wema	-4278
Farisi	-4279
krwada	-4280
▁kulwa	-4281
▁ongum	-4282
▁Wesuka	-4283
rhamncwa	-4284
▁nangenxa	-4285
▁yokwenza	-4286
qingqiweyo	-4287
▁abantwana	-4288
▁ngaphambi	-4289
▁ngenyanga	-4290
▁etempileni	-4291
▁utshintsho	-4292
▁isibingelelo	-4293
▁sokulinganisa	-4294
len	-4295
Gibhe	-4296
bhedi	-4297
elayo	-4298
qhobo	-4299
rabha	-4300
trone	-4301
yinti	-4302
▁kula	-4303
▁nesa	-4304
▁yoba	-4305
anyano	-4306
bhalwe	-4307
jikelo	-4308
khungu	-4309
▁anoku	-4310
▁ndaku	-4311
▁ezinde	-4312
ENQANAWA	-4313
zisiweyo	-4314
▁kumkani	-4315
▁wahamba	-4316
bingelela	-4317
▁Ngexesha	-4318
▁intsimbi	-4319
▁ubukhulu	-4320
gqubuthelo	-4321
thabathele	-4322
▁ekwenzeni	-4323
▁lokuqhuba	-4324
▁lomthwalo	-4325
▁yinqanawa	-4326
▁wesikhephe	-4327
▁ngeenqanawa	-4328
20.	-4329
ELO	-4330
tro	-4331
tyw	-4332
▁Is	-4333
hobe	-4334
wisa	-4335
zane	-4336
gwebu	-4337
mpile	-4338
senza	-4339
zalwa	-4340
▁Ukun	-4341
▁bent	-4342
▁maku	-4343
▁nant	-4344
▁umda	-4345
angcwa	-4346
ombini	-4347
phupha	-4348
▁onoku	-4349
▁zanga	-4350
Britane	-4351
▁kweent	-4352
▁sokuba	-4353
▁ucingo	-4354
▁uhambo	-4355
lisiweyo	-4356
▁Uyabona	-4357
▁abaLevi	-4358
▁ukoyika	-4359
▁Iintambo	-4360
▁iintshaba	-4361
▁kwentambo	-4362
thungelwano	-4363
▁ukusebenzisa	-4364
hon	-4365
dumo	-4366
then	-4367
yilo	-4368
zere	-4369
▁ele	-4370
gwele	-4371
▁beli	-4372
▁esen	-4373
camagu	-4374
cwecwe	-4375
hliswa	-4376
hlutha	-4377
thsaba	-4378
▁Umoya	-4379
▁ezazi	-4380
▁kundi	-4381
▁mazwi	-4382
bhaliwe	-4383
tempile	-4384
thethwa	-4385
▁Abantu	-4386
▁ibekwe	-4387
qengqele	-4388
xantathu	-4389
▁intsika	-4390
▁ezintlanu	-4391
▁kwintsika	-4392
▁Umgangatho	-4393
▁kwiminyaka	-4394
▁oluphezulu	-4395
Ko	-4396
ton	-4397
▁Yo	-4398
kalo	-4399
kota	-4400
qine	-4401
▁Zin	-4402
▁use	-4403
mbuso	-4404
pheke	-4405
swele	-4406
xheba	-4407
▁imin	-4408
Melika	-4409
meleki	-4410
▁benze	-4411
thinjwa	-4412
▁amatye	-4413
▁ehleli	-4414
▁iimeko	-4415
phuhliso	-4416
xulumene	-4417
▁Isantya	-4418
▁amagama	-4419
▁iimpawu	-4420
▁kwelase	-4421
singiselo	-4422
xhotyiswe	-4423
▁kunokuba	-4424
▁kwenzeka	-4425
▁umbilini	-4426
▁womkhosi	-4427
▁bomthwalo	-4428
▁lolwandle	-4429
tshonalanga	-4430
▁intsontela	-4431
▁ngolwandle	-4432
YA	-4433
tyh	-4434
onon	-4435
▁neA	-4436
angam	-4437
ofisi	-4438
▁Ngam	-4439
▁beng	-4440
▁lixa	-4441
buyele	-4442
kisini	-4443
pringi	-4444
xakeka	-4445
▁isono	-4446
▁kwaso	-4447
▁elinam	-4448
▁kukuthi	-4449
▁aphezulu	-4450
▁zesikhephe	-4451
▁sentsontelo	-4452
ar	-4453
rna	-4454
cede	-4455
reyi	-4456
seni	-4457
▁Ung	-4458
▁lem	-4459
▁ume	-4460
iseka	-4461
lorho	-4462
▁ayin	-4463
▁zaku	-4464
babalo	-4465
cangci	-4466
▁ezisi	-4467
lanjeni	-4468
kwakhiwa	-4469
phuphuma	-4470
▁njengen	-4471
▁yeshumi	-4472
▁ukusukela	-4473
▁kumphezulu	-4474
▁ukuphakama	-4475
▁ngentliziyo	-4476
▁eqhelekileyo	-4477
▁nabathetheli	-4478
8.	-4479
So	-4480
aye	-4481
gxa	-4482
bong	-4483
fama	-4484
gxin	-4485
omso	-4486
zame	-4487
qhube	-4488
▁Yesu	-4489
▁umsi	-4490
▁wafa	-4491
bonayo	-4492
▁kamva	-4493
▁kwili	-4494
▁langa	-4495
▁lizwi	-4496
▁yenze	-4497
kangala	-4498
thumele	-4499
▁kwaoko	-4500
▁madoda	-4501
▁ukholo	-4502
▁wendlu	-4503
khutshwe	-4504
kwenzayo	-4505
lunganga	-4506
▁alishumi	-4507
▁ukunyusa	-4508
▁ukutsala	-4509
mathotholo	-4510
▁nolwandle	-4511
▁zisetyenziswa	-4512
DO	-4513
kuko	-4514
qayi	-4515
reji	-4516
vumi	-4517
hlali	-4518
thiwe	-4519
verhe	-4520
▁Yena	-4521
▁babu	-4522
▁ongu	-4523
▁yaso	-4524
▁zaso	-4525
enjini	-4526
kisayo	-4527
▁izulu	-4528
▁kwano	-4529
▁nomva	-4530
hlaselo	-4531
kathalo	-4532
▁kutsho	-4533
▁emizini	-4534
▁ezifana	-4535
enjenjalo	-4536
▁emikhulu	-4537
▁nempahla	-4538
▁ngokwama	-4539
phindiweyo	-4540
▁abaphathi	-4541
▁neentombi	-4542
▁ngokwemizalwane	-4543
6.	-4544
Pe	-4545
▁iN	-4546
Gadi	-4547
goko	-4548
gung	-4549
kane	-4550
unja	-4551
yusi	-4552
zili	-4553
▁Asi	-4554
▁Oko	-4555
hlola	-4556
linga	-4557
nquba	-4558
pheli	-4559
qheba	-4560
tyana	-4561
▁asin	-4562
▁basi	-4563
▁itsa	-4564
▁niye	-4565
▁siku	-4566
bisana	-4567
elaphu	-4568
gwegwe	-4569
▁anama	-4570
▁yedwa	-4571
anxweme	-4572
profeta	-4573
qashiso	-4574
▁esingu	-4575
▁funeka	-4576
▁iBhili	-4577
▁ingubo	-4578
▁yabona	-4579
dibaniso	-4580
tshetshe	-4581
zekileyo	-4582
▁kangang	-4583
▁ngokobu	-4584
▁ngumntu	-4585
kulumbuso	-4586
▁ezihamba	-4587
▁kumkhosi	-4588
▁kwimasti	-4589
▁uPawulos	-4590
▁womhlaba	-4591
isebenzisa	-4592
thendeleko	-4593
▁anesibini	-4594
▁ukukhanya	-4595
LI	-4596
▁9	-4597
AND	-4598
vus	-4599
ding	-4600
giya	-4601
tolo	-4602
yeke	-4603
▁Ben	-4604
▁nes	-4605
▁yan	-4606
fuman	-4607
qumle	-4608
▁engo	-4609
▁kaMa	-4610
▁lazo	-4611
▁yezo	-4612
▁yiyo	-4613
Kaledi	-4614
qiniso	-4615
thande	-4616
▁Nyana	-4617
▁ukuwa	-4618
pesenti	-4619
zuzwana	-4620
▁ekhaya	-4621
fikelele	-4622
kcukacha	-4623
thandelo	-4624
▁kungena	-4625
▁lesiZwe	-4626
▁logcino	-4627
▁ngumoya	-4628
▁umsonto	-4629
qhutyelwa	-4630
xhomekeka	-4631
▁kwezinto	-4632
▁kwishumi	-4633
▁kwintloko	-4634
▁yehlabathi	-4635
▁kweenqanawa	-4636
▁nangaphezulu	-4637
no	-4638
ame	-4639
jij	-4640
les	-4641
▁NG	-4642
▁Th	-4643
caka	-4644
dene	-4645
gane	-4646
seli	-4647
xube	-4648
yant	-4649
yila	-4650
▁Tha	-4651
ulung	-4652
wenze	-4653
▁Kalo	-4654
▁Kule	-4655
▁Waya	-4656
▁Wazi	-4657
▁eBhe	-4658
▁naxa	-4659
buyisa	-4660
lisile	-4661
▁olwen	-4662
▁ukusi	-4663
fazweni	-4664
tyiweyo	-4665
▁kutheni	-4666
▁zombane	-4667
▁iintlobo	-4668
▁kuthetha	-4669
▁umntwana	-4670
▁kwizibuko	-4671
▁zomthwalo	-4672
▁ezintabeni	-4673
▁anesixhenxe	-4674
BA	-4675
tri	-4676
▁Ph	-4677
ingx	-4678
qhen	-4679
rada	-4680
▁wee	-4681
rubhi	-4682
tyiwe	-4683
▁Yint	-4684
▁ingc	-4685
▁malu	-4686
▁niyi	-4687
Phakam	-4688
Rubhen	-4689
bonise	-4690
sendle	-4691
thunzi	-4692
▁bunga	-4693
▁idini	-4694
▁ngeku	-4695
▁ukuma	-4696
▁ababen	-4697
▁ezinom	-4698
▁ishumi	-4699
zekeliso	-4700
▁Amadoda	-4701
▁belizwe	-4702
▁kwincam	-4703
▁nanjeng	-4704
▁ngecala	-4705
▁ulawulo	-4706
▁encinane	-4707
▁zeseyile	-4708
▁esangweni	-4709
▁esincinci	-4710
▁ukunqanda	-4711
▁yomthwalo	-4712
semthethweni	-4713
Lo	-4714
Tsa	-4715
hana	-4716
qung	-4717
xowa	-4718
zobo	-4719
▁ide	-4720
▁ime	-4721
▁noo	-4722
elase	-4723
khela	-4724
phang	-4725
▁Nina	-4726
▁baza	-4727
▁ekwi	-4728
▁iben	-4729
▁kolu	-4730
▁noMa	-4731
anjana	-4732
bulela	-4733
fikela	-4734
khonze	-4735
phikis	-4736
▁Itsho	-4737
▁Iziko	-4738
▁abaya	-4739
▁ingum	-4740
▁nanye	-4741
lokweni	-4742
lumkiso	-4743
qhushum	-4744
tsalela	-4745
▁Kaloku	-4746
▁Umgama	-4747
▁Wabuya	-4748
▁uphawu	-4749
▁woMntu	-4750
thengisa	-4751
▁ezindle	-4752
▁zenziwe	-4753
▁emnyango	-4754
▁wesantya	-4755
bangendawo	-4756
▁umthetheli	-4757
▁uxinzelelo	-4758
▁mathandathu	-4759
▁ngasekunene	-4760
▁ubungakanani	-4761
▁kusetyenziswa	-4762
3)	-4763
han	-4764
omo	-4765
bham	-4766
reli	-4767
vale	-4768
▁yay	-4769
lisha	-4770
▁inye	-4771
▁ulwa	-4772
▁wawo	-4773
Thetho	-4774
eliswa	-4775
leleyo	-4776
velela	-4777
▁ngani	-4778
▁yodwa	-4779
canyath	-4780
elelana	-4781
okuqala	-4782
▁Ligama	-4783
▁amazwe	-4784
hlangabe	-4785
mbumbulu	-4786
bhukadene	-4787
phukileyo	-4788
thunyelwe	-4789
▁elizweni	-4790
▁njengezi	-4791
linganiswe	-4792
▁emsebenzini	-4793
▁kwintsontelo	-4794
▁ngokomthetho	-4795
bhukadenetsare	-4796
0,	-4797
3.	-4798
ENI	-4799
Eli	-4800
wam	-4801
▁On	-4802
Roya	-4803
debe	-4804
etho	-4805
hiya	-4806
phab	-4807
tyum	-4808
yiwe	-4809
▁una	-4810
Amori	-4811
dliwa	-4812
emini	-4813
inawa	-4814
▁buya	-4815
▁lwem	-4816
chotho	-4817
jiweyo	-4818
kanini	-4819
ntwana	-4820
ombolo	-4821
senoku	-4822
setyen	-4823
sikizi	-4824
▁Kothi	-4825
▁kukun	-4826
▁uYeho	-4827
▁uyaku	-4828
▁Ngokwe	-4829
bangelwa	-4830
bonelelo	-4831
▁kuhambo	-4832
▁umphini	-4833
▁ezenziwe	-4834
▁kufanele	-4835
▁lemfazwe	-4836
▁ngamatye	-4837
phathekayo	-4838
▁likaThixo	-4839
▁ukuthwala	-4840
linganisela	-4841
hati	-4842
qeni	-4843
▁een	-4844
Royal	-4845
bambo	-4846
funga	-4847
godlo	-4848
klasi	-4849
lahla	-4850
shela	-4851
wethu	-4852
xhasi	-4853
▁Niya	-4854
▁seku	-4855
▁semi	-4856
▁wani	-4857
Riphab	-4858
bhamba	-4859
fikile	-4860
ganeko	-4861
nyango	-4862
onyaka	-4863
phithi	-4864
thenga	-4865
▁cwaka	-4866
▁icebo	-4867
▁komzi	-4868
▁ngaso	-4869
hlasela	-4870
kakhulu	-4871
kohliso	-4872
troneni	-4873
▁ezithe	-4874
▁kwathi	-4875
▁Waphuma	-4876
▁entloko	-4877
petroyile	-4878
▁anyukayo	-4879
▁kaYakobi	-4880
▁lentambo	-4881
▁esixhenxe	-4882
▁ingqalelo	-4883
▁amaFilisti	-4884
▁iYerusalem	-4885
▁kweminyaka	-4886
▁leenqanawa	-4887
gqithisileyo	-4888
▁waseAsiriya	-4889
▁zakwaSirayeli	-4890
Ku	-4891
Li	-4892
MS	-4893
gh	-4894
rt	-4895
pon	-4896
bron	-4897
funi	-4898
tere	-4899
vuza	-4900
bathi	-4901
eziqu	-4902
thanj	-4903
▁elis	-4904
▁leen	-4905
▁neze	-4906
mpondo	-4907
qubeni	-4908
yisela	-4909
▁Inani	-4910
▁esiza	-4911
▁uAron	-4912
▁umhla	-4913
anamhla	-4914
postile	-4915
qokobhe	-4916
shafati	-4917
▁egcina	-4918
▁ephuma	-4919
▁esithe	-4920
▁igunya	-4921
▁ikhulu	-4922
▁okhoyo	-4923
▁yaying	-4924
dokisini	-4925
qondweni	-4926
▁Kungoko	-4927
▁ezinama	-4928
▁ngentla	-4929
▁uYosefu	-4930
▁zamanzi	-4931
qukumbelo	-4932
▁Ubunzima	-4933
▁olwandle	-4934
▁ukuphuma	-4935
▁zegolide	-4936
Riphabliki	-4937
khonzazana	-4938
setyenziso	-4939
▁emlilweni	-4940
▁ngezandla	-4941
▁nguYehova	-4942
▁ezintlangeni	-4943
▁isetyenziswe	-4944
mb	-4945
▁tu	-4946
chwe	-4947
okun	-4948
dumbu	-4949
ishwa	-4950
kroti	-4951
sulwa	-4952
tshwa	-4953
▁Kwin	-4954
▁Yeha	-4955
▁nguA	-4956
andula	-4957
brorho	-4958
elwayo	-4959
qameko	-4960
qhutyo	-4961
tshixo	-4962
▁bambi	-4963
▁kweza	-4964
▁okung	-4965
▁uxolo	-4966
khoboka	-4967
▁kumoya	-4968
hlangule	-4969
sikelela	-4970
▁ingxaki	-4971
▁ithetha	-4972
▁kwamaza	-4973
▁umkhulu	-4974
bandezelo	-4975
▁iziphelo	-4976
Khomishini	-4977
▁wokunyusa	-4978
▁yakwaYuda	-4979
▁Kwinqanawa	-4980
▁ngakwicala	-4981
tshabalalisi	-4982
▁kunokwenzeka	-4983
il	-4984
194	-4985
heli	-4986
inen	-4987
mazi	-4988
siya	-4989
yala	-4990
zuzo	-4991
▁ISI	-4992
bumba	-4993
wonke	-4994
yuswa	-4995
▁esim	-4996
▁ingo	-4997
▁neza	-4998
▁nini	-4999
▁uBha	-5000
▁wesa	-5001
andule	-5002
kezela	-5003
ondolo	-5004
thombo	-5005
▁Icala	-5006
▁uzuko	-5007
qwenele	-5008
zambuku	-5009
▁kwanga	-5010
bafileyo	-5011
isebenze	-5012
yokuqala	-5013
▁iwayini	-5014
kumkanini	-5015
langaniso	-5016
▁ephantsi	-5017
balulekile	-5018
▁imimiselo	-5019
lungiselele	-5020
▁bukaYehova	-5021
▁kubalulekile	-5022
Dan	-5023
tal	-5024
▁``	-5025
Yehu	-5026
bhon	-5027
miti	-5028
yanz	-5029
▁The	-5030
▁Uma	-5031
bheth	-5032
chasa	-5033
dleko	-5034
futhi	-5035
kreqo	-5036
luntu	-5037
rhumo	-5038
thume	-5039
tweni	-5040
▁Wayi	-5041
▁akum	-5042
▁ayen	-5043
▁nizi	-5044
▁seng	-5045
Hebron	-5046
bulawa	-5047
moyeni	-5048
umkani	-5049
▁Ngabo	-5050
▁lwazo	-5051
▁nguwe	-5052
bandayo	-5053
▁Uhlobo	-5054
▁ezimbi	-5055
▁ibizwa	-5056
▁kubuya	-5057
▁obunga	-5058
endelezo	-5059
jikelezi	-5060
▁amaqela	-5061
▁ekungen	-5062
khawulela	-5063
zululwazi	-5064
▁Wathetha	-5065
▁wesibini	-5066
▁kokumkani	-5067
▁ngegolide	-5068
▁wokumkani	-5069
▁yenqanawe	-5070
▁zokuhlala	-5071
▁zolwandle	-5072
▁beenqanawa	-5073
▁ukhuseleko	-5074
▁wesithathu	-5075
▁kwisiqingatha	-5076
▁anesithandathu	-5077
Nebhukadenetsare	-5078
al	-5079
kem	-5080
Yise	-5081
fani	-5082
fuyo	-5083
phun	-5084
▁ibu	-5085
▁ina	-5086
▁owo	-5087
▁uNa	-5088
anisi	-5089
▁Ngen	-5090
▁neye	-5091
▁omde	-5092
Galili	-5093
cebiso	-5094
enzele	-5095
hlwaya	-5096
lisiwe	-5097
lwelwe	-5098
thumbu	-5099
xabela	-5100
▁ivili	-5101
▁ndili	-5102
▁ndiye	-5103
▁sithe	-5104
▁ukuli	-5105
kwaziyo	-5106
omileyo	-5107
▁elingu	-5108
▁ababini	-5109
▁izindlu	-5110
▁kwendlu	-5111
▁wengozi	-5112
▁Imfaniso	-5113
▁emhlophe	-5114
▁isahlulo	-5115
▁isebenza	-5116
▁lwendawo	-5117
▁nentambo	-5118
▁yoonyana	-5119
tshintshwa	-5120
▁ezandleni	-5121
▁nayiphina	-5122
▁yezithuthi	-5123
▁zokuthutha	-5124
'.	-5125
fre	-5126
gco	-5127
kri	-5128
▁Om	-5129
▁Oo	-5130
duma	-5131
kang	-5132
wise	-5133
zono	-5134
▁imp	-5135
▁ino	-5136
rhuqa	-5137
▁kuYo	-5138
▁mawu	-5139
nikela	-5140
▁wanga	-5141
antlanu	-5142
hambeni	-5143
yunithi	-5144
zinzisa	-5145
▁iqhina	-5146
▁sesine	-5147
▁ukulwa	-5148
▁wabuya	-5149
▁zendlu	-5150
lawulelo	-5151
▁wangena	-5152
▁yolwazi	-5153
dokolwane	-5154
▁ezikhoyo	-5155
▁kwizinto	-5156
▁ukubamba	-5157
phambukeli	-5158
▁ephambili	-5159
▁ukwenziwa	-5160
khuselekile	-5161
qatyisiweyo	-5162
▁intshukumo	-5163
▁lomsebenzi	-5164
▁wathabatha	-5165
selunxwemeni	-5166
▁kwisikhephe	-5167
▁Ekugqibeleni	-5168
7.	-5169
kxa	-5170
▁83	-5171
20.1	-5172
loba	-5173
luka	-5174
mile	-5175
quku	-5176
sana	-5177
xuwa	-5178
▁oni	-5179
▁ozi	-5180
▁zwe	-5181
Bhile	-5182
benza	-5183
hlalu	-5184
mbili	-5185
▁Bona	-5186
▁Noko	-5187
▁boba	-5188
▁ekho	-5189
▁noba	-5190
▁sawo	-5191
▁sine	-5192
▁ukho	-5193
▁zini	-5194
bhalwa	-5195
lazare	-5196
phanda	-5197
qhaphu	-5198
thiswa	-5199
tsheni	-5200
▁abase	-5201
▁nakwa	-5202
▁ngexa	-5203
▁unina	-5204
▁zidla	-5205
angqina	-5206
bhekisa	-5207
bhethri	-5208
londolo	-5209
thobela	-5210
▁imithi	-5211
▁iqondo	-5212
▁wesuka	-5213
dibeneyo	-5214
funyenwe	-5215
khompati	-5216
khuselwa	-5217
landelwa	-5218
qabileyo	-5219
sindiswa	-5220
thambisa	-5221
▁Kanjalo	-5222
▁bephela	-5223
▁wendawo	-5224
▁Umyalelo	-5225
▁asithoba	-5226
▁kungenxa	-5227
▁ngekrele	-5228
▁yolawulo	-5229
▁enamandla	-5230
▁nomthetho	-5231
▁anesibhozo	-5232
▁kumphandle	-5233
▁lobushushu	-5234
BO	-5235
Kha	-5236
rud	-5237
▁as	-5238
pili	-5239
ulun	-5240
▁Ayi	-5241
▁lis	-5242
diswe	-5243
rhafu	-5244
▁Apha	-5245
▁oyin	-5246
busuku	-5247
guqula	-5248
jongwe	-5249
phahla	-5250
wotshi	-5251
zelele	-5252
▁abaku	-5253
▁ozala	-5254
▁unako	-5255
▁yenye	-5256
baninzi	-5257
dlulayo	-5258
ngenisa	-5259
xalenye	-5260
▁ekhoyo	-5261
▁ingaba	-5262
▁kwasem	-5263
▁kwinto	-5264
▁zomoya	-5265
▁Ukwenza	-5266
▁wenyuka	-5267
bandezeli	-5268
▁kumbindi	-5269
▁nokumkani	-5270
▁sokutsala	-5271
▁abathunywa	-5272
▁elinamanci	-5273
▁ezindaweni	-5274
▁lamaPhondo	-5275
▁engamashumi	-5276
Ish	-5277
jin	-5278
sond	-5279
▁Nam	-5280
▁UYo	-5281
fumba	-5282
jenga	-5283
jwili	-5284
longa	-5285
thane	-5286
▁kuwu	-5287
▁wada	-5288
keleni	-5289
khetha	-5290
tshise	-5291
▁engun	-5292
▁ubawo	-5293
▁ufuna	-5294
▁zakwa	-5295
▁zithi	-5296
gqwetha	-5297
hambayo	-5298
salatha	-5299
yingozi	-5300
yintoni	-5301
▁angama	-5302
▁makube	-5303
▁ngento	-5304
sangweni	-5305
thinteli	-5306
▁Ukusuka	-5307
▁efanayo	-5308
▁Phakathi	-5309
▁etroneni	-5310
▁iintloko	-5311
▁ukuhlala	-5312
▁abakhweli	-5313
▁emfazweni	-5314
▁kwentloko	-5315
▁kwisiseko	-5316
▁kumphantsi	-5317
▁imiphefumlo	-5318
▁yokugqibela	-5319
at	-5320
Ama	-5321
ked	-5322
kim	-5323
pte	-5324
wum	-5325
enam	-5326
goba	-5327
tile	-5328
▁ade	-5329
aneno	-5330
bongo	-5331
sonka	-5332
valwa	-5333
▁iyin	-5334
▁lalo	-5335
▁uEli	-5336
▁yesa	-5337
dulula	-5338
fumene	-5339
jikayo	-5340
majoni	-5341
nkqubo	-5342
zibini	-5343
▁abana	-5344
▁akuba	-5345
▁ezino	-5346
aneleyo	-5347
▁8320.1	-5348
▁amanye	-5349
▁okunga	-5350
▁uEliya	-5351
▁yobomi	-5352
▁bahlala	-5353
▁ngegama	-5354
▁weshumi	-5355
▁yendawo	-5356
chukumisa	-5357
qhumisela	-5358
▁kwakukho	-5359
▁zomhlaba	-5360
▁uSamuweli	-5361
▁unanamhla	-5362
zenzekelayo	-5363
▁isiqingatha	-5364
▁nesiqingatha	-5365
▁bakwaSirayeli	-5366
▁efanelekileyo	-5367
buko	-5368
bunt	-5369
dile	-5370
gali	-5371
gula	-5372
kini	-5373
suse	-5374
▁Abo	-5375
▁eny	-5376
▁man	-5377
▁oza	-5378
cwane	-5379
iseli	-5380
kanti	-5381
khefu	-5382
nandi	-5383
yuswe	-5384
▁Sisi	-5385
▁Uthi	-5386
▁Yiyo	-5387
cacisa	-5388
elungu	-5389
guquka	-5390
hezulu	-5391
lelayo	-5392
mayeli	-5393
zisela	-5394
▁ziint	-5395
Abraham	-5396
gqunywe	-5397
hlukana	-5398
▁Okanye	-5399
▁uhambe	-5400
bonakale	-5401
▁wamnika	-5402
▁kwigumbi	-5403
▁ukunyuka	-5404
▁emazantsi	-5405
▁eqinileyo	-5406
▁uSirayeli	-5407
▁wathumela	-5408
Phakamisani	-5409
▁ngumphathi	-5410
linganiselwa	-5411
▁iintsontelo	-5412
▁womgangatho	-5413
▁ngokungqinelana	-5414
9.	-5415
De	-5416
To	-5417
Yeri	-5418
teli	-5419
▁ude	-5420
antla	-5421
jikwa	-5422
qhawu	-5423
▁Amen	-5424
▁Ziya	-5425
▁ethu	-5426
▁kusa	-5427
▁ngun	-5428
▁sasi	-5429
▁sesa	-5430
andulo	-5431
kwanda	-5432
peyint	-5433
qhushe	-5434
rudder	-5435
weleni	-5436
▁Hamba	-5437
▁Kanti	-5438
▁akana	-5439
▁emini	-5440
▁ezibe	-5441
▁futhi	-5442
▁kanga	-5443
iintshi	-5444
kanjani	-5445
landele	-5446
thwalwa	-5447
▁Emveni	-5448
▁bamisa	-5449
▁ezithi	-5450
▁ilitye	-5451
▁nalowo	-5452
▁nangom	-5453
▁umbane	-5454
▁yeyona	-5455
qhoboshi	-5456
▁amadini	-5457
▁embalwa	-5458
▁ixabiso	-5459
▁lishumi	-5460
▁uthethe	-5461
phakamise	-5462
▁iiseyile	-5463
▁ngezinto	-5464
cocekileyo	-5465
qinisekiso	-5466
▁kwendlela	-5467
▁ngasentla	-5468
endelezweni	-5469
kumgangatho	-5470
tshabalalise	-5471
▁amanyathelo	-5472
▁angamashumi	-5473
▁lomgangatho	-5474
▁ukuthintela	-5475
sentshonalanga	-5476
▁Ukusetyenziswa	-5477
16	-5478
▁)	-5479
yom	-5480
amas	-5481
endo	-5482
fula	-5483
lind	-5484
qand	-5485
▁(3)	-5486
▁njl	-5487
demon	-5488
inako	-5489
jenje	-5490
khube	-5491
krexe	-5492
lamba	-5493
rhola	-5494
tware	-5495
▁ndam	-5496
▁nolu	-5497
▁sisa	-5498
▁zeng	-5499
gqatso	-5500
guquko	-5501
inquba	-5502
jikela	-5503
▁ababu	-5504
▁esiya	-5505
▁ndiwa	-5506
▁noShe	-5507
chaziwe	-5508
phelela	-5509
shukuma	-5510
▁yomntu	-5511
▁zinike	-5512
dibanisi	-5513
qokelela	-5514
▁inqambi	-5515
▁intonga	-5516
▁Kwakhona	-5517
▁Njengoko	-5518
▁esebenza	-5519
▁kwibhodi	-5520
▁wentente	-5521
▁bokumkani	-5522
▁elincinci	-5523
▁esezantsi	-5524
▁uHezekiya	-5525
▁eludongeni	-5526
▁eziphezulu	-5527
▁kangangoko	-5528
▁neenqanawa	-5529
▁kumphakathi	-5530
▁zilandelayo	-5531
▁izikhitshane	-5532
Ro	-5533
ad	-5534
ut	-5535
▁x	-5536
196	-5537
ZIN	-5538
gqe	-5539
ome	-5540
bali	-5541
jana	-5542
voti	-5543
ziko	-5544
▁Ulo	-5545
▁ebi	-5546
▁noH	-5547
glasi	-5548
senzo	-5549
▁bawu	-5550
▁ezen	-5551
▁nele	-5552
bilisi	-5553
dumisa	-5554
gonyam	-5555
gxinin	-5556
rhwebi	-5557
▁Jonga	-5558
▁anami	-5559
phelele	-5560
sinyane	-5561
▁Ukunga	-5562
▁akwazi	-5563
▁lwanga	-5564
▁nabemi	-5565
lungiswe	-5566
thandazo	-5567
▁kuluhlu	-5568
▁naphezu	-5569
▁sesizwe	-5570
▁yeflegi	-5571
▁yindawo	-5572
funekanga	-5573
semanzini	-5574
▁kumadoda	-5575
▁kumandla	-5576
▁neenkomo	-5577
▁njengama	-5578
▁soonyana	-5579
▁yamandla	-5580
▁zokuqala	-5581
▁bakwaYuda	-5582
▁inxaxheba	-5583
▁izithuthi	-5584
▁kuyenzeka	-5585
▁nobunzima	-5586
▁nokuhlisa	-5587
▁ezincinane	-5588
▁ipetroyile	-5589
▁yokuthutha	-5590
▁ezindlebeni	-5591
dim	-5592
dis	-5593
Midi	-5594
qiqo	-5595
rike	-5596
sona	-5597
yuso	-5598
▁Ewe	-5599
▁Wen	-5600
▁osi	-5601
▁uvu	-5602
amani	-5603
kuthi	-5604
suswe	-5605
tsale	-5606
▁IEEE	-5607
▁Yaye	-5608
▁besa	-5609
▁ikwa	-5610
▁uyin	-5611
Lawulo	-5612
bhanon	-5613
bulali	-5614
entaba	-5615
jineli	-5616
ongolo	-5617
▁Yenza	-5618
▁lokun	-5619
▁wemka	-5620
fanelwe	-5621
fimbili	-5622
kcazelo	-5623
phawula	-5624
phelisa	-5625
tsaleka	-5626
xilongo	-5627
zenzela	-5628
▁empuma	-5629
▁ngezwi	-5630
▁wafika	-5631
hlambela	-5632
khumbule	-5633
vakalisa	-5634
danduluka	-5635
▁bentambo	-5636
▁kwiimeko	-5637
▁sokunene	-5638
▁somhlaba	-5639
▁umnikelo	-5640
sembindini	-5641
▁eBhabheli	-5642
▁sokunyusa	-5643
▁ummelwane	-5644
▁umphezulu	-5645
▁wamwisela	-5646
lungiseleli	-5647
▁ekungeneni	-5648
▁ngeendlela	-5649
▁ziikubhite	-5650
▁nemisebenzi	-5651
▁ubuqaqawuli	-5652
▁zaselwandle	-5653
▁eziqhelekileyo	-5654
WO	-5655
vy	-5656
fti	-5657
hem	-5658
omi	-5659
res	-5660
▁Su	-5661
dwen	-5662
taka	-5663
yoko	-5664
▁ebo	-5665
▁uMa	-5666
▁uSa	-5667
▁usa	-5668
gceni	-5669
manzi	-5670
phako	-5671
▁bube	-5672
▁wabu	-5673
anikwa	-5674
duluka	-5675
hlelwa	-5676
hlwayo	-5677
jongwa	-5678
qongqo	-5679
▁esibe	-5680
▁eziku	-5681
▁izono	-5682
▁lwent	-5683
▁sithi	-5684
eleneyo	-5685
festile	-5686
qiniswe	-5687
sondele	-5688
▁Ngaloo	-5689
▁athile	-5690
▁ugcino	-5691
Lebhanon	-5692
nikezela	-5693
▁8320.1-	-5694
▁baninzi	-5695
▁ekunene	-5696
▁izibane	-5697
▁kunzima	-5698
▁likhulu	-5699
▁zenziwa	-5700
bulungisa	-5701
▁Ngamanye	-5702
▁iinqwelo	-5703
▁kamsinya	-5704
▁ukujonga	-5705
▁Banduluka	-5706
▁ephakadeni	-5707
▁kwenqanawe	-5708
▁ngumthetho	-5709
▁olungileyo	-5710
▁yomgangatho	-5711
ry	-5712
▁2.	-5713
▁Se	-5714
Medi	-5715
lusa	-5716
veki	-5717
wala	-5718
wenu	-5719
yena	-5720
yulo	-5721
▁Ezo	-5722
▁imo	-5723
dlayo	-5724
eliso	-5725
funde	-5726
hlazi	-5727
kxaso	-5728
▁Beka	-5729
▁Mayi	-5730
▁yang	-5731
▁yaya	-5732
hluthe	-5733
qhinga	-5734
rhente	-5735
thulwa	-5736
thungo	-5737
▁Kwisi	-5738
▁bendi	-5739
▁efana	-5740
▁kwimo	-5741
▁uFaro	-5742
▁umthi	-5743
▁uzaku	-5744
peyinti	-5745
qamleza	-5746
▁ekunyu	-5747
▁uhamba	-5748
▁umvuzo	-5749
khepheni	-5750
khombeni	-5751
▁kwaseku	-5752
▁samanzi	-5753
thathelwa	-5754
▁ekuthiwa	-5755
▁isibetho	-5756
qamlezweni	-5757
▁ukuphatha	-5758
▁wamashumi	-5759
senqanaweni	-5760
▁nabakhonzi	-5761
▁Kubalulekile	-5762
Khu	-5763
TSH	-5764
pan	-5765
▁--	-5766
▁20	-5767
▁ga	-5768
gxam	-5769
hafu	-5770
pati	-5771
quma	-5772
quzu	-5773
tili	-5774
unge	-5775
isuka	-5776
khono	-5777
lulam	-5778
yelel	-5779
▁Iing	-5780
▁Onke	-5781
▁impi	-5782
▁kade	-5783
▁lwee	-5784
▁umfo	-5785
anzima	-5786
cacile	-5787
dlulis	-5788
gazini	-5789
khunju	-5790
komiti	-5791
lawule	-5792
vuleka	-5793
▁Kunga	-5794
▁elula	-5795
▁esino	-5796
Midiyan	-5797
qheleke	-5798
sondezo	-5799
welonke	-5800
▁lidini	-5801
▁necala	-5802
▁udonga	-5803
Samuweli	-5804
iselweyo	-5805
khanyiso	-5806
zimisela	-5807
▁ekuphum	-5808
▁komlilo	-5809
▁kuhamba	-5810
▁lamanzi	-5811
bhimeleki	-5812
chaseneyo	-5813
▁ikakhulu	-5814
▁kathathu	-5815
▁nonxweme	-5816
▁ukunceda	-5817
qwalaselwe	-5818
▁komthwalo	-5819
▁kumphathi	-5820
▁lenqanawe	-5821
▁ngamadoda	-5822
▁esincinane	-5823
▁kwisixhobo	-5824
▁nabantwana	-5825
▁wakwaThixo	-5826
▁ngokucacileyo	-5827
".	-5828
15	-5829
Nt	-5830
rs	-5831
gra	-5832
rhi	-5833
▁12	-5834
▁iA	-5835
mene	-5836
siwe	-5837
xiba	-5838
xibo	-5839
▁afe	-5840
lapha	-5841
ulula	-5842
▁Ulwa	-5843
▁lali	-5844
▁nale	-5845
▁niba	-5846
▁nize	-5847
▁nkqi	-5848
▁noYe	-5849
▁waso	-5850
andeni	-5851
eliswe	-5852
fanelo	-5853
gqobho	-5854
qhenqa	-5855
sasaza	-5856
yusayo	-5857
▁Kuthe	-5858
▁bakwa	-5859
▁nenye	-5860
▁wumbi	-5861
bhetele	-5862
bumbulu	-5863
kunkuma	-5864
lingane	-5865
lungise	-5866
▁imigca	-5867
▁isandi	-5868
▁kufika	-5869
▁mayibe	-5870
▁ngomva	-5871
▁nkqubo	-5872
▁sangqa	-5873
▁sinoku	-5874
▁uyihlo	-5875
angamsha	-5876
lwanyana	-5877
▁Ulawulo	-5878
bopheleli	-5879
linganisi	-5880
omeleleyo	-5881
sisigxina	-5882
▁isigqibo	-5883
▁isiqhubi	-5884
▁kunxweme	-5885
▁kususela	-5886
▁kwiqondo	-5887
chaphazela	-5888
▁elinesine	-5889
▁ezintweni	-5890
▁ivulekile	-5891
▁umonakalo	-5892
▁yimfuneko	-5893
▁elinambini	-5894
▁irhintyela	-5895
▁ngentsimbi	-5896
cikizekileyo	-5897
weletshetshe	-5898
▁elinababini	-5899
▁ngokwelizwi	-5900
▁eziphilileyo	-5901
▁ngokwendlela	-5902
186	-5903
Asa	-5904
PHE	-5905
twe	-5906
▁of	-5907
▁uD	-5908
Ashe	-5909
mila	-5910
nini	-5911
▁obo	-5912
dabhi	-5913
gutyu	-5914
hlabo	-5915
ponti	-5916
swela	-5917
tshay	-5918
tyelo	-5919
▁Kuma	-5920
▁idla	-5921
▁kulu	-5922
▁lisi	-5923
▁salo	-5924
▁sizi	-5925
▁ukwe	-5926
▁ungo	-5927
bonisi	-5928
buyeke	-5929
khandi	-5930
krakra	-5931
mayela	-5932
tshiza	-5933
▁lwalu	-5934
▁lwenu	-5935
▁osuka	-5936
boniswe	-5937
khiwane	-5938
talente	-5939
vuthela	-5940
▁ankile	-5941
▁intshi	-5942
▁kusini	-5943
▁nakwin	-5944
▁somoya	-5945
andelayo	-5946
gqithisa	-5947
▁Okokuba	-5948
▁entweni	-5949
▁iankile	-5950
▁ngobuso	-5951
▁ukubeka	-5952
▁uthetha	-5953
▁abathile	-5954
▁ngokwayo	-5955
▁zezindlu	-5956
lulekileyo	-5957
▁emkhosini	-5958
▁ezifanayo	-5959
▁namhlanje	-5960
▁yokuhamba	-5961
▁ezingcwele	-5962
▁kwisithuba	-5963
▁unelungelo	-5964
▁zesilivere	-5965
▁esiphelweni	-5966
▁imigangatho	-5967
▁elinamakhulu	-5968
▁elinamashumi	-5969
▁kwasemlilweni	-5970
14	-5971
MI	-5972
kc	-5973
buso	-5974
riyo	-5975
tori	-5976
xayo	-5977
yuli	-5978
zazi	-5979
▁ilu	-5980
▁kho	-5981
▁mpa	-5982
▁the	-5983
hlile	-5984
khuph	-5985
tarhu	-5986
twabu	-5987
xhoma	-5988
zimvu	-5989
▁Kuku	-5990
▁elun	-5991
▁emsi	-5992
▁ioli	-5993
▁ziba	-5994
▁zise	-5995
dubulo	-5996
endulo	-5997
hlukan	-5998
thonga	-5999
▁abali	-6000
▁ezona	-6001
▁wakha	-6002
▁yemvu	-6003
andundu	-6004
tshinga	-6005
▁Ingaba	-6006
▁UMoses	-6007
▁eyodwa	-6008
▁kuquka	-6009
▁nasesi	-6010
Bhileham	-6011
hanjiswa	-6012
qikelelo	-6013
▁Yintoni	-6014
▁ebonisa	-6015
▁isibane	-6016
▁kuphele	-6017
bophelelo	-6018
▁lokujika	-6019
▁negolide	-6020
▁ophantsi	-6021
▁usindiso	-6022
phakathini	-6023
thelekiswa	-6024
▁lwentambo	-6025
▁ukuthanda	-6026
▁yokugcina	-6027
▁lakwaKanan	-6028
▁sesithathu	-6029
▁ongunaphakade	-6030
▁kumlinganiselo	-6031
Hi	-6032
In	-6033
-19	-6034
ila	-6035
ont	-6036
▁lw	-6037
bram	-6038
buyi	-6039
inde	-6040
meza	-6041
ridi	-6042
sayo	-6043
waba	-6044
▁bon	-6045
▁mva	-6046
▁qho	-6047
hlazo	-6048
khaka	-6049
kodwa	-6050
phule	-6051
qweni	-6052
tyuwa	-6053
vimba	-6054
▁Ikwa	-6055
▁Isin	-6056
▁Maba	-6057
▁bung	-6058
▁kaYe	-6059
▁lenu	-6060
▁ngoo	-6061
▁nili	-6062
▁seen	-6063
Yeriko	-6064
angela	-6065
gqirha	-6066
kwakha	-6067
qeshwa	-6068
▁Ngelo	-6069
▁ezayo	-6070
▁kunge	-6071
▁kwale	-6072
▁lithe	-6073
▁uBawo	-6074
▁udidi	-6075
Kumkani	-6076
bhinere	-6077
enjongo	-6078
gxamesi	-6079
iswanga	-6080
omandla	-6081
qamlezo	-6082
yathela	-6083
▁ahlale	-6084
▁bendlu	-6085
▁ngenye	-6086
▁okuthe	-6087
▁wabona	-6088
buyisele	-6089
engozini	-6090
gcweleyo	-6091
khuphela	-6092
sikelelo	-6093
thandabu	-6094
▁Zombini	-6095
▁kwesiqu	-6096
▁nangoko	-6097
▁neshumi	-6098
▁sogcino	-6099
▁ukubona	-6100
xhotyiswa	-6101
▁eNkosini	-6102
▁ezikhulu	-6103
▁icandelo	-6104
▁iintsika	-6105
▁imfuneko	-6106
▁komsindo	-6107
▁kwaphela	-6108
▁loonyana	-6109
▁nesantya	-6110
▁ngokwezi	-6111
▁nomhlaba	-6112
ziikubhite	-6113
▁akwabakho	-6114
▁efunekayo	-6115
▁kwamandla	-6116
▁kweYordan	-6117
▁lokumkani	-6118
shiyekileyo	-6119
▁abangcwele	-6120
▁ngokubanzi	-6121
▁ukulungisa	-6122
▁engaphantsi	-6123
▁koxinzelelo	-6124
▁kwesikhephe	-6125
▁nomgangatho	-6126
-6	-6127
CA	-6128
Go	-6129
KAN	-6130
TSI	-6131
rim	-6132
vin	-6133
▁al	-6134
ankq	-6135
anwa	-6136
baso	-6137
coca	-6138
cola	-6139
duli	-6140
fiki	-6141
liyo	-6142
vuna	-6143
dyuli	-6144
fungo	-6145
rhala	-6146
xibel	-6147
▁Ndim	-6148
▁Ungu	-6149
▁gama	-6150
▁lini	-6151
amasko	-6152
bhatyi	-6153
dizili	-6154
dumiso	-6155
etanki	-6156
qwenga	-6157
▁Indlu	-6158
▁Ngeli	-6159
▁Nguwo	-6160
▁bandi	-6161
▁eziza	-6162
▁kweye	-6163
▁ogama	-6164
▁sathi	-6165
▁umdla	-6166
▁wehla	-6167
▁wothi	-6168
▁yayis	-6169
Nkundla	-6170
ambatho	-6171
bhlorho	-6172
kampani	-6173
phethwe	-6174
▁Andiyi	-6175
▁ebekwe	-6176
▁elithi	-6177
▁ilaphu	-6178
▁izenzo	-6179
▁kuFaro	-6180
▁kulula	-6181
▁ngakwi	-6182
▁ntambo	-6183
▁ukundi	-6184
▁yokufa	-6185
vunyelwa	-6186
▁Umkhosi	-6187
▁ekrwada	-6188
▁elinoku	-6189
▁emileyo	-6190
▁kooyise	-6191
▁kwecala	-6192
▁ngosuku	-6193
qhelekile	-6194
▁iintombi	-6195
▁nenkqubo	-6196
▁ngomlomo	-6197
▁wephondo	-6198
bandakanya	-6199
bhakabhaka	-6200
▁ongekhoyo	-6201
▁entlokweni	-6202
▁waseYiputa	-6203
▁wesixhenxe	-6204
▁yokulalisa	-6205
▁yomsebenzi	-6206
▁somgangatho	-6207
▁ecikizekileyo	-6208
▁izikhongozeli	-6209
▁ezibalulekileyo	-6210
-4	-6211
1/	-6212
NG	-6213
ur	-6214
Mor	-6215
gcu	-6216
banj	-6217
bize	-6218
hamb	-6219
inya	-6220
rhox	-6221
▁asa	-6222
bhata	-6223
bhexi	-6224
phulu	-6225
qondi	-6226
qunyu	-6227
rhume	-6228
thala	-6229
thoko	-6230
yiswe	-6231
▁Masi	-6232
▁eyom	-6233
Shekem	-6234
anyazo	-6235
dekayi	-6236
dekiya	-6237
galele	-6238
kunika	-6239
omlomo	-6240
polisa	-6241
xhaswe	-6242
yaweni	-6243
▁Sathi	-6244
▁kwase	-6245
▁ngowe	-6246
▁owaye	-6247
▁ukuku	-6248
▁ungam	-6249
▁yento	-6250
▁zithe	-6251
Damasko	-6252
Phezulu	-6253
fundiso	-6254
kholose	-6255
philisa	-6256
shekele	-6257
▁Makube	-6258
▁akubon	-6259
▁nasema	-6260
▁ngcono	-6261
▁ombane	-6262
▁yesiqu	-6263
balekayo	-6264
banikela	-6265
funyanwe	-6266
longweni	-6267
▁ingxelo	-6268
▁isiseko	-6269
▁koThixo	-6270
▁nokunga	-6271
▁okudada	-6272
▁oothixo	-6273
Mordekayi	-6274
chaziweyo	-6275
engonyama	-6276
khuseleke	-6277
singisele	-6278
▁ezizweni	-6279
▁iinkunzi	-6280
▁iziqhamo	-6281
▁kaSawule	-6282
▁komkhosi	-6283
▁kusoloko	-6284
▁ngombane	-6285
▁uYowabhi	-6286
▁ubuchule	-6287
▁isilivere	-6288
▁eminqubeni	-6289
▁iintliziyo	-6290
▁ilandelayo	-6291
▁anesithathu	-6292
▁engukumkani	-6293
▁esikhepheni	-6294
▁ezifunekayo	-6295
▁ebukumkanini	-6296
kanomathotholo	-6297
▁ngasempumalanga	-6298
20	-6299
Rh	-6300
US	-6301
sam	-6302
ANGA	-6303
dwel	-6304
yoka	-6305
▁evu	-6306
bhija	-6307
chiza	-6308
lingi	-6309
lweyo	-6310
tsiba	-6311
▁Akwa	-6312
▁abem	-6313
▁cala	-6314
▁ebun	-6315
fanela	-6316
khanyo	-6317
politi	-6318
▁abane	-6319
▁bodwa	-6320
▁iliso	-6321
▁ising	-6322
▁lonto	-6323
▁mlilo	-6324
▁uYise	-6325
▁yezom	-6326
andlela	-6327
gumbini	-6328
lwaneni	-6329
pheleka	-6330
phindwa	-6331
tshiswe	-6332
xhonywe	-6333
▁Umhobe	-6334
▁kayise	-6335
▁noAron	-6336
Zedekiya	-6337
ingxunya	-6338
▁ethetha	-6339
▁imodeli	-6340
▁kwiqela	-6341
▁naliphi	-6342
▁namanye	-6343
▁ngeyure	-6344
▁yombane	-6345
▁zelizwe	-6346
▁esenziwe	-6347
▁isiqhamo	-6348
▁nokokuba	-6349
▁omncinci	-6350
▁ubutyebi	-6351
▁ukuchaza	-6352
phulaphule	-6353
▁amazibuko	-6354
▁kwimozulu	-6355
▁kwinkqubo	-6356
▁esazulwini	-6357
▁nomsebenzi	-6358
▁kwabafileyo	-6359
▁somphambili	-6360
▁angaphambili	-6361
▁lenkulungwane	-6362
▁ngokusebenzisa	-6363
HO	-6364
im	-6365
Shu	-6366
Uzi	-6367
Nowa	-6368
bamb	-6369
bude	-6370
dawe	-6371
roti	-6372
wuni	-6373
yene	-6374
zuza	-6375
▁ewe	-6376
▁ose	-6377
enisa	-6378
kroba	-6379
linge	-6380
shele	-6381
vulwa	-6382
zonke	-6383
▁Navy	-6384
▁Noku	-6385
▁Weza	-6386
▁neya	-6387
▁saku	-6388
enzela	-6389
melela	-6390
umbula	-6391
vakala	-6392
▁enezi	-6393
▁isiya	-6394
▁ukuwu	-6395
▁wompu	-6396
Bhashan	-6397
khokela	-6398
luncedo	-6399
makhulu	-6400
▁Ilungu	-6401
▁Ndingu	-6402
▁endiya	-6403
▁ingena	-6404
▁iphela	-6405
▁kaFaro	-6406
▁macala	-6407
▁nobude	-6408
▁bangabi	-6409
▁intetho	-6410
▁lomlilo	-6411
▁nexesha	-6412
▁yezinto	-6413
▁zimbini	-6414
Phathiswa	-6415
qwalasele	-6416
▁lamadoda	-6417
▁zokwenza	-6418
thethileyo	-6419
▁edokisini	-6420
▁imibhobho	-6421
▁kubhaliwe	-6422
▁kweseyile	-6423
▁ngengomso	-6424
▁onamandla	-6425
phakanyiswa	-6426
qhubekekayo	-6427
▁emkhombeni	-6428
▁ubuncinane	-6429
▁abangendawo	-6430
▁esiphambili	-6431
▁evulekileyo	-6432
▁kwisithathu	-6433
▁linamashumi	-6434
▁Umlinganiselo	-6435
▁ngokuqinileyo	-6436
);	-6437
10	-6438
TI	-6439
bom	-6440
dra	-6441
lan	-6442
lim	-6443
mos	-6444
▁1.	-6445
,000	-6446
ciko	-6447
doki	-6448
ishu	-6449
melo	-6450
moti	-6451
sise	-6452
veza	-6453
▁500	-6454
▁bee	-6455
▁kaH	-6456
▁okw	-6457
Zebhu	-6458
dutyu	-6459
gqumo	-6460
lwelo	-6461
phumi	-6462
sungu	-6463
▁anam	-6464
▁inom	-6465
▁nguM	-6466
▁oben	-6467
▁siza	-6468
▁yeli	-6469
Jamani	-6470
dibane	-6471
freyim	-6472
funeki	-6473
hlambe	-6474
kamela	-6475
mbamba	-6476
nyuswa	-6477
sileyo	-6478
▁akaba	-6479
▁ezise	-6480
▁inike	-6481
▁kufun	-6482
▁kukwa	-6483
▁kwixa	-6484
▁okuba	-6485
▁uYuda	-6486
kcenkce	-6487
▁Nakuba	-6488
▁busuku	-6489
▁elinom	-6490
zothutho	-6491
▁nasezin	-6492
sebenzela	-6493
tshintshi	-6494
zibukweni	-6495
▁wendlela	-6496
rhalarhume	-6497
▁Intliziyo	-6498
▁amaYiputa	-6499
▁angangeni	-6500
▁kancinane	-6501
▁ongendawo	-6502
bhambathiso	-6503
▁yookumkani	-6504
lungiselelwa	-6505
▁lokugqibela	-6506
▁yokusebenza	-6507
▁Isetyenziswa	-6508
▁ezohlukeneyo	-6509
▁kubungakanani	-6510
▁esisetyenziswa	-6511
-"	-6512
80	-6513
▁g	-6514
AMA	-6515
Bho	-6516
Tso	-6517
ble	-6518
Hero	-6519
Tire	-6520
boya	-6521
fono	-6522
haki	-6523
lukw	-6524
mayo	-6525
ngca	-6526
rasi	-6527
wase	-6528
xele	-6529
yidi	-6530
▁Ban	-6531
▁Loo	-6532
▁nez	-6533
Kushi	-6534
bhadi	-6535
enayo	-6536
gwebe	-6537
ilato	-6538
mente	-6539
stere	-6540
thisi	-6541
xande	-6542
▁Umva	-6543
▁Yaba	-6544
▁ikwi	-6545
▁yazi	-6546
▁yeza	-6547
▁ziku	-6548
▁ziyi	-6549
Yehoya	-6550
chithe	-6551
fumani	-6552
gxotha	-6553
inzima	-6554
thandi	-6555
tyiswa	-6556
yikayo	-6557
▁Omnye	-6558
▁isuka	-6559
▁wokun	-6560
Hebhere	-6561
amadoda	-6562
mbelela	-6563
tshanga	-6564
xhonywa	-6565
▁ahlala	-6566
▁woxolo	-6567
▁yemipu	-6568
bangakho	-6569
lukileyo	-6570
phanyazo	-6571
sandleni	-6572
▁amanani	-6573
▁isangqa	-6574
▁kwaYuda	-6575
▁utshaba	-6576
gubungela	-6577
isekileyo	-6578
ongendawo	-6579
tshatyala	-6580
▁Kungenxa	-6581
▁Ngonyaka	-6582
▁Umthwalo	-6583
▁nabaLevi	-6584
▁umninawa	-6585
▁zoonyana	-6586
migangatho	-6587
vumelekile	-6588
▁Ngomnyaka	-6589
▁emlanjeni	-6590
▁esibonisa	-6591
▁komthetho	-6592
▁lokhuselo	-6593
▁osezantsi	-6594
▁uYeremiya	-6595
▁ukubonisa	-6596
▁yezomGaqo	-6597
khululekile	-6598
landelelana	-6599
xibelelwano	-6600
▁lwesikhephe	-6601
▁ngokufanayo	-6602
▁asetyenziswa	-6603
▁ophakamileyo	-6604
▁baseYerusalem	-6605
▁emnqamlezweni	-6606
▁nokusetyenziswa	-6607
Co	-6608
Ahi	-6609
PHA	-6610
▁Me	-6611
▁UE	-6612
▁sh	-6613
band	-6614
cedi	-6615
fini	-6616
hire	-6617
mise	-6618
seny	-6619
thom	-6620
zobi	-6621
▁kaN	-6622
eniso	-6623
isuke	-6624
kungu	-6625
phulo	-6626
tetho	-6627
valwe	-6628
yinge	-6629
▁Ithi	-6630
▁beze	-6631
▁inge	-6632
▁nelo	-6633
▁zoba	-6634
Labhan	-6635
andelo	-6636
dileyo	-6637
gqithe	-6638
leweyo	-6639
▁Imeko	-6640
▁Nanko	-6641
▁anobu	-6642
▁eliza	-6643
▁emnye	-6644
▁entla	-6645
▁igosa	-6646
▁ndiwu	-6647
▁nzulu	-6648
▁omoya	-6649
▁thixo	-6650
▁ukubu	-6651
▁zokun	-6652
arhente	-6653
dwendwe	-6654
ekariya	-6655
pteyini	-6656
thelisa	-6657
▁ebizwa	-6658
▁ingabi	-6659
▁kwanom	-6660
▁kwento	-6661
▁lilifa	-6662
▁ngaman	-6663
▁ulwimi	-6664
▁ungabi	-6665
▁walala	-6666
khumbuzo	-6667
phelelwa	-6668
thembeka	-6669
xhathiso	-6670
yikekayo	-6671
▁ayinaku	-6672
▁igolide	-6673
▁inyanga	-6674
▁kwemeko	-6675
▁nakwisi	-6676
▁ngobude	-6677
▁ubusuku	-6678
▁yindoda	-6679
▁yogcino	-6680
tyibilika	-6681
▁kukwenza	-6682
▁nabafazi	-6683
▁nobusuku	-6684
▁yabonani	-6685
▁zentambo	-6686
Nkulumbuso	-6687
▁amancinci	-6688
▁kwisangqa	-6689
▁yezixhobo	-6690
▁bokutshona	-6691
▁kwinqanawe	-6692
▁senkangala	-6693
▁umfanekiso	-6694
▁Kumongameli	-6695
▁Kwiinqanawa	-6696
▁ethabathela	-6697
▁nomphambili	-6698
▁ibotshelelwe	-6699
▁esetyenziselwa	-6700
▁obungunaphakade	-6701
ING	-6702
ISA	-6703
gxe	-6704
tam	-6705
uko	-6706
zan	-6707
▁10	-6708
▁II	-6709
Heti	-6710
Nafe	-6711
cini	-6712
meya	-6713
qino	-6714
qiqa	-6715
ququ	-6716
sila	-6717
tore	-6718
xing	-6719
yasu	-6720
▁kuE	-6721
▁lel	-6722
▁ona	-6723
KANYE	-6724
bhadu	-6725
cocho	-6726
inaku	-6727
iweyo	-6728
phose	-6729
yelwa	-6730
▁Ithe	-6731
▁imbi	-6732
▁okum	-6733
▁sini	-6734
▁umka	-6735
bulawe	-6736
camini	-6737
gidimi	-6738
khumba	-6739
kisile	-6740
kisiwe	-6741
mnandi	-6742
phamba	-6743
sasazo	-6744
thethi	-6745
tshilo	-6746
tyhile	-6747
wabisa	-6748
zeleyo	-6749
▁entle	-6750
▁kuyin	-6751
▁lwalo	-6752
▁nokwa	-6753
▁yezin	-6754
Tsadoki	-6755
ampunge	-6756
entsika	-6757
khwankq	-6758
kratshi	-6759
lungisi	-6760
▁Ndithi	-6761
▁abakho	-6762
▁angabi	-6763
▁bucala	-6764
▁engcwa	-6765
▁eyenza	-6766
▁ibhodi	-6767
▁izonka	-6768
▁kumntu	-6769
▁umGaqo	-6770
▁zemipu	-6771
Zekariya	-6772
fumaneke	-6773
phawulwe	-6774
politiko	-6775
▁Kwimeko	-6776
▁emxinwa	-6777
▁esinoku	-6778
▁kumazwe	-6779
▁likrele	-6780
▁nabanye	-6781
▁ngenani	-6782
▁ngokwam	-6783
▁yelizwe	-6784
▁amafutha	-6785
▁bakaYuda	-6786
▁ingcwele	-6787
▁kwenzeke	-6788
▁neenyawo	-6789
▁yindlela	-6790
bandakanye	-6791
phambukela	-6792
qinisekise	-6793
sesandleni	-6794
▁kukaThixo	-6795
▁lwenkqubo	-6796
▁ngoYehova	-6797
▁umatshini	-6798
▁isikhuseli	-6799
▁kungenzeka	-6800
▁sesikhephe	-6801
▁elingangeni	-6802
▁yomphambili	-6803
▁Ubungakanani	-6804
Pu	-6805
ic	-6806
Kar	-6807
Sof	-6808
THO	-6809
efo	-6810
▁18	-6811
Gati	-6812
lima	-6813
luko	-6814
vusa	-6815
xake	-6816
yula	-6817
▁Iza	-6818
▁eMi	-6819
▁zan	-6820
cutha	-6821
dingo	-6822
ekayo	-6823
fuzis	-6824
hlayo	-6825
linde	-6826
lithi	-6827
shici	-6828
▁Yiya	-6829
▁akam	-6830
▁kaHa	-6831
▁naso	-6832
▁ndis	-6833
▁noYa	-6834
▁saso	-6835
▁siyi	-6836
▁yabe	-6837
miweyo	-6838
phelel	-6839
▁Benza	-6840
▁efuna	-6841
▁ekung	-6842
▁inika	-6843
▁kukha	-6844
▁ndibu	-6845
▁ndize	-6846
▁ngolu	-6847
dyokhwe	-6848
henyuza	-6849
isedare	-6850
kerubhi	-6851
telehem	-6852
zimbini	-6853
▁Ilizwi	-6854
▁Thetha	-6855
▁enziwe	-6856
▁ifakwe	-6857
▁mandla	-6858
▁ngakum	-6859
▁wesiqu	-6860
Software	-6861
indezelo	-6862
vumelana	-6863
▁Wenyuka	-6864
▁kuthiwe	-6865
▁kwafika	-6866
▁kwanoku	-6867
▁nalapho	-6868
▁nokuthi	-6869
▁olululo	-6870
▁ooyihlo	-6871
▁uYohane	-6872
▁wathuma	-6873
▁wenziwe	-6874
▁yemasti	-6875
▁zifakwe	-6876
Ishmayeli	-6877
anyathelo	-6878
▁Amalungu	-6879
▁Ngaphezu	-6880
▁ezinjalo	-6881
▁kwindoda	-6882
qwalaselwa	-6883
▁kulungile	-6884
▁okokuqala	-6885
▁omathathu	-6886
▁ubungqina	-6887
▁ukumelana	-6888
▁ukuvumela	-6889
▁umphandle	-6890
▁zisebenza	-6891
qwenelekayo	-6892
▁engcwabeni	-6893
▁isikhundla	-6894
▁kwezixhobo	-6895
▁kwiNdibano	-6896
▁kwizixhobo	-6897
▁oomatshini	-6898
▁usebenzisa	-6899
jikelezileyo	-6900
qinisekileyo	-6901
vumelekileyo	-6902
▁iinkcukacha	-6903
▁waselwandle	-6904
▁isikhonkwane	-6905
▁yokuziphatha	-6906
-5	-6907
HA	-6908
MP	-6909
gr	-6910
ll	-6911
las	-6912
mas	-6913
uth	-6914
▁So	-6915
cina	-6916
demo	-6917
hore	-6918
kade	-6919
khwa	-6920
maya	-6921
phan	-6922
sare	-6923
unts	-6924
vuye	-6925
zobe	-6926
▁Azi	-6927
▁iso	-6928
▁oco	-6929
▁uHa	-6930
Isaya	-6931
anika	-6932
aniya	-6933
bhele	-6934
bloko	-6935
hlise	-6936
hlule	-6937
pheng	-6938
sandi	-6939
thani	-6940
thise	-6941
▁Baku	-6942
▁Ndin	-6943
▁Siya	-6944
▁bene	-6945
▁ikho	-6946
▁leli	-6947
▁leng	-6948
▁senu	-6949
Sekela	-6950
galelo	-6951
hadini	-6952
iswayo	-6953
luleke	-6954
rhulun	-6955
sizana	-6956
tsalwe	-6957
zalela	-6958
zeleni	-6959
▁Kwizi	-6960
▁emine	-6961
▁ingam	-6962
▁naban	-6963
▁olude	-6964
▁udade	-6965
▁uyazi	-6966
amawaka	-6967
bhakeni	-6968
bhalela	-6969
bungozi	-6970
freyimu	-6971
hlomelo	-6972
ingxuma	-6973
ngxunya	-6974
▁OKANYE	-6975
▁ekunga	-6976
▁injini	-6977
▁isenzo	-6978
▁kwisin	-6979
▁lomntu	-6980
▁nasemi	-6981
▁nomnye	-6982
▁sobomi	-6983
▁ukutya	-6984
Nafetali	-6985
fumanisa	-6986
khululwe	-6987
konakala	-6988
kwenzela	-6989
phefumla	-6990
tratweni	-6991
zwelonke	-6992
▁USawule	-6993
▁bangena	-6994
▁edadayo	-6995
▁ifanele	-6996
▁iinkomo	-6997
▁ipasika	-6998
▁ithemba	-6999
▁kungabi	-7000
▁makanga	-7001
▁nedlelo	-7002
▁ngenene	-7003
▁ngokuyi	-7004
▁sombane	-7005
▁uthando	-7006
▁yintoni	-7007
▁yomlilo	-7008
angaliswa	-7009
bophelele	-7010
dokolwana	-7011
gubungelo	-7012
rhuluneli	-7013
▁Iziphumo	-7014
▁Kwangoko	-7015
▁elingena	-7016
▁esithile	-7017
▁ilungisa	-7018
▁isebenze	-7019
▁ukuqonda	-7020
▁umahluko	-7021
chaphazele	-7022
semhlabeni	-7023
thululwayo	-7024
tolongweni	-7025
▁Okokuqala	-7026
▁isinyithi	-7027
▁kwiBhunga	-7028
▁lukaThixo	-7029
senyangweni	-7030
▁ezindlwini	-7031
▁yokulawula	-7032
▁elifutshane	-7033
▁elimisiweyo	-7034
▁engaphandle	-7035
▁kweentlanga	-7036
▁namagxamesi	-7037
▁yomnqophiso	-7038
sebenzisanayo	-7039
▁kangangokuba	-7040
▁namaSirayeli	-7041
▁edityanisiweyo	-7042
Di	-7043
UM	-7044
THI	-7045
cum	-7046
hli	-7047
xhu	-7048
Reha	-7049
hala	-7050
jiwe	-7051
kare	-7052
lama	-7053
pido	-7054
teni	-7055
▁Uno	-7056
Grike	-7057
bhobh	-7058
bhuku	-7059
ekazi	-7060
lwano	-7061
qonde	-7062
selwe	-7063
▁Bayi	-7064
▁baso	-7065
▁kama	-7066
▁liza	-7067
▁nguE	-7068
▁ongo	-7069
▁ukhu	-7070
▁wand	-7071
bongwe	-7072
cedisi	-7073
khephu	-7074
khrasi	-7075
rhuqwa	-7076
thende	-7077
tshang	-7078
xabisa	-7079
▁Konke	-7080
▁ifuna	-7081
▁ivela	-7082
▁ungen	-7083
▁zange	-7084
cothayo	-7085
gwetywa	-7086
hlukene	-7087
iseleyo	-7088
yanzele	-7089
▁eminye	-7090
▁ibingu	-7091
▁sukuba	-7092
▁uIsake	-7093
cotsheni	-7094
ngendawo	-7095
▁candelo	-7096
▁ekufeni	-7097
▁ngomthi	-7098
▁yemihla	-7099
gqibelele	-7100
khululeka	-7101
qwalaselo	-7102
zinzileyo	-7103
▁amagumbi	-7104
▁amaqhina	-7105
▁etsalayo	-7106
▁isigxina	-7107
▁isikhulu	-7108
▁lomhlaba	-7109
▁ukudlula	-7110
▁ukuqhuba	-7111
▁zisoloko	-7112
Khompyutha	-7113
tshabalala	-7114
▁enyangeni	-7115
▁etsalwayo	-7116
▁iingcango	-7117
▁inxalenye	-7118
▁nobubanzi	-7119
▁sikaThixo	-7120
▁ukulawula	-7121
▁zokutsala	-7122
▁kwisakhiwo	-7123
▁wezithuthi	-7124
▁kuxhomekeke	-7125
ongezelelweyo	-7126
tshangatshang	-7127
▁elinesixhenxe	-7128
17	-7129
Ara	-7130
Per	-7131
Tse	-7132
ula	-7133
▁Ji	-7134
▁eM	-7135
▁uT	-7136
caba	-7137
jija	-7138
pham	-7139
tini	-7140
zalo	-7141
▁Uzi	-7142
▁iqa	-7143
bhale	-7144
dlalo	-7145
gqeba	-7146
kethi	-7147
krolo	-7148
londi	-7149
phind	-7150
theka	-7151
yiphu	-7152
▁ekhu	-7153
▁epho	-7154
▁kano	-7155
▁siba	-7156
▁walu	-7157
ekhoyo	-7158
engalo	-7159
phethu	-7160
qumrhu	-7161
unyeni	-7162
xokolo	-7163
xolela	-7164
yinika	-7165
zariya	-7166
zereli	-7167
zisiwe	-7168
▁Kwaba	-7169
▁Yithi	-7170
▁akuni	-7171
▁awaye	-7172
▁elino	-7173
▁entsi	-7174
▁isisi	-7175
▁ndazi	-7176
▁ndoku	-7177
▁yomva	-7178
▁zenza	-7179
Candelo	-7180
dlelane	-7181
intloko	-7182
jongana	-7183
qiniswa	-7184
quthela	-7185
yenzayo	-7186
▁abenzi	-7187
▁ezenza	-7188
▁makabe	-7189
▁uphela	-7190
▁zizaku	-7191
▁zobomi	-7192
Zebhulon	-7193
baluleke	-7194
gqityiwe	-7195
hlawulwa	-7196
onophelo	-7197
thethile	-7198
untswana	-7199
wokuqala	-7200
▁Intloko	-7201
▁Inxenye	-7202
▁Ndabona	-7203
▁bahamba	-7204
▁ekhohlo	-7205
▁imozulu	-7206
▁inkwili	-7207
▁kweyona	-7208
▁mayinga	-7209
▁yokulwa	-7210
▁zinkulu	-7211
onakalisa	-7212
phikisana	-7213
sindileyo	-7214
▁ezibekwe	-7215
▁isakhiwo	-7216
▁phesheya	-7217
▁uYonatan	-7218
▁uqeqesho	-7219
Rhulumente	-7220
lahlekelwa	-7221
phambukele	-7222
xhakaxhaka	-7223
▁amathambo	-7224
▁benqanawe	-7225
▁ezinjenge	-7226
▁izihlwele	-7227
▁namakhulu	-7228
▁ngokokuba	-7229
▁umphantsi	-7230
▁yesixhobo	-7231
▁yokunyusa	-7232
▁yokutyela	-7233
Yehoshafati	-7234
phakamisela	-7235
▁Ekupheleni	-7236
▁engcweleni	-7237
▁imbonakalo	-7238
▁imiqondiso	-7239
▁bentsontelo	-7240
▁empumalanga	-7241
▁engunxantathu	-7242
▁ezingenagwele	-7243
▁nababingeleli	-7244
▁zisetyenziswe	-7245
▁entendelezweni	-7246
12	-7247
DI	-7248
Ger	-7249
HLA	-7250
ISE	-7251
san	-7252
cele	-7253
reki	-7254
tulo	-7255
yili	-7256
zuze	-7257
▁Umn	-7258
▁noM	-7259
Sodom	-7260
amare	-7261
bhola	-7262
bhusi	-7263
chako	-7264
danda	-7265
efodi	-7266
eleko	-7267
gqume	-7268
kishe	-7269
konxa	-7270
rhawu	-7271
thobe	-7272
▁bubi	-7273
▁kaNe	-7274
▁nawa	-7275
▁nese	-7276
▁umbu	-7277
▁yale	-7278
▁yile	-7279
aniswe	-7280
diseni	-7281
fikele	-7282
misele	-7283
shelwe	-7284
shiywa	-7285
thelwe	-7286
tshixi	-7287
tywina	-7288
zukisa	-7289
▁Akuyi	-7290
▁anike	-7291
▁etsha	-7292
▁ijika	-7293
▁kuhla	-7294
▁kwazi	-7295
▁lethu	-7296
▁obomi	-7297
▁usuke	-7298
▁zathi	-7299
Gibheha	-7300
dlulisa	-7301
galelwe	-7302
gqitywe	-7303
kufuphi	-7304
lukwano	-7305
phumayo	-7306
phumele	-7307
▁INkosi	-7308
▁ananye	-7309
▁angene	-7310
▁anzulu	-7311
▁endiku	-7312
▁ezikwi	-7313
▁iphini	-7314
▁nokuzi	-7315
▁unyawo	-7316
▁utsalo	-7317
▁uzinzo	-7318
▁yegama	-7319
Yizereli	-7320
kwandisa	-7321
shenxiso	-7322
tshebele	-7323
ulungile	-7324
xhathisa	-7325
▁eYordan	-7326
▁ezinobu	-7327
▁imbombo	-7328
▁ngelixa	-7329
▁seshumi	-7330
▁zibizwa	-7331
▁akwaYuda	-7332
▁amahashe	-7333
▁amaphiko	-7334
▁amathuba	-7335
▁enokuthi	-7336
▁kolawulo	-7337
▁ngamazwi	-7338
▁ngemasti	-7339
▁ngoncedo	-7340
▁Izikhephe	-7341
▁amadodana	-7342
▁kumaxesha	-7343
▁kwaSamari	-7344
▁lobuchule	-7345
▁lwendlela	-7346
▁namadlelo	-7347
▁neempahla	-7348
▁neminyaka	-7349
▁nomnikelo	-7350
▁nomphathi	-7351
▁ocoliweyo	-7352
▁uthabathe	-7353
semazulwini	-7354
▁Inethwekhi	-7355
▁Ngokunjalo	-7356
▁izihlandlo	-7357
▁lesikhephe	-7358
▁oluPhezulu	-7359
▁uAbhisalom	-7360
▁yokufumana	-7361
▁engumlwelwe	-7362
▁kwentliziyo	-7363
▁nabasebenzi	-7364
▁ngesikhephe	-7365
▁wePalamente	-7366
gunyazisiweyo	-7367
▁ngokuchasene	-7368
▁eliqhelekileyo	-7369
▁ngokulinganayo	-7370
INI	-7371
MSO	-7372
Bhen	-7373
Kora	-7374
baxa	-7375
enzo	-7376
godo	-7377
jaji	-7378
jung	-7379
omba	-7380
qule	-7381
tela	-7382
xulu	-7383
yang	-7384
yule	-7385
zeki	-7386
▁000	-7387
▁Ise	-7388
▁Pro	-7389
▁ala	-7390
▁woo	-7391
▁yeN	-7392
▁yoM	-7393
haswe	-7394
jengo	-7395
kheka	-7396
phuke	-7397
qembu	-7398
xhobe	-7399
xondo	-7400
▁Beku	-7401
▁Ukwa	-7402
▁Wali	-7403
▁adle	-7404
▁ibhe	-7405
▁nela	-7406
▁yeng	-7407
cangca	-7408
linini	-7409
okuthi	-7410
ongeza	-7411
umqulu	-7412
zekayo	-7413
▁Bathe	-7414
▁incam	-7415
▁naman	-7416
▁nkosi	-7417
▁nkulu	-7418
▁osisi	-7419
▁phaya	-7420
▁ubone	-7421
▁umeya	-7422
anjenge	-7423
phucula	-7424
sihlanu	-7425
thobele	-7426
zinyawo	-7427
zonzobi	-7428
▁aphume	-7429
▁bafika	-7430
▁emdeni	-7431
▁igumbi	-7432
▁ingalo	-7433
▁kwakun	-7434
▁ngomso	-7435
▁nonina	-7436
▁umqulu	-7437
▁waqala	-7438
andulula	-7439
kholweni	-7440
khukhuma	-7441
rhwexayo	-7442
shishini	-7443
vunyelwe	-7444
▁Intsika	-7445
▁Iplanga	-7446
▁Isiseko	-7447
▁ibonisa	-7448
▁intente	-7449
▁isibini	-7450
▁kukhona	-7451
▁leNkosi	-7452
▁mthwalo	-7453
▁naluphi	-7454
▁nekhulu	-7455
▁ngakulo	-7456
▁sixhobo	-7457
kulungele	-7458
qwalaseli	-7459
rhintyelo	-7460
▁Ubukhulu	-7461
▁Ukuhamba	-7462
▁emhadini	-7463
▁esibhaka	-7464
▁eyindoda	-7465
▁kwilizwe	-7466
▁njengaba	-7467
▁owenziwe	-7468
▁yokudada	-7469
▁zantlanu	-7470
kungabikho	-7471
▁Imithetho	-7472
▁Iphenyane	-7473
▁amaplanga	-7474
▁amasalela	-7475
▁ingqolowa	-7476
▁inkqubela	-7477
▁kwitshati	-7478
▁neziphumo	-7479
▁wabalindi	-7480
▁zokugcina	-7481
▁behlabathi	-7482
▁ekuphumeni	-7483
▁ezinamandla	-7484
▁ukudibanisa	-7485
▁lwaselwandle	-7486
▁yangaphambili	-7487
▁ingasetyenziswa	-7488
30	-7489
An	-7490
CD	-7491
hin	-7492
uke	-7493
wom	-7494
Gidi	-7495
Gili	-7496
bayo	-7497
cuku	-7498
haka	-7499
henj	-7500
mehi	-7501
shon	-7502
wazi	-7503
zali	-7504
▁ima	-7505
▁noI	-7506
dyiki	-7507
futhe	-7508
hlele	-7509
sundu	-7510
washe	-7511
▁isis	-7512
▁kuze	-7513
▁lolu	-7514
▁noHa	-7515
▁zezo	-7516
Herode	-7517
aniswa	-7518
antoni	-7519
bizela	-7520
hlango	-7521
isanga	-7522
ntwini	-7523
qubana	-7524
thozam	-7525
topido	-7526
xhaswa	-7527
yileyo	-7528
▁Wandi	-7529
▁Zazin	-7530
▁badla	-7531
▁okwen	-7532
▁sanga	-7533
▁uhadi	-7534
▁yangu	-7535
bhanile	-7536
qhubeli	-7537
qhumiso	-7538
vuthuza	-7539
zenzayo	-7540
zimbeni	-7541
▁Wafika	-7542
▁abathe	-7543
▁elithe	-7544
▁esenza	-7545
▁esihla	-7546
▁kulowo	-7547
▁ndenze	-7548
▁uhlale	-7549
▁uphume	-7550
▁wabiza	-7551
▁zezona	-7552
bhinethi	-7553
fuziselo	-7554
thengiso	-7555
tsalelwa	-7556
xhotyiso	-7557
xulumano	-7558
yamezela	-7559
▁Wahamba	-7560
▁elinama	-7561
▁iplanga	-7562
▁kuhlobo	-7563
▁kwakuba	-7564
▁lendawo	-7565
▁lixesha	-7566
▁nelizwe	-7567
▁ukususa	-7568
▁umkakhe	-7569
citshiswa	-7570
henyukazi	-7571
hlangothi	-7572
zonwabisa	-7573
▁INQANAWA	-7574
▁ekuthini	-7575
▁emazweni	-7576
▁ezindala	-7577
▁imikhosi	-7578
▁inkazana	-7579
▁isijwili	-7580
▁kuSawule	-7581
▁weseyile	-7582
qengqeleka	-7583
thatyathwa	-7584
▁Nakanjani	-7585
▁Umqondiso	-7586
▁bakaThixo	-7587
▁kubukhulu	-7588
▁kubunzima	-7589
▁leminyaka	-7590
▁naphakade	-7591
▁ndithethe	-7592
▁ngeenyawo	-7593
▁umsondezo	-7594
▁womthwalo	-7595
▁zikaThixo	-7596
camagushele	-7597
▁anobukroti	-7598
▁kubakhonzi	-7599
▁kukaYehova	-7600
linganiselwe	-7601
sebenziswano	-7602
▁eyomeleleyo	-7603
▁kwemithwalo	-7604
lungelelanisa	-7605
▁nangaphandle	-7606
▁nangaphantsi	-7607
▁olulungileyo	-7608
▁bakaBhenjamin	-7609
▁zokubophelela	-7610
mu	-7611
HLU	-7612
ULU	-7613
efa	-7614
▁eL	-7615
Mera	-7616
Rama	-7617
beng	-7618
cibi	-7619
fuma	-7620
goca	-7621
godi	-7622
laki	-7623
qelo	-7624
seng	-7625
yiya	-7626
zizi	-7627
▁Ani	-7628
▁IZI	-7629
▁ila	-7630
▁uSe	-7631
bodwa	-7632
funxa	-7633
gqiqo	-7634
krozo	-7635
lenza	-7636
qanyu	-7637
quphe	-7638
shuku	-7639
stiki	-7640
tshun	-7641
xelwa	-7642
yandi	-7643
▁Ubun	-7644
▁Undi	-7645
▁Vuka	-7646
▁Wafa	-7647
▁baze	-7648
Kesare	-7649
Rakeli	-7650
iswano	-7651
lelana	-7652
qhosha	-7653
thimba	-7654
yisayo	-7655
▁Kwezi	-7656
▁Ngawo	-7657
▁asiyi	-7658
▁iwaka	-7659
▁mbini	-7660
▁ndayi	-7661
cingela	-7662
fundise	-7663
mahashe	-7664
ncinane	-7665
sindise	-7666
veliswa	-7667
wuphina	-7668
zelweni	-7669
zibuthe	-7670
▁abathi	-7671
▁esinom	-7672
▁ezinge	-7673
▁kubona	-7674
▁kwiing	-7675
▁ngokum	-7676
▁ntombi	-7677
▁ongena	-7678
▁ooyise	-7679
▁sezulu	-7680
andulela	-7681
bonileyo	-7682
buntlola	-7683
engqondo	-7684
guquguqu	-7685
hlanjeni	-7686
hlawumbi	-7687
hlwayela	-7688
mazibulo	-7689
qiniseka	-7690
yanzelwa	-7691
zimeleyo	-7692
▁Ibhombu	-7693
▁amasebe	-7694
▁baphuma	-7695
▁bendawo	-7696
▁iintaba	-7697
▁injongo	-7698
▁ngokwem	-7699
▁ukumisa	-7700
▁umnquba	-7701
▁uyabona	-7702
▁yokunga	-7703
▁zocingo	-7704
sendlwini	-7705
thanjiswa	-7706
tyibiliko	-7707
▁Sirayeli	-7708
▁alithoba	-7709
▁kuKristu	-7710
▁kumhlaba	-7711
▁okuninzi	-7712
▁sesangqa	-7713
▁wamandla	-7714
▁yendlela	-7715
▁yinqambi	-7716
hlangabeza	-7717
thatyathwe	-7718
▁Ekuqaleni	-7719
▁amazibulo	-7720
▁eenqanawa	-7721
▁ikhuselwe	-7722
▁kumzantsi	-7723
▁kwimfazwe	-7724
▁kwinxenye	-7725
▁ngamawaka	-7726
▁wokungena	-7727
▁zezixhobo	-7728
khitshaneni	-7729
▁aselwandle	-7730
▁kumqondiso	-7731
▁nemimiselo	-7732
▁sasekhohlo	-7733
▁uMongameli	-7734
▁emasangweni	-7735
▁kwenjenjalo	-7736
▁lwezithuthi	-7737
▁ngasezantsi	-7738
▁oqingqiweyo	-7739
▁ukujikeleza	-7740
canyathiselwe	-7741
▁kusetyenziswe	-7742
187	-7743
▁mp	-7744
Lung	-7745
WENI	-7746
bola	-7747
ceke	-7748
dlam	-7749
leze	-7750
lowa	-7751
sizi	-7752
vani	-7753
ziba	-7754
▁EZI	-7755
▁Phu	-7756
cotha	-7757
fatyi	-7758
funwa	-7759
gqabi	-7760
gxowa	-7761
mpilo	-7762
oniya	-7763
qindi	-7764
qweno	-7765
wundi	-7766
xeshi	-7767
yilwa	-7768
yonke	-7769
▁ange	-7770
▁bema	-7771
▁ikha	-7772
▁neku	-7773
▁ngel	-7774
▁niku	-7775
▁zize	-7776
bhunga	-7777
dongwe	-7778
jengom	-7779
kumisa	-7780
lungel	-7781
photho	-7782
takane	-7783
thongo	-7784
▁abena	-7785
▁badle	-7786
▁inama	-7787
▁kunom	-7788
▁ngesa	-7789
▁ziben	-7790
Yebhusi	-7791
bandela	-7792
bangaba	-7793
bongoza	-7794
cochoyi	-7795
entetho	-7796
philise	-7797
yenziwe	-7798
zingcwa	-7799
▁Wavuka	-7800
▁angena	-7801
▁eZiyon	-7802
▁imvula	-7803
▁komntu	-7804
▁kuvela	-7805
▁lobomi	-7806
▁nemini	-7807
▁onzima	-7808
▁umbono	-7809
▁yoxolo	-7810
Gibheyon	-7811
dyikitya	-7812
komkhulu	-7813
lawulayo	-7814
thandela	-7815
tsheyini	-7816
▁Iseyile	-7817
▁belingu	-7818
▁ekumisa	-7819
▁ezingen	-7820
▁iindidi	-7821
▁inkonzo	-7822
▁isicelo	-7823
▁kukudla	-7824
▁kunyuka	-7825
▁kwinani	-7826
▁ngokuzi	-7827
▁singaba	-7828
▁yexesha	-7829
▁zininzi	-7830
mbekileyo	-7831
▁kwangoku	-7832
▁neendawo	-7833
▁umhlambi	-7834
▁waqubuda	-7835
▁zigcinwe	-7836
Rehabheham	-7837
▁Wathumela	-7838
▁emisiweyo	-7839
▁kubunzulu	-7840
▁neentambo	-7841
▁ngokutsha	-7842
▁oluncinci	-7843
hlanganiswe	-7844
▁Imisebenzi	-7845
▁Umphefumlo	-7846
▁ekuhambeni	-7847
▁ezinyaweni	-7848
▁kumazantsi	-7849
▁sasekunene	-7850
▁yabaphathi	-7851
▁ukufikelela	-7852
▁akufunekanga	-7853
▁kwirhintyela	-7854
▁okusesikweni	-7855
▁wamaSirayeli	-7856
hlambulukileyo	-7857
3,	-7858
ZA	-7859
Ana	-7860
BCD	-7861
THA	-7862
lel	-7863
ond	-7864
▁16	-7865
▁IS	-7866
▁iM	-7867
DAWO	-7868
DMSO	-7869
YILE	-7870
fusa	-7871
jeni	-7872
khen	-7873
sazi	-7874
stra	-7875
thon	-7876
xham	-7877
xine	-7878
yizi	-7879
zany	-7880
▁Aya	-7881
▁Ham	-7882
▁ekw	-7883
▁eva	-7884
▁iyo	-7885
▁ulo	-7886
elina	-7887
hanan	-7888
hloko	-7889
jijwa	-7890
phani	-7891
plati	-7892
qwini	-7893
sekho	-7894
xungu	-7895
yambo	-7896
▁Anga	-7897
▁Beza	-7898
▁Okwe	-7899
▁anda	-7900
▁bebu	-7901
▁eyam	-7902
▁lako	-7903
▁okwi	-7904
▁olum	-7905
▁usen	-7906
Ahabhi	-7907
Kehati	-7908
anyeni	-7909
camath	-7910
cebisa	-7911
dubuli	-7912
gqogqa	-7913
ingalo	-7914
khuphi	-7915
libala	-7916
phapha	-7917
phindo	-7918
qinile	-7919
thingi	-7920
tilini	-7921
unyana	-7922
▁asuka	-7923
▁elini	-7924
▁ezize	-7925
▁kuhle	-7926
▁kwang	-7927
▁ndisi	-7928
▁nenze	-7929
▁omane	-7930
▁yeent	-7931
botshwe	-7932
qulathe	-7933
tyunjwe	-7934
▁Amehlo	-7935
▁ekutsa	-7936
▁ezenze	-7937
▁kwange	-7938
▁ncwadi	-7939
▁nomgca	-7940
▁owenza	-7941
▁yokuzi	-7942
cinezela	-7943
macaleni	-7944
qalekeni	-7945
thangeni	-7946
tshitshi	-7947
▁Hambani	-7948
▁Kwafika	-7949
▁Phantsi	-7950
▁ephambi	-7951
▁izibuko	-7952
▁kunyaka	-7953
▁sizathu	-7954
▁unxweme	-7955
buyiselwa	-7956
entliziyo	-7957
phathiswa	-7958
phumelele	-7959
qhubekayo	-7960
shumayela	-7961
▁Inqanawe	-7962
▁Khumbula	-7963
▁Kwakukho	-7964
▁eluhlaza	-7965
▁enkosini	-7966
▁enqanawe	-7967
▁eyenziwa	-7968
▁izibonda	-7969
▁kwamehlo	-7970
▁lwenziwe	-7971
▁nokwenza	-7972
▁ubuninzi	-7973
▁umyalezo	-7974
▁weenyawo	-7975
▁yenzelwe	-7976
▁yesandla	-7977
demokhrasi	-7978
▁Kulungile	-7979
▁amaxabiso	-7980
▁kweenyawo	-7981
▁mgangatho	-7982
▁ngokokude	-7983
▁nokuhamba	-7984
▁sentsimbi	-7985
▁zifakelwe	-7986
Khabhinethi	-7987
bonakaliswa	-7988
▁Ngaphantsi	-7989
▁eziqhutywa	-7990
▁ezisibhozo	-7991
▁kweminquba	-7992
▁ngokukodwa	-7993
▁ngokwesiko	-7994
▁yesinyithi	-7995
▁yintliziyo	-7996
▁awakwenzayo	-7997
▁elisezantsi	-7998
▁ezinesantya	-7999
▁kwehlabathi	-8000
▁bethabathela	-8001
▁enqatyisiweyo	-8002
▁kwicandelwana	-8003
▁njengenqanawa	-8004
▁kwisikhitshane	-8005
Al	-8006
VA	-8007
rn	-8008
''.	-8009
ESI	-8010
gib	-8011
mka	-8012
ngo	-8013
zpa	-8014
▁15	-8015
fela	-8016
fera	-8017
lipu	-8018
mipu	-8019
mpon	-8020
unzi	-8021
wile	-8022
yebo	-8023
▁IIN	-8024
▁Ulu	-8025
▁epa	-8026
▁nis	-8027
amson	-8028
butha	-8029
deshe	-8030
hlana	-8031
inayi	-8032
kamva	-8033
khele	-8034
lwand	-8035
mbeni	-8036
qanwa	-8037
yelen	-8038
▁eyan	-8039
▁sazo	-8040
▁zibu	-8041
Kiriya	-8042
bhinqo	-8043
cutshe	-8044
hliswe	-8045
kedama	-8046
leleni	-8047
thelwa	-8048
yalela	-8049
yaleli	-8050
▁Khani	-8051
▁Thina	-8052
▁awaba	-8053
▁endle	-8054
▁esong	-8055
▁ilifu	-8056
▁inobu	-8057
▁ndine	-8058
▁ubume	-8059
▁zenze	-8060
Isakare	-8061
bulumko	-8062
cediswa	-8063
enjenje	-8064
henjisi	-8065
krazula	-8066
phumile	-8067
qaqambi	-8068
qhwithi	-8069
qondisi	-8070
qononon	-8071
qwenela	-8072
thotywa	-8073
thumayo	-8074
tshutsh	-8075
yaniswa	-8076
yanzela	-8077
▁Iqhina	-8078
▁angaba	-8079
▁ebanzi	-8080
▁enjalo	-8081
▁ikwazi	-8082
▁inzima	-8083
▁iphume	-8084
▁itrone	-8085
▁kudala	-8086
▁nemizi	-8087
Shedyuli	-8088
bhabhayo	-8089
hlalutyo	-8090
jelokazi	-8091
sikelele	-8092
thathaka	-8093
zulwanga	-8094
▁Baphuma	-8095
▁babenga	-8096
▁bekukho	-8097
▁ezisuka	-8098
▁iimfuno	-8099
▁ngcwele	-8100
▁ugqatso	-8101
▁ukufika	-8102
▁ukuqala	-8103
▁yomlomo	-8104
▁zezinto	-8105
gubungele	-8106
hlakeleyo	-8107
qhelanisa	-8108
tshuntshe	-8109
▁buhlungu	-8110
▁esiphezu	-8111
▁imicimbi	-8112
▁lokwenza	-8113
▁lolawulo	-8114
▁nangapha	-8115
▁ngethuba	-8116
▁zozibini	-8117
fumanekayo	-8118
kelekileyo	-8119
sasaziweyo	-8120
▁Kungokuba	-8121
▁asekhohlo	-8122
▁ebandleni	-8123
▁imiyalelo	-8124
▁isaphetha	-8125
▁isihlenga	-8126
▁kumakhulu	-8127
▁kwiseyile	-8128
▁nomthwalo	-8129
▁ukukhupha	-8130
▁umkhuluwa	-8131
▁zokhuselo	-8132
yokugqibela	-8133
▁elandelayo	-8134
▁esebenzayo	-8135
▁ezilikhulu	-8136
▁ngokungena	-8137
▁yokutshona	-8138
▁kubazalwana	-8139
▁elilungileyo	-8140
▁entolongweni	-8141
▁imibingelelo	-8142
▁ngokwezindlu	-8143
▁kwimigangatho	-8144
▁komlinganiselo	-8145
▁ngokusingisele	-8146
▁oluqhelekileyo	-8147
▁esibhakabhakeni	-8148
ul	-8149
1/2	-8150
ELE	-8151
ILI	-8152
cos	-8153
den	-8154
ngc	-8155
per	-8156
xus	-8157
▁ig	-8158
▁uO	-8159
ambe	-8160
dayo	-8161
dibi	-8162
enan	-8163
gubu	-8164
lifa	-8165
lwam	-8166
miyo	-8167
piki	-8168
velo	-8169
xini	-8170
▁199	-8171
▁Nje	-8172
▁Uko	-8173
▁awe	-8174
▁eve	-8175
▁kaM	-8176
▁lim	-8177
eleka	-8178
frige	-8179
hlisi	-8180
phuli	-8181
sikwa	-8182
yamba	-8183
zodwa	-8184
▁Akun	-8185
▁Aman	-8186
▁izim	-8187
▁kumn	-8188
▁laso	-8189
▁luza	-8190
▁neyo	-8191
▁nisi	-8192
▁noMe	-8193
▁weli	-8194
▁yeyo	-8195
▁yeze	-8196
Sixeko	-8197
Tsidon	-8198
bethwa	-8199
dinike	-8200
hlenge	-8201
qabisa	-8202
quqela	-8203
sabela	-8204
velise	-8205
xitywa	-8206
▁Owona	-8207
▁Zinga	-8208
▁eyoku	-8209
▁ezilu	-8210
▁kokun	-8211
▁kwade	-8212
▁ndise	-8213
▁ngakw	-8214
▁owona	-8215
▁ubuye	-8216
bukhali	-8217
gaqweni	-8218
layishi	-8219
qhayiya	-8220
reyithi	-8221
▁Ndinga	-8222
▁Wabona	-8223
▁ihlale	-8224
▁ikhona	-8225
▁intaba	-8226
▁isango	-8227
▁isithi	-8228
▁kuyise	-8229
▁lendlu	-8230
▁lwethu	-8231
▁nabani	-8232
▁ndingo	-8233
▁nomntu	-8234
▁oluthe	-8235
▁uEsawu	-8236
▁umnini	-8237
▁ungayi	-8238
▁ungene	-8239
▁zazing	-8240
Masipala	-8241
ikubhite	-8242
phayiphu	-8243
▁Amagama	-8244
▁Inqwelo	-8245
▁komGaqo	-8246
▁lolwazi	-8247
▁lomGaqo	-8248
▁myalelo	-8249
▁ndingum	-8250
▁ningaba	-8251
▁oshushu	-8252
▁sihamba	-8253
▁umbhali	-8254
▁yeetoni	-8255
▁zazinga	-8256
▁zendawo	-8257
▁zixhobo	-8258
camagusha	-8259
khukulisi	-8260
mazulwini	-8261
phakamisi	-8262
quzulwano	-8263
tarhuzisa	-8264
▁Isithuba	-8265
▁Koonyana	-8266
▁esizweni	-8267
▁iindlebe	-8268
▁ilungele	-8269
▁izizathu	-8270
▁kwidekhi	-8271
▁lwezinto	-8272
▁naphambi	-8273
▁ngamazwe	-8274
▁yesantya	-8275
▁yorhwebo	-8276
lengalenga	-8277
reyithingi	-8278
tshabalale	-8279
▁afunekayo	-8280
▁kangcwele	-8281
▁kumbhobho	-8282
▁kungokuba	-8283
▁lwesantya	-8284
▁ngokwenza	-8285
▁omncinane	-8286
▁yemicimbi	-8287
fanelekanga	-8288
fihlakeleyo	-8289
qungquthela	-8290
thozamisayo	-8291
▁Intsontela	-8292
▁izithunywa	-8293
▁kubonakala	-8294
▁kwamalungu	-8295
▁kwesixhobo	-8296
▁ngemisonto	-8297
▁ngesixhobo	-8298
▁ngobuchule	-8299
▁zomsebenzi	-8300
▁ngumsebenzi	-8301
▁nokusebenza	-8302
▁olufutshane	-8303
▁ukubonakala	-8304
▁kuthabathela	-8305
▁yakwaSirayeli	-8306
▁ekhululekileyo	-8307
▁ezifanelekileyo	-8308
DE	-8309
ISI	-8310
Tar	-8311
Vic	-8312
asi	-8313
gwa	-8314
kop	-8315
mri	-8316
ven	-8317
▁id	-8318
Hama	-8319
lalo	-8320
lazi	-8321
liba	-8322
yulu	-8323
▁ida	-8324
▁iji	-8325
atmos	-8326
bandi	-8327
bhena	-8328
bizwe	-8329
cinge	-8330
kwabo	-8331
qonge	-8332
rhole	-8333
rophu	-8334
sapho	-8335
shini	-8336
tsiya	-8337
xinga	-8338
xwele	-8339
▁Liya	-8340
▁Wawu	-8341
▁awam	-8342
▁bano	-8343
▁beba	-8344
▁been	-8345
▁empa	-8346
▁enza	-8347
▁ezon	-8348
▁inko	-8349
▁ishi	-8350
▁liye	-8351
▁nabu	-8352
▁nowe	-8353
▁udle	-8354
▁yaza	-8355
Hamati	-8356
Petros	-8357
banike	-8358
inatha	-8359
lekele	-8360
linika	-8361
lwando	-8362
qubude	-8363
sayizi	-8364
veleli	-8365
yiseli	-8366
zantya	-8367
zimisa	-8368
▁Wehla	-8369
▁awali	-8370
▁lithi	-8371
▁lwezo	-8372
▁ndawa	-8373
▁ndisa	-8374
▁sinye	-8375
▁uvela	-8376
▁zodwa	-8377
Amaleki	-8378
Bheteli	-8379
Gidiyon	-8380
Ntshona	-8381
ananiya	-8382
hlekazi	-8383
hlukile	-8384
thokazi	-8385
tyhilwa	-8386
xelelwa	-8387
▁Njenge	-8388
▁Uluhlu	-8389
▁Yizani	-8390
▁ahamba	-8391
▁amdaka	-8392
▁bevela	-8393
▁ithole	-8394
▁lewaka	-8395
▁neento	-8396
▁ngobun	-8397
▁okunye	-8398
▁ukanti	-8399
▁umfana	-8400
cinezelo	-8401
faneleyo	-8402
khanyela	-8403
lekileyo	-8404
phengulu	-8405
thethela	-8406
xeshanye	-8407
▁UYosefu	-8408
▁ibhatyi	-8409
▁indlala	-8410
▁iphinde	-8411
▁isenoku	-8412
▁kumqadi	-8413
▁labantu	-8414
▁leshumi	-8415
▁nantoni	-8416
▁nasiphi	-8417
▁ningabi	-8418
▁yayinga	-8419
▁zangoku	-8420
▁zibekwa	-8421
hambelayo	-8422
khuseleka	-8423
tyebileyo	-8424
▁bathetha	-8425
▁bomkhosi	-8426
▁iNdibano	-8427
▁iingxaki	-8428
▁iziqhubi	-8429
▁kaKristu	-8430
▁kumaYuda	-8431
▁kurhwebo	-8432
▁kwelizwe	-8433
▁namasiko	-8434
▁ngabanye	-8435
▁ngamehlo	-8436
▁nomsinga	-8437
▁yenkqubo	-8438
▁Eyokuqala	-8439
▁Mhlawumbi	-8440
▁ikhampasi	-8441
▁kwesantya	-8442
▁kwinqwelo	-8443
▁kwisandla	-8444
▁lakwaYuda	-8445
▁nesixhobo	-8446
▁ukubaleka	-8447
▁ukususela	-8448
▁zokunyusa	-8449
▁abalishumi	-8450
▁amacandelo	-8451
▁anesithoba	-8452
▁enamaphiko	-8453
▁ephilileyo	-8454
▁kuYeremiya	-8455
▁okwesibini	-8456
▁umphakathi	-8457
▁zikaYehova	-8458
▁lwehlabathi	-8459
▁ngomsebenzi	-8460
▁ongaphezulu	-8461
▁wokugqibela	-8462
▁zokusebenza	-8463
onomathotholo	-8464
▁isikhitshana	-8465
semgangathweni	-8466
▁omlinganiselo	-8467
▁elithozamisayo	-8468
▁ngokulungileyo	-8469
Am	-8470
tl	-8471
gan	-8472
lle	-8473
rin	-8474
▁(4	-8475
▁17	-8476
▁mo	-8477
▁ol	-8478
HAMB	-8479
basi	-8480
bika	-8481
cali	-8482
fuba	-8483
lila	-8484
papa	-8485
siki	-8486
wudi	-8487
xobo	-8488
▁Iim	-8489
▁Nom	-8490
▁Uyi	-8491
▁pho	-8492
▁umi	-8493
▁waw	-8494
ILEYO	-8495
cambu	-8496
enaya	-8497
hloni	-8498
kunje	-8499
kwana	-8500
kwant	-8501
mbeko	-8502
mkela	-8503
qumbo	-8504
sisin	-8505
thule	-8506
tyani	-8507
xhebo	-8508
zungu	-8509
▁Baza	-8510
▁Kulo	-8511
▁Uphi	-8512
▁ibin	-8513
▁leku	-8514
▁nayi	-8515
▁uhle	-8516
▁ween	-8517
▁zeza	-8518
andise	-8519
cikivo	-8520
funayo	-8521
galela	-8522
langan	-8523
liseni	-8524
tyhila	-8525
▁Akayi	-8526
▁Isiqu	-8527
▁Ngama	-8528
▁Ngesi	-8529
▁abuye	-8530
▁angam	-8531
▁ingan	-8532
▁komva	-8533
▁laloo	-8534
▁ndina	-8535
▁nenza	-8536
▁nidle	-8537
▁ubuze	-8538
▁zikwa	-8539
congolo	-8540
entsuku	-8541
gcineni	-8542
jingayo	-8543
kunyusa	-8544
lelweni	-8545
lungela	-8546
phathwe	-8547
qhayisa	-8548
▁ibekwa	-8549
▁ijonge	-8550
▁kumaza	-8551
▁mayela	-8552
▁mkhosi	-8553
▁mnyama	-8554
▁uthuli	-8555
Giligali	-8556
cetyiswa	-8557
dluliswa	-8558
enikweni	-8559
kululeko	-8560
sekhohlo	-8561
zokuqala	-8562
▁Iimpawu	-8563
▁Isandla	-8564
▁esinesi	-8565
▁ezilula	-8566
▁ezinezi	-8567
▁iBhunga	-8568
▁inokuba	-8569
▁kaMoses	-8570
▁lombane	-8571
▁nakwizi	-8572
▁nangama	-8573
▁nomgama	-8574
▁nonyana	-8575
▁omnyama	-8576
▁senziwe	-8577
▁umbindi	-8578
▁umnatha	-8579
▁umthamo	-8580
▁wayenza	-8581
▁yohambo	-8582
▁zihamba	-8583
▁zizinto	-8584
bandulula	-8585
bhalwanga	-8586
khuseleni	-8587
lungiseni	-8588
platifomu	-8589
zonzobila	-8590
▁Kwelinye	-8591
▁Umlawuli	-8592
▁amasango	-8593
▁amaxhoba	-8594
▁ekuhlala	-8595
▁iintente	-8596
▁imfaniso	-8597
▁kwesango	-8598
▁nokuzala	-8599
▁ummiselo	-8600
▁uvavanyo	-8601
▁zokulala	-8602
frigeyithi	-8603
▁Umatshini	-8604
▁asezantsi	-8605
▁eliphethe	-8606
▁engasemva	-8607
▁kominyaka	-8608
▁kubafundi	-8609
▁lentsimbi	-8610
▁misebenzi	-8611
▁ngoonyana	-8612
▁uAbhinere	-8613
▁yemfaniso	-8614
▁zinqanawa	-8615
▁bakaYehova	-8616
▁elijongene	-8617
▁komsebenzi	-8618
▁kwilahleko	-8619
▁kwisibonda	-8620
▁olandelayo	-8621
▁esiphakathi	-8622
▁kulandelayo	-8623
▁neYerusalem	-8624
▁oluphakathi	-8625
▁zomgangatho	-8626
▁esilungileyo	-8627
▁ngempumelelo	-8628
▁yaseGiliyadi	-8629
▁nobungakanani	-8630
▁ukulungiselela	-8631
-18	-8632
con	-8633
hum	-8634
non	-8635
▁13	-8636
belu	-8637
bizo	-8638
caca	-8639
ongi	-8640
shta	-8641
siwa	-8642
xila	-8643
xina	-8644
▁KWE	-8645
▁Uba	-8646
▁koM	-8647
Persi	-8648
Uriya	-8649
bende	-8650
cipha	-8651
copho	-8652
danya	-8653
hluke	-8654
hluli	-8655
komfa	-8656
miswa	-8657
qwele	-8658
rensi	-8659
tyiwa	-8660
vezwa	-8661
yinto	-8662
▁Unyu	-8663
▁Yiza	-8664
▁bada	-8665
▁balu	-8666
▁bane	-8667
▁eman	-8668
▁izis	-8669
▁lulu	-8670
▁noNa	-8671
▁noma	-8672
▁size	-8673
▁udla	-8674
▁zino	-8675
Merari	-8676
Zantsi	-8677
belana	-8678
bizele	-8679
cukuce	-8680
elwimi	-8681
inyawo	-8682
shbhon	-8683
thunga	-8684
xakini	-8685
xinano	-8686
▁Inoku	-8687
▁Nanku	-8688
▁aluna	-8689
▁emipu	-8690
▁igesi	-8691
▁ilixa	-8692
▁inesi	-8693
▁kwiza	-8694
▁lomzi	-8695
▁lween	-8696
▁uyolo	-8697
▁zinom	-8698
Bhenaya	-8699
camango	-8700
entonga	-8701
hleliyo	-8702
intambo	-8703
kezelwe	-8704
khubeka	-8705
kwenkwe	-8706
lanjana	-8707
lelweyo	-8708
phelile	-8709
phukayo	-8710
propati	-8711
thulini	-8712
tropiki	-8713
vavanya	-8714
zelelwa	-8715
▁Ibhodi	-8716
▁Provin	-8717
▁Uphawu	-8718
▁eyathi	-8719
▁imehlo	-8720
▁kaYuda	-8721
▁kusuka	-8722
▁ohamba	-8723
▁okulwa	-8724
▁watsho	-8725
▁yokung	-8726
dibanise	-8727
khombisi	-8728
khuthaza	-8729
plastiki	-8730
▁egazini	-8731
▁ezitsha	-8732
▁iziseko	-8733
▁letyala	-8734
▁lwesiqu	-8735
▁nasemva	-8736
▁ndiyazi	-8737
▁uPilato	-8738
hlanganis	-8739
phulukana	-8740
phumeleli	-8741
zinqanawa	-8742
▁Icandelo	-8743
▁Iindlela	-8744
▁USolomon	-8745
▁Yinkqubo	-8746
▁aneshumi	-8747
▁egumbini	-8748
▁emalunga	-8749
▁iinjongo	-8750
▁ilahleko	-8751
▁izikhulu	-8752
▁kumsinga	-8753
▁ngalunye	-8754
▁ngelizwi	-8755
▁ngokwabo	-8756
▁ubungozi	-8757
▁ukuphela	-8758
▁ukuxhasa	-8759
▁wamaYuda	-8760
gqithileyo	-8761
jikelezisa	-8762
khapteyini	-8763
phekepheke	-8764
▁ezithathu	-8765
▁iintsimbi	-8766
▁kumalungu	-8767
▁kumthwalo	-8768
▁sokumkani	-8769
▁wentsimbi	-8770
▁yokuqhuba	-8771
▁zenqanawe	-8772
bandakanywa	-8773
▁UMongameli	-8774
▁alandelayo	-8775
▁ezisebenza	-8776
▁imizalwane	-8777
▁lwezixhobo	-8778
▁naphakathi	-8779
▁nehlabathi	-8780
▁nemiyalelo	-8781
▁ngelixesha	-8782
▁ngesabatha	-8783
▁ngobuninzi	-8784
▁nookumkani	-8785
▁umthandazo	-8786
▁wenjenjalo	-8787
▁yesikhungu	-8788
▁yokuphatha	-8789
▁zokuphatha	-8790
hlanganisana	-8791
kcenkceshela	-8792
▁ekufutshane	-8793
▁engaphezulu	-8794
▁kwakungekho	-8795
▁ngasekhohlo	-8796
▁Isikhitshane	-8797
▁emithandathu	-8798
▁karhulumente	-8799
▁ngokwemigaqo	-8800
▁ingunaphakade	-8801
▁ngeKhompyutha	-8802
MC	-8803
ZO	-8804
``	-8805
as	-8806
dw	-8807
yn	-8808
ava	-8809
▁14	-8810
▁eT	-8811
▁ft	-8812
Lote	-8813
dane	-8814
daya	-8815
diza	-8816
etse	-8817
feta	-8818
galo	-8819
gudu	-8820
kung	-8821
lolo	-8822
seya	-8823
weva	-8824
xeli	-8825
▁INT	-8826
▁eKa	-8827
▁ses	-8828
▁yoo	-8829
Shilo	-8830
anise	-8831
belwe	-8832
ciphe	-8833
dalwa	-8834
kheli	-8835
kwayo	-8836
mlilo	-8837
phene	-8838
rhuqo	-8839
▁Baba	-8840
▁Bazi	-8841
▁Ibha	-8842
▁Izin	-8843
▁koba	-8844
▁ukon	-8845
▁yawa	-8846
▁yeya	-8847
▁yeye	-8848
Ashere	-8849
SEYILE	-8850
Sehire	-8851
Sinayi	-8852
baleke	-8853
bhenge	-8854
bulisa	-8855
giyari	-8856
gungxu	-8857
hlambo	-8858
ininzi	-8859
kisele	-8860
kwanga	-8861
kwehla	-8862
liseka	-8863
phonon	-8864
phungu	-8865
rhweni	-8866
riyeli	-8867
tshone	-8868
tyholi	-8869
xolele	-8870
xwebhu	-8871
yeneyo	-8872
zukise	-8873
▁Hleze	-8874
▁Nding	-8875
▁abant	-8876
▁awuna	-8877
▁ayiyi	-8878
▁elele	-8879
▁eside	-8880
▁esiyi	-8881
▁nakho	-8882
▁neoli	-8883
▁nguma	-8884
▁ovela	-8885
▁usiya	-8886
bhekise	-8887
caciswe	-8888
eleleni	-8889
kathazo	-8890
mbekile	-8891
▁Ehleli	-8892
▁Ulwimi	-8893
▁enyawo	-8894
▁ihleli	-8895
▁indebe	-8896
▁indima	-8897
▁ingene	-8898
▁kobuso	-8899
▁kunesi	-8900
▁mhlaba	-8901
▁nezing	-8902
▁uSimon	-8903
▁ugcine	-8904
▁uthile	-8905
bonakali	-8906
colileyo	-8907
kanyamba	-8908
landelwe	-8909
layishwe	-8910
peyintwe	-8911
sekunene	-8912
vakalayo	-8913
yinikela	-8914
zinikela	-8915
▁Amacala	-8916
▁Iindawo	-8917
▁akasayi	-8918
▁ambalwa	-8919
▁bahlale	-8920
▁ebomini	-8921
▁ekumele	-8922
▁esitsha	-8923
▁iyakuba	-8924
▁kuyenza	-8925
▁kwanaba	-8926
▁lukhulu	-8927
▁ngamaza	-8928
▁nolwazi	-8929
▁osukuba	-8930
▁sisithi	-8931
▁ubuxoki	-8932
▁ukuzala	-8933
▁wangcwa	-8934
▁wezinto	-8935
▁yenkomo	-8936
▁zezimvu	-8937
dityaniso	-8938
▁Khangela	-8939
▁asebenza	-8940
▁ekulweni	-8941
▁elinanye	-8942
▁esihlisa	-8943
▁isizathu	-8944
▁izithixo	-8945
▁izithuba	-8946
▁kaYosefu	-8947
▁kwanjeng	-8948
▁kwezizwe	-8949
▁msinyane	-8950
▁ngumlilo	-8951
▁noYakobi	-8952
▁obandayo	-8953
▁oluninzi	-8954
▁semfazwe	-8955
▁umbhobho	-8956
anzulwanga	-8957
khethiweyo	-8958
tshabalalo	-8959
▁abafileyo	-8960
▁ecacileyo	-8961
▁engundoqo	-8962
▁kwenyanga	-8963
▁lobugcisa	-8964
▁lwesibini	-8965
▁nobukhulu	-8966
▁nokunyusa	-8967
▁solwandle	-8968
▁wambulala	-8969
yantlukwano	-8970
▁Abasebenzi	-8971
▁Makabongwe	-8972
▁elingaveli	-8973
▁izikhuseli	-8974
▁kwamashumi	-8975
▁kwiintambo	-8976
▁kwingingqi	-8977
▁ngeentambo	-8978
▁omfutshane	-8979
▁seenqanawa	-8980
▁yasekunene	-8981
▁yesithathu	-8982
tshintshelwa	-8983
▁ejikelezayo	-8984
▁kwizithuthi	-8985
▁wamthabatha	-8986
lindelekileyo	-8987
▁ekukhuseleni	-8988
▁ongaphambili	-8989
▁oqhelekileyo	-8990
▁umthendeleko	-8991
▁amakhamandela	-8992
▁kwelabafileyo	-8993
▁ngentlawulelo	-8994
▁ngokwesiqhelo	-8995
▁zangaphambili	-8996
BI	-8997
Lu	-8998
QH	-8999
TY	-9000
nu	-9001
ol	-9002
▁“	-9003
-10	-9004
ENT	-9005
THE	-9006
ber	-9007
thw	-9008
une	-9009
▁Do	-9010
amva	-9011
honj	-9012
lebe	-9013
qika	-9014
siza	-9015
▁AMA	-9016
▁Lwa	-9017
▁aso	-9018
▁end	-9019
▁ivu	-9020
▁izo	-9021
▁oka	-9022
▁uYi	-9023
▁umz	-9024
Asafu	-9025
Sihon	-9026
benge	-9027
cweni	-9028
enako	-9029
gxala	-9030
hleko	-9031
khule	-9032
lonke	-9033
mvula	-9034
ukuba	-9035
▁Bawo	-9036
▁Naba	-9037
▁Suka	-9038
▁akan	-9039
▁ekha	-9040
▁kona	-9041
▁kuvu	-9042
▁liyi	-9043
▁sina	-9044
▁umpu	-9045
▁wale	-9046
▁zivu	-9047
Filipu	-9048
andini	-9049
belele	-9050
dilesi	-9051
diweyo	-9052
dulini	-9053
fakela	-9054
gungqa	-9055
haziya	-9056
kalisa	-9057
kowabo	-9058
lisani	-9059
liselo	-9060
mibini	-9061
mpempe	-9062
phumlo	-9063
qandwa	-9064
tywila	-9065
velele	-9066
yameko	-9067
zabeth	-9068
▁Ndiku	-9069
▁ingen	-9070
▁isuke	-9071
▁khawu	-9072
▁kweso	-9073
▁lodwa	-9074
▁ngezo	-9075
▁ngoba	-9076
▁nguwo	-9077
▁owawu	-9078
▁ubeke	-9079
▁weeng	-9080
Kalebhi	-9081
botshwa	-9082
hlaleni	-9083
lahlela	-9084
phakame	-9085
philile	-9086
qamleze	-9087
qhutywe	-9088
thwalwe	-9089
▁Esinye	-9090
▁Umlomo	-9091
▁Yivani	-9092
▁abandi	-9093
▁elihle	-9094
▁enceda	-9095
▁inkomo	-9096
▁iphuma	-9097
▁ixhoba	-9098
▁kuAron	-9099
▁malube	-9100
▁nangen	-9101
▁nantso	-9102
▁nasezi	-9103
▁nenani	-9104
▁neqela	-9105
▁ucango	-9106
▁umendo	-9107
Heshbhon	-9108
coliseko	-9109
dutyulwa	-9110
hlanguli	-9111
isabatha	-9112
iselweni	-9113
lokuqala	-9114
mnyameni	-9115
mpendulo	-9116
onobumba	-9117
phuhlisa	-9118
vuselela	-9119
▁Ngokwen	-9120
▁ebubini	-9121
▁eenyawo	-9122
▁elinami	-9123
▁iYordan	-9124
▁igcinwe	-9125
▁igiyeri	-9126
▁isivalo	-9127
▁ithatha	-9128
▁izakuba	-9129
▁kulunge	-9130
▁kungoko	-9131
▁makhulu	-9132
▁maxesha	-9133
▁mfuneko	-9134
▁mhlophe	-9135
▁ngemali	-9136
▁omkhosi	-9137
▁phantse	-9138
▁umcimbi	-9139
khawuleze	-9140
phazamisa	-9141
qhubekeke	-9142
qhwithelo	-9143
thathelwe	-9144
thelekisa	-9145
thengiswa	-9146
yingcwele	-9147
▁Isakhiwo	-9148
▁Isiphumo	-9149
▁Ubuninzi	-9150
▁Yimodeli	-9151
▁emakhulu	-9152
▁entilini	-9153
▁ezizitho	-9154
▁iinkqubo	-9155
▁iinkwili	-9156
▁kumawaka	-9157
▁kwemihla	-9158
▁nenkunzi	-9159
▁njengako	-9160
▁olunzima	-9161
▁sokujika	-9162
▁ukongeza	-9163
▁usebenza	-9164
▁yenqwelo	-9165
entlabathi	-9166
gqumathelo	-9167
▁entanjeni	-9168
▁isithsaba	-9169
▁isithuthi	-9170
▁kwimbombo	-9171
▁lokwenene	-9172
▁owomileyo	-9173
▁sesazinge	-9174
▁uDaniyeli	-9175
▁ubumnyama	-9176
▁ukuqinisa	-9177
▁wezambuku	-9178
▁wokuqhuba	-9179
▁Isikhuseli	-9180
▁elincinane	-9181
▁encotsheni	-9182
▁ezifakelwe	-9183
▁ezinokuthi	-9184
▁kumanxweme	-9185
▁likaxakeka	-9186
▁lwenqanawe	-9187
▁nakwezinye	-9188
▁ophilileyo	-9189
▁wephenyane	-9190
bandezelweni	-9191
▁esisezantsi	-9192
▁inkwenkwezi	-9193
▁lokusingisa	-9194
▁uAbhimeleki	-9195
▁ukunciphisa	-9196
▁wobukumkani	-9197
▁yobulungisa	-9198
▁engaphakathi	-9199
▁ephakamileyo	-9200
▁ngobulungisa	-9201
▁ukuphakamisa	-9202
▁ibingamakhulu	-9203
▁esikhitshaneni	-9204
▁kwesibingelelo	-9205
-7	-9206
QO	-9207
▁/	-9208
Mar	-9209
ere	-9210
ght	-9211
mar	-9212
ral	-9213
rit	-9214
tic	-9215
▁11	-9216
▁IA	-9217
▁NE	-9218
▁ey	-9219
AMBO	-9220
angi	-9221
dadi	-9222
fayo	-9223
isha	-9224
luki	-9225
rayi	-9226
ring	-9227
tafu	-9228
vent	-9229
▁Imo	-9230
▁Sin	-9231
▁ile	-9232
▁khu	-9233
▁nca	-9234
▁xha	-9235
Esawu	-9236
angum	-9237
bophe	-9238
citho	-9239
dyebo	-9240
elisi	-9241
hleka	-9242
mbela	-9243
sheka	-9244
swini	-9245
xweni	-9246
▁Kwii	-9247
▁Nama	-9248
▁aloo	-9249
▁eson	-9250
▁kane	-9251
▁mizi	-9252
▁zide	-9253
chweba	-9254
dudumo	-9255
fubeni	-9256
isinga	-9257
khomba	-9258
lalela	-9259
mkhosi	-9260
mpompa	-9261
ondeza	-9262
ongezo	-9263
qulelo	-9264
tywala	-9265
valela	-9266
yinike	-9267
zaliso	-9268
zekile	-9269
▁5000.	-9270
▁Ninga	-9271
▁amasi	-9272
▁enyan	-9273
▁esele	-9274
▁ezaku	-9275
▁iziqu	-9276
▁kwele	-9277
▁noBha	-9278
▁owaba	-9279
Shimehi	-9280
avareji	-9281
chithwa	-9282
ciphiso	-9283
elelani	-9284
elisayo	-9285
khulisa	-9286
likhulu	-9287
liselwe	-9288
mhlophe	-9289
qhelisa	-9290
qingqwa	-9291
sasazwa	-9292
theleyo	-9293
thiyayo	-9294
tyhubhu	-9295
▁Abanye	-9296
▁Inqaku	-9297
▁Ucingo	-9298
▁babuya	-9299
▁basuka	-9300
▁besuka	-9301
▁iimini	-9302
▁imvume	-9303
▁ingama	-9304
▁isizwe	-9305
▁kaYesu	-9306
▁ligama	-9307
▁oobawo	-9308
▁ophuma	-9309
▁wazeka	-9310
▁wobomi	-9311
▁yayise	-9312
▁zifuna	-9313
Kiriyati	-9314
Somandla	-9315
cinezele	-9316
fakiweyo	-9317
gudileyo	-9318
qalekiso	-9319
qwelweni	-9320
shorensi	-9321
thutyana	-9322
xineneyo	-9323
zaliseka	-9324
▁Umsinga	-9325
▁amazulu	-9326
▁bakubon	-9327
▁bukhulu	-9328
▁elidala	-9329
▁entambo	-9330
▁ezinesi	-9331
▁iintaka	-9332
▁iitanki	-9333
▁intwana	-9334
▁ithathe	-9335
▁lilungu	-9336
▁lukhuni	-9337
▁njengem	-9338
▁olutsha	-9339
▁ubabalo	-9340
▁ukwakha	-9341
▁umlambo	-9342
▁usoloko	-9343
▁uthathe	-9344
▁yengozi	-9345
▁zizonke	-9346
lungeleyo	-9347
qamlezayo	-9348
tshintshe	-9349
▁Endaweni	-9350
▁Ngokwesi	-9351
▁Thabatha	-9352
▁Ubuchule	-9353
▁abahamba	-9354
▁bomhlaba	-9355
▁efakelwe	-9356
▁esingena	-9357
▁esinqeni	-9358
▁ezenziwa	-9359
▁hlabathi	-9360
▁isalatha	-9361
▁lwekrele	-9362
▁lwenziwa	-9363
▁nomkhosi	-9364
▁ukuyenza	-9365
▁ulungiso	-9366
▁umkhombe	-9367
▁wemfazwe	-9368
entsontelo	-9369
khandiweyo	-9370
qhagamshel	-9371
yeleleneyo	-9372
▁eyomileyo	-9373
▁iinqanawe	-9374
▁kuYoshuwa	-9375
▁kumagumbi	-9376
▁kusebenza	-9377
▁kwesandla	-9378
▁lwamandla	-9379
▁ngomsindo	-9380
▁ukuvelisa	-9381
▁weCandelo	-9382
▁yokhuselo	-9383
langazelela	-9384
▁ekuthethwa	-9385
▁esiphantsi	-9386
▁nakoonyana	-9387
▁ukuzinzisa	-9388
▁wathethayo	-9389
▁wesinyithi	-9390
▁zezithuthi	-9391
gqithiseleyo	-9392
▁Umbingeleli	-9393
▁esembindini	-9394
▁imiqathango	-9395
▁komphambili	-9396
▁olunamandla	-9397
▁ongaphantsi	-9398
▁ukubaluleka	-9399
▁zentsontelo	-9400
▁kumbingeleli	-9401
▁kwimisebenzi	-9402
▁ukutshintsha	-9403
▁umkhonzazana	-9404
tshatyalaliswa	-9405
▁lisetyenziswa	-9406
▁yesikhitshane	-9407
Hu	-9408
WU	-9409
ok	-9410
197	-9411
ANG	-9412
Cha	-9413
Ntu	-9414
fin	-9415
▁Wu	-9416
▁ak	-9417
▁uN	-9418
Leya	-9419
busi	-9420
calu	-9421
cici	-9422
ende	-9423
gobo	-9424
kuyo	-9425
lanj	-9426
liva	-9427
qili	-9428
rane	-9429
tare	-9430
tayi	-9431
vila	-9432
xoxo	-9433
yine	-9434
zine	-9435
zula	-9436
▁KWI	-9437
▁Qin	-9438
▁Ube	-9439
▁eMa	-9440
▁emp	-9441
▁ikw	-9442
▁kuM	-9443
▁kul	-9444
▁noT	-9445
bhoti	-9446
bhuqi	-9447
dlele	-9448
dlisa	-9449
isayi	-9450
jinge	-9451
khanu	-9452
mbezi	-9453
omnye	-9454
phayo	-9455
tsobh	-9456
tyeka	-9457
xhala	-9458
xhela	-9459
▁Lilo	-9460
▁Umda	-9461
▁YOKU	-9462
▁akha	-9463
▁akwi	-9464
▁kaNa	-9465
▁kuva	-9466
▁lezo	-9467
▁meya	-9468
▁ncam	-9469
▁uyam	-9470
▁wamn	-9471
▁yaze	-9472
▁zone	-9473
Datshi	-9474
cekisa	-9475
cikiva	-9476
gidima	-9477
hlelwe	-9478
lahlwa	-9479
lulela	-9480
phango	-9481
tshiwo	-9482
tshizi	-9483
tyhobo	-9484
ululwa	-9485
yikima	-9486
yimisa	-9487
▁Makhe	-9488
▁Ndaba	-9489
▁Ndiba	-9490
▁UYesu	-9491
▁ekude	-9492
▁ekuyi	-9493
▁eneen	-9494
▁enemi	-9495
▁eziya	-9496
▁kweng	-9497
▁lwawo	-9498
▁mgama	-9499
▁ndani	-9500
▁ngowa	-9501
▁nobun	-9502
▁uMika	-9503
▁uYehu	-9504
▁ukuni	-9505
▁usisi	-9506
▁wambi	-9507
▁zisen	-9508
Lungelo	-9509
andiswa	-9510
chasana	-9511
dambisa	-9512
elishwa	-9513
entombi	-9514
fungela	-9515
hlaziye	-9516
hlonela	-9517
inyango	-9518
lathiso	-9519
lingene	-9520
liselwa	-9521
lolonga	-9522
malungu	-9523
tsalayo	-9524
zixhobo	-9525
▁Akwaba	-9526
▁Thatha	-9527
▁Ulwazi	-9528
▁anzima	-9529
▁bakuba	-9530
▁isitya	-9531
▁itanki	-9532
▁kufuna	-9533
▁msulwa	-9534
▁ngasem	-9535
▁sesiqu	-9536
▁soloko	-9537
▁unguye	-9538
ishekele	-9539
isindise	-9540
qubisana	-9541
▁Inkonzo	-9542
▁amatsha	-9543
▁eHebron	-9544
▁endinga	-9545
▁ibaleka	-9546
▁iimasti	-9547
▁imigaqo	-9548
▁iphupha	-9549
▁kwanama	-9550
▁langoku	-9551
▁liphela	-9552
▁liphuma	-9553
▁makunga	-9554
▁mazinga	-9555
▁naziphi	-9556
▁ndikuni	-9557
▁nendoda	-9558
▁sikhulu	-9559
▁urhwebo	-9560
▁wamkela	-9561
▁weNkosi	-9562
▁yendalo	-9563
▁yendoda	-9564
▁yeyiphi	-9565
▁zambini	-9566
▁zexesha	-9567
omasipala	-9568
sengozini	-9569
▁Intsimbi	-9570
▁amaqondo	-9571
▁impazamo	-9572
▁isibonda	-9573
▁izahlulo	-9574
▁kwikhulu	-9575
▁mandundu	-9576
▁neseyile	-9577
▁newayini	-9578
▁neziseko	-9579
▁ngendawo	-9580
▁ningenzi	-9581
▁ongcwele	-9582
▁wabuyela	-9583
▁wenyanga	-9584
▁wokwenza	-9585
▁womnatha	-9586
▁yeenyawo	-9587
▁yegolide	-9588
▁yintloko	-9589
▁yoMkhosi	-9590
anamhlanje	-9591
▁bakowethu	-9592
▁esongwayo	-9593
▁ezineziqu	-9594
▁iminikelo	-9595
▁kwamadoda	-9596
▁kwentsika	-9597
▁ndikwenze	-9598
▁neenqwelo	-9599
▁yamashumi	-9600
▁yebhokhwe	-9601
▁yiminyaka	-9602
▁yobunzima	-9603
▁yokwaleka	-9604
▁yomthetho	-9605
▁eluthulini	-9606
▁lokufumana	-9607
▁ngamalungu	-9608
▁ngezixhobo	-9609
▁oluphantsi	-9610
▁ukulayisha	-9611
▁usebenzise	-9612
▁yabakhweli	-9613
▁IKhomishini	-9614
▁ecocekileyo	-9615
▁ikhamandela	-9616
▁kwakufuneka	-9617
▁labasebenzi	-9618
▁nempumelelo	-9619
▁ngokwenziwa	-9620
setyenziswayo	-9621
▁ekumgangatho	-9622
▁ngohlangothi	-9623
▁zangaphantsi	-9624
▁ezintliziyweni	-9625
▁kwenkulungwane	-9626
Za	-9627
yh	-9628
▁R	-9629
195	-9630
LWA	-9631
ONA	-9632
blo	-9633
lip	-9634
val	-9635
ywi	-9636
▁EM	-9637
▁eP	-9638
▁eS	-9639
ANZI	-9640
IEEE	-9641
Zera	-9642
baba	-9643
casa	-9644
inwe	-9645
layi	-9646
ngam	-9647
sali	-9648
tiya	-9649
vuke	-9650
zeko	-9651
zola	-9652
▁Awu	-9653
▁Eye	-9654
▁ISA	-9655
▁hla	-9656
▁ink	-9657
▁und	-9658
anama	-9659
bhati	-9660
bonga	-9661
bonke	-9662
grafi	-9663
homba	-9664
hombo	-9665
jongi	-9666
kezwa	-9667
kitha	-9668
sondo	-9669
tsali	-9670
tsolo	-9671
tyeba	-9672
umani	-9673
wunda	-9674
wundu	-9675
yelwe	-9676
▁Kwen	-9677
▁Maku	-9678
▁Zizo	-9679
▁bebe	-9680
▁ehla	-9681
▁ilin	-9682
▁kolo	-9683
▁lela	-9684
▁nges	-9685
▁nime	-9686
▁weku	-9687
▁woyi	-9688
balala	-9689
beleni	-9690
cuthwa	-9691
elinen	-9692
engiso	-9693
phumle	-9694
qabile	-9695
qeleni	-9696
qweqwe	-9697
sesane	-9698
shebha	-9699
siweyo	-9700
tshiwe	-9701
zalayo	-9702
▁akuna	-9703
▁avela	-9704
▁bakha	-9705
▁emide	-9706
▁endlu	-9707
▁esona	-9708
▁ezini	-9709
▁ilele	-9710
▁iquka	-9711
▁kaSha	-9712
▁lathi	-9713
▁ndiza	-9714
▁nindi	-9715
▁oluse	-9716
▁onesi	-9717
▁senza	-9718
▁usuka	-9719
▁wadla	-9720
Yurophu	-9721
camanga	-9722
masango	-9723
phalaza	-9724
shiweyo	-9725
shiyeka	-9726
thandwa	-9727
tsibela	-9728
wenzayo	-9729
▁Amanye	-9730
▁Ngapha	-9731
▁amanga	-9732
▁enyuka	-9733
▁ihlala	-9734
▁imitha	-9735
▁isidlo	-9736
▁kuYesu	-9737
▁kunezi	-9738
▁mazibe	-9739
▁naselu	-9740
▁noxolo	-9741
▁nozuko	-9742
▁somthi	-9743
▁ungali	-9744
▁uphuma	-9745
▁wabeka	-9746
▁wakuba	-9747
▁wemipu	-9748
▁wobude	-9749
▁yesine	-9750
▁yobubi	-9751
▁yomgca	-9752
▁zinobu	-9753
bhombolo	-9754
cocekile	-9755
elelanga	-9756
khanyisa	-9757
kongezwa	-9758
kwamkela	-9759
phatheka	-9760
thandane	-9761
thintele	-9762
yithimba	-9763
yuliweyo	-9764
yunifomu	-9765
▁Injongo	-9766
▁Intonga	-9767
▁amasiko	-9768
▁azinaku	-9769
▁baphume	-9770
▁emgceni	-9771
▁ivumela	-9772
▁kubizwa	-9773
▁kungaba	-9774
▁lohambo	-9775
▁lohlobo	-9776
▁namatye	-9777
▁nganeno	-9778
▁noThixo	-9779
▁okwenza	-9780
▁olusuka	-9781
▁sendawo	-9782
▁umrhumo	-9783
▁yangoku	-9784
▁zikhona	-9785
khalimela	-9786
khunjulwa	-9787
▁Kwabakho	-9788
▁Ukutsala	-9789
▁Umahluko	-9790
▁amagorha	-9791
▁eluswini	-9792
▁emntwini	-9793
▁ezakhiwe	-9794
▁isiphumo	-9795
▁kweshumi	-9796
▁lokulola	-9797
▁ngokwalo	-9798
▁sentsika	-9799
▁sesibini	-9800
▁yokujika	-9801
bonakalise	-9802
fanelekile	-9803
isebenzini	-9804
khutshelwa	-9805
tshitshili	-9806
yibilikisa	-9807
▁bolwandle	-9808
▁entsimini	-9809
▁ezimeleyo	-9810
▁kwamacala	-9811
▁nasiphina	-9812
▁ngamagama	-9813
▁ngokulula	-9814
▁oyintloko	-9815
▁wokhuselo	-9816
▁yomphathi	-9817
hlanganiswa	-9818
qaqambileyo	-9819
▁bakaRubhen	-9820
▁ekunyukeni	-9821
▁esimhlophe	-9822
▁impumelelo	-9823
▁ixhomekeke	-9824
▁kaMasipala	-9825
▁kushishino	-9826
▁kwintsimbi	-9827
▁nabaphathi	-9828
▁nesilivere	-9829
▁ngamakhulu	-9830
▁ngesiquphe	-9831
▁ngummiselo	-9832
▁wabawisela	-9833
▁yokuphumla	-9834
▁eqingqiweyo	-9835
▁esihlalweni	-9836
▁ezintenteni	-9837
▁ezirhwexayo	-9838
▁kwisihlenga	-9839
▁lokusebenza	-9840
▁ngabakhonzi	-9841
▁okwexeshana	-9842
▁ukunikezela	-9843
khompatimenti	-9844
▁kwentsontelo	-9845
▁ngaselwandle	-9846
▁wakwaMowabhi	-9847
▁ezivulekileyo	-9848
▁kwelaseGalili	-9849
▁wesikhitshane	-9850
▁abazihambelayo	-9851
▁amalungiselelo	-9852
▁esetyenziswayo	-9853
▁kanomathotholo	-9854
▁ngezizukulwana	-9855
',	-9856
2,	-9857
BE	-9858
BU	-9859
CO	-9860
Th	-9861
XO	-9862
Her	-9863
KHE	-9864
New	-9865
tar	-9866
tor	-9867
van	-9868
var	-9869
▁EL	-9870
▁YE	-9871
▁iB	-9872
▁to	-9873
Jaji	-9874
boku	-9875
bulo	-9876
gayi	-9877
gobe	-9878
hlan	-9879
kezi	-9880
krwe	-9881
lali	-9882
toli	-9883
viko	-9884
welo	-9885
wezo	-9886
yezo	-9887
▁(4)	-9888
▁197	-9889
▁Ana	-9890
▁NGA	-9891
▁Uli	-9892
▁Usi	-9893
▁gqi	-9894
▁uYa	-9895
ANDLE	-9896
ANTSI	-9897
bhede	-9898
breki	-9899
cuthe	-9900
isisa	-9901
kopta	-9902
mbana	-9903
phith	-9904
rnate	-9905
shete	-9906
stili	-9907
▁Weva	-9908
▁ikhe	-9909
▁inyu	-9910
▁iyen	-9911
▁kuqa	-9912
▁nong	-9913
▁nowa	-9914
▁okho	-9915
▁wezo	-9916
beneku	-9917
dulule	-9918
fikayo	-9919
fikeni	-9920
jungqu	-9921
khethi	-9922
lelani	-9923
moyika	-9924
ngqina	-9925
ntlobo	-9926
qabane	-9927
strali	-9928
thenwa	-9929
tlanti	-9930
tyhala	-9931
valiwe	-9932
xhesho	-9933
zinika	-9934
zisayo	-9935
▁Udidi	-9936
▁azina	-9937
▁ngozi	-9938
▁okuzi	-9939
▁ukuye	-9940
▁yimbi	-9941
Karmele	-9942
antloko	-9943
betheka	-9944
buchule	-9945
dimbane	-9946
ezantsi	-9947
gqibile	-9948
guqulwa	-9949
kaThixo	-9950
khulayo	-9951
qhekeka	-9952
rhabaxa	-9953
thotywe	-9954
velaphi	-9955
yezweni	-9956
yindoda	-9957
▁Ilaphu	-9958
▁Uncedo	-9959
▁angayi	-9960
▁aphuma	-9961
▁bokuba	-9962
▁ekuqhu	-9963
▁emanzi	-9964
▁ezinje	-9965
▁ivumba	-9966
▁izitya	-9967
▁kubini	-9968
▁kungen	-9969
▁linoku	-9970
▁noAbhi	-9971
▁nobusi	-9972
▁umxeba	-9973
▁wamisa	-9974
▁yaziwa	-9975
▁yecala	-9976
▁ziyaku	-9977
bonakude	-9978
kaDavide	-9979
khathali	-9980
lawuleka	-9981
phawunda	-9982
rharnate	-9983
singqino	-9984
vavanywa	-9985
▁UYakobi	-9986
▁Ukujika	-9987
▁akunaku	-9988
▁elitsha	-9989
▁ethwala	-9990
▁ibrorho	-9991
▁isaziso	-9992
▁kulwazi	-9993
▁sabakho	-9994
▁sabantu	-9995
▁uElisha	-9996
▁wenziwa	-9997
▁yakhiwe	-9998
▁yokudla	-9999
atmosfera	-10000
fumananga	-10001
kholosile	-10002
kwindlela	-10003
landeleni	-10004
phandleni	-10005
qhumisele	-10006
vuthuzayo	-10007
xhobileyo	-10008
▁Kwezinye	-10009
▁Ubunzulu	-10010
▁ayizange	-10011
▁bamazulu	-10012
▁eNdibano	-10013
▁eliphezu	-10014
▁engozini	-10015
▁enyameni	-10016
▁eqhutywa	-10017
▁esiqwini	-10018
▁iibhombu	-10019
▁iincwadi	-10020
▁iinyanga	-10021
▁ingqondo	-10022
▁iphezulu	-10023
▁ndisithi	-10024
▁nolawulo	-10025
▁obuninzi	-10026
▁uMphathi	-10027
▁zamandla	-10028
▁zentloko	-10029
▁zibonisa	-10030
Bhetelehem	-10031
konakalisa	-10032
tshayelelo	-10033
▁abaseleyo	-10034
▁eGiligali	-10035
▁esakhelwe	-10036
▁ezimnyaka	-10037
▁ibonakala	-10038
▁imbumbulu	-10039
▁ithwathwa	-10040
▁kusithiwa	-10041
▁lomphathi	-10042
▁nawuphina	-10043
▁nokunyuka	-10044
▁ofunekayo	-10045
▁ubuncwane	-10046
▁wokutsala	-10047
▁yokungena	-10048
jikeleziswa	-10049
kumkanikazi	-10050
▁benjenjalo	-10051
▁esiqhutywa	-10052
▁kwiindlela	-10053
▁uMordekayi	-10054
▁ukukhulula	-10055
▁zabakhweli	-10056
▁angamakhulu	-10057
▁ezitratweni	-10058
▁lulandelayo	-10059
▁ngamaplanga	-10060
▁sakwaManase	-10061
▁uYarobheham	-10062
▁zokhuseleko	-10063
khompatimente	-10064
▁nguMongameli	-10065
▁ukumkanikazi	-10066
▁afanelekileyo	-10067
▁eziphathekayo	-10068
▁kubabingeleli	-10069
▁kubandakanywa	-10070
▁kwamaSirayeli	-10071
▁lakwaSirayeli	-10072
▁wangcwatyelwa	-10073
▁zibotshelelwe	-10074
▁ekhuselekileyo	-10075
5,	-10076
HI	-10077
wn	-10078
▁?	-10079
-30	-10080
CIN	-10081
Jut	-10082
cal	-10083
fla	-10084
man	-10085
nwe	-10086
uro	-10087
▁Bh	-10088
▁Vu	-10089
▁gu	-10090
▁iS	-10091
▁uB	-10092
Abhi	-10093
ZULU	-10094
bhas	-10095
dati	-10096
eman	-10097
gibe	-10098
gqun	-10099
gugu	-10100
hare	-10101
kozo	-10102
lelu	-10103
qesh	-10104
tafi	-10105
tiki	-10106
▁Nde	-10107
▁eko	-10108
▁umo	-10109
anowa	-10110
dleka	-10111
gubha	-10112
gwili	-10113
lingu	-10114
mbile	-10115
omele	-10116
phoso	-10117
xoxwa	-10118
▁Inye	-10119
▁beka	-10120
▁bese	-10121
▁etya	-10122
▁isem	-10123
▁niwa	-10124
▁owam	-10125
▁seli	-10126
▁solu	-10127
Yohane	-10128
bekela	-10129
caciso	-10130
dawana	-10131
kokeli	-10132
kumele	-10133
lisele	-10134
mbutho	-10135
melelo	-10136
ondeze	-10137
qinela	-10138
tifike	-10139
xamele	-10140
xhakam	-10141
zakuba	-10142
zarete	-10143
▁Lonke	-10144
▁Uyilo	-10145
▁Wayen	-10146
▁aniyi	-10147
▁asele	-10148
▁awayi	-10149
▁ebeng	-10150
▁ebezi	-10151
▁ekuba	-10152
▁elona	-10153
▁enika	-10154
▁iqine	-10155
▁ndoba	-10156
▁nesin	-10157
▁omhle	-10158
▁udaba	-10159
▁unika	-10160
▁wambu	-10161
Rebheka	-10162
Victori	-10163
bonanga	-10164
engxaki	-10165
fihlisi	-10166
hlakalo	-10167
ilekiya	-10168
khareji	-10169
khuluwa	-10170
kwantya	-10171
onogada	-10172
phukile	-10173
sakhiwo	-10174
sibhozo	-10175
zenzele	-10176
▁Besuka	-10177
▁Iflegi	-10178
▁Imasti	-10179
▁Isenzo	-10180
▁Olunye	-10181
▁Ugcino	-10182
▁akakho	-10183
▁ebomvu	-10184
▁engeka	-10185
▁eyonge	-10186
▁idlule	-10187
▁inqaba	-10188
▁kabawo	-10189
▁kumisa	-10190
▁lomgca	-10191
▁msinya	-10192
▁ngxaki	-10193
▁nqwelo	-10194
▁uIsaya	-10195
▁umgaqo	-10196
▁uninzi	-10197
bulaleka	-10198
cingelwa	-10199
gqobhoza	-10200
iselwano	-10201
khwelisa	-10202
phatheni	-10203
phenyana	-10204
qukuqela	-10205
wiselayo	-10206
▁Wavutha	-10207
▁afumane	-10208
▁bezinto	-10209
▁elungis	-10210
▁engento	-10211
▁iinqaba	-10212
▁kayihlo	-10213
▁kumntla	-10214
▁kumqulu	-10215
▁kuphila	-10216
▁kwipali	-10217
▁libekwe	-10218
▁mashumi	-10219
▁ndabona	-10220
▁neBhete	-10221
▁nesinye	-10222
▁ofanayo	-10223
▁uSekela	-10224
▁zakhiwa	-10225
dlulileyo	-10226
dlulisela	-10227
kangeleko	-10228
kanunwini	-10229
khukuliso	-10230
mangaliso	-10231
thintelwa	-10232
yantyambo	-10233
▁Uvavanyo	-10234
▁bakowabo	-10235
▁boonyana	-10236
▁eminyaka	-10237
▁ezizodwa	-10238
▁ibhokisi	-10239
▁ilingana	-10240
▁ilungile	-10241
▁imveliso	-10242
▁iphantsi	-10243
▁isitishi	-10244
▁kaxakeka	-10245
▁kumsonto	-10246
▁kwandula	-10247
▁kweemeko	-10248
▁namaYuda	-10249
▁ngokwenu	-10250
▁uKumkani	-10251
▁umzantsi	-10252
▁woonyana	-10253
dluliselwa	-10254
fezekileyo	-10255
hlambulule	-10256
khankanywe	-10257
layishelwa	-10258
▁Ukwenziwa	-10259
▁aphakathi	-10260
▁elimxinwa	-10261
▁iingcinga	-10262
▁kummandla	-10263
▁kumphetho	-10264
▁kusenzeka	-10265
▁kwakusasa	-10266
▁kwinkonzo	-10267
▁nenyaniso	-10268
▁ngamacala	-10269
▁ngokuhlwa	-10270
▁olwenziwa	-10271
▁sokuqhuba	-10272
▁ukwakhiwa	-10273
▁ukwenzeka	-10274
▁zokubamba	-10275
▁Intshukumo	-10276
▁Ukhuseleko	-10277
▁Wathabatha	-10278
▁elinethoba	-10279
▁epheleleyo	-10280
▁ikhokelela	-10281
▁kubaphathi	-10282
▁kumatshini	-10283
▁umatiloshe	-10284
▁wesithuthi	-10285
▁yesixhenxe	-10286
▁zamaplanga	-10287
▁zezikhephe	-10288
▁ziinqanawa	-10289
thambekileyo	-10290
▁Iintsontelo	-10291
▁amaphenyane	-10292
▁engqondweni	-10293
▁esinamandla	-10294
▁eziqinileyo	-10295
▁koomatshini	-10296
▁lwemithwalo	-10297
▁nobulungisa	-10298
▁urhulumente	-10299
▁wokusingisa	-10300
▁yobukumkani	-10301
▁zokusindisa	-10302
▁egqibeleleyo	-10303
▁iinkwenkwezi	-10304
▁isizukulwana	-10305
▁zidityaniswe	-10306
▁kwiRiphabliki	-10307
▁nesithandathu	-10308
▁esingaphambili	-10309
▁ezikhawulezayo	-10310
▁kwangaphambili	-10311
▁uqhagamshelwano	-10312
DS	-10313
ed	-10314
ys	-10315
190	-10316
XHO	-10317
gar	-10318
kyu	-10319
mfi	-10320
▁ES	-10321
▁IM	-10322
▁ay	-10323
Efra	-10324
Fran	-10325
Hore	-10326
cimi	-10327
cino	-10328
coko	-10329
elle	-10330
fefe	-10331
fere	-10332
gxum	-10333
jolo	-10334
kati	-10335
kopi	-10336
kulo	-10337
kuye	-10338
tion	-10339
tiyo	-10340
umbu	-10341
vini	-10342
xaka	-10343
▁Gqi	-10344
▁Iye	-10345
▁Sis	-10346
▁kaO	-10347
▁kem	-10348
▁pha	-10349
▁zwi	-10350
anila	-10351
bhela	-10352
bopho	-10353
dwini	-10354
gcoba	-10355
hakis	-10356
khand	-10357
kheni	-10358
pheka	-10359
phola	-10360
qandi	-10361
qesha	-10362
qhubo	-10363
rhang	-10364
rince	-10365
thuko	-10366
▁Waku	-10367
▁Wasi	-10368
▁beyi	-10369
▁enam	-10370
▁ndan	-10371
▁niwu	-10372
▁sili	-10373
▁soba	-10374
▁uyen	-10375
▁zale	-10376
▁zeku	-10377
▁zisa	-10378
Meridi	-10379
bhetye	-10380
bhinqa	-10381
bhudla	-10382
buyise	-10383
dumise	-10384
ishina	-10385
jikeni	-10386
khunga	-10387
lumini	-10388
ngenxa	-10389
nikele	-10390
oncedo	-10391
phoswa	-10392
phulwa	-10393
qhiphu	-10394
rhweba	-10395
shiywe	-10396
titshi	-10397
tshabh	-10398
tyweni	-10399
yelisa	-10400
zimase	-10401
▁Ezona	-10402
▁Kukwa	-10403
▁abone	-10404
▁akwen	-10405
▁ayisa	-10406
▁esesi	-10407
▁iinto	-10408
▁ikuku	-10409
▁isiza	-10410
▁kaBhe	-10411
▁kuban	-10412
▁kubun	-10413
▁kwise	-10414
▁lwazi	-10415
▁lweng	-10416
▁mfazi	-10417
▁nakun	-10418
▁nanku	-10419
▁nanzo	-10420
▁nokum	-10421
▁qondo	-10422
▁senze	-10423
▁sonka	-10424
▁ukusa	-10425
▁walwa	-10426
▁yesin	-10427
▁yompu	-10428
angenwa	-10429
bhotile	-10430
elelene	-10431
enekazi	-10432
fihlelo	-10433
gqunywa	-10434
hlileyo	-10435
jengoku	-10436
khethwa	-10437
kholosa	-10438
kunceda	-10439
ngcwaba	-10440
philayo	-10441
qhubele	-10442
qumbisa	-10443
sebenzo	-10444
zaliswa	-10445
▁Igunya	-10446
▁Ingoma	-10447
▁Iqondo	-10448
▁Kumele	-10449
▁Umgaqo	-10450
▁abenza	-10451
▁bomntu	-10452
▁ehlala	-10453
▁ezikum	-10454
▁inzala	-10455
▁kunika	-10456
▁livela	-10457
▁lonina	-10458
▁uAbram	-10459
▁uhlala	-10460
▁ujonge	-10461
▁ungazi	-10462
▁womgca	-10463
▁xhaxhe	-10464
Nazarete	-10465
bhobhini	-10466
bonelela	-10467
bulalayo	-10468
cedisayo	-10469
cinaneni	-10470
gcwalisa	-10471
hlotyeni	-10472
khanyayo	-10473
khuphele	-10474
khuthuka	-10475
kunyiswa	-10476
ongamela	-10477
rhuqwayo	-10478
sentloko	-10479
thathela	-10480
tshijolo	-10481
▁Isangqa	-10482
▁Isibane	-10483
▁Kungani	-10484
▁bakwazi	-10485
▁bunzima	-10486
▁iimvana	-10487
▁intanda	-10488
▁isabelo	-10489
▁kaninzi	-10490
▁kungoku	-10491
▁kwimini	-10492
▁minyaka	-10493
▁nembewu	-10494
▁nemfusa	-10495
▁ngakuye	-10496
▁ngasese	-10497
▁ngoMoya	-10498
▁nguMoya	-10499
▁sihambe	-10500
▁ubonisa	-10501
▁ukudada	-10502
▁umhlala	-10503
▁uphinde	-10504
▁welizwe	-10505
▁yohlobo	-10506
bangcwele	-10507
bhiyatare	-10508
cwangcisa	-10509
elelanayo	-10510
gciniweyo	-10511
helikopta	-10512
lanjaneni	-10513
lungelelw	-10514
phakamile	-10515
qolombeni	-10516
tshelelwa	-10517
zalwaneni	-10518
▁Kususela	-10519
▁Mfundisi	-10520
▁Ummandla	-10521
▁ababhali	-10522
▁bakaGadi	-10523
▁encamini	-10524
▁idyokhwe	-10525
▁iinkonzo	-10526
▁kwemasti	-10527
▁kwiqhina	-10528
▁liBhunga	-10529
▁lokulala	-10530
▁lonxweme	-10531
▁namacala	-10532
▁namawaka	-10533
▁neempawu	-10534
▁neengubo	-10535
▁ngaxesha	-10536
▁ngumfazi	-10537
▁njengeli	-10538
▁omahlanu	-10539
▁osebenza	-10540
▁sixhenxe	-10541
▁uEfrayim	-10542
▁usebenze	-10543
▁wezandla	-10544
▁yamanani	-10545
▁zemozulu	-10546
▁zezandla	-10547
inshorensi	-10548
isebenzise	-10549
khangelene	-10550
phindeneyo	-10551
sendleleni	-10552
thuthuzela	-10553
tyhidiweyo	-10554
▁abaFarisi	-10555
▁emzimbeni	-10556
▁enesantya	-10557
▁esifubeni	-10558
▁eyenzelwe	-10559
▁iingcingo	-10560
▁ikhululwe	-10561
▁inyathelo	-10562
▁isidiliya	-10563
▁kumkhonzi	-10564
▁kwenkqubo	-10565
▁kwesiseko	-10566
▁ngentetho	-10567
▁wobunzima	-10568
▁yamatyala	-10569
▁yiNdibano	-10570
▁ziinqambi	-10571
▁zokuxhasa	-10572
yanzelekile	-10573
▁ekutsaleni	-10574
▁ilungileyo	-10575
▁inkululeko	-10576
▁kookumkani	-10577
▁kulayishwa	-10578
▁kulwakhiwo	-10579
▁kwizithuba	-10580
▁lwentsimbi	-10581
▁nanjengoko	-10582
▁nemithetho	-10583
▁ngeminyaka	-10584
▁ngokwenene	-10585
▁ubeminyaka	-10586
▁wabonakala	-10587
▁yomatshini	-10588
hlambulukile	-10589
▁elifunekayo	-10590
▁elinomkrolo	-10591
▁eliphakathi	-10592
▁ethambileyo	-10593
▁eziphelweni	-10594
▁kubasebenzi	-10595
▁ngasemoyeni	-10596
▁ngumqondiso	-10597
▁osembindini	-10598
▁sizukulwana	-10599
▁umbingelelo	-10600
▁wamphendula	-10601
▁wamwiselayo	-10602
cwangcisiweyo	-10603
▁Isicwangciso	-10604
▁azibhalwanga	-10605
▁isisombululo	-10606
▁izibingelelo	-10607
▁kumkhawulela	-10608
▁likaMasipala	-10609
▁nanjengokuba	-10610
▁ngononophelo	-10611
▁yekhompyutha	-10612
▁ekhethekileyo	-10613
▁nokuzonwabisa	-10614
▁nomlinganiselo	-10615
▁elifanelekileyo	-10616
-9	-10617
27	-10618
QU	-10619
TO	-10620
ANE	-10621
KHO	-10622
ell	-10623
gci	-10624
gun	-10625
rea	-10626
sta	-10627
sto	-10628
vot	-10629
▁IB	-10630
▁Ra	-10631
Indi	-10632
Rafa	-10633
bine	-10634
cace	-10635
huku	-10636
lawo	-10637
leng	-10638
mema	-10639
omvu	-10640
siba	-10641
than	-10642
tyhe	-10643
▁Uza	-10644
▁khe	-10645
▁lan	-10646
▁uYe	-10647
GANGA	-10648
Uziya	-10649
amoti	-10650
chane	-10651
cwang	-10652
dinwa	-10653
ezizo	-10654
fanek	-10655
gqumi	-10656
hesha	-10657
khadi	-10658
ldati	-10659
onile	-10660
qulun	-10661
sombu	-10662
xhase	-10663
xhelo	-10664
xwayo	-10665
yulwe	-10666
zothe	-10667
▁Nize	-10668
▁emke	-10669
▁enee	-10670
▁eyon	-10671
▁ifun	-10672
▁kwiN	-10673
▁laye	-10674
▁lide	-10675
▁loba	-10676
▁sazi	-10677
▁side	-10678
▁wolu	-10679
▁wozi	-10680
▁yolu	-10681
▁zaya	-10682
▁zaze	-10683
Ntloko	-10684
anqaku	-10685
bizane	-10686
fuleni	-10687
hamile	-10688
hiyeli	-10689
hlwaye	-10690
hlwise	-10691
kanuko	-10692
khelwa	-10693
komeni	-10694
lamano	-10695
pasika	-10696
phoswe	-10697
phuthu	-10698
qabeni	-10699
qamelo	-10700
ranean	-10701
rhubhe	-10702
sukele	-10703
tshoni	-10704
xabise	-10705
xakeko	-10706
yikeka	-10707
yiloni	-10708
▁Baben	-10709
▁Hlala	-10710
▁Ngale	-10711
▁Nyuka	-10712
▁asema	-10713
▁bemka	-10714
▁edada	-10715
▁elisi	-10716
▁eliya	-10717
▁ileli	-10718
▁inemi	-10719
▁intle	-10720
▁iziko	-10721
▁ndide	-10722
▁ngolo	-10723
▁noEli	-10724
▁olune	-10725
▁phofu	-10726
▁ufile	-10727
▁wedwa	-10728
Jutland	-10729
bhadiya	-10730
gcinayo	-10731
jongeka	-10732
khusane	-10733
krexeza	-10734
labathi	-10735
matsiya	-10736
ngciphe	-10737
ngxenge	-10738
rnabhas	-10739
sondeze	-10740
thulula	-10741
yanzelo	-10742
yelenqe	-10743
▁Igumbi	-10744
▁ayikho	-10745
▁babuye	-10746
▁eMizpa	-10747
▁elizwe	-10748
▁esisen	-10749
▁iesile	-10750
▁impawu	-10751
▁kokufa	-10752
▁kudana	-10753
▁kudidi	-10754
▁kufike	-10755
▁kwaloo	-10756
▁lokufa	-10757
▁nelase	-10758
▁nezoku	-10759
▁ngeeng	-10760
▁nokung	-10761
▁ukunyu	-10762
▁umjelo	-10763
▁wezulu	-10764
▁yayize	-10765
▁yedini	-10766
bungqina	-10767
diliyeni	-10768
inadabhi	-10769
kisiweyo	-10770
kwenyani	-10771
moyikayo	-10772
phambuko	-10773
phawulwa	-10774
philiswa	-10775
qikelela	-10776
xilisayo	-10777
zanyiswa	-10778
▁benyuka	-10779
▁ezintle	-10780
▁inTambo	-10781
▁intsimi	-10782
▁itsalwe	-10783
▁itshati	-10784
▁kohambo	-10785
▁lotsalo	-10786
▁lwendlu	-10787
▁mabanga	-10788
▁neemeko	-10789
▁nemasti	-10790
▁nenyama	-10791
▁ngeento	-10792
▁nohlobo	-10793
▁nomlilo	-10794
▁uAhabhi	-10795
▁uthanda	-10796
▁yesizwe	-10797
▁zakhiwe	-10798
gcayiseli	-10799
khubekiso	-10800
lindeleke	-10801
nikezelwa	-10802
sondeleyo	-10803
yanzelisa	-10804
▁Ezimbini	-10805
▁Imisonto	-10806
▁Inyaniso	-10807
▁Jikelele	-10808
▁aphantsi	-10809
▁bakaLevi	-10810
▁ekuhleni	-10811
▁elenziwe	-10812
▁elininzi	-10813
▁emihlanu	-10814
▁engeyiyo	-10815
▁iintonga	-10816
▁inkundla	-10817
▁kokuqala	-10818
▁kokuzala	-10819
▁komzimba	-10820
▁koothixo	-10821
▁kugcinwe	-10822
▁kungcono	-10823
▁kuphinda	-10824
▁kwamanye	-10825
▁kwaphuma	-10826
▁kwetyeya	-10827
▁kwimehlo	-10828
▁kwitanki	-10829
▁lesandla	-10830
▁lesibini	-10831
▁oluhlobo	-10832
▁samandla	-10833
▁uhlaselo	-10834
▁wabanika	-10835
▁yentloko	-10836
▁yokokuba	-10837
▁yokubeka	-10838
▁zeenkomo	-10839
▁zendlela	-10840
fanekiselo	-10841
mpindezelo	-10842
ongezelelo	-10843
qalekisiwe	-10844
zelekileyo	-10845
▁amasikizi	-10846
▁elaneleyo	-10847
▁emgaqweni	-10848
▁engangeni	-10849
▁esineziqu	-10850
▁eyaneleyo	-10851
▁ezidadayo	-10852
▁eziliqela	-10853
▁iintlanzi	-10854
▁isihlwele	-10855
▁kufanelwe	-10856
▁kuthethwa	-10857
▁kweendawo	-10858
▁naluphina	-10859
▁naphantsi	-10860
▁neendlela	-10861
▁neenkunzi	-10862
▁neentsika	-10863
▁nemihlali	-10864
▁ngenjongo	-10865
▁ngentonga	-10866
▁obufileyo	-10867
▁wobugcisa	-10868
▁xenikweni	-10869
▁yokubamba	-10870
xokelelwane	-10871
▁Irhintyela	-10872
▁ababalwayo	-10873
▁amahlwempu	-10874
▁amalungisa	-10875
▁amanqanaba	-10876
▁anamihlanu	-10877
▁asebenzise	-10878
▁esisikwere	-10879
▁ezinqanawa	-10880
▁ityathanga	-10881
▁komphezulu	-10882
▁kwisazinge	-10883
▁lomatshini	-10884
isetyenziswa	-10885
phangaleleyo	-10886
▁Kwabonakala	-10887
▁angaphandle	-10888
▁ezingundoqo	-10889
▁eziphakathi	-10890
▁kubhaliweyo	-10891
▁kulungileyo	-10892
▁kumalwandle	-10893
▁kwiphenyane	-10894
▁nabaprofeti	-10895
▁ukulungiswa	-10896
▁yamaLungelo	-10897
▁yokhuseleko	-10898
▁yokusindisa	-10899
▁ngabasebenzi	-10900
▁omathandathu	-10901
▁ulungiselelo	-10902
▁esingaphezulu	-10903
▁esiphakathini	-10904
▁kwemigangatho	-10905
▁sisetyenziswe	-10906
▁yangaphakathi	-10907
qhagamshelanisi	-10908
40	-10909
60	-10910
Ad	-10911
hn	-10912
os	-10913
tr	-10914
Bhi	-10915
SON	-10916
hog	-10917
lla	-10918
lwi	-10919
mna	-10920
use	-10921
▁Ho	-10922
▁KU	-10923
▁Pa	-10924
▁me	-10925
chwa	-10926
cuko	-10927
emka	-10928
guqa	-10929
hama	-10930
hemp	-10931
indi	-10932
kale	-10933
meli	-10934
miso	-10935
mnon	-10936
phon	-10937
rosi	-10938
sure	-10939
teyi	-10940
xoko	-10941
xovu	-10942
yelo	-10943
zoba	-10944
▁Ime	-10945
▁Obu	-10946
▁Owa	-10947
▁akw	-10948
▁kaI	-10949
▁uve	-10950
Bomvu	-10951
PHAMB	-10952
bhang	-10953
bhulu	-10954
cedwa	-10955
cwaba	-10956
cwina	-10957
enise	-10958
fihle	-10959
hupha	-10960
khayo	-10961
kuthu	-10962
liphi	-10963
lodwa	-10964
mbiza	-10965
meshe	-10966
qimba	-10967
qwebe	-10968
rhoxo	-10969
songa	-10970
yakhe	-10971
zinza	-10972
▁Othe	-10973
▁Woba	-10974
▁Zing	-10975
▁asen	-10976
▁band	-10977
▁beni	-10978
▁kong	-10979
▁kumi	-10980
▁seza	-10981
▁sino	-10982
▁uAsa	-10983
▁ukha	-10984
▁unom	-10985
▁zeli	-10986
banisa	-10987
bhloko	-10988
calulo	-10989
daliya	-10990
enanto	-10991
entaka	-10992
khetho	-10993
mpumlo	-10994
phanzi	-10995
qhwala	-10996
shishe	-10997
thishi	-10998
vileyo	-10999
vuleke	-11000
wulayo	-11001
xhonti	-11002
yisile	-11003
zisele	-11004
▁Unoku	-11005
▁ekuzi	-11006
▁ibuye	-11007
▁isimo	-11008
▁kaNun	-11009
▁kubon	-11010
▁mzuzu	-11011
▁ngoma	-11012
▁unike	-11013
▁unobu	-11014
▁usele	-11015
▁wento	-11016
▁zeent	-11017
▁zikwi	-11018
Gershon	-11019
Lwandle	-11020
ampunzi	-11021
bambene	-11022
bambiso	-11023
caciswa	-11024
joliswe	-11025
mihlali	-11026
phawuli	-11027
phephez	-11028
sindayo	-11029
thiyile	-11030
ustrali	-11031
ventile	-11032
wenzela	-11033
▁Elinye	-11034
▁Umlilo	-11035
▁ayenze	-11036
▁babeng	-11037
▁edlula	-11038
▁ihlazo	-11039
▁imvana	-11040
▁ingoma	-11041
▁inikwe	-11042
▁iphiko	-11043
▁lemipu	-11044
▁leqela	-11045
▁ligazi	-11046
▁nesiqu	-11047
▁nokuyi	-11048
▁siyazi	-11049
▁umelwe	-11050
▁uyenze	-11051
▁yomthi	-11052
Yehoyada	-11053
bhekiswa	-11054
dweliswe	-11055
eminyaka	-11056
fumaneki	-11057
khohlisa	-11058
longwane	-11059
phayiphi	-11060
qanyulwa	-11061
thelelwe	-11062
xondorha	-11063
yukileyo	-11064
zisoloko	-11065
▁Izandla	-11066
▁Nayiphi	-11067
▁Ndiyazi	-11068
▁Ngemini	-11069
▁Umhlaba	-11070
▁akufika	-11071
▁behleli	-11072
▁bengaba	-11073
▁iingalo	-11074
▁ingengu	-11075
▁kukwazi	-11076
▁lenziwe	-11077
▁livumba	-11078
▁mkhonzi	-11079
▁nebomvu	-11080
▁nguyise	-11081
▁nihambe	-11082
▁nodonga	-11083
▁sezinto	-11084
▁sibekwe	-11085
▁uEstere	-11086
▁uRakeli	-11087
▁yeNkosi	-11088
▁zendalo	-11089
Tarshishe	-11090
gonyamelo	-11091
londoloza	-11092
ngcwabela	-11093
qikelelwa	-11094
▁eBheteli	-11095
▁ekulapho	-11096
▁elingana	-11097
▁iimpondo	-11098
▁iqashiso	-11099
▁isigodlo	-11100
▁isikrufu	-11101
▁kuMkhosi	-11102
▁kuYakobi	-11103
▁kuvumela	-11104
▁kwebhodi	-11105
▁kwigophe	-11106
▁lendlela	-11107
▁lephondo	-11108
▁lwexesha	-11109
▁mithetho	-11110
▁nenyanga	-11111
▁ngeqhina	-11112
▁njengeen	-11113
▁noYohane	-11114
▁segolide	-11115
▁sentloko	-11116
▁somkhosi	-11117
▁ukhuselo	-11118
▁ukulunga	-11119
▁umlawuli	-11120
▁yempahla	-11121
▁yintambo	-11122
▁yomsinga	-11123
isebenzayo	-11124
khangeleka	-11125
khathalele	-11126
▁abathathu	-11127
▁amabandla	-11128
▁amisiweyo	-11129
▁ezibonisa	-11130
▁ezithwala	-11131
▁kobunzima	-11132
▁kusenziwa	-11133
▁kwincwadi	-11134
▁kwintonga	-11135
▁namalungu	-11136
▁nesiphelo	-11137
▁uBhileham	-11138
▁umphakamo	-11139
▁uphuhliso	-11140
▁yokuzalwa	-11141
khuphiswano	-11142
qononondisa	-11143
sisombululo	-11144
▁Uxinzelelo	-11145
▁bakaMerari	-11146
▁besikhephe	-11147
▁eliphantsi	-11148
▁ithunyelwe	-11149
▁kuSirayeli	-11150
▁kwisiqhubi	-11151
▁ngobulumko	-11152
▁yemithwalo	-11153
chaphazeleka	-11154
▁emthethweni	-11155
▁intsikelelo	-11156
▁ngenkohliso	-11157
▁njengendawo	-11158
▁ongaphandle	-11159
▁owamazibulo	-11160
phulaphulanga	-11161
▁esipheleleyo	-11162
▁ezinamaphiko	-11163
▁ezintshabeni	-11164
▁lakwaEfrayim	-11165
▁osetyenziswa	-11166
▁uYehoshafati	-11167
▁sisetyenziswa	-11168
▁Imilinganiselo	-11169
▁eziphakamileyo	-11170
▁ezikhethekileyo	-11171
4,	-11172
9,	-11173
AK	-11174
HL	-11175
Po	-11176
ly	-11177
193	-11178
Mer	-11179
Pub	-11180
SAS	-11181
ank	-11182
can	-11183
dre	-11184
dya	-11185
izi	-11186
laa	-11187
ver	-11188
xon	-11189
zra	-11190
▁AN	-11191
▁Qa	-11192
▁ok	-11193
Gaze	-11194
ISWA	-11195
SAND	-11196
THWA	-11197
biwo	-11198
bole	-11199
coma	-11200
devu	-11201
fire	-11202
hasi	-11203
inge	-11204
naye	-11205
qwan	-11206
toti	-11207
zond	-11208
▁Ibi	-11209
▁Yam	-11210
▁Yim	-11211
▁ada	-11212
▁eHa	-11213
▁noS	-11214
HLUKO	-11215
Maked	-11216
Yabhe	-11217
bangi	-11218
bhiki	-11219
bhinq	-11220
cande	-11221
cheba	-11222
fakam	-11223
kcazo	-11224
kethe	-11225
lophu	-11226
mbala	-11227
mouth	-11228
qande	-11229
siswe	-11230
theli	-11231
tshwe	-11232
tyaty	-11233
tyiki	-11234
urope	-11235
wunti	-11236
yisha	-11237
▁Ndam	-11238
▁Sika	-11239
▁adla	-11240
▁beno	-11241
▁edla	-11242
▁kubi	-11243
▁kufi	-11244
▁mgca	-11245
▁odwa	-11246
▁sayi	-11247
▁uhla	-11248
▁yali	-11249
▁yelo	-11250
▁zeze	-11251
▁zina	-11252
▁zizo	-11253
cubeko	-11254
gcwaba	-11255
gotywa	-11256
hlolwa	-11257
keleka	-11258
khange	-11259
khumbi	-11260
leluya	-11261
liseke	-11262
mpepho	-11263
semini	-11264
vingca	-11265
yisele	-11266
zimele	-11267
zinike	-11268
▁Akuba	-11269
▁Amafu	-11270
▁Banga	-11271
▁Imali	-11272
▁Incam	-11273
▁Kamva	-11274
▁Ngalo	-11275
▁abeli	-11276
▁akazi	-11277
▁eniya	-11278
▁esili	-11279
▁esizi	-11280
▁eyaye	-11281
▁eyint	-11282
▁hamba	-11283
▁ikude	-11284
▁ilale	-11285
▁imoto	-11286
▁isebe	-11287
▁kokwa	-11288
▁kwasa	-11289
▁lokwa	-11290
▁ntaba	-11291
▁obuyi	-11292
▁siben	-11293
▁ujiko	-11294
▁ukuva	-11295
▁usuku	-11296
▁uvuyo	-11297
▁wawun	-11298
▁yobun	-11299
▁zimbi	-11300
Mzantsi	-11301
Sathana	-11302
benzela	-11303
benzisa	-11304
cwalisa	-11305
endweni	-11306
gangeni	-11307
khiweni	-11308
khowudi	-11309
kowethu	-11310
lingani	-11311
lwaleko	-11312
soldati	-11313
thamsan	-11314
ungutye	-11315
▁Imigca	-11316
▁Ukanti	-11317
▁Umfazi	-11318
▁ahambe	-11319
▁babini	-11320
▁bayazi	-11321
▁ekubam	-11322
▁igophe	-11323
▁imfuyo	-11324
▁ingeka	-11325
▁liqela	-11326
▁mpahla	-11327
▁neloku	-11328
▁ntlobo	-11329
▁oluthi	-11330
▁owathi	-11331
▁santya	-11332
▁shwaka	-11333
▁uHaman	-11334
▁umyeni	-11335
▁uzenze	-11336
▁wanika	-11337
▁wesine	-11338
▁yayiku	-11339
▁yayine	-11340
▁yedabi	-11341
▁yeqela	-11342
▁zibini	-11343
▁zinika	-11344
Daniyeli	-11345
Makedoni	-11346
QANAWENI	-11347
ekerubhi	-11348
elelwano	-11349
fundiswa	-11350
khangeli	-11351
kwenziwe	-11352
lisikizi	-11353
lwandiso	-11354
phelelwe	-11355
phethuka	-11356
qhusheko	-11357
vakalise	-11358
zamayeza	-11359
zimisele	-11360
▁Isibini	-11361
▁Isoloko	-11362
▁Ngenene	-11363
▁Ngomhla	-11364
▁Wahlala	-11365
▁akubona	-11366
▁akusayi	-11367
▁bengama	-11368
▁ebaleka	-11369
▁elililo	-11370
▁engenam	-11371
▁ezivela	-11372
▁iidemon	-11373
▁iintolo	-11374
▁ingenza	-11375
▁isikali	-11376
▁kogcino	-11377
▁kubekwe	-11378
▁kukhulu	-11379
▁kwemini	-11380
▁kwidabi	-11381
▁lenkomo	-11382
▁lokuthi	-11383
▁luncedo	-11384
▁lwandle	-11385
▁masinga	-11386
▁ndaweni	-11387
▁ngomgca	-11388
▁sambuku	-11389
▁singabi	-11390
▁uHerode	-11391
▁uYehoya	-11392
▁ufumane	-11393
▁ukutsha	-11394
▁ukuvala	-11395
▁uphondo	-11396
▁wolwimi	-11397
▁zamatye	-11398
▁ziphela	-11399
▁zisithi	-11400
▁zisuswe	-11401
Brithishi	-11402
gunyaziso	-11403
haswerosi	-11404
linganise	-11405
sebenzeni	-11406
setyenzwa	-11407
▁Haleluya	-11408
▁abangama	-11409
▁asebenze	-11410
▁babuyela	-11411
▁ekufuphi	-11412
▁emiselwe	-11413
▁esihamba	-11414
▁ezifakwe	-11415
▁iqhutywa	-11416
▁isondele	-11417
▁iziganga	-11418
▁lomlambo	-11419
▁ngantoni	-11420
▁njengemi	-11421
▁oluBomvu	-11422
▁umngxuma	-11423
▁wemozulu	-11424
▁yedokisi	-11425
▁yezibham	-11426
▁yokwakha	-11427
▁zeegusha	-11428
funyenweyo	-11429
phaphazela	-11430
yanyaniswa	-11431
zakufuneka	-11432
▁Ukukhanya	-11433
▁Ukwakhiwa	-11434
▁babengama	-11435
▁eentlanga	-11436
▁elimiweyo	-11437
▁emincinci	-11438
▁entanyeni	-11439
▁esecaleni	-11440
▁ezenzelwe	-11441
▁inkunkuma	-11442
▁itsheyina	-11443
▁kaSolomon	-11444
▁kumboniso	-11445
▁lokuhamba	-11446
▁mphefumlo	-11447
▁nababhali	-11448
▁nezimbini	-11449
▁ngeendawo	-11450
▁ngeseyile	-11451
▁umthunywa	-11452
▁wamzalela	-11453
▁yengcwele	-11454
▁yokuxhasa	-11455
▁zilungele	-11456
phakanyiswe	-11457
tyibilikayo	-11458
▁Umatiloshe	-11459
▁bakaDavide	-11460
▁elineshumi	-11461
▁embilinini	-11462
▁isebenzisa	-11463
▁kwecandelo	-11464
▁ngeentsuku	-11465
▁ngokomlomo	-11466
▁ngomthetho	-11467
▁nomphezulu	-11468
▁ukuhambisa	-11469
tsholongwane	-11470
▁elinoLawulo	-11471
▁esifutshane	-11472
▁imifanekiso	-11473
▁kwizikhephe	-11474
▁luxhomekeke	-11475
▁ngokungathi	-11476
▁ngokwenyama	-11477
▁nobukumkani	-11478
▁olufunekayo	-11479
landelelanayo	-11480
lungeleleneyo	-11481
setyenzisweni	-11482
▁elinesithoba	-11483
▁ezingamawaka	-11484
▁intsingiselo	-11485
▁kwisikhundla	-11486
▁wathabathela	-11487
chaphazelekayo	-11488
▁elinesithathu	-11489
▁ezingaphezulu	-11490
▁isigqubuthelo	-11491
▁kwasekuqaleni	-11492
▁nesibingelelo	-11493
▁kwinkulungwane	-11494
▁somlinganiselo	-11495
-'	-11496
1,	-11497
24	-11498
25	-11499
Ng	-11500
Wa	-11501
lk	-11502
ue	-11503
00.	-11504
OYA	-11505
QHU	-11506
dzi	-11507
iii	-11508
kin	-11509
ohn	-11510
▁23	-11511
▁30	-11512
▁iC	-11513
▁iP	-11514
▁wu	-11515
Roma	-11516
akho	-11517
bhis	-11518
dayi	-11519
gana	-11520
goso	-11521
gqat	-11522
lish	-11523
lume	-11524
meme	-11525
qoba	-11526
ruki	-11527
tola	-11528
vumo	-11529
▁DIS	-11530
▁DoD	-11531
▁Lin	-11532
▁Nen	-11533
▁Qhu	-11534
▁Una	-11535
▁Yom	-11536
▁ale	-11537
▁eji	-11538
amava	-11539
bumbi	-11540
dward	-11541
elson	-11542
finye	-11543
funge	-11544
gcobe	-11545
hleke	-11546
krebe	-11547
obude	-11548
phuny	-11549
plagi	-11550
pteni	-11551
qubha	-11552
sekwa	-11553
thiye	-11554
trato	-11555
xhaso	-11556
yatha	-11557
▁Kwan	-11558
▁Naku	-11559
▁Nani	-11560
▁bade	-11561
▁endo	-11562
▁ezom	-11563
▁lize	-11564
▁oban	-11565
▁siso	-11566
▁uAhi	-11567
▁umlo	-11568
▁unge	-11569
▁weva	-11570
▁yiba	-11571
Shebha	-11572
babala	-11573
bulele	-11574
disayo	-11575
dubule	-11576
dululo	-11577
gqabhu	-11578
kelana	-11579
khupho	-11580
kilowa	-11581
kqanga	-11582
kqanto	-11583
lekile	-11584
meleza	-11585
memeza	-11586
ondele	-11587
phephe	-11588
qolobi	-11589
thamba	-11590
wuleza	-11591
yuselo	-11592
▁Kanye	-11593
▁Khona	-11594
▁Kweli	-11595
▁Ukuzi	-11596
▁abani	-11597
▁abaza	-11598
▁aliyi	-11599
▁asaba	-11600
▁asuke	-11601
▁awawa	-11602
▁awazi	-11603
▁banzi	-11604
▁ezivu	-11605
▁ifike	-11606
▁izing	-11607
▁kweze	-11608
▁lutho	-11609
▁ngulo	-11610
▁oyint	-11611
▁sethu	-11612
▁sodwa	-11613
▁wodwa	-11614
▁zeeng	-11615
Nkosini	-11616
fungisa	-11617
hlawula	-11618
isantya	-11619
kokheli	-11620
kubakho	-11621
lawulwe	-11622
lukhuni	-11623
phenyan	-11624
profete	-11625
qwanqwa	-11626
rholela	-11627
thuthwa	-11628
tyunjwa	-11629
yamkele	-11630
yishiya	-11631
zelweyo	-11632
zingela	-11633
zungule	-11634
▁Abenzi	-11635
▁Bafika	-11636
▁Imihla	-11637
▁Kunini	-11638
▁Nanina	-11639
▁akhoyo	-11640
▁bakaHa	-11641
▁elikwi	-11642
▁engile	-11643
▁ibambe	-11644
▁idlula	-11645
▁injalo	-11646
▁inzuzo	-11647
▁iqonga	-11648
▁kowona	-11649
▁kwango	-11650
▁levili	-11651
▁lokuzi	-11652
▁naleyo	-11653
▁ndenza	-11654
▁ngezin	-11655
▁ntathu	-11656
▁somgca	-11657
▁ubukho	-11658
▁ungaba	-11659
▁ungasi	-11660
▁yakuba	-11661
▁yimini	-11662
▁yindlu	-11663
▁yivoti	-11664
▁zazine	-11665
▁ziquka	-11666
Gedaliya	-11667
ambuzane	-11668
bhoshete	-11669
buhlungu	-11670
fumanayo	-11671
khanyeni	-11672
khuphayo	-11673
shemeshe	-11674
silivere	-11675
tafileni	-11676
thatheni	-11677
thengisi	-11678
vavanywe	-11679
yelelene	-11680
▁Ekubeni	-11681
▁Malunga	-11682
▁Umphini	-11683
▁amaziko	-11684
▁aphinde	-11685
▁asendle	-11686
▁emideni	-11687
▁engekho	-11688
▁esinama	-11689
▁ethwele	-11690
▁iinwele	-11691
▁ingqayi	-11692
▁itsalwa	-11693
▁kolunye	-11694
▁kwigama	-11695
▁nemithi	-11696
▁ngokuya	-11697
▁ningazi	-11698
▁noIsake	-11699
▁sahluko	-11700
▁uLabhan	-11701
▁ukubuya	-11702
▁umnyaka	-11703
▁wambiza	-11704
▁womlilo	-11705
▁yayingu	-11706
▁yoThixo	-11707
▁yozinzo	-11708
▁zohlobo	-11709
▁zokhuni	-11710
▁zolwazi	-11711
bandezele	-11712
bhekisele	-11713
gwetyelwa	-11714
khululeke	-11715
xwesileyo	-11716
▁Kwindawo	-11717
▁Ububanzi	-11718
▁Ukuqhuba	-11719
▁Ulwandle	-11720
▁Uqeqesho	-11721
▁abangaba	-11722
▁amanqaku	-11723
▁baqubuda	-11724
▁ebangela	-11725
▁engentla	-11726
▁esiswini	-11727
▁eziphezu	-11728
▁ifakelwe	-11729
▁isidumbu	-11730
▁isihlalo	-11731
▁izilumko	-11732
▁koMlambo	-11733
▁komsinga	-11734
▁kuYosefu	-11735
▁kubuyela	-11736
▁kufuneke	-11737
▁kusetyen	-11738
▁kwilungu	-11739
▁lwabantu	-11740
▁lwesizwe	-11741
▁nentloko	-11742
▁nezindlu	-11743
▁ngambini	-11744
▁ngeetoni	-11745
▁nguwuphi	-11746
▁ukugquma	-11747
▁umphetho	-11748
▁wabasiki	-11749
▁wamazulu	-11750
▁wesiseko	-11751
▁wolawulo	-11752
▁yedizili	-11753
▁yentsika	-11754
▁yeplanga	-11755
▁yomibini	-11756
▁zonxweme	-11757
gqityiweyo	-11758
khathazeka	-11759
khuselweyo	-11760
phulaphuli	-11761
qinisekile	-11762
tshebeleza	-11763
valekileyo	-11764
yibilikisi	-11765
▁Abaphathi	-11766
▁Ngelishwa	-11767
▁NguYehova	-11768
▁amacwecwe	-11769
▁athabathe	-11770
▁babesithi	-11771
▁iikerubhi	-11772
▁irhamncwa	-11773
▁kwesibini	-11774
▁nakubantu	-11775
▁nemfesane	-11776
▁ngumsindo	-11777
▁nomzantsi	-11778
▁samashumi	-11779
▁sebenzisa	-11780
▁sisixhobo	-11781
▁somthwalo	-11782
▁ukwahlula	-11783
▁wesabatha	-11784
▁yepetroli	-11785
▁yobuchule	-11786
buncinaneni	-11787
elunxwemeni	-11788
phikisanayo	-11789
sebenzisana	-11790
sithandathu	-11791
zukulwaneni	-11792
▁Ngaphezulu	-11793
▁Okwesibini	-11794
▁Wenjenjalo	-11795
▁abasebenza	-11796
▁amakhonkco	-11797
▁ayinyusayo	-11798
▁elingcwele	-11799
▁engasentla	-11800
▁engezantsi	-11801
▁esebenzisa	-11802
▁imingxunya	-11803
▁isikhuselo	-11804
▁nakweyiphi	-11805
▁sokuphatha	-11806
▁wehlabathi	-11807
▁zesinyithi	-11808
▁Oomatiloshe	-11809
▁angaphantsi	-11810
▁eliqinileyo	-11811
▁esasaziweyo	-11812
▁imiphambili	-11813
▁kangakanani	-11814
▁kungafuneka	-11815
▁kwabonakala	-11816
▁ngephanyazo	-11817
▁Osenyangweni	-11818
▁eshiyekileyo	-11819
▁etyathangeni	-11820
▁ezahlukileyo	-11821
▁izikhonkwane	-11822
▁kwabazalwana	-11823
▁woomatiloshe	-11824
▁yangaphandle	-11825
▁isikhongozeli	-11826
▁nemibingelelo	-11827
▁sokucamagusha	-11828
▁ekhawulezileyo	-11829
▁kwesikhitshane	-11830
5)	-11831
CI	-11832
En	-11833
Kh	-11834
od	-11835
rk	-11836
tt	-11837
yd	-11838
▁q	-11839
-15	-11840
BON	-11841
BUN	-11842
STI	-11843
Uku	-11844
bru	-11845
ced	-11846
fon	-11847
rio	-11848
tla	-11849
tte	-11850
vis	-11851
yuk	-11852
▁3.	-11853
▁iG	-11854
CALA	-11855
Hivi	-11856
anje	-11857
bina	-11858
gadi	-11859
gang	-11860
here	-11861
illi	-11862
inda	-11863
limi	-11864
logu	-11865
luku	-11866
ntle	-11867
ruya	-11868
sant	-11869
tera	-11870
thsi	-11871
▁OLU	-11872
▁Phe	-11873
▁chu	-11874
▁ekr	-11875
▁nqa	-11876
▁ula	-11877
Arnon	-11878
Eliya	-11879
SANDF	-11880
XHOBO	-11881
ameva	-11882
bango	-11883
buthe	-11884
chasi	-11885
combu	-11886
fingo	-11887
ginya	-11888
hlway	-11889
iseke	-11890
khenk	-11891
londa	-11892
mbali	-11893
nceda	-11894
qwazi	-11895
sanda	-11896
sheni	-11897
xelwe	-11898
yulwa	-11899
zwaka	-11900
zwini	-11901
▁ABCD	-11902
▁Bali	-11903
▁EZIN	-11904
▁Kuzo	-11905
▁Medi	-11906
▁ango	-11907
▁bawe	-11908
▁belu	-11909
▁beme	-11910
▁eyim	-11911
▁ihla	-11912
▁luye	-11913
▁mabu	-11914
▁nkxu	-11915
▁onom	-11916
▁yani	-11917
▁yema	-11918
KHEPHE	-11919
Leande	-11920
Phathi	-11921
amkeli	-11922
andoda	-11923
antywi	-11924
bangwa	-11925
bisile	-11926
bulelo	-11927
dadisi	-11928
dlwana	-11929
engabo	-11930
engeni	-11931
fayile	-11932
hadade	-11933
lekisa	-11934
ntloko	-11935
ongena	-11936
phunye	-11937
simini	-11938
thulwe	-11939
vuyela	-11940
xitywe	-11941
yezere	-11942
▁Gcina	-11943
▁Igosa	-11944
▁Tsala	-11945
▁UFaro	-11946
▁Ukung	-11947
▁amafu	-11948
▁asisi	-11949
▁azise	-11950
▁bakum	-11951
▁beben	-11952
▁egama	-11953
▁ekuza	-11954
▁elase	-11955
▁elili	-11956
▁eqela	-11957
▁ezima	-11958
▁ibala	-11959
▁jonga	-11960
▁kwaza	-11961
▁mandi	-11962
▁ndilu	-11963
▁nemin	-11964
▁ngang	-11965
▁noBhe	-11966
▁okuya	-11967
▁ukube	-11968
▁ungan	-11969
▁uyilo	-11970
▁yaloo	-11971
▁zikho	-11972
Bhohazi	-11973
Tseruya	-11974
bhalele	-11975
fikelwa	-11976
fungayo	-11977
kumanda	-11978
laliswa	-11979
mpucuko	-11980
ontsini	-11981
qeqesha	-11982
qondaka	-11983
thethwe	-11984
thulelo	-11985
tywanga	-11986
valelwe	-11987
yinyani	-11988
zenziwe	-11989
▁Ilizwe	-11990
▁Okunye	-11991
▁Unyana	-11992
▁abekwe	-11993
▁awathi	-11994
▁bububi	-11995
▁efakwe	-11996
▁endini	-11997
▁eninga	-11998
▁iincam	-11999
▁imfuno	-12000
▁imiswe	-12001
▁ithile	-12002
▁kulala	-12003
▁kunezo	-12004
▁lomthi	-12005
▁nabase	-12006
▁nanina	-12007
▁nanini	-12008
▁negama	-12009
▁nemeko	-12010
▁njongo	-12011
▁nobomi	-12012
▁omdala	-12013
▁sinike	-12014
▁ungena	-12015
▁uthixo	-12016
▁yaqala	-12017
▁yezono	-12018
▁yibani	-12019
▁zodidi	-12020
▁zomntu	-12021
GANGATHO	-12022
amathele	-12023
bhabheli	-12024
bhexwayo	-12025
bhishayi	-12026
cebisana	-12027
coselelo	-12028
fanelana	-12029
gcinweni	-12030
mehlweni	-12031
menemene	-12032
rorhweni	-12033
thambise	-12034
tyhalela	-12035
velisela	-12036
ventiley	-12037
▁IBhunga	-12038
▁Imigaqo	-12039
▁Impahla	-12040
▁Incwadi	-12041
▁Kulapho	-12042
▁Kungoku	-12043
▁Kunzima	-12044
▁abalusi	-12045
▁akanaku	-12046
▁anamane	-12047
▁bexesha	-12048
▁elifeni	-12049
▁emthini	-12050
▁ethutha	-12051
▁ezinemi	-12052
▁inaliti	-12053
▁inganga	-12054
▁intlobo	-12055
▁kumjelo	-12056
▁kwezulu	-12057
▁lalingu	-12058
▁lilizwi	-12059
▁lilonke	-12060
▁lingabi	-12061
▁luhlobo	-12062
▁nakumva	-12063
▁nalinye	-12064
▁nangobu	-12065
▁neminye	-12066
▁uManase	-12067
▁uMariya	-12068
▁ukuzama	-12069
▁ukwehla	-12070
▁wandule	-12071
▁wogcino	-12072
▁yelanga	-12073
▁zobhedu	-12074
fakamfele	-12075
onakalise	-12076
sazulwini	-12077
thamsanqa	-12078
▁Bathetha	-12079
▁ISAHLUKO	-12080
▁Isizathu	-12081
▁Umngxuma	-12082
▁abaphuma	-12083
▁abaqhubi	-12084
▁amagunya	-12085
▁amalahle	-12086
▁bafumana	-12087
▁eGibheha	-12088
▁engenaku	-12089
▁esibanzi	-12090
▁ilungelo	-12091
▁isibambi	-12092
▁isigwebo	-12093
▁izigwebo	-12094
▁kwiRoyal	-12095
▁ngakhona	-12096
▁ngokwazo	-12097
▁ngolwazi	-12098
▁ngunyana	-12099
▁seenyawo	-12100
▁senqwelo	-12101
▁ummandla	-12102
▁wazibeka	-12103
▁wenjenje	-12104
▁weplanga	-12105
▁yakudala	-12106
▁yemozulu	-12107
▁zenzelwe	-12108
lungiselwe	-12109
phenyaneni	-12110
▁EkaDavide	-12111
▁Inkathalo	-12112
▁Isihlenga	-12113
▁Nayiphina	-12114
▁akunikayo	-12115
▁enamadoda	-12116
▁esikhephe	-12117
▁eyakhelwe	-12118
▁ingakwazi	-12119
▁ingenzeka	-12120
▁izibilini	-12121
▁kububanzi	-12122
▁kwempahla	-12123
▁kwenzelwa	-12124
▁kwisibini	-12125
▁ngamanani	-12126
▁ngumsinga	-12127
▁nokuphuma	-12128
▁olwenziwe	-12129
▁ophambili	-12130
▁samalungu	-12131
▁uZedekiya	-12132
▁ubuncinci	-12133
▁ukudibana	-12134
▁ukudubula	-12135
▁ukuphumla	-12136
▁wesibhozo	-12137
bonakaliswe	-12138
camagushela	-12139
kokugqibela	-12140
phakamisele	-12141
qhushumbisi	-12142
▁Kwiminyaka	-12143
▁Umphambili	-12144
▁abemwisele	-12145
▁ezimakhulu	-12146
▁kweentsuku	-12147
▁kwemisonto	-12148
▁kwisilenge	-12149
▁lwemfaniso	-12150
▁nentliziyo	-12151
▁ngenyameko	-12152
▁ngomkhombe	-12153
▁ngumyalelo	-12154
▁ukusindisa	-12155
▁wababulala	-12156
▁wabanikela	-12157
▁zomatshini	-12158
khukhuliseko	-12159
▁ebumnyameni	-12160
▁elinamabini	-12161
▁emqolombeni	-12162
▁ephothiweyo	-12163
▁esifunekayo	-12164
▁ezisezantsi	-12165
▁idityaniswe	-12166
▁ingaphantsi	-12167
▁kukhuseleko	-12168
▁kwimithwalo	-12169
▁lentsontelo	-12170
▁lokukhusela	-12171
▁ngenkathalo	-12172
▁ngomatshini	-12173
▁okungendawo	-12174
▁usetyenziso	-12175
▁yentsontelo	-12176
▁Izikhitshane	-12177
▁Makungabikho	-12178
▁ebotshelelwe	-12179
▁intlanganiso	-12180
▁kaYarobheham	-12181
▁kufanelekile	-12182
▁kwisikhululo	-12183
▁nemigangatho	-12184
▁usetyenziswa	-12185
▁awalithethayo	-12186
▁ezilayishelwa	-12187
▁naseYerusalem	-12188
▁ngoomatiloshe	-12189
▁sangaphambili	-12190
▁Amalungiselelo	-12191
▁esiqhelekileyo	-12192
▁imilinganiselo	-12193
▁isixokelelwano	-12194
▁kwizizukulwana	-12195
▁ngomlinganiselo	-12196
-(	-12197
/-	-12198
OR	-12199
188	-12200
Phi	-12201
Ter	-12202
gin	-12203
pen	-12204
qom	-12205
zel	-12206
▁Ca	-12207
▁De	-12208
▁Mo	-12209
▁uk	-12210
ELWA	-12211
ENZI	-12212
Gaza	-12213
Peri	-12214
SONT	-12215
Sebe	-12216
Yoya	-12217
beki	-12218
bhij	-12219
dani	-12220
duba	-12221
dume	-12222
feza	-12223
gala	-12224
gare	-12225
inwa	-12226
jula	-12227
kire	-12228
kron	-12229
ompo	-12230
polo	-12231
qwel	-12232
rola	-12233
tena	-12234
vuni	-12235
xama	-12236
xeni	-12237
yeha	-12238
yiko	-12239
▁And	-12240
▁Aye	-12241
▁ESI	-12242
▁Fun	-12243
▁KUN	-12244
▁ako	-12245
▁aqo	-12246
▁ewa	-12247
▁ewu	-12248
▁iwe	-12249
▁kaK	-12250
▁mak	-12251
▁noK	-12252
▁noP	-12253
▁phu	-12254
▁saa	-12255
amhla	-12256
bange	-12257
bhuqa	-12258
chaze	-12259
gatya	-12260
gcono	-12261
gqala	-12262
gquba	-12263
hluma	-12264
kreqa	-12265
lungi	-12266
mdaka	-12267
miral	-12268
ngoku	-12269
qamba	-12270
retse	-12271
rheni	-12272
thinj	-12273
tyety	-12274
wulwa	-12275
yishi	-12276
▁Bawa	-12277
▁Bawu	-12278
▁Nalo	-12279
▁Suku	-12280
▁Zint	-12281
▁aphe	-12282
▁enen	-12283
▁indi	-12284
▁keng	-12285
▁liku	-12286
▁luse	-12287
▁make	-12288
▁nise	-12289
▁nozi	-12290
▁ondi	-12291
▁yela	-12292
Ashera	-12293
Dariyo	-12294
Ramoti	-12295
amkela	-12296
anyula	-12297
bekele	-12298
bhetri	-12299
cinywa	-12300
dlalwa	-12301
dlongo	-12302
fanisa	-12303
fudula	-12304
hlolwe	-12305
inguye	-12306
ishiya	-12307
qhotyo	-12308
rhwebe	-12309
sabelo	-12310
shulam	-12311
silela	-12312
soyika	-12313
thathi	-12314
thumba	-12315
wahazi	-12316
wanika	-12317
yakeni	-12318
yikisa	-12319
yikiso	-12320
zangqa	-12321
zintlu	-12322
▁Bandi	-12323
▁UMoya	-12324
▁abeyi	-12325
▁afuna	-12326
▁angen	-12327
▁asing	-12328
▁bamba	-12329
▁eBher	-12330
▁ejika	-12331
▁emayi	-12332
▁ezibi	-12333
▁ijike	-12334
▁imele	-12335
▁kwako	-12336
▁lolwa	-12337
▁luhlu	-12338
▁lweli	-12339
▁ngobo	-12340
▁nguMa	-12341
▁olula	-12342
▁somva	-12343
▁tsala	-12344
▁uyaba	-12345
▁yithi	-12346
Elazare	-12347
Lakishe	-12348
Shemaya	-12349
dlalifa	-12350
dliwayo	-12351
hlisela	-12352
hliweyo	-12353
inehasi	-12354
jengawe	-12355
khokeli	-12356
kiswano	-12357
lelwano	-12358
ongezwa	-12359
phololo	-12360
qwebedu	-12361
sindeka	-12362
sondeli	-12363
tyaleni	-12364
xolelwa	-12365
zalelwa	-12366
▁Madoda	-12367
▁Nantsi	-12368
▁Phakam	-12369
▁Uninzi	-12370
▁ahleli	-12371
▁eBhete	-12372
▁ekufum	-12373
▁ekunce	-12374
▁endala	-12375
▁esidla	-12376
▁ezisem	-12377
▁iZiyon	-12378
▁igcine	-12379
▁isipho	-12380
▁kweeng	-12381
▁linike	-12382
▁makazi	-12383
▁masibe	-12384
▁ndedwa	-12385
▁ntloko	-12386
▁owandi	-12387
▁sizaku	-12388
▁sobude	-12389
▁thatha	-12390
▁ubuphi	-12391
▁umenzi	-12392
▁usithi	-12393
▁walila	-12394
▁waseMa	-12395
▁yamaza	-12396
Victoria	-12397
Yabheshe	-12398
bhexeshi	-12399
elungisa	-12400
gibisela	-12401
gqithile	-12402
jongiswe	-12403
khonkxwa	-12404
khumbuza	-12405
ngcelele	-12406
qiniseke	-12407
qunyulwa	-12408
thathiwe	-12409
thwalisa	-12410
tshakazi	-12411
umzekelo	-12412
wesibini	-12413
xhakamfu	-12414
xhalanga	-12415
yamekela	-12416
▁Impompo	-12417
▁Ukubeka	-12418
▁Uphando	-12419
▁akwenze	-12420
▁athethe	-12421
▁echazwe	-12422
▁eenkomo	-12423
▁egolide	-12424
▁elisisi	-12425
▁engathi	-12426
▁eshushu	-12427
▁esifana	-12428
▁ibhanti	-12429
▁imimoya	-12430
▁inkitha	-12431
▁inkxaso	-12432
▁izivalo	-12433
▁kugcino	-12434
▁kwevili	-12435
▁leetoni	-12436
▁mafutha	-12437
▁nakwimi	-12438
▁nelinen	-12439
▁nezizwe	-12440
▁nomfazi	-12441
▁noncedo	-12442
▁norhoxo	-12443
▁sengozi	-12444
▁wabantu	-12445
▁wambona	-12446
▁wenyawo	-12447
▁wooyise	-12448
▁yephini	-12449
▁yesango	-12450
▁zihambe	-12451
bingelele	-12452
gonyamela	-12453
kilowadzi	-12454
kwamkelwa	-12455
lungisele	-12456
mpungutye	-12457
ngampunzi	-12458
qiniselwe	-12459
sebenziyo	-12460
sentlango	-12461
sikhokelo	-12462
thelekiso	-12463
tyibilizi	-12464
yinyaniso	-12465
▁Iintlobo	-12466
▁Isilenge	-12467
▁Kwesinye	-12468
▁UAbraham	-12469
▁UYoshuwa	-12470
▁abangena	-12471
▁amalaphu	-12472
▁eDamasko	-12473
▁entsimbi	-12474
▁eyakhiwe	-12475
▁iindonga	-12476
▁imilambo	-12477
▁ingqumbo	-12478
▁itempile	-12479
▁komkhulu	-12480
▁kumphini	-12481
▁kwakubon	-12482
▁kweNkosi	-12483
▁kwiflegi	-12484
▁kwiverhe	-12485
▁matshini	-12486
▁nangokwe	-12487
▁nebandla	-12488
▁nentombi	-12489
▁ngenceba	-12490
▁uBhahali	-12491
▁uSathana	-12492
▁umbulali	-12493
▁umkhondo	-12494
▁uxanduva	-12495
▁wafumana	-12496
▁wenqwelo	-12497
▁yamadoda	-12498
▁yomphini	-12499
▁yotshaba	-12500
camisileyo	-12501
gqithisela	-12502
hlambulula	-12503
hlanganisi	-12504
khutshelwe	-12505
rubhabheli	-12506
semkhosini	-12507
tshutshisa	-12508
▁Imizekelo	-12509
▁Izithuthi	-12510
▁Ukufumana	-12511
▁anamabini	-12512
▁ejikeleza	-12513
▁ekujikeni	-12514
▁imijikelo	-12515
▁isenokuba	-12516
▁kaNebhati	-12517
▁kuAbraham	-12518
▁kuYowabhi	-12519
▁kunexesha	-12520
▁kwentente	-12521
▁kwiphondo	-12522
▁kwisigaba	-12523
▁lwenyanga	-12524
▁nabafundi	-12525
▁ndithetha	-12526
▁ngeengubo	-12527
▁omsebenzi	-12528
▁umkhenkce	-12529
▁yesihlanu	-12530
▁yesilenge	-12531
▁yimfesane	-12532
▁yobugcisa	-12533
▁yomphunga	-12534
▁zobuchule	-12535
lindelekile	-12536
lungisiweyo	-12537
phefumlweni	-12538
sebenziseni	-12539
▁amaqashiso	-12540
▁bomsebenzi	-12541
▁enqwelweni	-12542
▁enxulumene	-12543
▁ezilungele	-12544
▁eziphantsi	-12545
▁kuthabatha	-12546
▁kwesiphelo	-12547
▁lwesixhobo	-12548
▁nemithwalo	-12549
▁nezambatho	-12550
▁obumalunga	-12551
▁ukuncedisa	-12552
▁umthandelo	-12553
▁womsebenzi	-12554
▁yezamayeza	-12555
▁yomqondiso	-12556
▁zokudubula	-12557
▁Ukulungiswa	-12558
▁akubangakho	-12559
▁amarhamncwa	-12560
▁ekufumaneni	-12561
▁ekwakhiweni	-12562
▁emlanjaneni	-12563
▁esibekiweyo	-12564
▁ezindleleni	-12565
▁ezomeleleyo	-12566
▁ngamacangci	-12567
▁ukukhangela	-12568
▁ukuziphatha	-12569
▁zamaFilisti	-12570
▁zanamhlanje	-12571
▁zilungileyo	-12572
▁abasisigxina	-12573
▁engalunganga	-12574
▁esibhaliweyo	-12575
▁ezisebenzayo	-12576
▁ikhuselekile	-12577
▁ukulinganisa	-12578
▁yenkwenkwezi	-12579
▁ezingamakhulu	-12580
▁ibalulekileyo	-12581
▁kwathabathela	-12582
▁ngurhulumente	-12583
▁obalulekileyo	-12584
▁zaseYerusalem	-12585
▁lomlinganiselo	-12586
▁ngaselunxwemeni	-12587
6)	-12588
FU	-12589
Pi	-12590
QA	-12591
Um	-12592
jl	-12593
▁:	-12594
-20	-12595
191	-12596
ENE	-12597
HIV	-12598
Ize	-12599
com	-12600
min	-12601
njl	-12602
▁Re	-12603
▁Zo	-12604
▁di	-12605
▁eB	-12606
▁iE	-12607
▁uK	-12608
GAMA	-12609
Gomo	-12610
KHUS	-12611
Kore	-12612
WEYO	-12613
bhar	-12614
bhun	-12615
buze	-12616
cime	-12617
dali	-12618
ders	-12619
ella	-12620
enta	-12621
hagu	-12622
julo	-12623
lewe	-12624
meri	-12625
poro	-12626
raki	-12627
reka	-12628
rete	-12629
sina	-12630
vulo	-12631
wadi	-12632
wevu	-12633
yabi	-12634
ziva	-12635
▁ife	-12636
▁iwu	-12637
▁neN	-12638
▁uKa	-12639
Bhele	-12640
KATHI	-12641
aneli	-12642
bhayi	-12643
bheni	-12644
cocwa	-12645
dumba	-12646
hliwe	-12647
jikwe	-12648
krokr	-12649
mbiwa	-12650
pakis	-12651
sinqe	-12652
thiyo	-12653
vanga	-12654
xhome	-12655
▁(1),	-12656
▁Aban	-12657
▁Brit	-12658
▁Buya	-12659
▁Lung	-12660
▁Susa	-12661
▁Yona	-12662
▁ZOKU	-12663
▁basa	-12664
▁ebha	-12665
▁kume	-12666
▁lesa	-12667
▁maxa	-12668
▁nguH	-12669
▁nino	-12670
▁noMi	-12671
▁noTi	-12672
▁ombi	-12673
▁siwa	-12674
▁utsa	-12675
▁wang	-12676
▁zesa	-12677
Gomora	-12678
amkele	-12679
babale	-12680
coceko	-12681
dayame	-12682
fathom	-12683
gadayo	-12684
gulane	-12685
khanye	-12686
khonto	-12687
kololo	-12688
kutsho	-12689
ndlela	-12690
phangi	-12691
riyali	-12692
tamare	-12693
thupha	-12694
vumeli	-12695
xamnye	-12696
xiweyo	-12697
xoweni	-12698
yamazi	-12699
yibona	-12700
zaneni	-12701
▁Ipali	-12702
▁KUNYE	-12703
▁NGOKU	-12704
▁Ukuya	-12705
▁Wothi	-12706
▁Yinto	-12707
▁abawu	-12708
▁angum	-12709
▁elali	-12710
▁eland	-12711
▁ipali	-12712
▁lenza	-12713
▁nomzi	-12714
▁olwan	-12715
▁sidle	-12716
▁uSara	-12717
▁ukubo	-12718
▁umise	-12719
▁uviko	-12720
▁ziing	-12721
Japhani	-12722
anjenga	-12723
bangele	-12724
bhahali	-12725
dolophu	-12726
endlebe	-12727
gutyula	-12728
hlukane	-12729
hlulelo	-12730
hombiso	-12731
kelanga	-12732
khiweyo	-12733
khonkxa	-12734
krexezi	-12735
kubalwa	-12736
lumkisa	-12737
mbadada	-12738
ongweni	-12739
pheleyo	-12740
phelise	-12741
qumbise	-12742
thelana	-12743
thengwa	-12744
thinjwe	-12745
umelelo	-12746
varanda	-12747
votelwa	-12748
▁Basuka	-12749
▁Petros	-12750
▁azikho	-12751
▁babone	-12752
▁batsho	-12753
▁befuna	-12754
▁bomoya	-12755
▁ekwisi	-12756
▁esemva	-12757
▁exhasa	-12758
▁eyakhe	-12759
▁idinga	-12760
▁isuswe	-12761
▁kaMika	-12762
▁kakade	-12763
▁kobude	-12764
▁kukufa	-12765
▁lwenza	-12766
▁nakuzo	-12767
▁negazi	-12768
▁nibone	-12769
▁ntsuku	-12770
▁okuhle	-12771
▁uhlolo	-12772
▁ukhona	-12773
▁unyuka	-12774
▁utsale	-12775
▁utyani	-12776
▁wavuka	-12777
▁weqela	-12778
▁yeyoku	-12779
▁yimeko	-12780
angamela	-12781
angcwaba	-12782
baluleka	-12783
bhaptiza	-12784
boniselo	-12785
buyekeza	-12786
dumiseni	-12787
entlanzi	-12788
funekiyo	-12789
guqukiyo	-12790
hloniphe	-12791
kholwayo	-12792
kwanjalo	-12793
mpahleni	-12794
phenduli	-12795
qeqeshwa	-12796
qhiphuka	-12797
rhityela	-12798
shweshwe	-12799
thonjeni	-12800
ustralia	-12801
xungupha	-12802
zaliseke	-12803
▁Iitanki	-12804
▁Kwicala	-12805
▁Umqhubi	-12806
▁Uyalelo	-12807
▁Wangena	-12808
▁Wathuma	-12809
▁Yithini	-12810
▁amajoni	-12811
▁bagcine	-12812
▁bangaba	-12813
▁behamba	-12814
▁elingum	-12815
▁emfazwe	-12816
▁engemva	-12817
▁imifuno	-12818
▁ingxolo	-12819
▁ithwala	-12820
▁kubekwa	-12821
▁kulapho	-12822
▁kunceda	-12823
▁lengubo	-12824
▁lixhoba	-12825
▁nangemi	-12826
▁nelinye	-12827
▁nenceba	-12828
▁ngomnye	-12829
▁nomGaqo	-12830
▁ntlanga	-12831
▁oluvela	-12832
▁omlambo	-12833
▁socingo	-12834
▁ufumana	-12835
▁ukuvuza	-12836
▁ukwanda	-12837
▁umlenze	-12838
▁usenoku	-12839
▁wazenza	-12840
▁wenkosi	-12841
▁yelungu	-12842
▁yentaba	-12843
▁zezinye	-12844
▁zingaba	-12845
▁zinikwe	-12846
▁zomlilo	-12847
Abhisalom	-12848
Yehoyakim	-12849
gxininisa	-12850
khunjulwe	-12851
salathiso	-12852
terranean	-12853
zintabeni	-12854
▁Amaxesha	-12855
▁Isahluko	-12856
▁Iziphelo	-12857
▁Kwaphuma	-12858
▁abahleli	-12859
▁amathole	-12860
▁bakowenu	-12861
▁bokuqala	-12862
▁eleshumi	-12863
▁epheleka	-12864
▁ephumela	-12865
▁esinzima	-12866
▁ezibamba	-12867
▁ezixhasa	-12868
▁imilenze	-12869
▁izakhiwo	-12870
▁kubulela	-12871
▁kungenga	-12872
▁kwamkela	-12873
▁kwendoda	-12874
▁lamagama	-12875
▁lamandla	-12876
▁lweshumi	-12877
▁ndingaba	-12878
▁ngezinye	-12879
▁ngoThixo	-12880
▁olunzulu	-12881
▁sithetha	-12882
▁sokwenza	-12883
▁ubugcisa	-12884
▁ugalelwe	-12885
▁ukubekwa	-12886
▁ukuhlisa	-12887
▁ukususwa	-12888
▁ukuzenza	-12889
▁yayikuku	-12890
▁yokuloba	-12891
▁yonxweme	-12892
▁zamacala	-12893
▁zothutho	-12894
gqunyiweyo	-12895
ngaphandle	-12896
obulungisa	-12897
phindezeli	-12898
thambekela	-12899
thandabuzo	-12900
thokothoko	-12901
▁Amaplanga	-12902
▁Imibhobho	-12903
▁Sebenzisa	-12904
▁Waxelelwa	-12905
▁anamandla	-12906
▁ezolileyo	-12907
▁iBhabheli	-12908
▁imfundiso	-12909
▁ingenziwa	-12910
▁inkathalo	-12911
▁iyunifomu	-12912
▁kuqeqesho	-12913
▁lokungena	-12914
▁lokutsala	-12915
▁necandelo	-12916
▁nesahlulo	-12917
▁nezimanga	-12918
▁ngobusuku	-12919
▁okwangoku	-12920
▁ongasemva	-12921
▁sikaMoses	-12922
▁sisebenza	-12923
▁ubuthongo	-12924
▁ukukholwa	-12925
▁unguThixo	-12926
▁yamaxesha	-12927
▁yikubhite	-12928
▁zalishumi	-12929
▁zisebenze	-12930
qinisekiswe	-12931
▁ENQANAWENI	-12932
▁Ucwangciso	-12933
▁Umphakathi	-12934
▁amalungelo	-12935
▁anqabileyo	-12936
▁bakaKehati	-12937
▁bakaYosefu	-12938
▁ekuqhubeni	-12939
▁kulungiswa	-12940
▁kusenzelwa	-12941
▁kwamakhulu	-12942
▁lokulawula	-12943
▁ngobunzima	-12944
▁ngumphunga	-12945
▁nokwenziwa	-12946
▁owandulela	-12947
▁ukuthinjwa	-12948
▁umnqamlezo	-12949
▁wakhangela	-12950
▁wathandaza	-12951
▁yeentlanga	-12952
▁yentliziyo	-12953
▁yezothutho	-12954
▁zesikhungu	-12955
▁zokulawula	-12956
hlanganisela	-12957
▁ababuleweyo	-12958
▁ebonakalayo	-12959
▁elinazibini	-12960
▁ephenyaneni	-12961
▁esiqinileyo	-12962
▁ezingangeni	-12963
▁ezintombini	-12964
▁impindezelo	-12965
▁kuxinzelelo	-12966
▁njengamanzi	-12967
▁olusezantsi	-12968
▁umlinganiso	-12969
▁zinikezelwe	-12970
lungelelaniso	-12971
▁amatyathanga	-12972
▁aphakamileyo	-12973
▁emaphakadeni	-12974
▁ezibhaliweyo	-12975
▁kuthabathele	-12976
▁nasesandleni	-12977
▁ngentsontelo	-12978
▁ngokucothayo	-12979
▁olulandelayo	-12980
▁ibingamashumi	-12981
▁kwangokunjalo	-12982
▁lwangaphandle	-12983
▁okunokwenzeka	-12984
▁kwisikhonkwane	-12985
▁ngokusesikweni	-12986
▁oluzenzekelayo	-12987
tshangatshangiso	-12988
▁ezinqwenelekayo	-12989
AF	-12990
KE	-12991
TT	-12992
rm	-12993
▁&	-12994
▁0	-12995
100	-12996
ENG	-12997
Efe	-12998
KHI	-12999
KUN	-13000
TSA	-13001
ard	-13002
ire	-13003
nto	-13004
qen	-13005
ure	-13006
yit	-13007
▁SE	-13008
▁UK	-13009
▁UN	-13010
▁WE	-13011
▁mn	-13012
▁uF	-13013
John	-13014
Sara	-13015
buka	-13016
celi	-13017
chan	-13018
dode	-13019
gram	-13020
juba	-13021
kish	-13022
kthi	-13023
libo	-13024
mbam	-13025
plat	-13026
rula	-13027
sani	-13028
ster	-13029
vali	-13030
viwa	-13031
vuko	-13032
xani	-13033
xaxh	-13034
▁100	-13035
▁ELI	-13036
▁IMI	-13037
▁kaT	-13038
▁nya	-13039
▁phe	-13040
▁uAd	-13041
▁uMe	-13042
▁uTi	-13043
▁uyo	-13044
Efese	-13045
Ekron	-13046
Gcino	-13047
ISEKO	-13048
MASTI	-13049
anana	-13050
bhore	-13051
caphu	-13052
cengo	-13053
dliwe	-13054
kheko	-13055
melwe	-13056
mosha	-13057
nikwa	-13058
obubi	-13059
omiti	-13060
ongwe	-13061
qalwa	-13062
qongo	-13063
sheyi	-13064
sonko	-13065
tsore	-13066
tyisi	-13067
vande	-13068
▁Inko	-13069
▁Kude	-13070
▁Nabo	-13071
▁Naye	-13072
▁bala	-13073
▁bana	-13074
▁emim	-13075
▁kalo	-13076
▁lilo	-13077
▁lina	-13078
▁nabe	-13079
▁nisa	-13080
▁osis	-13081
▁owon	-13082
▁slip	-13083
▁zawa	-13084
▁ziwe	-13085
Arabhi	-13086
Perizi	-13087
angang	-13088
belula	-13089
bucala	-13090
conywa	-13091
dlanga	-13092
funeke	-13093
illiam	-13094
khwebu	-13095
lantsi	-13096
melele	-13097
mpatho	-13098
phumza	-13099
quleni	-13100
shdode	-13101
thwini	-13102
valele	-13103
xabele	-13104
xeleli	-13105
xusene	-13106
yalele	-13107
yukela	-13108
zayeli	-13109
▁Abayi	-13110
▁Imipu	-13111
▁Isebe	-13112
▁Phezu	-13113
▁Singa	-13114
▁abasa	-13115
▁akuva	-13116
▁anaba	-13117
▁bento	-13118
▁ekube	-13119
▁elibe	-13120
▁esisa	-13121
▁ibili	-13122
▁iliza	-13123
▁isiko	-13124
▁iyeza	-13125
▁izele	-13126
▁kaBha	-13127
▁kambe	-13128
▁komsi	-13129
▁kuBha	-13130
▁lungu	-13131
▁lwaso	-13132
▁makam	-13133
▁mpawu	-13134
▁ngela	-13135
▁ngenx	-13136
▁nguYe	-13137
▁ninge	-13138
▁uNowa	-13139
▁ukuqa	-13140
▁uyoku	-13141
▁uzayo	-13142
▁yeoli	-13143
▁yonge	-13144
▁zizin	-13145
▁zomva	-13146
Somlomo	-13147
alumini	-13148
amanani	-13149
banzima	-13150
cimbini	-13151
entlalo	-13152
etseron	-13153
fungele	-13154
gcinile	-13155
hlomela	-13156
hluthwa	-13157
hombisa	-13158
kelweyo	-13159
kuluhlu	-13160
likihlo	-13161
mbilini	-13162
pleyini	-13163
qumleza	-13164
sinyabi	-13165
sinyusi	-13166
songela	-13167
thayidi	-13168
tywinwa	-13169
yiselwe	-13170
zelelwe	-13171
zwakazi	-13172
▁Kwanga	-13173
▁Ungaze	-13174
▁angazi	-13175
▁aphile	-13176
▁besiqu	-13177
▁besiya	-13178
▁eShilo	-13179
▁ejonge	-13180
▁elisem	-13181
▁esikwi	-13182
▁iiyure	-13183
▁indalo	-13184
▁intsha	-13185
▁inyoka	-13186
▁inyuka	-13187
▁kunama	-13188
▁lobude	-13189
▁lwento	-13190
▁nabang	-13191
▁nakubo	-13192
▁neyoku	-13193
▁ngaban	-13194
▁nganto	-13195
▁nkonzo	-13196
▁nowoku	-13197
▁obunye	-13198
▁sendlu	-13199
▁somntu	-13200
▁ubekwe	-13201
▁ukreqo	-13202
▁usenza	-13203
▁wamana	-13204
▁yangum	-13205
PHAMBILI	-13206
bonakele	-13207
buleweyo	-13208
gangathe	-13209
guqulelo	-13210
hlambele	-13211
khombisa	-13212
obangela	-13213
pheliswa	-13214
rhoxiswa	-13215
sungulwa	-13216
thandaze	-13217
thetheni	-13218
tshisayo	-13219
tshonisa	-13220
tyhutyha	-13221
vandedwa	-13222
wanikela	-13223
xulumana	-13224
yamezelo	-13225
yibilika	-13226
zintlobo	-13227
zohlwaya	-13228
▁Bahlala	-13229
▁Ingxaki	-13230
▁Izibane	-13231
▁Makanga	-13232
▁Mthetho	-13233
▁Ngosuku	-13234
▁Okunene	-13235
▁alinaku	-13236
▁ashushu	-13237
▁ekuthwa	-13238
▁enameva	-13239
▁enjenge	-13240
▁ephethe	-13241
▁esilula	-13242
▁esoloko	-13243
▁ibanjwe	-13244
▁iinkuni	-13245
▁incinci	-13246
▁kangaka	-13247
▁kugweba	-13248
▁kumfazi	-13249
▁kwiwaka	-13250
▁mmandla	-13251
▁ndibone	-13252
▁ndibuye	-13253
▁negunya	-13254
▁nolunye	-13255
▁ukufaka	-13256
▁ukufuna	-13257
▁ukuvela	-13258
▁umgwebo	-13259
▁uphando	-13260
▁wexesha	-13261
▁zihlale	-13262
▁zingena	-13263
bhaptizwa	-13264
bhulukhwe	-13265
engxakini	-13266
khangelwa	-13267
khukulisa	-13268
khululeko	-13269
qhushekwe	-13270
qindilili	-13271
qokelelwe	-13272
thethanga	-13273
tyokololo	-13274
umsebenzi	-13275
yalelweni	-13276
▁Khawundi	-13277
▁Kwixesha	-13278
▁Ndihleli	-13279
▁Niyabona	-13280
▁Ukugcina	-13281
▁bamandla	-13282
▁elangeni	-13283
▁entshona	-13284
▁iimpompo	-13285
▁intokazi	-13286
▁iqheleke	-13287
▁isabatha	-13288
▁komnquba	-13289
▁kubonisa	-13290
▁kwetrone	-13291
▁lusoloko	-13292
▁nasezint	-13293
▁omalunga	-13294
▁seplanga	-13295
▁ukujinga	-13296
▁ukuphila	-13297
▁uyakwazi	-13298
▁wamthiya	-13299
▁wentloko	-13300
▁wesandla	-13301
▁yasendle	-13302
▁zikhephe	-13303
▁zintathu	-13304
▁zomsinga	-13305
cwangciswe	-13306
hlambuluka	-13307
hlanganise	-13308
hlanganiso	-13309
lulamileyo	-13310
phendulela	-13311
phindezela	-13312
thuthuzele	-13313
vunyelweyo	-13314
▁ababenaye	-13315
▁abasukuba	-13316
▁anababini	-13317
▁babengaba	-13318
▁eepesenti	-13319
▁emendweni	-13320
▁emnyameni	-13321
▁empahleni	-13322
▁engekhoyo	-13323
▁esifanayo	-13324
▁ijikeleze	-13325
▁isohlwayo	-13326
▁iyafuneka	-13327
▁izihlenga	-13328
▁kwebandla	-13329
▁kwibrorho	-13330
▁kwixabiso	-13331
▁liphezulu	-13332
▁neentloko	-13333
▁ngeemasti	-13334
▁ngexabiso	-13335
▁ngokwakho	-13336
▁nobuchule	-13337
▁olufanayo	-13338
▁sokunqika	-13339
▁ukuphinda	-13340
▁ukwamkela	-13341
▁ulwakhiwo	-13342
▁wamxelela	-13343
▁yamandulo	-13344
▁yecandelo	-13345
▁yobuninzi	-13346
▁yokuhlola	-13347
▁zokuhamba	-13348
▁zokuqhuba	-13349
khobokazana	-13350
phakamisayo	-13351
vumelekanga	-13352
▁Baphendula	-13353
▁Ukukhusela	-13354
▁awazenzayo	-13355
▁ekunyuseni	-13356
▁isikhokelo	-13357
▁kazwelonke	-13358
▁komphantsi	-13359
▁kwinqanaba	-13360
▁nakwindawo	-13361
▁ngobubanzi	-13362
▁okuphezulu	-13363
▁ukusondela	-13364
▁ukutyhilwa	-13365
▁umzekeliso	-13366
▁waphendula	-13367
▁yephenyane	-13368
▁zinamandla	-13369
▁zosixhenxe	-13370
Osenyangweni	-13371
Zerubhabheli	-13372
▁Ikhamandela	-13373
▁Isiqingatha	-13374
▁amaFrentshi	-13375
▁ekulayishwa	-13376
▁elinokujika	-13377
▁ephathekayo	-13378
▁esinolawulo	-13379
▁kwephenyane	-13380
▁kwezithuthi	-13381
▁lokhuseleko	-13382
▁lwesithathu	-13383
▁ngaphesheya	-13384
▁nokuphathwa	-13385
▁obufunekayo	-13386
▁othululwayo	-13387
▁uAhaswerosi	-13388
▁ukukhutshwa	-13389
▁ukuthandaza	-13390
▁yemisebenzi	-13391
▁zobukumkani	-13392
▁ababandezeli	-13393
▁ezimfutshane	-13394
▁okwethutyana	-13395
▁uthungelwano	-13396
▁wakuthethayo	-13397
▁wangaphandle	-13398
▁enesiqingatha	-13399
▁entshonalanga	-13400
▁esinomphantsi	-13401
▁kwakulungiswa	-13402
▁kwikhamandela	-13403
▁nangaphambili	-13404
▁yokulinganisa	-13405
▁yothungelwano	-13406
▁elingaphambili	-13407
▁ezikumgangatho	-13408
▁isetyenziselwa	-13409
▁nangomphefumlo	-13410
▁ngokuchaseneyo	-13411
▁ezinqamlezileyo	-13412
5°	-13413
8,	-13414
Ca	-13415
Ji	-13416
by	-13417
-12	-13418
AMP	-13419
Isi	-13420
fal	-13421
und	-13422
▁6.	-13423
▁As	-13424
▁Fa	-13425
▁Ka	-13426
▁eH	-13427
▁us	-13428
MSMP	-13429
SETT	-13430
bena	-13431
bozi	-13432
duny	-13433
edom	-13434
fano	-13435
fete	-13436
geza	-13437
homi	-13438
inin	-13439
lake	-13440
lati	-13441
lene	-13442
meta	-13443
okwa	-13444
onya	-13445
saya	-13446
shun	-13447
sifa	-13448
viki	-13449
xoka	-13450
yuki	-13451
▁Aze	-13452
▁Ema	-13453
▁Eng	-13454
▁Hla	-13455
▁Yoo	-13456
▁ake	-13457
▁bho	-13458
▁eGe	-13459
▁ePa	-13460
▁eTi	-13461
▁uso	-13462
▁zes	-13463
Asiya	-13464
HAMBA	-13465
Itali	-13466
Mpuma	-13467
aliti	-13468
bhuli	-13469
cenga	-13470
chazi	-13471
cindi	-13472
citsh	-13473
[...]
