{
  "version": "1.0",
  "truncation": null,
  "padding": null,
  "added_tokens": [
    {
      "id": 0,
      "content": "[UNK]",
      "single_word": false,
      "lstrip": false,
      "rstrip": false,
      "normalized": false,
      "special": true
    },
    {
      "id": 1,
      "content": "[PAD]",
      "single_word": false,
      "lstrip": false,
      "rstrip": false,
      "normalized": false,
      "special": true
    },
    {
      "id": 2,
      "content": "[SOS]",
      "single_word": false,
      "lstrip": false,
      "rstrip": false,
      "normalized": false,
      "special": true
    },
    {
      "id": 3,
      "content": "[EOS]",
      "single_word": false,
      "lstrip": false,
      "rstrip": false,
      "normalized": false,
      "special": true
    }
  ],
  "normalizer": null,
  "pre_tokenizer": {
    "type": "Whitespace"
  },
  "post_processor": null,
  "decoder": null,
  "model": {
    "type": "BPE",
    "dropout": null,
    "unk_token": "[UNK]",
    "continuing_subword_prefix": null,
    "end_of_word_suffix": null,
    "fuse_unk": false,
    "byte_fallback": false,
    "ignore_merges": false,
    "vocab": {
      "[UNK]": 0,
      "[PAD]": 1,
      "[SOS]": 2,
      "[EOS]": 3,
      "!": 4,
      "\"": 5,
      "%": 6,
      "&": 7,
      "'": 8,
      "(": 9,
      ")": 10,
      "*": 11,
      "+": 12,
      ",": 13,
      "-": 14,
      ".": 15,
      "/": 16,
      "0": 17,
      "1": 18,
      "2": 19,
      "3": 20,
      "4": 21,
      "5": 22,
      "6": 23,
      "7": 24,
      "8": 25,
      "9": 26,
      ":": 27,
      ";": 28,
      "=": 29,
      ">": 30,
      "?": 31,
      "A": 32,
      "B": 33,
      "C": 34,
      "D": 35,
      "E": 36,
      "F": 37,
      "G": 38,
      "H": 39,
      "I": 40,
      "J": 41,
      "K": 42,
      "L": 43,
      "M": 44,
      "N": 45,
      "O": 46,
      "P": 47,
      "Q": 48,
      "R": 49,
      "S": 50,
      "T": 51,
      "U": 52,
      "V": 53,
      "W": 54,
      "X": 55,
      "Y": 56,
      "Z": 57,
      "[": 58,
      "]": 59,
      "_": 60,
      "a": 61,
      "b": 62,
      "c": 63,
      "d": 64,
      "e": 65,
      "f": 66,
      "g": 67,
      "h": 68,
      "i": 69,
      "j": 70,
      "k": 71,
      "l": 72,
      "m": 73,
      "n": 74,
      "o": 75,
      "p": 76,
      "q": 77,
      "r": 78,
      "s": 79,
      "t": 80,
      "u": 81,
      "v": 82,
      "w": 83,
      "x": 84,
      "y": 85,
      "z": 86,
      "{": 87,
      "}": 88,
      "£": 89,
      "°": 90,
      "²": 91,
      "³": 92,
      "·": 93,
      "º": 94,
      "¼": 95,
      "½": 96,
      "¾": 97,
      "–": 98,
      "‘": 99,
      "’": 100,
      "“": 101,
      "”": 102,
      "he": 103,
      "the": 104,
      "in": 105,
      "re": 106,
      "an": 107,
      "er": 108,
      "on": 109,
      "at": 110,
      "or": 111,
      "is": 112,
      "ed": 113,
      "of": 114,
      "ar": 115,
      "en": 116,
      "to": 117,
      "ing": 118,
      "al": 119,
      "st": 120,
      "it": 121,
      "and": 122,
      "es": 123,
      "ou": 124,
      "as": 125,
      "le": 126,
      "th": 127,
      "be": 128,
      "ro": 129,
      "hi": 130,
      "ion": 131,
      "se": 132,
      "ch": 133,
      "de": 134,
      "The": 135,
      "il": 136,
      "ly": 137,
      "ct": 138,
      "ent": 139,
      "for": 140,
      "ic": 141,
      "ow": 142,
      "ve": 143,
      "hip": 144,
      "ad": 145,
      "ship": 146,
      "om": 147,
      "ig": 148,
      "su": 149,
      "are": 150,
      "ma": 151,
      "ac": 152,
      "pe": 153,
      "ab": 154,
      "si": 155,
      "un": 156,
      "ir": 157,
      "ver": 158,
      "ge": 159,
      "ul": 160,
      "we": 161,
      "bo": 162,
      "con": 163,
      "me": 164,
      "ation": 165,
      "ld": 166,
      "sh": 167,
      "ter": 168,
      "ra": 169,
      "ce": 170,
      "ith": 171,
      "ur": 172,
      "lo": 173,
      "that": 174,
      "with": 175,
      "by": 176,
      "all": 177,
      "ri": 178,
      "pro": 179,
      "mo": 180,
      "ne": 181,
      "ard": 182,
      "ck": 183,
      "ut": 184,
      "pl": 185,
      "ht": 186,
      "no": 187,
      "his": 188,
      "qu": 189,
      "po": 190,
      "so": 191,
      "com": 192,
      "ta": 193,
      "ers": 194,
      "ther": 195,
      "red": 196,
      "im": 197,
      "ll": 198,
      "ill": 199,
      "ment": 200,
      "whi": 201,
      "ha": 202,
      "ight": 203,
      "us": 204,
      "res": 205,
      "if": 206,
      "ould": 207,
      "ay": 208,
      "id": 209,
      "ke": 210,
      "ine": 211,
      "rom": 212,
      "was": 213,
      "out": 214,
      "This": 215,
      "ort": 216,
      "from": 217,
      "ap": 218,
      "which": 219,
      "der": 220,
      "art": 221,
      "per": 222,
      "ater": 223,
      "hen": 224,
      "not": 225,
      "am": 226,
      "fe": 227,
      "able": 228,
      "av": 229,
      "fo": 230,
      "ex": 231,
      "end": 232,
      "oun": 233,
      "ction": 234,
      "car": 235,
      "ust": 236,
      "te": 237,
      "In": 238,
      "will": 239,
      "ate": 240,
      "ess": 241,
      "ist": 242,
      "can": 243,
      "ast": 244,
      "go": 245,
      "port": 246,
      "co": 247,
      "our": 248,
      "sa": 249,
      "one": 250,
      "ships": 251,
      "ru": 252,
      "et": 253,
      "ally": 254,
      "ste": 255,
      "It": 256,
      "up": 257,
      "pos": 258,
      "ho": 259,
      "ft": 260,
      "part": 261,
      "should": 262,
      "ire": 263,
      "gh": 264,
      "ass": 265,
      "water": 266,
      "boat": 267,
      "ind": 268,
      "um": 269,
      "ran": 270,
      "this": 271,
      "ack": 272,
      "od": 273,
      "tw": 274,
      "used": 275,
      "when": 276,
      "were": 277,
      "side": 278,
      "iv": 279,
      "ted": 280,
      "ong": 281,
      "cre": 282,
      "ant": 283,
      "ive": 284,
      "fore": 285,
      "deck": 286,
      "her": 287,
      "ity": 288,
      "ble": 289,
      "ound": 290,
      "man": 291,
      "have": 292,
      "el": 293,
      "way": 294,
      "ition": 295,
      "own": 296,
      "must": 297,
      "other": 298,
      "low": 299,
      "ach": 300,
      "form": 301,
      "ies": 302,
      "sp": 303,
      "rope": 304,
      "tain": 305,
      "cl": 306,
      "use": 307,
      "also": 308,
      "spe": 309,
      "ty": 310,
      "line": 311,
      "rou": 312,
      "ves": 313,
      "ren": 314,
      "fic": 315,
      "ever": 316,
      "ure": 317,
      "sel": 318,
      "tur": 319,
      "eng": 320,
      "comp": 321,
      "tow": 322,
      "ag": 323,
      "wor": 324,
      "ip": 325,
      "ber": 326,
      "has": 327,
      "act": 328,
      "des": 329,
      "op": 330,
      "over": 331,
      "its": 332,
      "ain": 333,
      "age": 334,
      "ated": 335,
      "ign": 336,
      "ang": 337,
      "ef": 338,
      "two": 339,
      "their": 340,
      "they": 341,
      "may": 342,
      "ser": 343,
      "requ": 344,
      "bu": 345,
      "ti": 346,
      "ance": 347,
      "ical": 348,
      "ca": 349,
      "00": 350,
      "ace": 351,
      "air": 352,
      "int": 353,
      "ern": 354,
      "ial": 355,
      "ree": 356,
      "arge": 357,
      "hand": 358,
      "there": 359,
      "ary": 360,
      "any": 361,
      "turn": 362,
      "ous": 363,
      "cargo": 364,
      "do": 365,
      "bet": 366,
      "under": 367,
      "ull": 368,
      "pre": 369,
      "but": 370,
      "les": 371,
      "head": 372,
      "more": 373,
      "They": 374,
      "ice": 375,
      "vessel": 376,
      "li": 377,
      "owever": 378,
      "ines": 379,
      "ward": 380,
      "chor": 381,
      "stem": 382,
      "cess": 383,
      "then": 384,
      "af": 385,
      "king": 386,
      "into": 387,
      "sea": 388,
      "rough": 389,
      "she": 390,
      "ting": 391,
      "anchor": 392,
      "off": 393,
      "ome": 394,
      "only": 395,
      "ating": 396,
      "sail": 397,
      "att": 398,
      "board": 399,
      "stru": 400,
      "wind": 401,
      "main": 402,
      "If": 403,
      "ped": 404,
      "pres": 405,
      "made": 406,
      "ween": 407,
      "fit": 408,
      "sm": 409,
      "che": 410,
      "mar": 411,
      "than": 412,
      "tra": 413,
      "ry": 414,
      "ob": 415,
      "avy": 416,
      "fl": 417,
      "ystem": 418,
      "cle": 419,
      "between": 420,
      "dis": 421,
      "ep": 422,
      "ts": 423,
      "had": 424,
      "whe": 425,
      "cor": 426,
      "ks": 427,
      "them": 428,
      "du": 429,
      "em": 430,
      "ase": 431,
      "sible": 432,
      "through": 433,
      "ces": 434,
      "each": 435,
      "tran": 436,
      "been": 437,
      "cur": 438,
      "gen": 439,
      "When": 440,
      "ations": 441,
      "round": 442,
      "oy": 443,
      "cont": 444,
      "vent": 445,
      "fect": 446,
      "time": 447,
      "top": 448,
      "fir": 449,
      "large": 450,
      "str": 451,
      "dist": 452,
      "An": 453,
      "ved": 454,
      "ven": 455,
      "war": 456,
      "cent": 457,
      "dif": 458,
      "ide": 459,
      "ss": 460,
      "sim": 461,
      "pt": 462,
      "ments": 463,
      "bow": 464,
      "gun": 465,
      "ise": 466,
      "light": 467,
      "ol": 468,
      "ear": 469,
      "long": 470,
      "carri": 471,
      "speed": 472,
      "sion": 473,
      "down": 474,
      "cond": 475,
      "ced": 476,
      "sup": 477,
      "small": 478,
      "these": 479,
      "such": 480,
      "raft": 481,
      "ular": 482,
      "crew": 483,
      "fi": 484,
      "read": 485,
      "tom": 486,
      "These": 487,
      "sur": 488,
      "very": 489,
      "dire": 490,
      "sub": 491,
      "buil": 492,
      "trans": 493,
      "equ": 494,
      "est": 495,
      "mast": 496,
      "possible": 497,
      "gre": 498,
      "pass": 499,
      "tan": 500,
      "most": 501,
      "cable": 502,
      "ans": 503,
      "stern": 504,
      "cap": 505,
      "usu": 506,
      "Com": 507,
      "ied": 508,
      "some": 509,
      "ish": 510,
      "about": 511,
      "cy": 512,
      "mer": 513,
      "ffic": 514,
      "ping": 515,
      "position": 516,
      "lif": 517,
      "ons": 518,
      "aft": 519,
      "ning": 520,
      "ite": 521,
      "first": 522,
      "led": 523,
      "ards": 524,
      "cu": 525,
      "ates": 526,
      "iz": 527,
      "la": 528,
      "requi": 529,
      "hull": 530,
      "rig": 531,
      "cted": 532,
      "ten": 533,
      "being": 534,
      "ci": 535,
      "pow": 536,
      "incre": 537,
      "clo": 538,
      "llow": 539,
      "cause": 540,
      "fitted": 541,
      "oper": 542,
      "term": 543,
      "ple": 544,
      "uch": 545,
      "ged": 546,
      "would": 547,
      "weight": 548,
      "prov": 549,
      "ving": 550,
      "ions": 551,
      "well": 552,
      "usually": 553,
      "call": 554,
      "ding": 555,
      "after": 556,
      "system": 557,
      "feren": 558,
      "same": 559,
      "je": 560,
      "rop": 561,
      "allow": 562,
      "work": 563,
      "19": 564,
      "To": 565,
      "bre": 566,
      "ring": 567,
      "sl": 568,
      "ak": 569,
      "where": 570,
      "cour": 571,
      "before": 572,
      "effect": 573,
      "gener": 574,
      "hed": 575,
      "sure": 576,
      "sul": 577,
      "sho": 578,
      "ght": 579,
      "who": 580,
      "ence": 581,
      "comm": 582,
      "haw": 583,
      "ave": 584,
      "ful": 585,
      "now": 586,
      "required": 587,
      "However": 588,
      "rad": 589,
      "run": 590,
      "you": 591,
      "load": 592,
      "high": 593,
      "follow": 594,
      "Se": 595,
      "num": 596,
      "dep": 597,
      "18": 598,
      "less": 599,
      "tri": 600,
      "hat": 601,
      "ove": 602,
      "val": 603,
      "ility": 604,
      "inter": 605,
      "lock": 606,
      "dra": 607,
      "ken": 608,
      "ors": 609,
      "design": 610,
      "however": 611,
      "He": 612,
      "wo": 613,
      "orm": 614,
      "ings": 615,
      "add": 616,
      "necess": 617,
      "point": 618,
      "ways": 619,
      "ail": 620,
      "flo": 621,
      "ious": 622,
      "tu": 623,
      "tim": 624,
      "stand": 625,
      "power": 626,
      "vice": 627,
      "del": 628,
      "siz": 629,
      "contain": 630,
      "again": 631,
      "boats": 632,
      "med": 633,
      "hold": 634,
      "cir": 635,
      "itu": 636,
      "three": 637,
      "ross": 638,
      "place": 639,
      "ends": 640,
      "Con": 641,
      "leng": 642,
      "sw": 643,
      "spec": 644,
      "fle": 645,
      "your": 646,
      "icular": 647,
      "class": 648,
      "direction": 649,
      "giv": 650,
      "hal": 651,
      "much": 652,
      "sign": 653,
      "called": 654,
      "var": 655,
      "along": 656,
      "buoy": 657,
      "built": 658,
      "ric": 659,
      "ject": 660,
      "course": 661,
      "back": 662,
      "craft": 663,
      "land": 664,
      "length": 665,
      "IN": 666,
      "ather": 667,
      "fact": 668,
      "pi": 669,
      "velo": 670,
      "For": 671,
      "could": 672,
      "fast": 673,
      "bot": 674,
      "take": 675,
      "tank": 676,
      "fer": 677,
      "lines": 678,
      "rol": 679,
      "ulation": 680,
      "new": 681,
      "ative": 682,
      "There": 683,
      "both": 684,
      "uring": 685,
      "prope": 686,
      "comple": 687,
      "clear": 688,
      "gu": 689,
      "resul": 690,
      "ities": 691,
      "ough": 692,
      "above": 693,
      "She": 694,
      "cri": 695,
      "par": 696,
      "order": 697,
      "row": 698,
      "plac": 699,
      "equip": 700,
      "bottom": 701,
      "coun": 702,
      "ok": 703,
      "ron": 704,
      "reg": 705,
      "because": 706,
      "exam": 707,
      "strand": 708,
      "number": 709,
      "En": 710,
      "ient": 711,
      "knot": 712,
      "stow": 713,
      "dock": 714,
      "necessary": 715,
      "sing": 716,
      "ual": 717,
      "heavy": 718,
      "ily": 719,
      "mem": 720,
      "carry": 721,
      "type": 722,
      "open": 723,
      "ined": 724,
      "unt": 725,
      "plan": 726,
      "appro": 727,
      "ext": 728,
      "propell": 729,
      "cal": 730,
      "rest": 731,
      "ised": 732,
      "keep": 733,
      "ports": 734,
      "000": 735,
      "lay": 736,
      "pur": 737,
      "ars": 738,
      "forward": 739,
      "differen": 740,
      "bul": 741,
      "ither": 742,
      "ling": 743,
      "lead": 744,
      "need": 745,
      "tem": 746,
      "guns": 747,
      "On": 748,
      "ama": 749,
      "ele": 750,
      "fire": 751,
      "put": 752,
      "rit": 753,
      "tal": 754,
      "ath": 755,
      "ctions": 756,
      "prevent": 757,
      "ision": 758,
      "redu": 759,
      "ided": 760,
      "div": 761,
      "tor": 762,
      "thod": 763,
      "chan": 764,
      "make": 765,
      "weather": 766,
      "import": 767,
      "particular": 768,
      "lower": 769,
      "formation": 770,
      "even": 771,
      "min": 772,
      "ps": 773,
      "right": 774,
      "At": 775,
      "either": 776,
      "sed": 777,
      "inch": 778,
      "atch": 779,
      "develo": 780,
      "ational": 781,
      "plied": 782,
      "distance": 783,
      "au": 784,
      "ining": 785,
      "incl": 786,
      "iron": 787,
      "good": 788,
      "therefore": 789,
      "wood": 790,
      "size": 791,
      "until": 792,
      "batt": 793,
      "dri": 794,
      "hel": 795,
      "roll": 796,
      "taken": 797,
      "carried": 798,
      "ame": 799,
      "ging": 800,
      "just": 801,
      "atter": 802,
      "adv": 803,
      "sive": 804,
      "As": 805,
      "vol": 806,
      "ata": 807,
      "stra": 808,
      "surf": 809,
      "cured": 810,
      "given": 811,
      ").": 812,
      "four": 813,
      "method": 814,
      "produ": 815,
      "come": 816,
      "struct": 817,
      "DI": 818,
      "Mo": 819,
      "kn": 820,
      "stop": 821,
      "always": 822,
      "below": 823,
      "means": 824,
      "near": 825,
      "rud": 826,
      "condition": 827,
      "transport": 828,
      "vi": 829,
      "set": 830,
      "like": 831,
      "equipment": 832,
      "ER": 833,
      "Offic": 834,
      "Re": 835,
      "dama": 836,
      "ger": 837,
      "pon": 838,
      "ply": 839,
      "sto": 840,
      "rel": 841,
      "secured": 842,
      "ilar": 843,
      "gether": 844,
      "haul": 845,
      "ately": 846,
      "upper": 847,
      "descri": 848,
      "ches": 849,
      "increas": 850,
      "placed": 851,
      "St": 852,
      "together": 853,
      "als": 854,
      "short": 855,
      "peri": 856,
      "present": 857,
      "Al": 858,
      "cut": 859,
      "di": 860,
      "oil": 861,
      "arter": 862,
      "shack": 863,
      "shore": 864,
      "ahead": 865,
      "ot": 866,
      "nel": 867,
      "sol": 868,
      "Ar": 869,
      "Navy": 870,
      "day": 871,
      "ose": 872,
      "let": 873,
      "engine": 874,
      "example": 875,
      "block": 876,
      "hor": 877,
      "nav": 878,
      "range": 879,
      "angle": 880,
      "EE": 881,
      "men": 882,
      "tic": 883,
      "ery": 884,
      "safe": 885,
      "ready": 886,
      "circ": 887,
      "aw": 888,
      "fall": 889,
      "oc": 890,
      "screw": 891,
      "tons": 892,
      "wire": 893,
      "xt": 894,
      "inu": 895,
      "vel": 896,
      "meas": 897,
      "System": 898,
      "igh": 899,
      "compart": 900,
      "rudder": 901,
      "De": 902,
      "bed": 903,
      "ey": 904,
      "ges": 905,
      "pers": 906,
      "ram": 907,
      "while": 908,
      "ress": 909,
      "anger": 910,
      "har": 911,
      "kes": 912,
      "spl": 913,
      "ud": 914,
      "ertain": 915,
      "ult": 916,
      "move": 917,
      "similar": 918,
      "general": 919,
      "20": 920,
      "offic": 921,
      "ick": 922,
      "ract": 923,
      "ific": 924,
      "life": 925,
      "Officer": 926,
      "bri": 927,
      "eas": 928,
      "ner": 929,
      "quarter": 930,
      "respon": 931,
      "feet": 932,
      "bulk": 933,
      "during": 934,
      "norm": 935,
      "year": 936,
      "astern": 937,
      "continu": 938,
      "support": 939,
      "times": 940,
      "against": 941,
      "special": 942,
      "Bo": 943,
      "free": 944,
      "ub": 945,
      "rent": 946,
      "Do": 947,
      "rin": 948,
      "ering": 949,
      "ens": 950,
      "require": 951,
      "control": 952,
      "Comm": 953,
      "knots": 954,
      "Sim": 955,
      "dou": 956,
      "lar": 957,
      "star": 958,
      "compass": 959,
      "half": 960,
      "SA": 961,
      "mid": 962,
      "plo": 963,
      "ances": 964,
      "mach": 965,
      "DIS": 966,
      "Ad": 967,
      "bers": 968,
      "fin": 969,
      "io": 970,
      "mater": 971,
      "second": 972,
      "parts": 973,
      "following": 974,
      "addition": 975,
      "ING": 976,
      "away": 977,
      "bar": 978,
      "fun": 979,
      "pes": 980,
      "heav": 981,
      "rect": 982,
      "arm": 983,
      "stre": 984,
      "Then": 985,
      "ability": 986,
      "vessels": 987,
      "gear": 988,
      "without": 989,
      "service": 990,
      "bows": 991,
      "different": 992,
      "certain": 993,
      "far": 994,
      "jo": 995,
      "conne": 996,
      "col": 997,
      "many": 998,
      "izon": 999,
      "increase": 1000,
      "slip": 1001,
      "designed": 1002,
      "important": 1003,
      "material": 1004,
      "Be": 1005,
      "One": 1006,
      "care": 1007,
      "danger": 1008,
      "ton": 1009,
      "tight": 1010,
      "wise": 1011,
      "those": 1012,
      "room": 1013,
      "ables": 1014,
      "get": 1015,
      "cept": 1016,
      "keel": 1017,
      "ended": 1018,
      "going": 1019,
      "cover": 1020,
      "handling": 1021,
      "great": 1022,
      "laid": 1023,
      "elect": 1024,
      "surface": 1025,
      "known": 1026,
      "Un": 1027,
      "bas": 1028,
      "tack": 1029,
      "inst": 1030,
      "often": 1031,
      "beam": 1032,
      "ably": 1033,
      "six": 1034,
      "appe": 1035,
      "self": 1036,
      "flag": 1037,
      "cord": 1038,
      "result": 1039,
      "member": 1040,
      "Pro": 1041,
      "cas": 1042,
      "case": 1043,
      "found": 1044,
      "pract": 1045,
      "ue": 1046,
      "ys": 1047,
      "thing": 1048,
      "area": 1049,
      "etc": 1050,
      "every": 1051,
      "current": 1052,
      "strong": 1053,
      "centre": 1054,
      "diffic": 1055,
      "DO": 1056,
      "bro": 1057,
      "lin": 1058,
      "ince": 1059,
      "ator": 1060,
      "char": 1061,
      "sun": 1062,
      "ribut": 1063,
      "prote": 1064,
      "ropes": 1065,
      "single": 1066,
      "develop": 1067,
      "Brit": 1068,
      "cru": 1069,
      "gl": 1070,
      "gan": 1071,
      "gas": 1072,
      "last": 1073,
      "remain": 1074,
      "ature": 1075,
      "too": 1076,
      "ently": 1077,
      "mag": 1078,
      "model": 1079,
      "coil": 1080,
      "hawser": 1081,
      "fleet": 1082,
      "action": 1083,
      "done": 1084,
      "tle": 1085,
      "xim": 1086,
      "alter": 1087,
      "sider": 1088,
      "next": 1089,
      "pose": 1090,
      "formed": 1091,
      "reng": 1092,
      "aircraft": 1093,
      "struction": 1094,
      "marine": 1095,
      "correct": 1096,
      "close": 1097,
      "inclu": 1098,
      "horizon": 1099,
      "10": 1100,
      "eld": 1101,
      "fur": 1102,
      "fut": 1103,
      "gy": 1104,
      "how": 1105,
      "another": 1106,
      "streng": 1107,
      "ared": 1108,
      "sib": 1109,
      "bod": 1110,
      "tech": 1111,
      "decks": 1112,
      "turning": 1113,
      "pressure": 1114,
      "eye": 1115,
      "brid": 1116,
      "larger": 1117,
      "cast": 1118,
      "lit": 1119,
      "mis": 1120,
      "pri": 1121,
      "here": 1122,
      "inery": 1123,
      "thus": 1124,
      "suit": 1125,
      "cons": 1126,
      "ution": 1127,
      "engines": 1128,
      "turns": 1129,
      "capac": 1130,
      "advan": 1131,
      "conditions": 1132,
      "Th": 1133,
      "cross": 1134,
      "ered": 1135,
      "ished": 1136,
      "itch": 1137,
      "left": 1138,
      "bear": 1139,
      "seam": 1140,
      "consider": 1141,
      "utions": 1142,
      "steam": 1143,
      "object": 1144,
      "provided": 1145,
      "strands": 1146,
      "structure": 1147,
      "starboard": 1148,
      "machinery": 1149,
      "future": 1150,
      "50": 1151,
      "eu": 1152,
      "give": 1153,
      "uter": 1154,
      "ures": 1155,
      "still": 1156,
      "outh": 1157,
      "lee": 1158,
      "him": 1159,
      "dead": 1160,
      "ury": 1161,
      "using": 1162,
      "kept": 1163,
      "types": 1164,
      "towing": 1165,
      "cargoes": 1166,
      "mark": 1167,
      "draw": 1168,
      "signal": 1169,
      "complete": 1170,
      "circum": 1171,
      "Ex": 1172,
      "Roy": 1173,
      "frequ": 1174,
      "ris": 1175,
      "xed": 1176,
      "instru": 1177,
      "ought": 1178,
      "best": 1179,
      "ached": 1180,
      "show": 1181,
      "ides": 1182,
      "few": 1183,
      "world": 1184,
      "direct": 1185,
      "particularly": 1186,
      "damage": 1187,
      "Royal": 1188,
      "All": 1189,
      "cus": 1190,
      "data": 1191,
      "ug": 1192,
      "rap": 1193,
      "break": 1194,
      "purpose": 1195,
      "AN": 1196,
      "War": 1197,
      "sers": 1198,
      "ency": 1199,
      "ths": 1200,
      "hips": 1201,
      "across": 1202,
      "having": 1203,
      "applied": 1204,
      "avail": 1205,
      "stead": 1206,
      "years": 1207,
      "consist": 1208,
      "12": 1209,
      "fig": 1210,
      "mon": 1211,
      "ned": 1212,
      "old": 1213,
      "pen": 1214,
      "infl": 1215,
      "level": 1216,
      "thir": 1217,
      "hie": 1218,
      "conom": 1219,
      "process": 1220,
      "steel": 1221,
      "indic": 1222,
      "towards": 1223,
      "does": 1224,
      "sailing": 1225,
      "tanks": 1226,
      "fficient": 1227,
      "cially": 1228,
      "itude": 1229,
      "No": 1230,
      "ground": 1231,
      "ms": 1232,
      "pull": 1233,
      "yard": 1234,
      "around": 1235,
      "charge": 1236,
      "force": 1237,
      "achie": 1238,
      "space": 1239,
      "tained": 1240,
      "fitting": 1241,
      "passeng": 1242,
      "hawsers": 1243,
      "container": 1244,
      "various": 1245,
      "econom": 1246,
      "ian": 1247,
      "pul": 1248,
      "rate": 1249,
      "sal": 1250,
      "tical": 1251,
      "start": 1252,
      "become": 1253,
      "rodu": 1254,
      "within": 1255,
      "moving": 1256,
      "portion": 1257,
      "pedo": 1258,
      "medi": 1259,
      "vari": 1260,
      "advanta": 1261,
      "available": 1262,
      "15": 1263,
      "With": 1264,
      "bight": 1265,
      "ew": 1266,
      "though": 1267,
      "never": 1268,
      "amoun": 1269,
      "working": 1270,
      "aff": 1271,
      "ched": 1272,
      "obser": 1273,
      "whole": 1274,
      "pie": 1275,
      "navig": 1276,
      "person": 1277,
      "strength": 1278,
      "capacity": 1279,
      "eight": 1280,
      "hy": 1281,
      "pum": 1282,
      "ught": 1283,
      "reas": 1284,
      "ord": 1285,
      "isation": 1286,
      "thor": 1287,
      "chain": 1288,
      "cts": 1289,
      "sufficient": 1290,
      "sides": 1291,
      "metal": 1292,
      "moved": 1293,
      "aves": 1294,
      "wards": 1295,
      "field": 1296,
      "fully": 1297,
      "propeller": 1298,
      "Model": 1299,
      "difficult": 1300,
      "body": 1301,
      "ST": 1302,
      "ime": 1303,
      "mil": 1304,
      "station": 1305,
      "verse": 1306,
      "boll": 1307,
      "ays": 1308,
      "gency": 1309,
      "standing": 1310,
      "shackle": 1311,
      "normal": 1312,
      "further": 1313,
      "techn": 1314,
      "17": 1315,
      "ON": 1316,
      "ds": 1317,
      "mi": 1318,
      "wave": 1319,
      "hes": 1320,
      "ination": 1321,
      "ense": 1322,
      "aces": 1323,
      "ters": 1324,
      "proble": 1325,
      "plating": 1326,
      "quick": 1327,
      "introdu": 1328,
      "century": 1329,
      "stowed": 1330,
      "torpedo": 1331,
      "change": 1332,
      "splice": 1333,
      "aid": 1334,
      "bour": 1335,
      "ier": 1336,
      "know": 1337,
      "pair": 1338,
      "tion": 1339,
      "what": 1340,
      "information": 1341,
      "atic": 1342,
      "edge": 1343,
      "alle": 1344,
      "already": 1345,
      "section": 1346,
      "omet": 1347,
      "netic": 1348,
      "comb": 1349,
      "Inter": 1350,
      "building": 1351,
      "approach": 1352,
      "division": 1353,
      "wooden": 1354,
      "Man": 1355,
      "full": 1356,
      "jet": 1357,
      "lad": 1358,
      "later": 1359,
      "por": 1360,
      "rece": 1361,
      "atform": 1362,
      "organ": 1363,
      "ications": 1364,
      "suc": 1365,
      "bol": 1366,
      "boom": 1367,
      "cannot": 1368,
      "cost": 1369,
      "hoist": 1370,
      "emer": 1371,
      "flood": 1372,
      "alongside": 1373,
      "tankers": 1374,
      "reduced": 1375,
      "compartments": 1376,
      "AT": 1377,
      "ape": 1378,
      "ins": 1379,
      "ensure": 1380,
      "und": 1381,
      "loc": 1382,
      "spring": 1383,
      "smaller": 1384,
      "fixed": 1385,
      "Comp": 1386,
      "provide": 1387,
      "running": 1388,
      "depth": 1389,
      "depend": 1390,
      "period": 1391,
      "safety": 1392,
      "amount": 1393,
      "Cap": 1394,
      "gs": 1395,
      "prin": 1396,
      "arn": 1397,
      "ited": 1398,
      "see": 1399,
      "dest": 1400,
      "ential": 1401,
      "loss": 1402,
      "prog": 1403,
      "test": 1404,
      "Information": 1405,
      "submarine": 1406,
      "loading": 1407,
      "stowage": 1408,
      "stopped": 1409,
      "described": 1410,
      "increasing": 1411,
      "Simulation": 1412,
      "install": 1413,
      "British": 1414,
      "suitable": 1415,
      "AR": 1416,
      "hard": 1417,
      "hour": 1418,
      "moun": 1419,
      "name": 1420,
      "oeu": 1421,
      "squ": 1422,
      "slow": 1423,
      "since": 1424,
      "tru": 1425,
      "ured": 1426,
      "ually": 1427,
      "uel": 1428,
      "ory": 1429,
      "arrange": 1430,
      "enable": 1431,
      "least": 1432,
      "roy": 1433,
      "chang": 1434,
      "conver": 1435,
      "platform": 1436,
      "aving": 1437,
      "manoeu": 1438,
      "turre": 1439,
      "anchors": 1440,
      "systems": 1441,
      "harbour": 1442,
      "little": 1443,
      "60": 1444,
      "By": 1445,
      "br": 1446,
      "bil": 1447,
      "lim": 1448,
      "mir": 1449,
      "ore": 1450,
      "ph": 1451,
      "pend": 1452,
      "sk": 1453,
      "viron": 1454,
      "wide": 1455,
      "yards": 1456,
      "atur": 1457,
      "stri": 1458,
      "seen": 1459,
      "chart": 1460,
      "chant": 1461,
      "determ": 1462,
      "met": 1463,
      "prove": 1464,
      "cket": 1465,
      "exer": 1466,
      "upon": 1467,
      "battles": 1468,
      "likely": 1469,
      "stores": 1470,
      "falls": 1471,
      "officer": 1472,
      "midd": 1473,
      "Captain": 1474,
      "Def": 1475,
      "Lo": 1476,
      "Net": 1477,
      "Watch": 1478,
      "aking": 1479,
      "ball": 1480,
      "fac": 1481,
      "jor": 1482,
      "mine": 1483,
      "ness": 1484,
      "pain": 1485,
      "rout": 1486,
      "situ": 1487,
      "inal": 1488,
      "oring": 1489,
      "acke": 1490,
      "shaft": 1491,
      "post": 1492,
      "tail": 1493,
      "imes": 1494,
      "immedi": 1495,
      "came": 1496,
      "check": 1497,
      "simulation": 1498,
      "early": 1499,
      "containers": 1500,
      "Cont": 1501,
      "battle": 1502,
      "occur": 1503,
      "cruis": 1504,
      "ometimes": 1505,
      "manoeuv": 1506,
      "Nav": 1507,
      "OR": 1508,
      "Some": 1509,
      "fair": 1510,
      "ible": 1511,
      "oid": 1512,
      "ral": 1513,
      "vis": 1514,
      "ale": 1515,
      "state": 1516,
      "hig": 1517,
      "ional": 1518,
      "deep": 1519,
      "ilities": 1520,
      "adop": 1521,
      "vertical": 1522,
      "proper": 1523,
      "propul": 1524,
      "except": 1525,
      "posite": 1526,
      "effic": 1527,
      "sions": 1528,
      "laun": 1529,
      "carrying": 1530,
      "propellers": 1531,
      "drift": 1532,
      "double": 1533,
      "development": 1534,
      "deadweight": 1535,
      "vironment": 1536,
      "propulsion": 1537,
      "),": 1538,
      "30": 1539,
      "Af": 1540,
      "But": 1541,
      "Data": 1542,
      "Mar": 1543,
      "bl": 1544,
      "bad": 1545,
      "dut": 1546,
      "dry": 1547,
      "fra": 1548,
      "find": 1549,
      "fuel": 1550,
      "grou": 1551,
      "hite": 1552,
      "rack": 1553,
      "vic": 1554,
      "viv": 1555,
      "inches": 1556,
      "orth": 1557,
      "espe": 1558,
      "rot": 1559,
      "hion": 1560,
      "ules": 1561,
      "construction": 1562,
      "comes": 1563,
      "ident": 1564,
      "foot": 1565,
      "better": 1566,
      "attached": 1567,
      "supplied": 1568,
      "transfer": 1569,
      "ference": 1570,
      "radio": 1571,
      "tries": 1572,
      "countries": 1573,
      "Command": 1574,
      "magnetic": 1575,
      "especially": 1576,
      "MS": 1577,
      "bur": 1578,
      "cern": 1579,
      "gree": 1580,
      "nt": 1581,
      "nal": 1582,
      "pare": 1583,
      "whip": 1584,
      "inte": 1585,
      "enth": 1586,
      "stant": 1587,
      "stances": 1588,
      "ash": 1589,
      "cting": 1590,
      "enter": 1591,
      "pect": 1592,
      "abl": 1593,
      "uni": 1594,
      "conf": 1595,
      "concern": 1596,
      "shape": 1597,
      "prob": 1598,
      "moder": 1599,
      "motor": 1600,
      "essential": 1601,
      "coast": 1602,
      "watertight": 1603,
      "indiv": 1604,
      "sails": 1605,
      "training": 1606,
      "passed": 1607,
      "atively": 1608,
      "help": 1609,
      "blocks": 1610,
      "stream": 1611,
      "appear": 1612,
      "advantage": 1613,
      "middle": 1614,
      "'.": 1615,
      "16": 1616,
      "Fren": 1617,
      "Pl": 1618,
      "did": 1619,
      "fight": 1620,
      "flow": 1621,
      "gr": 1622,
      "ligh": 1623,
      "slight": 1624,
      "yach": 1625,
      "inside": 1626,
      "reat": 1627,
      "represent": 1628,
      "ener": 1629,
      "strop": 1630,
      "hief": 1631,
      "seas": 1632,
      "fort": 1633,
      "making": 1634,
      "mod": 1635,
      "taking": 1636,
      "rought": 1637,
      "active": 1638,
      "inten": 1639,
      "turned": 1640,
      "whether": 1641,
      "wheel": 1642,
      "merchant": 1643,
      "allowed": 1644,
      "generally": 1645,
      "draught": 1646,
      "compartment": 1647,
      "dangerous": 1648,
      "sibility": 1649,
      "considerable": 1650,
      "reason": 1651,
      "individ": 1652,
      "French": 1653,
      "40": 1654,
      "ES": 1655,
      "cure": 1656,
      "dr": 1657,
      "frig": 1658,
      "gin": 1659,
      "natur": 1660,
      "swe": 1661,
      "tend": 1662,
      "height": 1663,
      "enough": 1664,
      "ask": 1665,
      "cho": 1666,
      "lying": 1667,
      "major": 1668,
      "unications": 1669,
      "net": 1670,
      "qual": 1671,
      "soon": 1672,
      "said": 1673,
      "waterline": 1674,
      "indust": 1675,
      "ants": 1676,
      "liqu": 1677,
      "emplo": 1678,
      "longer": 1679,
      "supply": 1680,
      "equal": 1681,
      "greater": 1682,
      "common": 1683,
      "command": 1684,
      "pipe": 1685,
      "autom": 1686,
      "DoD": 1687,
      "electric": 1688,
      "seaman": 1689,
      "technical": 1690,
      "employ": 1691,
      "Each": 1692,
      "IEE": 1693,
      "cip": 1694,
      "dies": 1695,
      "ff": 1696,
      "mess": 1697,
      "real": 1698,
      "ank": 1699,
      "separ": 1700,
      "areas": 1701,
      "maxim": 1702,
      "plate": 1703,
      "posed": 1704,
      "hook": 1705,
      "berth": 1706,
      "tide": 1707,
      "caused": 1708,
      "distribut": 1709,
      "carriers": 1710,
      "surviv": 1711,
      "establ": 1712,
      "ized": 1713,
      "operation": 1714,
      "guide": 1715,
      "produce": 1716,
      "hauled": 1717,
      "awning": 1718,
      "easily": 1719,
      "bridge": 1720,
      "circumstances": 1721,
      "Computer": 1722,
      "IEEE": 1723,
      "100": 1724,
      "Co": 1725,
      "Now": 1726,
      "Wor": 1727,
      "band": 1728,
      "fill": 1729,
      "latter": 1730,
      "rise": 1731,
      "sc": 1732,
      "watch": 1733,
      "inner": 1734,
      "ancy": 1735,
      "arma": 1736,
      "stan": 1737,
      "stability": 1738,
      "oured": 1739,
      "leave": 1740,
      "sever": 1741,
      "dered": 1742,
      "degre": 1743,
      "degree": 1744,
      "adjust": 1745,
      "shipping": 1746,
      "super": 1747,
      "mean": 1748,
      "shown": 1749,
      "look": 1750,
      "cks": 1751,
      "ified": 1752,
      "extra": 1753,
      "ending": 1754,
      "poses": 1755,
      "sidered": 1756,
      "affect": 1757,
      "carriage": 1758,
      "speeds": 1759,
      "points": 1760,
      "Engl": 1761,
      "tempor": 1762,
      "driven": 1763,
      "strain": 1764,
      "doub": 1765,
      "tackle": 1766,
      "broad": 1767,
      "bearing": 1768,
      "directly": 1769,
      "consists": 1770,
      "success": 1771,
      "miral": 1772,
      "degrees": 1773,
      "English": 1774,
      "Ac": 1775,
      "Batt": 1776,
      "Le": 1777,
      "Sp": 1778,
      "Ser": 1779,
      "ake": 1780,
      "den": 1781,
      "hang": 1782,
      "ia": 1783,
      "ior": 1784,
      "ially": 1785,
      "oce": 1786,
      "son": 1787,
      "sle": 1788,
      "slo": 1789,
      "vas": 1790,
      "wat": 1791,
      "wall": 1792,
      "yarn": 1793,
      "def": 1794,
      "ics": 1795,
      "unit": 1796,
      "ulations": 1797,
      "considered": 1798,
      "ute": 1799,
      "outside": 1800,
      "perature": 1801,
      "avoid": 1802,
      "Inte": 1803,
      "ages": 1804,
      "opposite": 1805,
      "lie": 1806,
      "shell": 1807,
      "flat": 1808,
      "due": 1809,
      "Any": 1810,
      "effective": 1811,
      "Sea": 1812,
      "interval": 1813,
      "swim": 1814,
      "buoyancy": 1815,
      "tanker": 1816,
      "members": 1817,
      "damaged": 1818,
      "Arm": 1819,
      "requirements": 1820,
      "function": 1821,
      "instrument": 1822,
      "problem": 1823,
      "quickly": 1824,
      "emergency": 1825,
      "princip": 1826,
      "modern": 1827,
      "maximum": 1828,
      "several": 1829,
      "Amer": 1830,
      "Ch": 1831,
      "Po": 1832,
      "Pre": 1833,
      "cables": 1834,
      "fre": 1835,
      "gra": 1836,
      "sof": 1837,
      "voy": 1838,
      "waves": 1839,
      "ying": 1840,
      "heel": 1841,
      "revol": 1842,
      "once": 1843,
      "orne": 1844,
      "outer": 1845,
      "vehi": 1846,
      "oment": 1847,
      "sum": 1848,
      "makes": 1849,
      "mainten": 1850,
      "accom": 1851,
      "shap": 1852,
      "log": 1853,
      "ples": 1854,
      "soci": 1855,
      "hap": 1856,
      "uses": 1857,
      "steering": 1858,
      "assist": 1859,
      "spar": 1860,
      "transm": 1861,
      "ption": 1862,
      "lights": 1863,
      "fibre": 1864,
      "hatch": 1865,
      "swing": 1866,
      "rown": 1867,
      "author": 1868,
      "goods": 1869,
      "Also": 1870,
      "movement": 1871,
      "stret": 1872,
      "third": 1873,
      "destroy": 1874,
      "immediately": 1875,
      "higher": 1876,
      "individual": 1877,
      "armament": 1878,
      "Americ": 1879,
      "maintenance": 1880,
      "Air": 1881,
      "Jo": 1882,
      "So": 1883,
      "cial": 1884,
      "list": 1885,
      "mines": 1886,
      "moment": 1887,
      "rules": 1888,
      "ses": 1889,
      "scal": 1890,
      "wart": 1891,
      "ene": 1892,
      "stay": 1893,
      "item": 1894,
      "secure": 1895,
      "dec": 1896,
      "boil": 1897,
      "constant": 1898,
      "ceed": 1899,
      "proved": 1900,
      "mooring": 1901,
      "experi": 1902,
      "rane": 1903,
      "heads": 1904,
      "warships": 1905,
      "simple": 1906,
      "passing": 1907,
      "positions": 1908,
      "radar": 1909,
      "completed": 1910,
      "keeping": 1911,
      "importance": 1912,
      "rolled": 1913,
      "nearly": 1914,
      "naval": 1915,
      "responsible": 1916,
      "frequently": 1917,
      "ladder": 1918,
      "bilge": 1919,
      "AL": 1920,
      "BO": 1921,
      "RO": 1922,
      "Spe": 1923,
      "Sir": 1924,
      "That": 1925,
      "aks": 1926,
      "bes": 1927,
      "cing": 1928,
      "cul": 1929,
      "cise": 1930,
      "dru": 1931,
      "ech": 1932,
      "five": 1933,
      "jacke": 1934,
      "non": 1935,
      "nam": 1936,
      "nage": 1937,
      "navy": 1938,
      "national": 1939,
      "oars": 1940,
      "pil": 1941,
      "pay": 1942,
      "ror": 1943,
      "rical": 1944,
      "smo": 1945,
      "vious": 1946,
      "wing": 1947,
      "ission": 1948,
      "staff": 1949,
      "sequ": 1950,
      "irtu": 1951,
      "rial": 1952,
      "coming": 1953,
      "tact": 1954,
      "taut": 1955,
      "appl": 1956,
      "rule": 1957,
      "tware": 1958,
      "twist": 1959,
      "sphere": 1960,
      "submer": 1961,
      "lift": 1962,
      "rigging": 1963,
      "See": 1964,
      "floating": 1965,
      "opening": 1966,
      "increased": 1967,
      "days": 1968,
      "normally": 1969,
      "connected": 1970,
      "based": 1971,
      "AND": 1972,
      "achieved": 1973,
      "passenger": 1974,
      "undred": 1975,
      "Defense": 1976,
      "Network": 1977,
      "ballast": 1978,
      "vices": 1979,
      "parent": 1980,
      "Sh": 1981,
      "Two": 1982,
      "fron": 1983,
      "hum": 1984,
      "home": 1985,
      "hundred": 1986,
      "ile": 1987,
      "late": 1988,
      "rating": 1989,
      "sometimes": 1990,
      "ume": 1991,
      "ufact": 1992,
      "storm": 1993,
      "dem": 1994,
      "ically": 1995,
      "vered": 1996,
      "pet": 1997,
      "exten": 1998,
      "covered": 1999,
      "anti": 2000,
      "cles": 2001,
      "overboard": 2002,
      "intended": 2003,
      "trade": 2004,
      "cording": 2005,
      "breaking": 2006,
      "depends": 2007,
      "circle": 2008,
      "placement": 2009,
      "specific": 2010,
      "count": 2011,
      "regard": 2012,
      "plane": 2013,
      "purposes": 2014,
      "temperature": 2015,
      "supported": 2016,
      "joining": 2017,
      "practice": 2018,
      "protection": 2019,
      "Control": 2020,
      "Naval": 2021,
      "natural": 2022,
      "Service": 2023,
      "shaped": 2024,
      ".\"": 2025,
      "13": 2026,
      "EN": 2027,
      "Her": 2028,
      "IL": 2029,
      "Med": 2030,
      "Other": 2031,
      "Ships": 2032,
      "Tech": 2033,
      "batter": 2034,
      "brought": 2035,
      "cr": 2036,
      "ecut": 2037,
      "lat": 2038,
      "rates": 2039,
      "ties": 2040,
      "inser": 2041,
      "refle": 2042,
      "secur": 2043,
      "ctor": 2044,
      "vey": 2045,
      "oms": 2046,
      "aches": 2047,
      "cep": 2048,
      "quite": 2049,
      "resist": 2050,
      "respect": 2051,
      "hole": 2052,
      "hove": 2053,
      "spread": 2054,
      "ople": 2055,
      "underwater": 2056,
      "liable": 2057,
      "obtained": 2058,
      "carrier": 2059,
      "slack": 2060,
      "whose": 2061,
      "classes": 2062,
      "extre": 2063,
      "ameter": 2064,
      "methods": 2065,
      "solution": 2066,
      "measure": 2067,
      "Before": 2068,
      "cordage": 2069,
      "sunk": 2070,
      "horizontal": 2071,
      "castle": 2072,
      "economic": 2073,
      "true": 2074,
      "concerned": 2075,
      "liquid": 2076,
      "waters": 2077,
      "accommod": 2078,
      "14": 2079,
      "Ap": 2080,
      "Bl": 2081,
      "SI": 2082,
      "Such": 2083,
      "bs": 2084,
      "big": 2085,
      "cat": 2086,
      "ded": 2087,
      "event": 2088,
      "ib": 2089,
      "mit": 2090,
      "matter": 2091,
      "night": 2092,
      "ox": 2093,
      "pound": 2094,
      "paid": 2095,
      "ration": 2096,
      "vit": 2097,
      "reach": 2098,
      "itself": 2099,
      "sections": 2100,
      "detail": 2101,
      "ents": 2102,
      "people": 2103,
      "abs": 2104,
      "vers": 2105,
      "meet": 2106,
      "lost": 2107,
      "play": 2108,
      "takes": 2109,
      "improve": 2110,
      "iding": 2111,
      "ety": 2112,
      "ived": 2113,
      "acter": 2114,
      "handed": 2115,
      "preca": 2116,
      "windward": 2117,
      "dischar": 2118,
      "masts": 2119,
      "rigged": 2120,
      "operated": 2121,
      "186": 2122,
      "trim": 2123,
      "Eng": 2124,
      "restri": 2125,
      "needed": 2126,
      "channel": 2127,
      "view": 2128,
      "hauling": 2129,
      "measured": 2130,
      "officers": 2131,
      "Boat": 2132,
      "Admiral": 2133,
      "additional": 2134,
      "materials": 2135,
      "rooms": 2136,
      "flagship": 2137,
      "marked": 2138,
      "completely": 2139,
      "piece": 2140,
      "bollard": 2141,
      "efficient": 2142,
      "yacht": 2143,
      ".,": 2144,
      "80": 2145,
      "83": 2146,
      "90": 2147,
      "AC": 2148,
      "Center": 2149,
      "Li": 2150,
      "MP": 2151,
      "Rad": 2152,
      "Ship": 2153,
      "US": 2154,
      "aul": 2155,
      "drop": 2156,
      "fail": 2157,
      "fath": 2158,
      "mp": 2159,
      "ming": 2160,
      "might": 2161,
      "shi": 2162,
      "virtu": 2163,
      "held": 2164,
      "inally": 2165,
      "invol": 2166,
      "instead": 2167,
      "replaced": 2168,
      "ones": 2169,
      "attem": 2170,
      "isher": 2171,
      "isions": 2172,
      "almost": 2173,
      "lect": 2174,
      "ching": 2175,
      "abaft": 2176,
      "ung": 2177,
      "mechan": 2178,
      "shallow": 2179,
      "cell": 2180,
      "logy": 2181,
      "explo": 2182,
      "manner": 2183,
      "computer": 2184,
      "hands": 2185,
      "handle": 2186,
      "maintain": 2187,
      "capstan": 2188,
      "operating": 2189,
      "followed": 2190,
      "valu": 2191,
      "tube": 2192,
      "holding": 2193,
      "fasten": 2194,
      "counter": 2195,
      "Reg": 2196,
      "continuous": 2197,
      "freeboard": 2198,
      "shows": 2199,
      "cushion": 2200,
      "passengers": 2201,
      "pieces": 2202,
      "changes": 2203,
      "turrets": 2204,
      "industrial": 2205,
      "scale": 2206,
      "DE": 2207,
      "Even": 2208,
      "Fir": 2209,
      "ION": 2210,
      "Jap": 2211,
      "Port": 2212,
      "TH": 2213,
      "Tran": 2214,
      "az": 2215,
      "aut": 2216,
      "bit": 2217,
      "bring": 2218,
      "borne": 2219,
      "dro": 2220,
      "fam": 2221,
      "fram": 2222,
      "gain": 2223,
      "gave": 2224,
      "kind": 2225,
      "ler": 2226,
      "lic": 2227,
      "pitch": 2228,
      "sen": 2229,
      "record": 2230,
      "orig": 2231,
      "arily": 2232,
      "itary": 2233,
      "becomes": 2234,
      "begin": 2235,
      "dete": 2236,
      "acc": 2237,
      "box": 2238,
      "condu": 2239,
      "rather": 2240,
      "riding": 2241,
      "project": 2242,
      "motion": 2243,
      "netw": 2244,
      "plates": 2245,
      "rescu": 2246,
      "canvas": 2247,
      "manufact": 2248,
      "compar": 2249,
      "company": 2250,
      "towed": 2251,
      "actual": 2252,
      "sheet": 2253,
      "marks": 2254,
      "discharge": 2255,
      "displacement": 2256,
      "throughout": 2257,
      "largest": 2258,
      "ledge": 2259,
      "ization": 2260,
      "requires": 2261,
      "hawse": 2262,
      "Second": 2263,
      "tuck": 2264,
      "timber": 2265,
      "approxim": 2266,
      "leading": 2267,
      "needle": 2268,
      "reduce": 2269,
      "diameter": 2270,
      "quarters": 2271,
      "funnel": 2272,
      "armour": 2273,
      "character": 2274,
      "altern": 2275,
      "drawn": 2276,
      "figure": 2277,
      "achieve": 2278,
      "bollards": 2279,
      "flooding": 2280,
      "square": 2281,
      "situation": 2282,
      "group": 2283,
      "interest": 2284,
      "probably": 2285,
      "lighter": 2286,
      "diesel": 2287,
      "front": 2288,
      "extreme": 2289,
      "Japan": 2290,
      "networ": 2291,
      "Can": 2292,
      "Chief": 2293,
      "North": 2294,
      "Que": 2295,
      "RE": 2296,
      "Since": 2297,
      "Water": 2298,
      "You": 2299,
      "ax": 2300,
      "ade": 2301,
      "dim": 2302,
      "fine": 2303,
      "ker": 2304,
      "lon": 2305,
      "mouth": 2306,
      "pit": 2307,
      "pack": 2308,
      "pip": 2309,
      "sy": 2310,
      "tre": 2311,
      "trad": 2312,
      "wid": 2313,
      "heat": 2314,
      "reel": 2315,
      "atus": 2316,
      "edges": 2317,
      "stud": 2318,
      "leg": 2319,
      "thim": 2320,
      "became": 2321,
      "enty": 2322,
      "ention": 2323,
      "according": 2324,
      "rail": 2325,
      "utes": 2326,
      "quad": 2327,
      "exist": 2328,
      "exting": 2329,
      "tered": 2330,
      "cock": 2331,
      "ources": 2332,
      "spaces": 2333,
      "selves": 2334,
      "turb": 2335,
      "traffic": 2336,
      "cessive": 2337,
      "firing": 2338,
      "closed": 2339,
      "float": 2340,
      "standard": 2341,
      "results": 2342,
      "paralle": 2343,
      "appropri": 2344,
      "difference": 2345,
      "leads": 2346,
      "produced": 2347,
      "describe": 2348,
      "include": 2349,
      "Thus": 2350,
      "rapid": 2351,
      "fittings": 2352,
      "ordin": 2353,
      "miles": 2354,
      "located": 2355,
      "hours": 2356,
      "duties": 2357,
      "intervals": 2358,
      "securing": 2359,
      "frames": 2360,
      "extingu": 2361,
      "parallel": 2362,
      "appropriate": 2363,
      "DS": 2364,
      "Dis": 2365,
      "Dist": 2366,
      "Gener": 2367,
      "II": 2368,
      "Mer": 2369,
      "Many": 2370,
      "Ro": 2371,
      "Sur": 2372,
      "Ste": 2373,
      "South": 2374,
      "Ter": 2375,
      "bra": 2376,
      "fri": 2377,
      "face": 2378,
      "gall": 2379,
      "gri": 2380,
      "hit": 2381,
      "hitch": 2382,
      "lass": 2383,
      "nu": 2384,
      "nar": 2385,
      "nought": 2386,
      "targe": 2387,
      "wi": 2388,
      "rele": 2389,
      "refer": 2390,
      "atmo": 2391,
      "ism": 2392,
      "issu": 2393,
      "enem": 2394,
      "leaving": 2395,
      "belay": 2396,
      "Their": 2397,
      "abled": 2398,
      "proportion": 2399,
      "nology": 2400,
      "quant": 2401,
      "quest": 2402,
      "pot": 2403,
      "pole": 2404,
      "expres": 2405,
      "cope": 2406,
      "coll": 2407,
      "Its": 2408,
      "otherwise": 2409,
      "lowered": 2410,
      "useful": 2411,
      "attack": 2412,
      "clean": 2413,
      "emp": 2414,
      "controlled": 2415,
      "warship": 2416,
      "readnought": 2417,
      "usual": 2418,
      "ishing": 2419,
      "hulls": 2420,
      "operational": 2421,
      "197": 2422,
      "effects": 2423,
      "loaded": 2424,
      "buoys": 2425,
      "extent": 2426,
      "developed": 2427,
      "viation": 2428,
      "occas": 2429,
      "continued": 2430,
      "barrel": 2431,
      "heaving": 2432,
      "tonnage": 2433,
      "includes": 2434,
      "risk": 2435,
      "navigation": 2436,
      "pumps": 2437,
      "mounted": 2438,
      "cruisers": 2439,
      "frame": 2440,
      "automatic": 2441,
      "temporary": 2442,
      "Battle": 2443,
      "drum": 2444,
      "submerged": 2445,
      "fathoms": 2446,
      "First": 2447,
      "dimen": 2448,
      "\".": 2449,
      "25": 2450,
      "CH": 2451,
      "IP": 2452,
      "Or": 2453,
      "SH": 2454,
      "Sm": 2455,
      "Tra": 2456,
      "West": 2457,
      "bon": 2458,
      "bal": 2459,
      "base": 2460,
      "ders": 2461,
      "dav": 2462,
      "fif": 2463,
      "las": 2464,
      "mas": 2465,
      "white": 2466,
      "ann": 2467,
      "stage": 2468,
      "ased": 2469,
      "associ": 2470,
      "lected": 2471,
      "sevent": 2472,
      "entire": 2473,
      "ication": 2474,
      "accur": 2475,
      "abo": 2476,
      "unless": 2477,
      "ulti": 2478,
      "meant": 2479,
      "ife": 2480,
      "idships": 2481,
      "outboard": 2482,
      "cop": 2483,
      "cold": 2484,
      "steer": 2485,
      "rant": 2486,
      "rance": 2487,
      "iving": 2488,
      "spra": 2489,
      "towrope": 2490,
      "worth": 2491,
      "activ": 2492,
      "agement": 2493,
      "angles": 2494,
      "maintained": 2495,
      "themselves": 2496,
      "ventil": 2497,
      "earth": 2498,
      "capable": 2499,
      "izing": 2500,
      "terms": 2501,
      "follows": 2502,
      "valves": 2503,
      "added": 2504,
      "landing": 2505,
      "factors": 2506,
      "Therefore": 2507,
      "guard": 2508,
      "Environment": 2509,
      "divided": 2510,
      "minim": 2511,
      "shackles": 2512,
      "screws": 2513,
      "uded": 2514,
      "lifejacke": 2515,
      "Under": 2516,
      "broken": 2517,
      "protect": 2518,
      "leeward": 2519,
      "circumference": 2520,
      "custom": 2521,
      "knowledge": 2522,
      "approaching": 2523,
      "dependent": 2524,
      "battleships": 2525,
      "adopted": 2526,
      "launched": 2527,
      "slightly": 2528,
      "drill": 2529,
      "establish": 2530,
      "ocean": 2531,
      "principle": 2532,
      "authority": 2533,
      "8320": 2534,
      "network": 2535,
      "Queen": 2536,
      "atmosphere": 2537,
      ".)": 2538,
      "Bel": 2539,
      "Me": 2540,
      "Oper": 2541,
      "Per": 2542,
      "TT": 2543,
      "bend": 2544,
      "eenth": 2545,
      "jum": 2546,
      "ked": 2547,
      "pat": 2548,
      "past": 2549,
      "rust": 2550,
      "sin": 2551,
      "table": 2552,
      "vary": 2553,
      "iness": 2554,
      "repe": 2555,
      "recomm": 2556,
      "ordered": 2557,
      "eder": 2558,
      "enced": 2559,
      "environment": 2560,
      "took": 2561,
      "ouse": 2562,
      "role": 2563,
      "rove": 2564,
      "forman": 2565,
      "forces": 2566,
      "vere": 2567,
      "weap": 2568,
      "convent": 2569,
      "shrou": 2570,
      "plug": 2571,
      "iff": 2572,
      "apparent": 2573,
      "amp": 2574,
      "amidships": 2575,
      "exp": 2576,
      "hore": 2577,
      "umn": 2578,
      "ives": 2579,
      "forms": 2580,
      "spare": 2581,
      "aged": 2582,
      "actually": 2583,
      "handled": 2584,
      "winds": 2585,
      "subject": 2586,
      "lifting": 2587,
      "clock": 2588,
      "operate": 2589,
      "jected": 2590,
      "flex": 2591,
      "paratus": 2592,
      "regular": 2593,
      "Only": 2594,
      "athing": 2595,
      "minist": 2596,
      "relation": 2597,
      "increases": 2598,
      "shackled": 2599,
      "Board": 2600,
      "covering": 2601,
      "electrical": 2602,
      "glass": 2603,
      "including": 2604,
      "thirty": 2605,
      "jetty": 2606,
      "costs": 2607,
      "arrangements": 2608,
      "pendicular": 2609,
      "battleship": 2610,
      "painted": 2611,
      "fighting": 2612,
      "frigates": 2613,
      "World": 2614,
      "affected": 2615,
      "vehicles": 2616,
      "transmit": 2617,
      "Joint": 2618,
      "items": 2619,
      "boiler": 2620,
      "latitude": 2621,
      "inserted": 2622,
      "respective": 2623,
      "pounders": 2624,
      "approximately": 2625,
      "enemy": 2626,
      "dimensions": 2627,
      "formance": 2628,
      "Elect": 2629,
      "Ho": 2630,
      "New": 2631,
      "OF": 2632,
      "Res": 2633,
      "Sun": 2634,
      "Sail": 2635,
      "Sub": 2636,
      "Vi": 2637,
      "We": 2638,
      "White": 2639,
      "bent": 2640,
      "bic": 2641,
      "cou": 2642,
      "cab": 2643,
      "hing": 2644,
      "mes": 2645,
      "nine": 2646,
      "oks": 2647,
      "pin": 2648,
      "sis": 2649,
      "sound": 2650,
      "vity": 2651,
      "went": 2652,
      "yaw": 2653,
      "init": 2654,
      "ators": 2655,
      "arri": 2656,
      "armed": 2657,
      "total": 2658,
      "alt": 2659,
      "stit": 2660,
      "stress": 2661,
      "ese": 2662,
      "sumed": 2663,
      "acy": 2664,
      "aced": 2665,
      "unction": 2666,
      "ulated": 2667,
      "contact": 2668,
      "shar": 2669,
      "proceed": 2670,
      "ressed": 2671,
      "apply": 2672,
      "apparatus": 2673,
      "holes": 2674,
      "rank": 2675,
      "forecastle": 2676,
      "others": 2677,
      "igned": 2678,
      "attention": 2679,
      "windlass": 2680,
      "cleat": 2681,
      "correspon": 2682,
      "master": 2683,
      "captain": 2684,
      "provides": 2685,
      "allowance": 2686,
      "worked": 2687,
      "radi": 2688,
      "drag": 2689,
      "tug": 2690,
      "holder": 2691,
      "itud": 2692,
      "directions": 2693,
      "resulting": 2694,
      "minutes": 2695,
      "relative": 2696,
      "Stand": 2697,
      "measures": 2698,
      "responsibility": 2699,
      "Communications": 2700,
      "armoured": 2701,
      "column": 2702,
      "carefully": 2703,
      "Britain": 2704,
      "influ": 2705,
      "introduced": 2706,
      "pairs": 2707,
      "hoisting": 2708,
      "flooded": 2709,
      "program": 2710,
      "slowly": 2711,
      "turret": 2712,
      "exercise": 2713,
      "cruiser": 2714,
      "After": 2715,
      "sweep": 2716,
      "employed": 2717,
      "successful": 2718,
      "Army": 2719,
      "revolutions": 2720,
      "destroyers": 2721,
      "demand": 2722,
      "extensive": 2723,
      "precautions": 2724,
      "Admiralty": 2725,
      "thimble": 2726,
      "nuclear": 2727,
      "wires": 2728,
      "Small": 2729,
      "aboard": 2730,
      "conventional": 2731,
      "AB": 2732,
      "Cor": 2733,
      "During": 2734,
      "Eu": 2735,
      "Ear": 2736,
      "Every": 2737,
      "From": 2738,
      "Ny": 2739,
      "TR": 2740,
      "Ty": 2741,
      "TER": 2742,
      "aim": 2743,
      "bres": 2744,
      "fare": 2745,
      "lies": 2746,
      "lub": 2747,
      "piv": 2748,
      "pared": 2749,
      "rong": 2750,
      "sight": 2751,
      "try": 2752,
      "track": 2753,
      "ush": 2754,
      "thead": 2755,
      "removed": 2756,
      "ert": 2757,
      "errane": 2758,
      "orage": 2759,
      "arc": 2760,
      "arch": 2761,
      "ening": 2762,
      "storage": 2763,
      "ital": 2764,
      "iterrane": 2765,
      "assa": 2766,
      "ashore": 2767,
      "depart": 2768,
      "device": 2769,
      "ili": 2770,
      "entity": 2771,
      "forced": 2772,
      "icop": 2773,
      "ower": 2774,
      "igence": 2775,
      "suf": 2776,
      "account": 2777,
      "sile": 2778,
      "verage": 2779,
      "weld": 2780,
      "river": 2781,
      "proof": 2782,
      "utch": 2783,
      "plant": 2784,
      "plain": 2785,
      "perpendicular": 2786,
      "performance": 2787,
      "fered": 2788,
      "astic": 2789,
      "step": 2790,
      "possib": 2791,
      "former": 2792,
      "worn": 2793,
      "ops": 2794,
      "served": 2795,
      "services": 2796,
      "prepared": 2797,
      "marines": 2798,
      "disabled": 2799,
      "fibres": 2800,
      "submarines": 2801,
      "estim": 2802,
      "shores": 2803,
      "communications": 2804,
      "187": 2805,
      "hatches": 2806,
      "rick": 2807,
      "factor": 2808,
      "pier": 2809,
      "gue": 2810,
      "equipped": 2811,
      "regions": 2812,
      "openings": 2813,
      "included": 2814,
      "rolling": 2815,
      "volume": 2816,
      "Systems": 2817,
      "bulkheads": 2818,
      "heavily": 2819,
      "beams": 2820,
      "appears": 2821,
      "cases": 2822,
      "practic": 2823,
      "remainder": 2824,
      "objects": 2825,
      "frequency": 2826,
      "indicate": 2827,
      "variety": 2828,
      "military": 2829,
      "receive": 2830,
      "received": 2831,
      "bolt": 2832,
      "installed": 2833,
      "arrangement": 2834,
      "Log": 2835,
      "gravity": 2836,
      "Mediterrane": 2837,
      "discharging": 2838,
      "shift": 2839,
      "autical": 2840,
      "hawsepipe": 2841,
      "cockpit": 2842,
      "narrow": 2843,
      "target": 2844,
      "associated": 2845,
      "clockwise": 2846,
      "Nylon": 2847,
      "Mediterranean": 2848,
      "45": 2849,
      "Ass": 2850,
      "Hand": 2851,
      "LO": 2852,
      "MC": 2853,
      "Ob": 2854,
      "Pub": 2855,
      "Sof": 2856,
      "Sup": 2857,
      "UR": 2858,
      "blow": 2859,
      "card": 2860,
      "date": 2861,
      "east": 2862,
      "fou": 2863,
      "gang": 2864,
      "grad": 2865,
      "grow": 2866,
      "iency": 2867,
      "lt": 2868,
      "mor": 2869,
      "mical": 2870,
      "multi": 2871,
      "north": 2872,
      "sn": 2873,
      "swell": 2874,
      "trun": 2875,
      "tends": 2876,
      "task": 2877,
      "uck": 2878,
      "erve": 2879,
      "error": 2880,
      "ond": 2881,
      "atab": 2882,
      "tocol": 2883,
      "alys": 2884,
      "stays": 2885,
      "iting": 2886,
      "leak": 2887,
      "leaks": 2888,
      "thought": 2889,
      "bey": 2890,
      "severe": 2891,
      "deter": 2892,
      "entering": 2893,
      "peak": 2894,
      "gest": 2895,
      "ulty": 2896,
      "weigh": 2897,
      "raised": 2898,
      "neare": 2899,
      "plic": 2900,
      "que": 2901,
      "tape": 2902,
      "imu": 2903,
      "lligence": 2904,
      "haps": 2905,
      "idal": 2906,
      "appre": 2907,
      "expen": 2908,
      "ateg": 2909,
      "istics": 2910,
      "portun": 2911,
      "twenty": 2912,
      "antic": 2913,
      "forming": 2914,
      "berths": 2915,
      "opportun": 2916,
      "serve": 2917,
      "liz": 2918,
      "sailors": 2919,
      "travel": 2920,
      "distances": 2921,
      "central": 2922,
      "Compass": 2923,
      "cubic": 2924,
      "cient": 2925,
      "operations": 2926,
      "courses": 2927,
      "value": 2928,
      "internal": 2929,
      "Here": 2930,
      "floor": 2931,
      "standards": 2932,
      "powerful": 2933,
      "specified": 2934,
      "gives": 2935,
      "signals": 2936,
      "Force": 2937,
      "propelled": 2938,
      "helicop": 2939,
      "straight": 2940,
      "strake": 2941,
      "relatively": 2942,
      "letting": 2943,
      "ultip": 2944,
      "continue": 2945,
      "Both": 2946,
      "finished": 2947,
      "heavier": 2948,
      "joined": 2949,
      "difficulty": 2950,
      "link": 2951,
      "models": 2952,
      "bridle": 2953,
      "considerably": 2954,
      "steady": 2955,
      "salt": 2956,
      "observer": 2957,
      "personnel": 2958,
      "thorough": 2959,
      "problems": 2960,
      "organization": 2961,
      "facilities": 2962,
      "occurs": 2963,
      "Afric": 2964,
      "duty": 2965,
      "uniform": 2966,
      "distribution": 2967,
      "filled": 2968,
      "doubt": 2969,
      "Integr": 2970,
      "soft": 2971,
      "happen": 2972,
      "battery": 2973,
      "improvement": 2974,
      "restricted": 2975,
      "attempt": 2976,
      "Trans": 2977,
      "extinguisher": 2978,
      "brake": 2979,
      "friction": 2980,
      "Europe": 2981,
      "practicable": 2982,
      "alysis": 2983,
      "\",": 2984,
      "',": 2985,
      "Act": 2986,
      "CD": 2987,
      "Car": 2988,
      "Des": 2989,
      "GE": 2990,
      "Gu": 2991,
      "Is": 2992,
      "LE": 2993,
      "Mag": 2994,
      "Main": 2995,
      "Nor": 2996,
      "National": 2997,
      "Not": 2998,
      "Time": 2999,
      "Whi": 3000,
      "afe": 3001,
      "bree": 3002,
      "bank": 3003,
      "ere": 3004,
      "eper": 3005,
      "grap": 3006,
      "gaff": 3007,
      "galle": 3008,
      "hind": 3009,
      "ired": 3010,
      "ium": 3011,
      "jack": 3012,
      "jud": 3013,
      "kW": 3014,
      "mers": 3015,
      "mill": 3016,
      "pr": 3017,
      "rated": 3018,
      "sli": 3019,
      "tes": 3020,
      "till": 3021,
      "vage": 3022,
      "ze": 3023,
      "heart": 3024,
      "inboard": 3025,
      "rever": 3026,
      "remo": 3027,
      "anced": 3028,
      "ison": 3029,
      "ofoil": 3030,
      "itive": 3031,
      "behind": 3032,
      "road": 3033,
      "roke": 3034,
      "seem": 3035,
      "dev": 3036,
      "ila": 3037,
      "wet": 3038,
      "west": 3039,
      "weak": 3040,
      "tern": 3041,
      "local": 3042,
      "moon": 3043,
      "comfort": 3044,
      "imp": 3045,
      "usion": 3046,
      "perman": 3047,
      "permit": 3048,
      "perhaps": 3049,
      "foam": 3050,
      "expe": 3051,
      "execut": 3052,
      "tele": 3053,
      "teenth": 3054,
      "Indi": 3055,
      "atest": 3056,
      "goes": 3057,
      "assigned": 3058,
      "umb": 3059,
      "twice": 3060,
      "foreign": 3061,
      "compan": 3062,
      "word": 3063,
      "tied": 3064,
      "causes": 3065,
      "prefer": 3066,
      "shel": 3067,
      "chemical": 3068,
      "flight": 3069,
      "firm": 3070,
      "simply": 3071,
      "gunw": 3072,
      "greatest": 3073,
      "passes": 3074,
      "merid": 3075,
      "international": 3076,
      "timbers": 3077,
      "holds": 3078,
      "swain": 3079,
      "halyard": 3080,
      "places": 3081,
      "docking": 3082,
      "purch": 3083,
      "athwart": 3084,
      "Most": 3085,
      "stock": 3086,
      "solid": 3087,
      "solute": 3088,
      "horse": 3089,
      "Depart": 3090,
      "brief": 3091,
      "easy": 3092,
      "midship": 3093,
      "secondary": 3094,
      "careful": 3095,
      "correctly": 3096,
      "bearings": 3097,
      "himself": 3098,
      "variation": 3099,
      "advantages": 3100,
      "orders": 3101,
      "mile": 3102,
      "introduction": 3103,
      "Management": 3104,
      "hoisted": 3105,
      "determine": 3106,
      "ckets": 3107,
      "situated": 3108,
      "transferred": 3109,
      "drofoil": 3110,
      "American": 3111,
      "experience": 3112,
      "resistance": 3113,
      "accommodation": 3114,
      "Black": 3115,
      "senior": 3116,
      "beginning": 3117,
      "pipes": 3118,
      "issued": 3119,
      "question": 3120,
      "minimum": 3121,
      "influence": 3122,
      "Software": 3123,
      "expensive": 3124,
      "11": 3125,
      "24": 3126,
      "AP": 3127,
      "Ab": 3128,
      "Aust": 3129,
      "CO": 3130,
      "DU": 3131,
      "Ed": 3132,
      "Flo": 3133,
      "Ger": 3134,
      "Im": 3135,
      "Long": 3136,
      "Life": 3137,
      "Mess": 3138,
      "Qu": 3139,
      "Sto": 3140,
      "Tact": 3141,
      "Test": 3142,
      "Where": 3143,
      "bound": 3144,
      "catch": 3145,
      "chief": 3146,
      "crown": 3147,
      "dden": 3148,
      "fav": 3149,
      "ie": 3150,
      "ike": 3151,
      "lap": 3152,
      "lug": 3153,
      "oar": 3154,
      "oting": 3155,
      "path": 3156,
      "pub": 3157,
      "passa": 3158,
      "sand": 3159,
      "sent": 3160,
      "sense": 3161,
      "tables": 3162,
      "tidal": 3163,
      "writ": 3164,
      "heave": 3165,
      "thed": 3166,
      "inj": 3167,
      "inspe": 3168,
      "insul": 3169,
      "inland": 3170,
      "remove": 3171,
      "ane": 3172,
      "atta": 3173,
      "atures": 3174,
      "ising": 3175,
      "alk": 3176,
      "itime": 3177,
      "ases": 3178,
      "bered": 3179,
      "bell": 3180,
      "rock": 3181,
      "seven": 3182,
      "sext": 3183,
      "selected": 3184,
      "seizing": 3185,
      "deed": 3186,
      "forty": 3187,
      "vest": 3188,
      "adays": 3189,
      "sures": 3190,
      "mathem": 3191,
      "acing": 3192,
      "access": 3193,
      "wear": 3194,
      "book": 3195,
      "constru": 3196,
      "contra": 3197,
      "rain": 3198,
      "propos": 3199,
      "nets": 3200,
      "sole": 3201,
      "impossible": 3202,
      "lled": 3203,
      "mention": 3204,
      "ket": 3205,
      "aming": 3206,
      "istic": 3207,
      "gover": 3208,
      "possibility": 3209,
      "hose": 3210,
      "party": 3211,
      "parted": 3212,
      "partic": 3213,
      "assess": 3214,
      "ranged": 3215,
      "crest": 3216,
      "manned": 3217,
      "itional": 3218,
      "specially": 3219,
      "angu": 3220,
      "serious": 3221,
      "seaward": 3222,
      "presence": 3223,
      "obtain": 3224,
      "obvious": 3225,
      "display": 3226,
      "largely": 3227,
      "distress": 3228,
      "And": 3229,
      "warm": 3230,
      "rafts": 3231,
      "build": 3232,
      "transverse": 3233,
      "cipl": 3234,
      "powder": 3235,
      "weights": 3236,
      "provision": 3237,
      "allows": 3238,
      "sling": 3239,
      "shock": 3240,
      "sizes": 3241,
      "containing": 3242,
      "stowing": 3243,
      "dockyard": 3244,
      "layout": 3245,
      "elements": 3246,
      "lowering": 3247,
      "surfaces": 3248,
      "production": 3249,
      "Although": 3250,
      "solutions": 3251,
      "splic": 3252,
      "specialised": 3253,
      "rink": 3254,
      "Adv": 3255,
      "links": 3256,
      "ributed": 3257,
      "alteration": 3258,
      "instructions": 3259,
      "observ": 3260,
      "observed": 3261,
      "navigational": 3262,
      "pump": 3263,
      "reasons": 3264,
      "torpedoes": 3265,
      "combination": 3266,
      "progress": 3267,
      "limited": 3268,
      "phone": 3269,
      "phys": 3270,
      "metres": 3271,
      "routes": 3272,
      "manoeuvre": 3273,
      "efficiency": 3274,
      "racking": 3275,
      "whipping": 3276,
      "coastal": 3277,
      "energy": 3278,
      "yarns": 3279,
      "software": 3280,
      "logical": 3281,
      "stretch": 3282,
      "experienced": 3283,
      "named": 3284,
      "human": 3285,
      "ibility": 3286,
      "England": 3287,
      "mechanical": 3288,
      "accident": 3289,
      "manufacture": 3290,
      "width": 3291,
      "masthead": 3292,
      "shrouds": 3293,
      "flexible": 3294,
      "itudinal": 3295,
      "Assist": 3296,
      "beyond": 3297,
      "deterior": 3298,
      "imuth": 3299,
      "appreci": 3300,
      "While": 3301,
      "expected": 3302,
      "Austral": 3303,
      "German": 3304,
      "Tactical": 3305,
      "120": 3306,
      "27": 3307,
      "32": 3308,
      "500": 3309,
      "82": 3310,
      "Au": 3311,
      "Bal": 3312,
      "CE": 3313,
      "Cha": 3314,
      "Dreadnought": 3315,
      "East": 3316,
      "Eliz": 3317,
      "FI": 3318,
      "Fur": 3319,
      "Fore": 3320,
      "Great": 3321,
      "High": 3322,
      "Light": 3323,
      "Ma": 3324,
      "Name": 3325,
      "SE": 3326,
      "SP": 3327,
      "Sta": 3328,
      "Sometimes": 3329,
      "TION": 3330,
      "UL": 3331,
      "UN": 3332,
      "Usu": 3333,
      "Vol": 3334,
      "aer": 3335,
      "abe": 3336,
      "bb": 3337,
      "chi": 3338,
      "categ": 3339,
      "dent": 3340,
      "dress": 3341,
      "datab": 3342,
      "ease": 3343,
      "ffect": 3344,
      "gar": 3345,
      "grom": 3346,
      "hous": 3347,
      "job": 3348,
      "junction": 3349,
      "lene": 3350,
      "living": 3351,
      "lantic": 3352,
      "mal": 3353,
      "mun": 3354,
      "ns": 3355,
      "tted": 3356,
      "tren": 3357,
      "wa": 3358,
      "wast": 3359,
      "winch": 3360,
      "wrong": 3361,
      "zz": 3362,
      "inted": 3363,
      "reck": 3364,
      "reverse": 3365,
      "ange": 3366,
      "annel": 3367,
      "eral": 3368,
      "ingu": 3369,
      "alone": 3370,
      "although": 3371,
      "stations": 3372,
      "stiff": 3373,
      "itation": 3374,
      "andon": 3375,
      "assi": 3376,
      "lection": 3377,
      "deviation": 3378,
      "veget": 3379,
      "administ": 3380,
      "abandon": 3381,
      "ulator": 3382,
      "wel": 3383,
      "conven": 3384,
      "shall": 3385,
      "proced": 3386,
      "modif": 3387,
      "util": 3388,
      "plies": 3389,
      "plants": 3390,
      "poop": 3391,
      "polit": 3392,
      "pointed": 3393,
      "compet": 3394,
      "illust": 3395,
      "ham": 3396,
      "key": 3397,
      "output": 3398,
      "apart": 3399,
      "enders": 3400,
      "Int": 3401,
      "astron": 3402,
      "cot": 3403,
      "cool": 3404,
      "upright": 3405,
      "umin": 3406,
      "ranch": 3407,
      "twin": 3408,
      "cret": 3409,
      "ivel": 3410,
      "decker": 3411,
      "clu": 3412,
      "classi": 3413,
      "seaway": 3414,
      "sheer": 3415,
      "anchoring": 3416,
      "sailor": 3417,
      "boards": 3418,
      "mainly": 3419,
      "press": 3420,
      "marking": 3421,
      "trave": 3422,
      "trained": 3423,
      "flu": 3424,
      "distingu": 3425,
      "idea": 3426,
      "simulations": 3427,
      "fied": 3428,
      "law": 3429,
      "plement": 3430,
      "breast": 3431,
      "commission": 3432,
      "highly": 3433,
      "numbers": 3434,
      "tugs": 3435,
      "swivel": 3436,
      "lands": 3437,
      "lengths": 3438,
      "faster": 3439,
      "planned": 3440,
      "extend": 3441,
      "calc": 3442,
      "calm": 3443,
      "laying": 3444,
      "differences": 3445,
      "Once": 3446,
      "divisions": 3447,
      "aux": 3448,
      "helms": 3449,
      "advis": 3450,
      "description": 3451,
      "measuring": 3452,
      "eyes": 3453,
      "ification": 3454,
      "lifeboats": 3455,
      "easier": 3456,
      "bulkhead": 3457,
      "final": 3458,
      "joint": 3459,
      "connection": 3460,
      "slipped": 3461,
      "basic": 3462,
      "appeared": 3463,
      "Process": 3464,
      "coils": 3465,
      "coiled": 3466,
      "older": 3467,
      "economical": 3468,
      "hydrofoil": 3469,
      "difficulties": 3470,
      "tested": 3471,
      "installations": 3472,
      "squad": 3473,
      "converted": 3474,
      "skin": 3475,
      "determined": 3476,
      "properties": 3477,
      "exception": 3478,
      "drifting": 3479,
      "appearance": 3480,
      "Plan": 3481,
      "frigate": 3482,
      "tendency": 3483,
      "separate": 3484,
      "distributed": 3485,
      "awnings": 3486,
      "Intelligence": 3487,
      "Channel": 3488,
      "fresh": 3489,
      "America": 3490,
      "sequently": 3491,
      "Technology": 3492,
      "absor": 3493,
      "involved": 3494,
      "THE": 3495,
      "pitching": 3496,
      "original": 3497,
      "rescue": 3498,
      "alternative": 3499,
      "extremely": 3500,
      "Japanese": 3501,
      "turbine": 3502,
      "lifejacket": 3503,
      "hinged": 3504,
      "corresponding": 3505,
      "opportunity": 3506,
      "ultiple": 3507,
      "impact": 3508,
      "Department": 3509,
      "sextant": 3510,
      "constructed": 3511,
      "Elizabe": 3512,
      "astronom": 3513,
      "helmsman": 3514,
      "35": 3515,
      "300": 3516,
      "5000": 3517,
      "AD": 3518,
      "AK": 3519,
      "Ano": 3520,
      "Back": 3521,
      "BER": 3522,
      "CK": 3523,
      "Cir": 3524,
      "Dire": 3525,
      "Dep": 3526,
      "Equ": 3527,
      "Fle": 3528,
      "Form": 3529,
      "FOR": 3530,
      "Jam": 3531,
      "Line": 3532,
      "List": 3533,
      "May": 3534,
      "Of": 3535,
      "Oce": 3536,
      "RI": 3537,
      "Set": 3538,
      "Sign": 3539,
      "Up": 3540,
      "Use": 3541,
      "Used": 3542,
      "Will": 3543,
      "average": 3544,
      "bom": 3545,
      "bla": 3546,
      "cup": 3547,
      "crane": 3548,
      "dip": 3549,
      "fly": 3550,
      "fers": 3551,
      "gram": 3552,
      "hom": 3553,
      "hate": 3554,
      "jam": 3555,
      "lash": 3556,
      "nment": 3557,
      "nip": 3558,
      "nautical": 3559,
      "ored": 3560,
      "oline": 3561,
      "pred": 3562,
      "rs": 3563,
      "rat": 3564,
      "rative": 3565,
      "sat": 3566,
      "south": 3567,
      "tally": 3568,
      "trop": 3569,
      "vision": 3570,
      "wound": 3571,
      "whal": 3572,
      "why": 3573,
      "hemp": 3574,
      "ret": 3575,
      "reco": 3576,
      "reign": 3577,
      "reaches": 3578,
      "oft": 3579,
      "itate": 3580,
      "asks": 3581,
      "legs": 3582,
      "beac": 3583,
      "began": 3584,
      "hic": 3585,
      "seal": 3586,
      "seab": 3587,
      "sets": 3588,
      "search": 3589,
      "decre": 3590,
      "entrance": 3591,
      "vet": 3592,
      "ades": 3593,
      "omen": 3594,
      "sudden": 3595,
      "units": 3596,
      "ternal": 3597,
      "loo": 3598,
      "loy": 3599,
      "withstand": 3600,
      "pled": 3601,
      "nothing": 3602,
      "haust": 3603,
      "resources": 3604,
      "idence": 3605,
      "inevit": 3606,
      "outwards": 3607,
      "aper": 3608,
      "notice": 3609,
      "amped": 3610,
      "exact": 3611,
      "exhaust": 3612,
      "teen": 3613,
      "canal": 3614,
      "aster": 3615,
      "got": 3616,
      "hol": 3617,
      "sideways": 3618,
      "ival": 3619,
      "crete": 3620,
      "herself": 3621,
      "manila": 3622,
      "muster": 3623,
      "lowest": 3624,
      "spike": 3625,
      "clim": 3626,
      "towline": 3627,
      "words": 3628,
      "angular": 3629,
      "series": 3630,
      "serving": 3631,
      "heading": 3632,
      "headway": 3633,
      "offer": 3634,
      "offshore": 3635,
      "maritime": 3636,
      "eping": 3637,
      "Anchor": 3638,
      "supports": 3639,
      "crews": 3640,
      "survey": 3641,
      "subjected": 3642,
      "green": 3643,
      "rigid": 3644,
      "190": 3645,
      "194": 3646,
      "180": 3647,
      "tried": 3648,
      "locker": 3649,
      "Head": 3650,
      "sized": 3651,
      "clearly": 3652,
      "approaches": 3653,
      "extending": 3654,
      "reduction": 3655,
      "drive": 3656,
      "helm": 3657,
      "describes": 3658,
      "requirement": 3659,
      "Because": 3660,
      "Unit": 3661,
      "basis": 3662,
      "remains": 3663,
      "remaining": 3664,
      "missile": 3665,
      "Three": 3666,
      "seamen": 3667,
      "Exam": 3668,
      "Execut": 3669,
      "rises": 3670,
      "instruments": 3671,
      "breakers": 3672,
      "month": 3673,
      "processes": 3674,
      "indicates": 3675,
      "pulling": 3676,
      "salvage": 3677,
      "eighteenth": 3678,
      "Interactive": 3679,
      "successive": 3680,
      "bolts": 3681,
      "skip": 3682,
      "charts": 3683,
      "route": 3684,
      "manoeuvring": 3685,
      "Navig": 3686,
      "fairlead": 3687,
      "adoption": 3688,
      "badly": 3689,
      "groups": 3690,
      "burning": 3691,
      "represented": 3692,
      "fortun": 3693,
      "quality": 3694,
      "established": 3695,
      "adjusted": 3696,
      "superstructure": 3697,
      "temporarily": 3698,
      "broadside": 3699,
      "voyage": 3700,
      "heeled": 3701,
      "vehicle": 3702,
      "assistance": 3703,
      "Speed": 3704,
      "smoke": 3705,
      "Short": 3706,
      "Otherwise": 3707,
      "Techn": 3708,
      "liquids": 3709,
      "oxy": 3710,
      "Engine": 3711,
      "Radio": 3712,
      "family": 3713,
      "detection": 3714,
      "funnels": 3715,
      "quantities": 3716,
      "collision": 3717,
      "annual": 3718,
      "establishment": 3719,
      "cabin": 3720,
      "Earth": 3721,
      "lubric": 3722,
      "plicated": 3723,
      "tiller": 3724,
      "meridian": 3725,
      "passage": 3726,
      "particip": 3727,
      "anguage": 3728,
      "Staff": 3729,
      "Usually": 3730,
      "aerial": 3731,
      "Another": 3732,
      "hatever": 3733,
      "satis": 3734,
      ",\"": 3735,
      "200": 3736,
      "Az": 3737,
      "Are": 3738,
      "Bar": 3739,
      "Bul": 3740,
      "Base": 3741,
      "Bear": 3742,
      "Bla": 3743,
      "Cle": 3744,
      "Certain": 3745,
      "Du": 3746,
      "Dra": 3747,
      "Day": 3748,
      "Dutch": 3749,
      "Emer": 3750,
      "ETT": 3751,
      "Fi": 3752,
      "King": 3753,
      "Low": 3754,
      "Ref": 3755,
      "Su": 3756,
      "Sove": 3757,
      "Tow": 3758,
      "Tery": 3759,
      "USA": 3760,
      "Wind": 3761,
      "bun": 3762,
      "bles": 3763,
      "city": 3764,
      "cring": 3765,
      "dar": 3766,
      "dom": 3767,
      "dig": 3768,
      "fish": 3769,
      "fought": 3770,
      "fenders": 3771,
      "gle": 3772,
      "hung": 3773,
      "house": 3774,
      "iver": 3775,
      "lu": 3776,
      "lind": 3777,
      "live": 3778,
      "lished": 3779,
      "mber": 3780,
      "na": 3781,
      "nor": 3782,
      "nature": 3783,
      "oth": 3784,
      "pic": 3785,
      "tun": 3786,
      "tasks": 3787,
      "xswain": 3788,
      "inc": 3789,
      "inn": 3790,
      "rely": 3791,
      "report": 3792,
      "reef": 3793,
      "return": 3794,
      "reliable": 3795,
      "ero": 3796,
      "atable": 3797,
      "atical": 3798,
      "ises": 3799,
      "enly": 3800,
      "ender": 3801,
      "alumin": 3802,
      "oud": 3803,
      "assumed": 3804,
      "learn": 3805,
      "thick": 3806,
      "sem": 3807,
      "semi": 3808,
      "dex": 3809,
      "entities": 3810,
      "adj": 3811,
      "susp": 3812,
      "concent": 3813,
      "conjunction": 3814,
      "shor": 3815,
      "celer": 3816,
      "ural": 3817,
      "moored": 3818,
      "pop": 3819,
      "complicated": 3820,
      "improved": 3821,
      "lling": 3822,
      "haz": 3823,
      "reserve": 3824,
      "ify": 3825,
      "amar": 3826,
      "among": 3827,
      "fold": 3828,
      "exceed": 3829,
      "excessive": 3830,
      "ounder": 3831,
      "teles": 3832,
      "portable": 3833,
      "ource": 3834,
      "steered": 3835,
      "Ital": 3836,
      "upwards": 3837,
      "partially": 3838,
      "tedly": 3839,
      "elastic": 3840,
      "sprit": 3841,
      "engaged": 3842,
      "compon": 3843,
      "toward": 3844,
      "works": 3845,
      "berthing": 3846,
      "overall": 3847,
      "door": 3848,
      "prepar": 3849,
      "seaworth": 3850,
      "obstruction": 3851,
      "disc": 3852,
      "contribut": 3853,
      "supplies": 3854,
      "fires": 3855,
      "equival": 3856,
      "answ": 3857,
      "cylind": 3858,
      "powers": 3859,
      "providing": 3860,
      "slings": 3861,
      "runs": 3862,
      "Secur": 3863,
      "Secret": 3864,
      "depths": 3865,
      "189": 3866,
      "trials": 3867,
      "Heavy": 3868,
      "tubes": 3869,
      "medical": 3870,
      "itudes": 3871,
      "giving": 3872,
      "signs": 3873,
      "velocity": 3874,
      "ronic": 3875,
      "calcul": 3876,
      "putting": 3877,
      "reducing": 3878,
      "Atlantic": 3879,
      "developing": 3880,
      "battens": 3881,
      "advance": 3882,
      "strakes": 3883,
      "products": 3884,
      "Altern": 3885,
      "solved": 3886,
      "circular": 3887,
      "screwed": 3888,
      "specialisation": 3889,
      "Dock": 3890,
      "ensity": 3891,
      "Similar": 3892,
      "SAN": 3893,
      "SAS": 3894,
      "arms": 3895,
      "colour": 3896,
      "greatly": 3897,
      "practical": 3898,
      "gases": 3899,
      "remained": 3900,
      "mission": 3901,
      "Though": 3902,
      "drawing": 3903,
      "levels": 3904,
      "pulled": 3905,
      "started": 3906,
      "starting": 3907,
      "combined": 3908,
      "organisation": 3909,
      "bolted": 3910,
      "location": 3911,
      "installation": 3912,
      "mounting": 3913,
      "limit": 3914,
      "pendant": 3915,
      "exerc": 3916,
      "launching": 3917,
      "black": 3918,
      "integr": 3919,
      "employment": 3920,
      "message": 3921,
      "survival": 3922,
      "lookout": 3923,
      "principal": 3924,
      "ROP": 3925,
      "applies": 3926,
      "twisted": 3927,
      "Should": 3928,
      "ratings": 3929,
      "regarded": 3930,
      "efficiently": 3931,
      "Radar": 3932,
      "virtual": 3933,
      "virtually": 3934,
      "Regulations": 3935,
      "conduct": 3936,
      "quadrant": 3937,
      "Distributed": 3938,
      "General": 3939,
      "grip": 3940,
      "occasion": 3941,
      "automatically": 3942,
      "davits": 3943,
      "spray": 3944,
      "activities": 3945,
      "ventilation": 3946,
      "jump": 3947,
      "recommend": 3948,
      "weapons": 3949,
      "respectively": 3950,
      "Victor": 3951,
      "initial": 3952,
      "stresses": 3953,
      "ABCD": 3954,
      "pierced": 3955,
      "Object": 3956,
      "gangway": 3957,
      "helicopter": 3958,
      "thoroughly": 3959,
      "million": 3960,
      "slide": 3961,
      "permanent": 3962,
      "telephone": 3963,
      "gunwale": 3964,
      "purchase": 3965,
      "Edward": 3966,
      "mentioned": 3967,
      "cipline": 3968,
      "convenient": 3969,
      "political": 3970,
      "calculation": 3971,
      "Fleet": 3972,
      "Ocean": 3973,
      "Sovereign": 3974,
      "Terylene": 3975,
      "Secretary": 3976,
      "calculated": 3977,
      "55": 3978,
      "70": 3979,
      "AF": 3980,
      "AS": 3981,
      "AW": 3982,
      "AIN": 3983,
      "Aided": 3984,
      "Clo": 3985,
      "Coun": 3986,
      "Cru": 3987,
      "Col": 3988,
      "Dig": 3989,
      "Effect": 3990,
      "Fire": 3991,
      "Frequ": 3992,
      "Finally": 3993,
      "Ge": 3994,
      "Gun": 3995,
      "Ke": 3996,
      "LI": 3997,
      "ME": 3998,
      "MO": 3999,
      "Min": 4000,
      "Mine": 4001,
      "Old": 4002,
      "Out": 4003,
      "Power": 4004,
      "PDU": 4005,
      "RU": 4006,
      "Sw": 4007,
      "Sy": 4008,
      "Sep": 4009,
      "TO": 4010,
      "Tur": 4011,
      "Those": 4012,
      "VI": 4013,
      "Var": 4014,
      "actions": 4015,
      "bly": 4016,
      "bag": 4017,
      "bread": 4018,
      "brow": 4019,
      "bars": 4020,
      "branch": 4021,
      "cran": 4022,
      "cher": 4023,
      "cies": 4024,
      "dail": 4025,
      "fal": 4026,
      "gent": 4027,
      "gir": 4028,
      "glo": 4029,
      "gment": 4030,
      "kers": 4031,
      "lst": 4032,
      "lack": 4033,
      "lany": 4034,
      "mass": 4035,
      "multiple": 4036,
      "ners": 4037,
      "oted": 4038,
      "ots": 4039,
      "pick": 4040,
      "pens": 4041,
      "push": 4042,
      "sil": 4043,
      "sche": 4044,
      "scho": 4045,
      "sources": 4046,
      "spot": 4047,
      "trou": 4048,
      "trough": 4049,
      "treat": 4050,
      "uge": 4051,
      "vap": 4052,
      "ye": 4053,
      "ink": 4054,
      "rein": 4055,
      "refit": 4056,
      "reports": 4057,
      "repair": 4058,
      "anish": 4059,
      "eraft": 4060,
      "arise": 4061,
      "arranged": 4062,
      "ened": 4063,
      "ences": 4064,
      "today": 4065,
      "ales": 4066,
      "alth": 4067,
      "ster": 4068,
      "stars": 4069,
      "asing": 4070,
      "ley": 4071,
      "thread": 4072,
      "thrown": 4073,
      "thwart": 4074,
      "rode": 4075,
      "sewing": 4076,
      "chap": 4077,
      "deal": 4078,
      "cture": 4079,
      "entially": 4080,
      "ads": 4081,
      "shipbuilding": 4082,
      "suction": 4083,
      "superi": 4084,
      "mable": 4085,
      "maker": 4086,
      "acent": 4087,
      "accoun": 4088,
      "accept": 4089,
      "accep": 4090,
      "sident": 4091,
      "versal": 4092,
      "gets": 4093,
      "consum": 4094,
      "raw": 4095,
      "ries": 4096,
      "mot": 4097,
      "moor": 4098,
      "polic": 4099,
      "sold": 4100,
      "commer": 4101,
      "thern": 4102,
      "impres": 4103,
      "impracticable": 4104,
      "immers": 4105,
      "lles": 4106,
      "whilst": 4107,
      "ressive": 4108,
      "outward": 4109,
      "derrick": 4110,
      "ampl": 4111,
      "tee": 4112,
      "gold": 4113,
      "coal": 4114,
      "coaming": 4115,
      "coxswain": 4116,
      "rub": 4117,
      "partly": 4118,
      "else": 4119,
      "clip": 4120,
      "fication": 4121,
      "compound": 4122,
      "compens": 4123,
      "compressed": 4124,
      "acts": 4125,
      "angled": 4126,
      "request": 4127,
      "tie": 4128,
      "doing": 4129,
      "undertaken": 4130,
      "previous": 4131,
      "sheaves": 4132,
      "offers": 4133,
      "mainsail": 4134,
      "cleared": 4135,
      "whenever": 4136,
      "embar": 4137,
      "curved": 4138,
      "rounds": 4139,
      "topping": 4140,
      "distin": 4141,
      "Analysis": 4142,
      "differ": 4143,
      "lightly": 4144,
      "ols": 4145,
      "longitude": 4146,
      "downwards": 4147,
      "surge": 4148,
      "masted": 4149,
      "lifted": 4150,
      "liferaft": 4151,
      "rigs": 4152,
      "tenance": 4153,
      "cloths": 4154,
      "termed": 4155,
      "196": 4156,
      "generation": 4157,
      "loads": 4158,
      "trip": 4159,
      "valid": 4160,
      "adders": 4161,
      "necessarily": 4162,
      "pointing": 4163,
      "Construct": 4164,
      "halyards": 4165,
      "bottoms": 4166,
      "examined": 4167,
      "stranded": 4168,
      "docks": 4169,
      "layer": 4170,
      "element": 4171,
      "prevents": 4172,
      "prevented": 4173,
      "ironcl": 4174,
      "More": 4175,
      "rudders": 4176,
      "store": 4177,
      "States": 4178,
      "safely": 4179,
      "occup": 4180,
      "harness": 4181,
      "freely": 4182,
      "DoDI": 4183,
      "enses": 4184,
      "Simulator": 4185,
      "SAIL": 4186,
      "machine": 4187,
      "finally": 4188,
      "seconds": 4189,
      "join": 4190,
      "slipping": 4191,
      "instant": 4192,
      "resultant": 4193,
      "Protocol": 4194,
      "Program": 4195,
      "strongly": 4196,
      "liners": 4197,
      "protected": 4198,
      "prior": 4199,
      "capacities": 4200,
      "figures": 4201,
      "inflation": 4202,
      "inflatable": 4203,
      "Modeling": 4204,
      "techni": 4205,
      "ATION": 4206,
      "destination": 4207,
      "changed": 4208,
      "conversion": 4209,
      "bracke": 4210,
      "widely": 4211,
      "strip": 4212,
      "facing": 4213,
      "shafts": 4214,
      "immediate": 4215,
      "checked": 4216,
      "fairly": 4217,
      "MSETT": 4218,
      "universal": 4219,
      "confined": 4220,
      "yachts": 4221,
      "looked": 4222,
      "Spanish": 4223,
      "hangar": 4224,
      "defence": 4225,
      "President": 4226,
      "voyages": 4227,
      "mineswe": 4228,
      "SIM": 4229,
      "catamar": 4230,
      "reaching": 4231,
      "detailed": 4232,
      "values": 4233,
      "comparatively": 4234,
      "tucked": 4235,
      "characteristics": 4236,
      "trees": 4237,
      "turbines": 4238,
      "rapidly": 4239,
      "DSMC": 4240,
      "quantity": 4241,
      "expressed": 4242,
      "cleaning": 4243,
      "SHIP": 4244,
      "davit": 4245,
      "lashed": 4246,
      "seventy": 4247,
      "customary": 4248,
      "Operations": 4249,
      "repeated": 4250,
      "mesh": 4251,
      "Type": 4252,
      "pivoting": 4253,
      "welding": 4254,
      "estimated": 4255,
      "Supply": 4256,
      "foul": 4257,
      "nearest": 4258,
      "Maintenance": 4259,
      "seems": 4260,
      "horsepower": 4261,
      "attach": 4262,
      "mathematical": 4263,
      "observations": 4264,
      "physical": 4265,
      "Australia": 4266,
      "Volume": 4267,
      "categor": 4268,
      "database": 4269,
      "zzle": 4270,
      "vegetable": 4271,
      "modified": 4272,
      "classified": 4273,
      "advisable": 4274,
      "squadron": 4275,
      "blade": 4276,
      "predi": 4277,
      "recovery": 4278,
      "looking": 4279,
      "skipper": 4280,
      "fortunately": 4281,
      "Technical": 4282,
      "oxygen": 4283,
      "Azimuth": 4284,
      "Blake": 4285,
      "Emergency": 4286,
      "picking": 4287,
      "adjacent": 4288,
      "shorter": 4289,
      "hazard": 4290,
      "equivalent": 4291,
      "breadth": 4292,
      "daily": 4293,
      "treatment": 4294,
      "chapter": 4295,
      "superior": 4296,
      ".).": 4297,
      "22": 4298,
      "33": 4299,
      "59": 4300,
      "AY": 4301,
      "Av": 4302,
      "BU": 4303,
      "Bet": 4304,
      "Cl": 4305,
      "Cour": 4306,
      "CON": 4307,
      "EL": 4308,
      "Evalu": 4309,
      "Fac": 4310,
      "GH": 4311,
      "HO": 4312,
      "Iron": 4313,
      "Jut": 4314,
      "Land": 4315,
      "Over": 4316,
      "Ori": 4317,
      "Orig": 4318,
      "Pe": 4319,
      "Part": 4320,
      "Sing": 4321,
      "Squad": 4322,
      "Tri": 4323,
      "Town": 4324,
      "Ve": 4325,
      "Val": 4326,
      "ben": 4327,
      "dy": 4328,
      "dreadnought": 4329,
      "eous": 4330,
      "fa": 4331,
      "fishing": 4332,
      "gro": 4333,
      "gap": 4334,
      "gging": 4335,
      "huge": 4336,
      "iant": 4337,
      "ians": 4338,
      "jib": 4339,
      "kill": 4340,
      "lb": 4341,
      "ladders": 4342,
      "mind": 4343,
      "mary": 4344,
      "ood": 4345,
      "pun": 4346,
      "pite": 4347,
      "padd": 4348,
      "pins": 4349,
      "pounder": 4350,
      "rors": 4351,
      "rational": 4352,
      "racing": 4353,
      "say": 4354,
      "scar": 4355,
      "sco": 4356,
      "slee": 4357,
      "scope": 4358,
      "twel": 4359,
      "vin": 4360,
      "vide": 4361,
      "wkn": 4362,
      "wake": 4363,
      "hest": 4364,
      "heating": 4365,
      "inity": 4366,
      "invest": 4367,
      "reast": 4368,
      "retain": 4369,
      "react": 4370,
      "remember": 4371,
      "reached": 4372,
      "reference": 4373,
      "ancho": 4374,
      "atig": 4375,
      "eness": 4376,
      "aloft": 4377,
      "stable": 4378,
      "stain": 4379,
      "stans": 4380,
      "esaving": 4381,
      "bel": 4382,
      "begun": 4383,
      "becket": 4384,
      "rod": 4385,
      "seat": 4386,
      "seized": 4387,
      "depos": 4388,
      "decl": 4389,
      "defect": 4390,
      "ickn": 4391,
      "ading": 4392,
      "advent": 4393,
      "shipped": 4394,
      "sume": 4395,
      "acqu": 4396,
      "peac": 4397,
      "unable": 4398,
      "unlikely": 4399,
      "undoub": 4400,
      "iring": 4401,
      "ulate": 4402,
      "consul": 4403,
      "concept": 4404,
      "concep": 4405,
      "shut": 4406,
      "raise": 4407,
      "uration": 4408,
      "loat": 4409,
      "loose": 4410,
      "moves": 4411,
      "mocr": 4412,
      "quate": 4413,
      "poor": 4414,
      "social": 4415,
      "imposed": 4416,
      "ammable": 4417,
      "feed": 4418,
      "fell": 4419,
      "felt": 4420,
      "exper": 4421,
      "exposed": 4422,
      "exclu": 4423,
      "external": 4424,
      "team": 4425,
      "Instru": 4426,
      "code": 4427,
      "saw": 4428,
      "steps": 4429,
      "twine": 4430,
      "ivil": 4431,
      "itions": 4432,
      "owner": 4433,
      "spind": 4434,
      "rendered": 4435,
      "tural": 4436,
      "compress": 4437,
      "agon": 4438,
      "berthed": 4439,
      "desired": 4440,
      "caught": 4441,
      "anything": 4442,
      "docu": 4443,
      "doors": 4444,
      "afloat": 4445,
      "roughly": 4446,
      "anchorage": 4447,
      "attitude": 4448,
      "flash": 4449,
      "corro": 4450,
      "curve": 4451,
      "tops": 4452,
      "topmast": 4453,
      "warp": 4454,
      "simul": 4455,
      "earli": 4456,
      "fired": 4457,
      "surround": 4458,
      "transit": 4459,
      "sternway": 4460,
      "capstans": 4461,
      "somewhat": 4462,
      "lifel": 4463,
      "lifesaving": 4464,
      "ciples": 4465,
      "clothing": 4466,
      "termin": 4467,
      "rings": 4468,
      "aked": 4469,
      "effected": 4470,
      "generated": 4471,
      "commun": 4472,
      "commonly": 4473,
      "nowadays": 4474,
      "188": 4475,
      "1860": 4476,
      "locks": 4477,
      "lockers": 4478,
      "swung": 4479,
      "varies": 4480,
      "buoyant": 4481,
      "complex": 4482,
      "complement": 4483,
      "rowing": 4484,
      "planking": 4485,
      "planning": 4486,
      "needs": 4487,
      "reduces": 4488,
      "diving": 4489,
      "volution": 4490,
      "stopper": 4491,
      "nearby": 4492,
      "ERS": 4493,
      "State": 4494,
      "cutting": 4495,
      "letter": 4496,
      "persons": 4497,
      "split": 4498,
      "movements": 4499,
      "similarly": 4500,
      "Common": 4501,
      "heavenly": 4502,
      "connections": 4503,
      "connecting": 4504,
      "electro": 4505,
      "United": 4506,
      "tackles": 4507,
      "flags": 4508,
      "casual": 4509,
      "liner": 4510,
      "gasoline": 4511,
      "magaz": 4512,
      "altering": 4513,
      "gyro": 4514,
      "strengthen": 4515,
      "technology": 4516,
      "advanced": 4517,
      "crossing": 4518,
      "50s": 4519,
      "showing": 4520,
      "rapped": 4521,
      "consisting": 4522,
      "months": 4523,
      "processing": 4524,
      "economy": 4525,
      "medium": 4526,
      "personal": 4527,
      "chains": 4528,
      "sufficiently": 4529,
      "versely": 4530,
      "introduce": 4531,
      "combat": 4532,
      "periods": 4533,
      "principles": 4534,
      "progressive": 4535,
      "ARD": 4536,
      "changing": 4537,
      "bilges": 4538,
      "limits": 4539,
      "strict": 4540,
      "exerted": 4541,
      "Netwkn": 4542,
      "facil": 4543,
      "routine": 4544,
      "visible": 4545,
      "highest": 4546,
      "Marine": 4547,
      "vicinity": 4548,
      "swept": 4549,
      "industry": 4550,
      "separated": 4551,
      "hooked": 4552,
      "sloops": 4553,
      "swimming": 4554,
      "functional": 4555,
      "Pos": 4556,
      "happens": 4557,
      "transmission": 4558,
      "stretching": 4559,
      "boilers": 4560,
      "constantly": 4561,
      "regarding": 4562,
      "ENT": 4563,
      "batteries": 4564,
      "matters": 4565,
      "oxide": 4566,
      "discharged": 4567,
      "ACK": 4568,
      "fails": 4569,
      "attemp": 4570,
      "continuously": 4571,
      "industrialised": 4572,
      "projecting": 4573,
      "interesting": 4574,
      "syn": 4575,
      "trades": 4576,
      "existing": 4577,
      "referred": 4578,
      "belayed": 4579,
      "emphas": 4580,
      "weapon": 4581,
      "Electronic": 4582,
      "Sailing": 4583,
      "sisters": 4584,
      "Standard": 4585,
      "departure": 4586,
      "iliary": 4587,
      "suffer": 4588,
      "suffered": 4589,
      "possibly": 4590,
      "possibilities": 4591,
      "weighing": 4592,
      "tapered": 4593,
      "Africa": 4594,
      "Integrated": 4595,
      "extinguishers": 4596,
      "jackstay": 4597,
      "India": 4598,
      "Absolute": 4599,
      "proposals": 4600,
      "solete": 4601,
      "Advanced": 4602,
      "deterioration": 4603,
      "Autom": 4604,
      "Further": 4605,
      "grommet": 4606,
      "mallet": 4607,
      "munition": 4608,
      "trend": 4609,
      "procedure": 4610,
      "Intro": 4611,
      "Circle": 4612,
      "Direct": 4613,
      "ratio": 4614,
      "sealed": 4615,
      "Executive": 4616,
      "Navigating": 4617,
      "Engineering": 4618,
      "aerials": 4619,
      "aluminium": 4620,
      "celeration": 4621,
      "popular": 4622,
      "telescope": 4623,
      "answer": 4624,
      "Similarly": 4625,
      "Digital": 4626,
      "cranes": 4627,
      "Evaluation": 4628,
      "Jutland": 4629,
      "Orient": 4630,
      "Originally": 4631,
      "Squadron": 4632,
      "twelve": 4633,
      "video": 4634,
      "anchored": 4635,
      "undoubtedly": 4636,
      "concepts": 4637,
      "Netwkng": 4638,
      "21": 4639,
      "23": 4640,
      "37": 4641,
      "78": 4642,
      "93": 4643,
      "AMP": 4644,
      "Bu": 4645,
      "CT": 4646,
      "Cent": 4647,
      "Cur": 4648,
      "Cut": 4649,
      "Dard": 4650,
      "Div": 4651,
      "DMS": 4652,
      "Feder": 4653,
      "GG": 4654,
      "Gre": 4655,
      "Grou": 4656,
      "Gover": 4657,
      "Hy": 4658,
      "Hal": 4659,
      "Haw": 4660,
      "Haul": 4661,
      "IST": 4662,
      "Just": 4663,
      "Mal": 4664,
      "Mod": 4665,
      "Mem": 4666,
      "Meas": 4667,
      "Make": 4668,
      "Nel": 4669,
      "Never": 4670,
      "Nove": 4671,
      "OO": 4672,
      "Off": 4673,
      "Rus": 4674,
      "Rep": 4675,
      "Sem": 4676,
      "Safe": 4677,
      "Tru": 4678,
      "Tem": 4679,
      "What": 4680,
      "WAT": 4681,
      "XX": 4682,
      "bus": 4683,
      "bending": 4684,
      "cum": 4685,
      "crit": 4686,
      "dan": 4687,
      "dred": 4688,
      "dust": 4689,
      "een": 4690,
      "eut": 4691,
      "fab": 4692,
      "gone": 4693,
      "gale": 4694,
      "ggle": 4695,
      "ix": 4696,
      "iam": 4697,
      "iances": 4698,
      "kno": 4699,
      "lig": 4700,
      "my": 4701,
      "mat": 4702,
      "mort": 4703,
      "nation": 4704,
      "nut": 4705,
      "ota": 4706,
      "phas": 4707,
      "spro": 4708,
      "sav": 4709,
      "sess": 4710,
      "tation": 4711,
      "tended": 4712,
      "tides": 4713,
      "uous": 4714,
      "vil": 4715,
      "vation": 4716,
      "vable": 4717,
      "wrought": 4718,
      "wedges": 4719,
      "wreck": 4720,
      "whatever": 4721,
      "zero": 4722,
      "°.": 4723,
      "inations": 4724,
      "input": 4725,
      "informed": 4726,
      "rew": 4727,
      "really": 4728,
      "recent": 4729,
      "remarks": 4730,
      "repairs": 4731,
      "errors": 4732,
      "onom": 4733,
      "onshore": 4734,
      "ister": 4735,
      "isition": 4736,
      "aries": 4737,
      "enorm": 4738,
      "enclosed": 4739,
      "ensures": 4740,
      "alco": 4741,
      "stroke": 4742,
      "ascertain": 4743,
      "assem": 4744,
      "things": 4745,
      "thumb": 4746,
      "beha": 4747,
      "beach": 4748,
      "beached": 4749,
      "becoming": 4750,
      "chance": 4751,
      "chafe": 4752,
      "deli": 4753,
      "decor": 4754,
      "defle": 4755,
      "demon": 4756,
      "devices": 4757,
      "deeper": 4758,
      "democr": 4759,
      "ental": 4760,
      "forgot": 4761,
      "veered": 4762,
      "acces": 4763,
      "accord": 4764,
      "abreast": 4765,
      "sification": 4766,
      "wee": 4767,
      "convoy": 4768,
      "consequ": 4769,
      "convey": 4770,
      "meter": 4771,
      "shing": 4772,
      "shad": 4773,
      "uries": 4774,
      "loop": 4775,
      "ney": 4776,
      "neat": 4777,
      "plans": 4778,
      "noon": 4779,
      "ques": 4780,
      "quay": 4781,
      "polar": 4782,
      "redit": 4783,
      "implement": 4784,
      "mental": 4785,
      "idity": 4786,
      "hence": 4787,
      "ammunition": 4788,
      "feature": 4789,
      "features": 4790,
      "excess": 4791,
      "endanger": 4792,
      "ounced": 4793,
      "carbon": 4794,
      "Indeed": 4795,
      "cannon": 4796,
      "porting": 4797,
      "ours": 4798,
      "hot": 4799,
      "hooks": 4800,
      "irement": 4801,
      "waterways": 4802,
      "foredeck": 4803,
      "spun": 4804,
      "compared": 4805,
      "aging": 4806,
      "agree": 4807,
      "actu": 4808,
      "desir": 4809,
      "optim": 4810,
      "overcome": 4811,
      "serves": 4812,
      "precise": 4813,
      "ometer": 4814,
      "sailed": 4815,
      "prescri": 4816,
      "trail": 4817,
      "obsolete": 4818,
      "oblig": 4819,
      "clew": 4820,
      "discus": 4821,
      "corvet": 4822,
      "warping": 4823,
      "warning": 4824,
      "warfare": 4825,
      "simpl": 4826,
      "bowsprit": 4827,
      "earch": 4828,
      "longitudinal": 4829,
      "fix": 4830,
      "substit": 4831,
      "Comb": 4832,
      "Comple": 4833,
      "cylin": 4834,
      "itecture": 4835,
      "cuit": 4836,
      "powered": 4837,
      "cloth": 4838,
      "operator": 4839,
      "allowing": 4840,
      "slides": 4841,
      "aker": 4842,
      "numbered": 4843,
      "inters": 4844,
      "locking": 4845,
      "draul": 4846,
      "designs": 4847,
      "stands": 4848,
      "contained": 4849,
      "Contra": 4850,
      "backing": 4851,
      "factory": 4852,
      "countered": 4853,
      "ronounced": 4854,
      "regards": 4855,
      "examples": 4856,
      "opened": 4857,
      "extended": 4858,
      "preventing": 4859,
      "minent": 4860,
      "righting": 4861,
      "inclined": 4862,
      "inclination": 4863,
      "helps": 4864,
      "fours": 4865,
      "structural": 4866,
      "stops": 4867,
      "Office": 4868,
      "stood": 4869,
      "uppermost": 4870,
      "Stroke": 4871,
      "presents": 4872,
      "diagon": 4873,
      "oils": 4874,
      "ighter": 4875,
      "quarterdeck": 4876,
      "continues": 4877,
      "rinking": 4878,
      "gearing": 4879,
      "certainly": 4880,
      "connect": 4881,
      "slips": 4882,
      "getting": 4883,
      "covers": 4884,
      "bases": 4885,
      "instance": 4886,
      "stronger": 4887,
      "closely": 4888,
      "steaming": 4889,
      "frequent": 4890,
      "Warfare": 4891,
      "inflammable": 4892,
      "variable": 4893,
      "hydro": 4894,
      "pumped": 4895,
      "pumping": 4896,
      "STE": 4897,
      "Interface": 4898,
      "jets": 4899,
      "platforms": 4900,
      "strike": 4901,
      "Defence": 4902,
      "occurred": 4903,
      "manoeuvred": 4904,
      "visit": 4905,
      "visual": 4906,
      "properly": 4907,
      "rotation": 4908,
      "rotating": 4909,
      "MSMP": 4910,
      "confidence": 4911,
      "probable": 4912,
      "lighters": 4913,
      "naturally": 4914,
      "majority": 4915,
      "qualities": 4916,
      "automation": 4917,
      "survived": 4918,
      "survivors": 4919,
      "filling": 4920,
      "Battles": 4921,
      "Level": 4922,
      "Space": 4923,
      "hanging": 4924,
      "oceans": 4925,
      "defined": 4926,
      "freight": 4927,
      "securely": 4928,
      "decision": 4929,
      "BOAT": 4930,
      "names": 4931,
      "pilot": 4932,
      "smooth": 4933,
      "appliances": 4934,
      "extension": 4935,
      "measurement": 4936,
      "bigger": 4937,
      "precaution": 4938,
      "Like": 4939,
      "explosion": 4940,
      "fastened": 4941,
      "drogue": 4942,
      "records": 4943,
      "projects": 4944,
      "comparison": 4945,
      "Secondly": 4946,
      "tucking": 4947,
      "adequate": 4948,
      "sym": 4949,
      "traditional": 4950,
      "study": 4951,
      "rails": 4952,
      "ordinary": 4953,
      "Survey": 4954,
      "Steering": 4955,
      "Term": 4956,
      "occasions": 4957,
      "Trafal": 4958,
      "accurate": 4959,
      "steerage": 4960,
      "spraying": 4961,
      "activity": 4962,
      "Environmental": 4963,
      "lifejackets": 4964,
      "sinking": 4965,
      "recommended": 4966,
      "plugs": 4967,
      "apparently": 4968,
      "expan": 4969,
      "expand": 4970,
      "transmitted": 4971,
      "Research": 4972,
      "cleats": 4973,
      "Standards": 4974,
      "programme": 4975,
      "ertific": 4976,
      "stepped": 4977,
      "blowing": 4978,
      "growth": 4979,
      "morning": 4980,
      "trunk": 4981,
      "African": 4982,
      "Magnetic": 4983,
      "breech": 4984,
      "prof": 4985,
      "reversed": 4986,
      "preferable": 4987,
      "firmly": 4988,
      "Floating": 4989,
      "favour": 4990,
      "published": 4991,
      "written": 4992,
      "anelles": 4993,
      "contract": 4994,
      "spliced": 4995,
      "waist": 4996,
      "administrative": 4997,
      "abandoned": 4998,
      "cotton": 4999,
      "distinguished": 5000,
      "auxiliary": 5001,
      "Elizabeth": 5002,
      "William": 5003,
      "tropical": 5004,
      "beacon": 5005,
      "seaborne": 5006,
      "loyment": 5007,
      "Examples": 5008,
      "Area": 5009,
      "Clear": 5010,
      "luff": 5011,
      "cylinders": 5012,
      "Security": 5013,
      "Cruis": 5014,
      "Frequency": 5015,
      "Geor": 5016,
      "Syn": 5017,
      "Vari": 5018,
      "trouble": 5019,
      "commercial": 5020,
      "rubber": 5021,
      "embarked": 5022,
      "Between": 5023,
      "Course": 5024,
      "Single": 5025,
      "dreadnoughts": 5026,
      "corrosion": 5027,
      "Dardanelles": 5028,
      "Division": 5029,
      "DMSO": 5030,
      "Group": 5031,
      "Government": 5032,
      "Nelson": 5033,
      "November": 5034,
      "fabric": 5035,
      "enormous": 5036,
      "demonstr": 5037,
      "cylinder": 5038,
      "Trafalgar": 5039,
      ");": 5040,
      "400": 5041,
      "Aw": 5042,
      "Apart": 5043,
      "Aug": 5044,
      "Agency": 5045,
      "BE": 5046,
      "Cy": 5047,
      "Che": 5048,
      "Cable": 5049,
      "Char": 5050,
      "Chap": 5051,
      "DR": 5052,
      "Down": 5053,
      "Dama": 5054,
      "DING": 5055,
      "ED": 5056,
      "Est": 5057,
      "Fe": 5058,
      "Fo": 5059,
      "Four": 5060,
      "Flow": 5061,
      "Free": 5062,
      "Fund": 5063,
      "Hor": 5064,
      "Hence": 5065,
      "IT": 5066,
      "Lad": 5067,
      "Lord": 5068,
      "Mil": 5069,
      "Mob": 5070,
      "Master": 5071,
      "Next": 5072,
      "Open": 5073,
      "Par": 5074,
      "Pac": 5075,
      "Put": 5076,
      "Pres": 5077,
      "Pol": 5078,
      "Rig": 5079,
      "Rout": 5080,
      "Rop": 5081,
      "Requ": 5082,
      "SO": 5083,
      "SW": 5084,
      "Said": 5085,
      "TI": 5086,
      "Tw": 5087,
      "Tack": 5088,
      "Whe": 5089,
      "Wire": 5090,
      "WIN": 5091,
      "abeam": 5092,
      "aited": 5093,
      "bing": 5094,
      "bone": 5095,
      "blast": 5096,
      "blad": 5097,
      "bale": 5098,
      "crad": 5099,
      "civil": 5100,
      "dang": 5101,
      "drink": 5102,
      "eat": 5103,
      "fed": 5104,
      "fas": 5105,
      "fil": 5106,
      "fans": 5107,
      "faces": 5108,
      "faked": 5109,
      "gal": 5110,
      "gant": 5111,
      "gross": 5112,
      "hn": 5113,
      "hur": 5114,
      "ima": 5115,
      "lab": 5116,
      "lip": 5117,
      "laced": 5118,
      "language": 5119,
      "mits": 5120,
      "pad": 5121,
      "pir": 5122,
      "pace": 5123,
      "patch": 5124,
      "patter": 5125,
      "paper": 5126,
      "rd": 5127,
      "race": 5128,
      "rations": 5129,
      "sit": 5130,
      "sort": 5131,
      "scan": 5132,
      "scre": 5133,
      "snow": 5134,
      "scru": 5135,
      "scient": 5136,
      "source": 5137,
      "tar": 5138,
      "tles": 5139,
      "text": 5140,
      "ues": 5141,
      "vate": 5142,
      "vant": 5143,
      "wt": 5144,
      "women": 5145,
      "°,": 5146,
      "insu": 5147,
      "insufficient": 5148,
      "indeed": 5149,
      "ref": 5150,
      "reli": 5151,
      "removing": 5152,
      "ancial": 5153,
      "analysis": 5154,
      "erly": 5155,
      "oner": 5156,
      "onic": 5157,
      "isol": 5158,
      "ishes": 5159,
      "ench": 5160,
      "enables": 5161,
      "encountered": 5162,
      "tour": 5163,
      "touch": 5164,
      "ingers": 5165,
      "altered": 5166,
      "stic": 5167,
      "stone": 5168,
      "stack": 5169,
      "stated": 5170,
      "itable": 5171,
      "ittee": 5172,
      "esca": 5173,
      "ouds": 5174,
      "outhern": 5175,
      "asure": 5176,
      "assume": 5177,
      "lest": 5178,
      "leag": 5179,
      "thrust": 5180,
      "bears": 5181,
      "rose": 5182,
      "roping": 5183,
      "rocks": 5184,
      "hib": 5185,
      "hical": 5186,
      "sew": 5187,
      "cham": 5188,
      "chair": 5189,
      "chron": 5190,
      "chitecture": 5191,
      "death": 5192,
      "ctic": 5193,
      "ctant": 5194,
      "entry": 5195,
      "entered": 5196,
      "icuous": 5197,
      "ows": 5198,
      "adverse": 5199,
      "admiral": 5200,
      "ighed": 5201,
      "arely": 5202,
      "acle": 5203,
      "abil": 5204,
      "abilities": 5205,
      "sian": 5206,
      "unnage": 5207,
      "ulse": 5208,
      "ulating": 5209,
      "ulner": 5210,
      "weighed": 5211,
      "consp": 5212,
      "concrete": 5213,
      "merely": 5214,
      "urnal": 5215,
      "rid": 5216,
      "ried": 5217,
      "rides": 5218,
      "protocol": 5219,
      "neath": 5220,
      "plenty": 5221,
      "node": 5222,
      "nozzle": 5223,
      "quisition": 5224,
      "pol": 5225,
      "poll": 5226,
      "thering": 5227,
      "imin": 5228,
      "users": 5229,
      "ressing": 5230,
      "ifying": 5231,
      "washed": 5232,
      "perform": 5233,
      "perfect": 5234,
      "permits": 5235,
      "foil": 5236,
      "food": 5237,
      "carron": 5238,
      "Init": 5239,
      "save": 5240,
      "etime": 5241,
      "steep": 5242,
      "positive": 5243,
      "hosp": 5244,
      "umping": 5245,
      "ranging": 5246,
      "odd": 5247,
      "created": 5248,
      "elimin": 5249,
      "owners": 5250,
      "spur": 5251,
      "spend": 5252,
      "spars": 5253,
      "spinn": 5254,
      "claim": 5255,
      "clusion": 5256,
      "clamped": 5257,
      "cloud": 5258,
      "spects": 5259,
      "typ": 5260,
      "render": 5261,
      "engra": 5262,
      "ager": 5263,
      "ipment": 5264,
      "bert": 5265,
      "acting": 5266,
      "requiring": 5267,
      "causing": 5268,
      "reeve": 5269,
      "underneath": 5270,
      "prest": 5271,
      "preced": 5272,
      "headed": 5273,
      "lict": 5274,
      "affor": 5275,
      "sheathing": 5276,
      "atings": 5277,
      "atts": 5278,
      "attract": 5279,
      "struck": 5280,
      "pressed": 5281,
      "marily": 5282,
      "market": 5283,
      "flax": 5284,
      "disadvantage": 5285,
      "discipline": 5286,
      "contents": 5287,
      "topsail": 5288,
      "strut": 5289,
      "distur": 5290,
      "distort": 5291,
      "centres": 5292,
      "bowline": 5293,
      "supers": 5294,
      "equally": 5295,
      "greg": 5296,
      "taneous": 5297,
      "something": 5298,
      "lifts": 5299,
      "tension": 5300,
      "clove": 5301,
      "closer": 5302,
      "terminal": 5303,
      "195": 5304,
      "1914": 5305,
      "breathing": 5306,
      "court": 5307,
      "numer": 5308,
      "triangle": 5309,
      "valve": 5310,
      "intersection": 5311,
      "drain": 5312,
      "ails": 5313,
      "contains": 5314,
      "Construction": 5315,
      "Consequently": 5316,
      "varied": 5317,
      "ricks": 5318,
      "ferry": 5319,
      "clearance": 5320,
      "guys": 5321,
      "resulted": 5322,
      "region": 5323,
      "regulations": 5324,
      "Ensure": 5325,
      "docked": 5326,
      "dockside": 5327,
      "singly": 5328,
      "planet": 5329,
      "planks": 5330,
      "rests": 5331,
      "resting": 5332,
      "layers": 5333,
      "forwarded": 5334,
      "bulb": 5335,
      "bulwar": 5336,
      "preventer": 5337,
      "dividing": 5338,
      "Associ": 5339,
      "fourth": 5340,
      "transported": 5341,
      "vict": 5342,
      "viet": 5343,
      "setting": 5344,
      "stored": 5345,
      "dioxide": 5346,
      "Architecture": 5347,
      "circulation": 5348,
      "Defect": 5349,
      "eased": 5350,
      "response": 5351,
      "plotted": 5352,
      "Administ": 5353,
      "finishing": 5354,
      "financial": 5355,
      "functions": 5356,
      "colle": 5357,
      "collection": 5358,
      "keels": 5359,
      "Union": 5360,
      "sixth": 5361,
      "flagships": 5362,
      "sunset": 5363,
      "sunrise": 5364,
      "developments": 5365,
      "magnet": 5366,
      "coiling": 5367,
      "horizontally": 5368,
      "primary": 5369,
      "primarily": 5370,
      "suited": 5371,
      "marker": 5372,
      "Exchange": 5373,
      "rising": 5374,
      "1278": 5375,
      "monit": 5376,
      "penet": 5377,
      "indication": 5378,
      "indicated": 5379,
      "grounding": 5380,
      "pulse": 5381,
      "starts": 5382,
      "hydraul": 5383,
      "mixed": 5384,
      "divisional": 5385,
      "booms": 5386,
      "testing": 5387,
      "increasingly": 5388,
      "mountain": 5389,
      "royal": 5390,
      "converter": 5391,
      "brass": 5392,
      "determining": 5393,
      "posts": 5394,
      "checks": 5395,
      "Continu": 5396,
      "manoeuvr": 5397,
      "visibility": 5398,
      "deeply": 5399,
      "property": 5400,
      "blan": 5401,
      "concerning": 5402,
      "probability": 5403,
      "165": 5404,
      "Place": 5405,
      "liquef": 5406,
      "electricity": 5407,
      "separately": 5408,
      "Coll": 5409,
      "Coast": 5410,
      "Work": 5411,
      "successfully": 5412,
      "Access": 5413,
      "Acquisition": 5414,
      "sonar": 5415,
      "walls": 5416,
      "shells": 5417,
      "Post": 5418,
      "Preca": 5419,
      "John": 5420,
      "Soviet": 5421,
      "decide": 5422,
      "Special": 5423,
      "cultural": 5424,
      "tactical": 5425,
      "application": 5426,
      "humidity": 5427,
      "reflection": 5428,
      "reflected": 5429,
      "accommodate": 5430,
      "Apparent": 5431,
      "details": 5432,
      "80s": 5433,
      "USS": 5434,
      "explosive": 5435,
      "fastenings": 5436,
      "famili": 5437,
      "gained": 5438,
      "origin": 5439,
      "accum": 5440,
      "manufactured": 5441,
      "sheets": 5442,
      "axis": 5443,
      "treated": 5444,
      "ordinates": 5445,
      "Steam": 5446,
      "grid": 5447,
      "released": 5448,
      "empty": 5449,
      "Firstly": 5450,
      "Training": 5451,
      "fifty": 5452,
      "entirely": 5453,
      "accurately": 5454,
      "accuracy": 5455,
      "copy": 5456,
      "copper": 5457,
      "relationships": 5458,
      "nineteenth": 5459,
      "altitudes": 5460,
      "sharp": 5461,
      "radiation": 5462,
      "dragged": 5463,
      "proofed": 5464,
      "formerly": 5465,
      "estimate": 5466,
      "snap": 5467,
      "leakage": 5468,
      "nearer": 5469,
      "galley": 5470,
      "remote": 5471,
      "permitted": 5472,
      "companion": 5473,
      "shelter": 5474,
      "athwartships": 5475,
      "Message": 5476,
      "catching": 5477,
      "lapping": 5478,
      "obviously": 5479,
      "Assistant": 5480,
      "Baltic": 5481,
      "bbing": 5482,
      "utilisation": 5483,
      "illustrated": 5484,
      "markings": 5485,
      "travelled": 5486,
      "commissioned": 5487,
      "absorb": 5488,
      "astronomers": 5489,
      "Equipment": 5490,
      "James": 5491,
      "bomb": 5492,
      "inevitably": 5493,
      "exactly": 5494,
      "Headquarters": 5495,
      "satisfactory": 5496,
      "Bulk": 5497,
      "cringle": 5498,
      "suspended": 5499,
      "Italian": 5500,
      "components": 5501,
      "seaworthiness": 5502,
      "Alternatively": 5503,
      "exercised": 5504,
      "integrated": 5505,
      "recommendations": 5506,
      "vapour": 5507,
      "yellow": 5508,
      "accepted": 5509,
      "consumption": 5510,
      "impressive": 5511,
      "immersed": 5512,
      "golden": 5513,
      "liferafts": 5514,
      "attachment": 5515,
      "GHT": 5516,
      "rationalisation": 5517,
      "sleeve": 5518,
      "ickness": 5519,
      "peacetime": 5520,
      "spindle": 5521,
      "Position": 5522,
      "Oriented": 5523,
      "GGING": 5524,
      "sprocket": 5525,
      "alcohol": 5526,
      "behavi": 5527,
      "democracy": 5528,
      "forgotten": 5529,
      "accordance": 5530,
      "desirable": 5531,
      "optimum": 5532,
      "obliged": 5533,
      "Contrast": 5534,
      "expansion": 5535,
      "George": 5536,
      "August": 5537,
      "Horizon": 5538,
      "Pacific": 5539,
      "Pressure": 5540,
      "Ropes": 5541,
      "fashion": 5542,
      "escape": 5543,
      "conspicuous": 5544,
      "spinnaker": 5545,
      "Association": 5546,
      "familiar": 5547,
      "150": 5548,
      "39": 5549,
      "360": 5550,
      "47": 5551,
      "56": 5552,
      "AV": 5553,
      "Abo": 5554,
      "Allow": 5555,
      "AST": 5556,
      "Abs": 5557,
      "Agent": 5558,
      "BS": 5559,
      "Bre": 5560,
      "Ber": 5561,
      "Bes": 5562,
      "Bil": 5563,
      "Bac": 5564,
      "Care": 5565,
      "Card": 5566,
      "Cape": 5567,
      "Clas": 5568,
      "DF": 5569,
      "Di": 5570,
      "Er": 5571,
      "Eight": 5572,
      "Fl": 5573,
      "Far": 5574,
      "Fit": 5575,
      "Frig": 5576,
      "Fisher": 5577,
      "Function": 5578,
      "Ground": 5579,
      "Hum": 5580,
      "Hold": 5581,
      "Knot": 5582,
      "LA": 5583,
      "LN": 5584,
      "Lay": 5585,
      "Later": 5586,
      "Large": 5587,
      "LING": 5588,
      "Language": 5589,
      "Men": 5590,
      "Mir": 5591,
      "Mass": 5592,
      "NE": 5593,
      "Nautical": 5594,
      "OW": 5595,
      "Oc": 5596,
      "Oars": 5597,
      "Prop": 5598,
      "Prin": 5599,
      "POR": 5600,
      "QU": 5601,
      "Qual": 5602,
      "RF": 5603,
      "Ru": 5604,
      "Rat": 5605,
      "Ren": 5606,
      "Run": 5607,
      "Rod": 5608,
      "REE": 5609,
      "Sc": 5610,
      "Stor": 5611,
      "Six": 5612,
      "TE": 5613,
      "TW": 5614,
      "Tor": 5615,
      "Thi": 5616,
      "Top": 5617,
      "Tide": 5618,
      "Take": 5619,
      "UM": 5620,
      "Using": 5621,
      "Wide": 5622,
      "Watts": 5623,
      "Ze": 5624,
      "ament": 5625,
      "ago": 5626,
      "bor": 5627,
      "barge": 5628,
      "bought": 5629,
      "bays": 5630,
      "bile": 5631,
      "baux": 5632,
      "chion": 5633,
      "crank": 5634,
      "credit": 5635,
      "cwt": 5636,
      "density": 5637,
      "dunnage": 5638,
      "ee": 5639,
      "eve": 5640,
      "evol": 5641,
      "eigh": 5642,
      "fid": 5643,
      "feder": 5644,
      "fender": 5645,
      "ga": 5646,
      "gates": 5647,
      "gently": 5648,
      "gins": 5649,
      "hun": 5650,
      "hors": 5651,
      "iate": 5652,
      "iod": 5653,
      "iel": 5654,
      "iest": 5655,
      "kin": 5656,
      "kne": 5657,
      "ls": 5658,
      "lun": 5659,
      "mate": 5660,
      "mates": 5661,
      "mud": 5662,
      "os": 5663,
      "ores": 5664,
      "pha": 5665,
      "pric": 5666,
      "prise": 5667,
      "pronounced": 5668,
      "rhum": 5669,
      "sq": 5670,
      "sam": 5671,
      "sens": 5672,
      "tab": 5673,
      "tong": 5674,
      "tallow": 5675,
      "vail": 5676,
      "vature": 5677,
      "vulner": 5678,
      "wright": 5679,
      "winches": 5680,
      "youn": 5681,
      "yet": 5682,
      "zen": 5683,
      "½-": 5684,
      "heated": 5685,
      "thes": 5686,
      "thetic": 5687,
      "ina": 5688,
      "iner": 5689,
      "inshore": 5690,
      "independent": 5691,
      "index": 5692,
      "rela": 5693,
      "retri": 5694,
      "replace": 5695,
      "remem": 5696,
      "recoil": 5697,
      "remon": 5698,
      "refers": 5699,
      "resolved": 5700,
      "anted": 5701,
      "ancient": 5702,
      "ats": 5703,
      "orient": 5704,
      "orange": 5705,
      "offered": 5706,
      "enn": 5707,
      "enant": 5708,
      "enlar": 5709,
      "toss": 5710,
      "alo": 5711,
      "aly": 5712,
      "aland": 5713,
      "sty": 5714,
      "static": 5715,
      "ands": 5716,
      "ander": 5717,
      "escap": 5718,
      "asers": 5719,
      "assum": 5720,
      "leaves": 5721,
      "thin": 5722,
      "throw": 5723,
      "belt": 5724,
      "rogue": 5725,
      "rockets": 5726,
      "sell": 5727,
      "seiz": 5728,
      "chasers": 5729,
      "ilt": 5730,
      "icke": 5731,
      "veer": 5732,
      "ada": 5733,
      "advice": 5734,
      "admit": 5735,
      "shipment": 5736,
      "shiphand": 5737,
      "iger": 5738,
      "sus": 5739,
      "sustain": 5740,
      "accompan": 5741,
      "peace": 5742,
      "pects": 5743,
      "abor": 5744,
      "abroad": 5745,
      "sives": 5746,
      "ultim": 5747,
      "books": 5748,
      "meals": 5749,
      "ldom": 5750,
      "shank": 5751,
      "ceremon": 5752,
      "looks": 5753,
      "rif": 5754,
      "rior": 5755,
      "ride": 5756,
      "prom": 5757,
      "proje": 5758,
      "projected": 5759,
      "prospects": 5760,
      "moist": 5761,
      "mobile": 5762,
      "neck": 5763,
      "neut": 5764,
      "negl": 5765,
      "cked": 5766,
      "uted": 5767,
      "utter": 5768,
      "utmost": 5769,
      "utches": 5770,
      "plus": 5771,
      "plays": 5772,
      "plications": 5773,
      "plastic": 5774,
      "plaited": 5775,
      "nod": 5776,
      "nose": 5777,
      "queu": 5778,
      "pool": 5779,
      "compe": 5780,
      "compl": 5781,
      "composed": 5782,
      "tap": 5783,
      "imper": 5784,
      "imminent": 5785,
      "ller": 5786,
      "user": 5787,
      "kets": 5788,
      "derived": 5789,
      "derricks": 5790,
      "artic": 5791,
      "artific": 5792,
      "percent": 5793,
      "ams": 5794,
      "ames": 5795,
      "feel": 5796,
      "excell": 5797,
      "explain": 5798,
      "Instead": 5799,
      "atell": 5800,
      "canals": 5801,
      "astro": 5802,
      "portions": 5803,
      "coir": 5804,
      "cook": 5805,
      "stell": 5806,
      "upward": 5807,
      "posing": 5808,
      "possess": 5809,
      "hollow": 5810,
      "parties": 5811,
      "partial": 5812,
      "ump": 5813,
      "rants": 5814,
      "iveness": 5815,
      "forecast": 5816,
      "deckers": 5817,
      "manual": 5818,
      "management": 5819,
      "elf": 5820,
      "formal": 5821,
      "spir": 5822,
      "spher": 5823,
      "spite": 5824,
      "clench": 5825,
      "useless": 5826,
      "speaking": 5827,
      "rents": 5828,
      "turbul": 5829,
      "engage": 5830,
      "engined": 5831,
      "worst": 5832,
      "ips": 5833,
      "ignition": 5834,
      "effort": 5835,
      "serial": 5836,
      "tier": 5837,
      "tiers": 5838,
      "handy": 5839,
      "prevail": 5840,
      "sheave": 5841,
      "pression": 5842,
      "preserve": 5843,
      "smart": 5844,
      "margin": 5845,
      "tract": 5846,
      "traverse": 5847,
      "obstru": 5848,
      "disposition": 5849,
      "discard": 5850,
      "disappeared": 5851,
      "corner": 5852,
      "corpor": 5853,
      "cury": 5854,
      "curvature": 5855,
      "gencies": 5856,
      "rounded": 5857,
      "contin": 5858,
      "distant": 5859,
      "vening": 5860,
      "bower": 5861,
      "lighted": 5862,
      "supplement": 5863,
      "crewmember": 5864,
      "readily": 5865,
      "suring": 5866,
      "directed": 5867,
      "subsi": 5868,
      "subdivision": 5869,
      "subsequently": 5870,
      "ests": 5871,
      "estu": 5872,
      "capital": 5873,
      "ize": 5874,
      "clothes": 5875,
      "operability": 5876,
      "pleasure": 5877,
      "calls": 5878,
      "calling": 5879,
      "ferences": 5880,
      "198": 5881,
      "1917": 5882,
      "1960": 5883,
      "1982": 5884,
      "breaks": 5885,
      "beforehand": 5886,
      "shot": 5887,
      "depi": 5888,
      "1890": 5889,
      "triangular": 5890,
      "valise": 5891,
      "interface": 5892,
      "necessit": 5893,
      "floated": 5894,
      "tured": 5895,
      "delay": 5896,
      "circles": 5897,
      "circuit": 5898,
      "Cond": 5899,
      "Conversely": 5900,
      "lengthen": 5901,
      "switch": 5902,
      "yourself": 5903,
      "directional": 5904,
      "background": 5905,
      "placing": 5906,
      "regist": 5907,
      "regain": 5908,
      "End": 5909,
      "plank": 5910,
      "cali": 5911,
      "minus": 5912,
      "mineral": 5913,
      "Att": 5914,
      "audi": 5915,
      "strap": 5916,
      "produces": 5917,
      "Moon": 5918,
      "knife": 5919,
      "viol": 5920,
      "Read": 5921,
      "Repe": 5922,
      "Remember": 5923,
      "related": 5924,
      "Station": 5925,
      "shortening": 5926,
      "Alt": 5927,
      "Arctic": 5928,
      "engineering": 5929,
      "navies": 5930,
      "tically": 5931,
      "aware": 5932,
      "falling": 5933,
      "xture": 5934,
      "Device": 5935,
      "Develo": 5936,
      "Deviation": 5937,
      "ramble": 5938,
      "lifeboat": 5939,
      "responsib": 5940,
      "supporting": 5941,
      "Simon": 5942,
      "midships": 5943,
      "finite": 5944,
      "funeral": 5945,
      "Beau": 5946,
      "Unfortunately": 5947,
      "tacking": 5948,
      "sixty": 5949,
      "sixteen": 5950,
      "practised": 5951,
      "currently": 5952,
      "DOs": 5953,
      "broach": 5954,
      "atory": 5955,
      "charging": 5956,
      "fleets": 5957,
      "furled": 5958,
      "bodies": 5959,
      "bridles": 5960,
      "bridges": 5961,
      "private": 5962,
      "Threat": 5963,
      "euver": 5964,
      "ugal": 5965,
      "Warrior": 5966,
      "inflated": 5967,
      "grounded": 5968,
      "eighties": 5969,
      "hyd": 5970,
      "mild": 5971,
      "stationed": 5972,
      "ONS": 5973,
      "combust": 5974,
      "International": 5975,
      "Manager": 5976,
      "costly": 5977,
      "Company": 5978,
      "periodic": 5979,
      "losses": 5980,
      "ARBO": 5981,
      "truck": 5982,
      "trucks": 5983,
      "conversions": 5984,
      "harbours": 5985,
      "striking": 5986,
      "adopt": 5987,
      "drifts": 5988,
      "blown": 5989,
      "finding": 5990,
      "rotate": 5991,
      "identified": 5992,
      "motorboat": 5993,
      "flows": 5994,
      "lighth": 5995,
      "represents": 5996,
      "strops": 5997,
      "season": 5998,
      "individually": 5999,
      "asked": 6000,
      "nettles": 6001,
      "commander": 6002,
      "seamanship": 6003,
      "tideway": 6004,
      "Nowadays": 6005,
      "Working": 6006,
      "bands": 6007,
      "scill": 6008,
      "scramble": 6009,
      "stanchion": 6010,
      "sloping": 6011,
      "effectively": 6012,
      "swimmer": 6013,
      "Chart": 6014,
      "Pole": 6015,
      "Prevent": 6016,
      "freed": 6017,
      "grain": 6018,
      "swinging": 6019,
      "stretched": 6020,
      "destroyer": 6021,
      "individuals": 6022,
      "scales": 6023,
      "wartime": 6024,
      "simplest": 6025,
      "ALSP": 6026,
      "Spec": 6027,
      "jackets": 6028,
      "namic": 6029,
      "piles": 6030,
      "pilots": 6031,
      "smothering": 6032,
      "petrol": 6033,
      "specifically": 6034,
      "country": 6035,
      "crutches": 6036,
      "cepti": 6037,
      "vital": 6038,
      "absent": 6039,
      "meets": 6040,
      "1864": 6041,
      "restrictions": 6042,
      "channels": 6043,
      "Boats": 6044,
      "Lieut": 6045,
      "shield": 6046,
      "involving": 6047,
      "mechanism": 6048,
      "maintains": 6049,
      "Portable": 6050,
      "Transm": 6051,
      "kinds": 6052,
      "recorded": 6053,
      "detect": 6054,
      "alternately": 6055,
      "Canal": 6056,
      "Canvas": 6057,
      "packed": 6058,
      "reels": 6059,
      "ordinating": 6060,
      "extinguished": 6061,
      "Merchant": 6062,
      "Room": 6063,
      "Rope": 6064,
      "Robert": 6065,
      "Surve": 6066,
      "Termin": 6067,
      "gallon": 6068,
      "hitches": 6069,
      "relevant": 6070,
      "belaying": 6071,
      "questions": 6072,
      "expression": 6073,
      "framework": 6074,
      "Western": 6075,
      "fifth": 6076,
      "copic": 6077,
      "protective": 6078,
      "drilling": 6079,
      "Belle": 6080,
      "Method": 6081,
      "Period": 6082,
      "patches": 6083,
      "varying": 6084,
      "shroud": 6085,
      "sparent": 6086,
      "flexibility": 6087,
      "Sailors": 6088,
      "coupled": 6089,
      "sisal": 6090,
      "yawing": 6091,
      "arrival": 6092,
      "altitude": 6093,
      "sweeping": 6094,
      "extensively": 6095,
      "Types": 6096,
      "departments": 6097,
      "welded": 6098,
      "Logistics": 6099,
      "shifting": 6100,
      "helicopters": 6101,
      "happened": 6102,
      "Cargo": 6103,
      "Design": 6104,
      "Despite": 6105,
      "breeze": 6106,
      "erected": 6107,
      "graphic": 6108,
      "removal": 6109,
      "devise": 6110,
      "execution": 6111,
      "solutely": 6112,
      "Blackwall": 6113,
      "Stores": 6114,
      "chiefly": 6115,
      "favoured": 6116,
      "writing": 6117,
      "injury": 6118,
      "inspection": 6119,
      "insulation": 6120,
      "insulating": 6121,
      "assessment": 6122,
      "crests": 6123,
      "Advance": 6124,
      "appreciable": 6125,
      "appreciably": 6126,
      "Germans": 6127,
      "Major": 6128,
      "housed": 6129,
      "waste": 6130,
      "reckon": 6131,
      "fluke": 6132,
      "joints": 6133,
      "BERG": 6134,
      "Signal": 6135,
      "homing": 6136,
      "jamming": 6137,
      "retirement": 6138,
      "decrease": 6139,
      "suddenly": 6140,
      "noticeable": 6141,
      "1941": 6142,
      "monthly": 6143,
      "Bearing": 6144,
      "Refers": 6145,
      "Super": 6146,
      "Towing": 6147,
      "folded": 6148,
      "elasticity": 6149,
      "Docking": 6150,
      "SANDF": 6151,
      "Victoria": 6152,
      "PDUs": 6153,
      "lanyards": 6154,
      "picked": 6155,
      "policies": 6156,
      "amplitude": 6157,
      "elsewhere": 6158,
      "distinct": 6159,
      "termediate": 6160,
      "Constructor": 6161,
      "ironclad": 6162,
      "SAILING": 6163,
      "techniques": 6164,
      "bracket": 6165,
      "catamaran": 6166,
      "categories": 6167,
      "Facility": 6168,
      "benef": 6169,
      "paddle": 6170,
      "investig": 6171,
      "documents": 6172,
      "simultaneous": 6173,
      "surrounding": 6174,
      "lifelines": 6175,
      "terminals": 6176,
      "volutionary": 6177,
      "casualty": 6178,
      "facilitate": 6179,
      "emphasis": 6180,
      "Automated": 6181,
      "Malay": 6182,
      "Memory": 6183,
      "True": 6184,
      "phase": 6185,
      "ville": 6186,
      "accessible": 6187,
      "week": 6188,
      "shadow": 6189,
      "prescribed": 6190,
      "Combat": 6191,
      "Battleships": 6192,
      "BOATS": 6193,
      "ertificate": 6194,
      "profess": 6195,
      "Awning": 6196,
      "Chapter": 6197,
      "Damage": 6198,
      "Ladies": 6199,
      "Military": 6200,
      "Mobile": 6201,
      "civilian": 6202,
      "dangers": 6203,
      "labour": 6204,
      "scrub": 6205,
      "scientific": 6206,
      "insurance": 6207,
      "leagues": 6208,
      "engraved": 6209,
      "attractive": 6210,
      "supersed": 6211,
      "gregate": 6212,
      "victim": 6213,
      "manoeuvrability": 6214,
      "Precautions": 6215,
      "USSR": 6216,
      "Above": 6217,
      "Classification": 6218,
      "Frigates": 6219,
      "LNG": 6220,
      "Mirror": 6221,
      "Prince": 6222,
      "PORT": 6223,
      "Rodney": 6224,
      "Storage": 6225,
      "bauxite": 6226,
      "horses": 6227,
      "phabet": 6228,
      "young": 6229,
      "remembered": 6230,
      "enlarged": 6231,
      "seizings": 6232,
      "shiphandler": 6233,
      "accompanied": 6234,
      "moisture": 6235,
      "neutral": 6236,
      "discarded": 6237,
      "responsibilities": 6238,
      "Lieutenant": 6239,
      "\";": 6240,
      ".*": 6241,
      "01": 6242,
      "0s": 6243,
      "26": 6244,
      "31": 6245,
      "64": 6246,
      "75": 6247,
      "84": 6248,
      "89": 6249,
      "800": 6250,
      "98": 6251,
      "AM": 6252,
      "AU": 6253,
      "Am": 6254,
      "Action": 6255,
      "Agree": 6256,
      "Again": 6257,
      "Average": 6258,
      "Amidships": 6259,
      "Bill": 6260,
      "Bay": 6261,
      "Bring": 6262,
      "Based": 6263,
      "CR": 6264,
      "Cho": 6265,
      "Cross": 6266,
      "CAR": 6267,
      "CTION": 6268,
      "DA": 6269,
      "Ds": 6270,
      "Don": 6271,
      "Dom": 6272,
      "Dry": 6273,
      "Dest": 6274,
      "DER": 6275,
      "Em": 6276,
      "Ele": 6277,
      "Fre": 6278,
      "Fig": 6279,
      "Fav": 6280,
      "Fast": 6281,
      "Five": 6282,
      "Falk": 6283,
      "Go": 6284,
      "Gra": 6285,
      "Glo": 6286,
      "Gang": 6287,
      "Gree": 6288,
      "Grap": 6289,
      "Hel": 6290,
      "Hull": 6291,
      "Having": 6292,
      "IR": 6293,
      "IS": 6294,
      "Ima": 6295,
      "Ice": 6296,
      "Isl": 6297,
      "Item": 6298,
      "Jet": 6299,
      "Jud": 6300,
      "Key": 6301,
      "LL": 6302,
      "LER": 6303,
      "Lower": 6304,
      "Link": 6305,
      "MH": 6306,
      "Mis": 6307,
      "Mate": 6308,
      "Met": 6309,
      "Mach": 6310,
      "Multi": 6311,
      "MAST": 6312,
      "Ne": 6313,
      "Num": 6314,
      "Neither": 6315,
      "OT": 6316,
      "Ober": 6317,
      "PP": 6318,
      "Pan": 6319,
      "Pet": 6320,
      "Pass": 6321,
      "Pull": 6322,
      "Red": 6323,
      "Right": 6324,
      "Rate": 6325,
      "Rud": 6326,
      "Range": 6327,
      "Sal": 6328,
      "Sha": 6329,
      "Stra": 6330,
      "Sol": 6331,
      "Scap": 6332,
      "Stri": 6333,
      "Shar": 6334,
      "Scot": 6335,
      "Self": 6336,
      "TA": 6337,
      "Tim": 6338,
      "Tight": 6339,
      "Tod": 6340,
      "Tables": 6341,
      "Treat": 6342,
      "Task": 6343,
      "Tank": 6344,
      "Tuck": 6345,
      "Very": 6346,
      "Virtu": 6347,
      "Whip": 6348,
      "Ward": 6349,
      "Wars": 6350,
      "Whatever": 6351,
      "Wood": 6352,
      "XO": 6353,
      "Year": 6354,
      "ah": 6355,
      "ais": 6356,
      "ban": 6357,
      "bill": 6358,
      "bull": 6359,
      "bends": 6360,
      "bene": 6361,
      "cer": 6362,
      "chen": 6363,
      "cry": 6364,
      "draft": 6365,
      "drun": 6366,
      "damp": 6367,
      "duration": 6368,
      "drew": 6369,
      "fro": 6370,
      "fru": 6371,
      "fract": 6372,
      "fatig": 6373,
      "gn": 6374,
      "gran": 6375,
      "gather": 6376,
      "gau": 6377,
      "grown": 6378,
      "hab": 6379,
      "hus": 6380,
      "hone": 6381,
      "ito": 6382,
      "iers": 6383,
      "jer": 6384,
      "jest": 6385,
      "jute": 6386,
      "ko": 6387,
      "kit": 6388,
      "knew": 6389,
      "lers": 6390,
      "lity": 6391,
      "lined": 6392,
      "mu": 6393,
      "mut": 6394,
      "mould": 6395,
      "mature": 6396,
      "oke": 6397,
      "ote": 6398,
      "oak": 6399,
      "oscill": 6400,
      "pa": 6401,
      "pal": 6402,
      "pment": 6403,
      "pus": 6404,
      "phen": 6405,
      "rand": 6406,
      "ril": 6407,
      "rul": 6408,
      "rist": 6409,
      "rusion": 6410,
      "rarely": 6411,
      "spo": 6412,
      "ske": 6413,
      "sports": 6414,
      "slower": 6415,
      "sick": 6416,
      "sought": 6417,
      "saving": 6418,
      "sank": 6419,
      "sending": 6420,
      "sporting": 6421,
      "tl": 6422,
      "tison": 6423,
      "vive": 6424,
      "vised": 6425,
      "whis": 6426,
      "whar": 6427,
      "wedge": 6428,
      "walk": 6429,
      "whom": 6430,
      "wrapped": 6431,
      "ynamic": 6432,
      "zone": 6433,
      "’.": 6434,
      "herent": 6435,
      "health": 6436,
      "thest": 6437,
      "theless": 6438,
      "theore": 6439,
      "inform": 6440,
      "inary": 6441,
      "incur": 6442,
      "invent": 6443,
      "inwards": 6444,
      "independ": 6445,
      "incorpor": 6446,
      "intermediate": 6447,
      "reti": 6448,
      "reci": 6449,
      "returned": 6450,
      "recovered": 6451,
      "resumed": 6452,
      "anim": 6453,
      "ancing": 6454,
      "eries": 6455,
      "onto": 6456,
      "onry": 6457,
      "attain": 6458,
      "attained": 6459,
      "oro": 6460,
      "orous": 6461,
      "orite": 6462,
      "isations": 6463,
      "island": 6464,
      "issions": 6465,
      "aran": 6466,
      "arith": 6467,
      "argu": 6468,
      "ension": 6469,
      "ensive": 6470,
      "encounter": 6471,
      "enabled": 6472,
      "encies": 6473,
      "tou": 6474,
      "tools": 6475,
      "alert": 6476,
      "alphabet": 6477,
      "ston": 6478,
      "sting": 6479,
      "stance": 6480,
      "states": 6481,
      "starter": 6482,
      "stitch": 6483,
      "stabil": 6484,
      "itches": 6485,
      "itatively": 6486,
      "asy": 6487,
      "aspect": 6488,
      "lever": 6489,
      "leach": 6490,
      "levers": 6491,
      "threat": 6492,
      "belong": 6493,
      "begins": 6494,
      "rocket": 6495,
      "hire": 6496,
      "sees": 6497,
      "sele": 6498,
      "seldom": 6499,
      "chro": 6500,
      "chaf": 6501,
      "devi": 6502,
      "deton": 6503,
      "demi": 6504,
      "dealt": 6505,
      "Theater": 6506,
      "ilio": 6507,
      "enters": 6508,
      "forged": 6509,
      "forcing": 6510,
      "owing": 6511,
      "adap": 6512,
      "adding": 6513,
      "shipyards": 6514,
      "shipowners": 6515,
      "shipwright": 6516,
      "ige": 6517,
      "igible": 6518,
      "suspe": 6519,
      "mail": 6520,
      "makers": 6521,
      "acou": 6522,
      "acid": 6523,
      "acceleration": 6524,
      "absolutely": 6525,
      "sided": 6526,
      "undue": 6527,
      "unstable": 6528,
      "irt": 6529,
      "geared": 6530,
      "geomet": 6531,
      "boo": 6532,
      "bore": 6533,
      "conve": 6534,
      "conning": 6535,
      "construct": 6536,
      "condem": 6537,
      "constell": 6538,
      "meat": 6539,
      "mets": 6540,
      "metic": 6541,
      "ray": 6542,
      "rage": 6543,
      "cely": 6544,
      "ceased": 6545,
      "ceiver": 6546,
      "urable": 6547,
      "lose": 6548,
      "loses": 6549,
      "loops": 6550,
      "alled": 6551,
      "alling": 6552,
      "rib": 6553,
      "rim": 6554,
      "rich": 6555,
      "rift": 6556,
      "prolong": 6557,
      "proxim": 6558,
      "protru": 6559,
      "promotion": 6560,
      "mode": 6561,
      "mock": 6562,
      "mote": 6563,
      "neither": 6564,
      "uty": 6565,
      "uting": 6566,
      "plum": 6567,
      "noct": 6568,
      "novel": 6569,
      "nological": 6570,
      "quir": 6571,
      "quid": 6572,
      "pockets": 6573,
      "socket": 6574,
      "composite": 6575,
      "commod": 6576,
      "iment": 6577,
      "illance": 6578,
      "respir": 6579,
      "ift": 6580,
      "ider": 6581,
      "idation": 6582,
      "idance": 6583,
      "inex": 6584,
      "wash": 6585,
      "outrig": 6586,
      "arting": 6587,
      "pert": 6588,
      "performed": 6589,
      "permis": 6590,
      "performing": 6591,
      "permission": 6592,
      "note": 6593,
      "notes": 6594,
      "notable": 6595,
      "aman": 6596,
      "fear": 6597,
      "avo": 6598,
      "fog": 6599,
      "exchange": 6600,
      "expend": 6601,
      "endid": 6602,
      "cars": 6603,
      "tell": 6604,
      "tection": 6605,
      "teoro": 6606,
      "Ind": 6607,
      "Infra": 6608,
      "Indies": 6609,
      "Index": 6610,
      "essentially": 6611,
      "cant": 6612,
      "cod": 6613,
      "coach": 6614,
      "coinc": 6615,
      "hope": 6616,
      "hoses": 6617,
      "parting": 6618,
      "waterborne": 6619,
      "odor": 6620,
      "sidewall": 6621,
      "ivity": 6622,
      "creation": 6623,
      "ivered": 6624,
      "foremast": 6625,
      "blew": 6626,
      "managed": 6627,
      "eli": 6628,
      "elly": 6629,
      "elap": 6630,
      "mustered": 6631,
      "spent": 6632,
      "spaced": 6633,
      "sprink": 6634,
      "clouds": 6635,
      "enger": 6636,
      "tows": 6637,
      "tower": 6638,
      "aground": 6639,
      "option": 6640,
      "overhead": 6641,
      "overhang": 6642,
      "overlapping": 6643,
      "buy": 6644,
      "airships": 6645,
      "anyone": 6646,
      "underside": 6647,
      "predetermined": 6648,
      "premature": 6649,
      "cession": 6650,
      "seagoing": 6651,
      "anchorages": 6652,
      "attend": 6653,
      "windows": 6654,
      "mainmast": 6655,
      "chest": 6656,
      "marry": 6657,
      "married": 6658,
      "train": 6659,
      "traver": 6660,
      "trains": 6661,
      "flap": 6662,
      "flame": 6663,
      "disaster": 6664,
      "corre": 6665,
      "dues": 6666,
      "duct": 6667,
      "emit": 6668,
      "transparent": 6669,
      "curtain": 6670,
      "curves": 6671,
      "Anti": 6672,
      "Anson": 6673,
      "centuries": 6674,
      "differs": 6675,
      "ideas": 6676,
      "idelity": 6677,
      "simulated": 6678,
      "ptly": 6679,
      "bowl": 6680,
      "bowman": 6681,
      "gunboats": 6682,
      "olite": 6683,
      "earing": 6684,
      "longitud": 6685,
      "carries": 6686,
      "downward": 6687,
      "downwind": 6688,
      "reading": 6689,
      "readings": 6690,
      "surged": 6691,
      "survive": 6692,
      "subtra": 6693,
      "substant": 6694,
      "transom": 6695,
      "transits": 6696,
      "equals": 6697,
      "mostly": 6698,
      "capsized": 6699,
      "capabilities": 6700,
      "captured": 6701,
      "someone": 6702,
      "somewhere": 6703,
      "ishment": 6704,
      "laz": 6705,
      "labe": 6706,
      "hulled": 6707,
      "cious": 6708,
      "cience": 6709,
      "closure": 6710,
      "closing": 6711,
      "1918": 6712,
      "1915": 6713,
      "1940": 6714,
      "1939": 6715,
      "slung": 6716,
      "akes": 6717,
      "generator": 6718,
      "sulph": 6719,
      "avel": 6720,
      "rung": 6721,
      "loaders": 6722,
      "Seas": 6723,
      "Seaman": 6724,
      "deployment": 6725,
      "185": 6726,
      "interse": 6727,
      "interfe": 6728,
      "intervening": 6729,
      "kened": 6730,
      "designated": 6731,
      "address": 6732,
      "addressed": 6733,
      "floors": 6734,
      "iously": 6735,
      "standstill": 6736,
      "delivered": 6737,
      "sizing": 6738,
      "signed": 6739,
      "signific": 6740,
      "backwards": 6741,
      "backbone": 6742,
      "facts": 6743,
      "Forces": 6744,
      "completion": 6745,
      "guided": 6746,
      "guaran": 6747,
      "guidance": 6748,
      "crip": 6749,
      "cription": 6750,
      "regional": 6751,
      "Enter": 6752,
      "Ensuring": 6753,
      "dockyards": 6754,
      "extends": 6755,
      "restle": 6756,
      "keeps": 6757,
      "leader": 6758,
      "needles": 6759,
      "temper": 6760,
      "tember": 6761,
      "elevation": 6762,
      "firemain": 6763,
      "driving": 6764,
      "rolls": 6765,
      "advised": 6766,
      "producing": 6767,
      "structures": 6768,
      "stopping": 6769,
      "conditioning": 6770,
      "transporting": 6771,
      "sett": 6772,
      "settle": 6773,
      "ERN": 6774,
      "Officers": 6775,
      "Real": 6776,
      "Revolutionary": 6777,
      "ponto": 6778,
      "relig": 6779,
      "hauls": 6780,
      "Star": 6781,
      "Stars": 6782,
      "shorten": 6783,
      "Always": 6784,
      "dict": 6785,
      "diver": 6786,
      "diary": 6787,
      "Ark": 6788,
      "wireless": 6789,
      "Dec": 6790,
      "Deck": 6791,
      "Detection": 6792,
      "bedding": 6793,
      "ramps": 6794,
      "harbor": 6795,
      "similarity": 6796,
      "office": 6797,
      "offices": 6798,
      "lifebuoy": 6799,
      "freestanding": 6800,
      "Committee": 6801,
      "plot": 6802,
      "Add": 6803,
      "fins": 6804,
      "barque": 6805,
      "heaviest": 6806,
      "certainty": 6807,
      "farthest": 6808,
      "coloured": 6809,
      "Being": 6810,
      "instit": 6811,
      "Prob": 6812,
      "Prov": 6813,
      "cask": 6814,
      "casks": 6815,
      "everyone": 6816,
      "everything": 6817,
      "broke": 6818,
      "charged": 6819,
      "charges": 6820,
      "protecting": 6821,
      "alterations": 6822,
      "bodily": 6823,
      "technological": 6824,
      "casting": 6825,
      "missions": 6826,
      "conscious": 6827,
      "seams": 6828,
      "steamers": 6829,
      "objective": 6830,
      "objectives": 6831,
      "leech": 6832,
      "drawings": 6833,
      "Exoce": 6834,
      "fewer": 6835,
      "breakwater": 6836,
      "breakdown": 6837,
      "ANCE": 6838,
      "steadying": 6839,
      "figuration": 6840,
      "pension": 6841,
      "indications": 6842,
      "Nos": 6843,
      "pulpit": 6844,
      "variables": 6845,
      "navigable": 6846,
      "navigate": 6847,
      "navigator": 6848,
      "eighty": 6849,
      "stationary": 6850,
      "mix": 6851,
      "mixture": 6852,
      "hesitation": 6853,
      "introducing": 6854,
      "sectional": 6855,
      "Interval": 6856,
      "Interoperability": 6857,
      "Manufact": 6858,
      "jetties": 6859,
      "jettison": 6860,
      "lateral": 6861,
      "organisations": 6862,
      "emerged": 6863,
      "emergencies": 6864,
      "locate": 6865,
      "springs": 6866,
      "hardly": 6867,
      "mount": 6868,
      "bration": 6869,
      "limiting": 6870,
      "sky": 6871,
      "strips": 6872,
      "determination": 6873,
      "paint": 6874,
      "painting": 6875,
      "battlefield": 6876,
      "ORS": 6877,
      "fairleads": 6878,
      "launcher": 6879,
      "30s": 6880,
      "March": 6881,
      "Marko": 6882,
      "blue": 6883,
      "rotated": 6884,
      "identify": 6885,
      "Commander": 6886,
      "burn": 6887,
      "ashing": 6888,
      "unior": 6889,
      "wheels": 6890,
      "ESS": 6891,
      "heights": 6892,
      "choice": 6893,
      "qualified": 6894,
      "automated": 6895,
      "electrically": 6896,
      "realise": 6897,
      "separating": 6898,
      "survivor": 6899,
      "scra": 6900,
      "scene": 6901,
      "adjustment": 6902,
      "meaning": 6903,
      "doubled": 6904,
      "According": 6905,
      "Lee": 6906,
      "Leading": 6907,
      "Leander": 6908,
      "slot": 6909,
      "slots": 6910,
      "defining": 6911,
      "China": 6912,
      "Point": 6913,
      "Prepar": 6914,
      "freighter": 6915,
      "grade": 6916,
      "revolving": 6917,
      "summer": 6918,
      "accompl": 6919,
      "authorities": 6920,
      "listed": 6921,
      "decades": 6922,
      "ROME": 6923,
      "piling": 6924,
      "sequence": 6925,
      "fronts": 6926,
      "latest": 6927,
      "Medical": 6928,
      "crash": 6929,
      "inserting": 6930,
      "reflect": 6931,
      "reflecting": 6932,
      "security": 6933,
      "spreading": 6934,
      "spreaders": 6935,
      "accommodating": 6936,
      "Blue": 6937,
      "catap": 6938,
      "events": 6939,
      "eventually": 6940,
      "pounds": 6941,
      "absence": 6942,
      "1866": 6943,
      "1867": 6944,
      "trimmed": 6945,
      "viewed": 6946,
      "Boatswain": 6947,
      "Shipping": 6948,
      "drops": 6949,
      "dropped": 6950,
      "failed": 6951,
      "failure": 6952,
      "involves": 6953,
      "cells": 6954,
      "celled": 6955,
      "countermeasures": 6956,
      "azine": 6957,
      "azimuth": 6958,
      "famous": 6959,
      "originally": 6960,
      "detected": 6961,
      "conductor": 6962,
      "rescued": 6963,
      "comparable": 6964,
      "characteristic": 6965,
      "achievement": 6966,
      "interests": 6967,
      "Canada": 6968,
      "Watertight": 6969,
      "piped": 6970,
      "widow": 6971,
      "reeled": 6972,
      "student": 6973,
      "studded": 6974,
      "thimbles": 6975,
      "accordingly": 6976,
      "existence": 6977,
      "floats": 6978,
      "Display": 6979,
      "Discipline": 6980,
      "Generally": 6981,
      "Mercury": 6982,
      "Terms": 6983,
      "gallant": 6984,
      "gallery": 6985,
      "galleries": 6986,
      "targets": 6987,
      "release": 6988,
      "issue": 6989,
      "potential": 6990,
      "express": 6991,
      "1973": 6992,
      "barrels": 6993,
      "Battlefield": 6994,
      "IPS": 6995,
      "bonnets": 6996,
      "balance": 6997,
      "balanced": 6998,
      "masonry": 6999,
      "seventeenth": 7000,
      "seventeen": 7001,
      "ventilated": 7002,
      "guardrail": 7003,
      "Below": 7004,
      "Mean": 7005,
      "Means": 7006,
      "Operating": 7007,
      "Operational": 7008,
      "jumpers": 7009,
      "patrol": 7010,
      "patient": 7011,
      "rusty": 7012,
      "sink": 7013,
      "regularly": 7014,
      "Hood": 7015,
      "Resource": 7016,
      "Submarine": 7017,
      "Vict": 7018,
      "coupl": 7019,
      "cabins": 7020,
      "ninety": 7021,
      "yaws": 7022,
      "initi": 7023,
      "arrier": 7024,
      "stitution": 7025,
      "sharing": 7026,
      "proceeding": 7027,
      "radius": 7028,
      "demands": 7029,
      "aimed": 7030,
      "lubber": 7031,
      "pivot": 7032,
      "shifted": 7033,
      "Handling": 7034,
      "fouled": 7035,
      "gradu": 7036,
      "gradient": 7037,
      "morale": 7038,
      "trunking": 7039,
      "severely": 7040,
      "Integrity": 7041,
      "Transport": 7042,
      "Transfer": 7043,
      "European": 7044,
      "Description": 7045,
      "Guard": 7046,
      "Magazine": 7047,
      "erection": 7048,
      "graphical": 7049,
      "galleys": 7050,
      "judged": 7051,
      "judgment": 7052,
      "devised": 7053,
      "devoted": 7054,
      "comfortable": 7055,
      "permanently": 7056,
      "Indian": 7057,
      "preferably": 7058,
      "shelving": 7059,
      "gunwales": 7060,
      "athwartship": 7061,
      "Import": 7062,
      "Longitudinal": 7063,
      "Quarter": 7064,
      "Store": 7065,
      "lugged": 7066,
      "public": 7067,
      "injured": 7068,
      "inspected": 7069,
      "attaching": 7070,
      "rocky": 7071,
      "mathematic": 7072,
      "proposal": 7073,
      "solely": 7074,
      "governed": 7075,
      "government": 7076,
      "assessing": 7077,
      "obtaining": 7078,
      "splicing": 7079,
      "observation": 7080,
      "accidents": 7081,
      "manufacturers": 7082,
      "Assisted": 7083,
      "Furious": 7084,
      "Foreign": 7085,
      "Majest": 7086,
      "child": 7087,
      "chions": 7088,
      "grommets": 7089,
      "houses": 7090,
      "wasted": 7091,
      "stiffen": 7092,
      "administration": 7093,
      "procedures": 7094,
      "competent": 7095,
      "keyed": 7096,
      "Introdu": 7097,
      "cooled": 7098,
      "travelling": 7099,
      "flukes": 7100,
      "laws": 7101,
      "astronomical": 7102,
      "AKE": 7103,
      "Signals": 7104,
      "whale": 7105,
      "whaler": 7106,
      "beacons": 7107,
      "seabed": 7108,
      "omenon": 7109,
      "inevitable": 7110,
      "climate": 7111,
      "rigidly": 7112,
      "participants": 7113,
      "Certainly": 7114,
      "Duke": 7115,
      "Duilio": 7116,
      "Drake": 7117,
      "cringles": 7118,
      "dark": 7119,
      "tunnel": 7120,
      "thicker": 7121,
      "concentrated": 7122,
      "exceeded": 7123,
      "component": 7124,
      "preparing": 7125,
      "preparation": 7126,
      "seaworthy": 7127,
      "Alternative": 7128,
      "Dockyard": 7129,
      "Counter": 7130,
      "Colour": 7131,
      "Gunter": 7132,
      "Keep": 7133,
      "September": 7134,
      "girders": 7135,
      "lanyard": 7136,
      "scheme": 7137,
      "threaded": 7138,
      "thwarts": 7139,
      "accounting": 7140,
      "accounts": 7141,
      "acceptable": 7142,
      "motions": 7143,
      "policy": 7144,
      "compensated": 7145,
      "previously": 7146,
      "distinction": 7147,
      "validation": 7148,
      "ironclads": 7149,
      "priority": 7150,
      "technique": 7151,
      "brackets": 7152,
      "minesweeping": 7153,
      "catamarans": 7154,
      "faith": 7155,
      "groo": 7156,
      "score": 7157,
      "deposits": 7158,
      "acquire": 7159,
      "consult": 7160,
      "exclusive": 7161,
      "Instrument": 7162,
      "Instructions": 7163,
      "flashing": 7164,
      "earlier": 7165,
      "earliest": 7166,
      "communication": 7167,
      "1860s": 7168,
      "electromagnetic": 7169,
      "magazine": 7170,
      "magazines": 7171,
      "progressively": 7172,
      "attempted": 7173,
      "Current": 7174,
      "Repulse": 7175,
      "Semi": 7176,
      "Temperature": 7177,
      "WATER": 7178,
      "business": 7179,
      "dredging": 7180,
      "nuts": 7181,
      "saved": 7182,
      "onomous": 7183,
      "assembly": 7184,
      "decorative": 7185,
      "consequent": 7186,
      "spunyarn": 7187,
      "discussed": 7188,
      "corvettes": 7189,
      "simpler": 7190,
      "Complete": 7191,
      "diagonal": 7192,
      "hydrostatic": 7193,
      "symbol": 7194,
      "expanded": 7195,
      "favourable": 7196,
      "Cruisers": 7197,
      "Divisional": 7198,
      "Check": 7199,
      "SOUN": 7200,
      "WIND": 7201,
      "cradle": 7202,
      "screen": 7203,
      "stacked": 7204,
      "sewn": 7205,
      "prestige": 7206,
      "precedence": 7207,
      "disturbed": 7208,
      "bulwarks": 7209,
      "monitors": 7210,
      "penetrate": 7211,
      "hydraulic": 7212,
      "liquefied": 7213,
      "Collisions": 7214,
      "Bilge": 7215,
      "Error": 7216,
      "Torpedo": 7217,
      "Third": 7218,
      "Zealand": 7219,
      "evolved": 7220,
      "eighth": 7221,
      "prices": 7222,
      "tongue": 7223,
      "vulnerable": 7224,
      "tossed": 7225,
      "escaped": 7226,
      "assumes": 7227,
      "ickest": 7228,
      "suscepti": 7229,
      "percentage": 7230,
      "excellent": 7231,
      "explained": 7232,
      "atellite": 7233,
      "astrolabe": 7234,
      "turbulence": 7235,
      "prevailing": 7236,
      "smartly": 7237,
      "obstructions": 7238,
      "1960s": 7239,
      "calibre": 7240,
      "Development": 7241,
      "Beaufort": 7242,
      "combustion": 7243,
      "Preventing": 7244,
      "Transmission": 7245,
      "Surveillance": 7246,
      "Belleville": 7247,
      "professional": 7248,
      "superseded": 7249,
      "Destroy": 7250,
      "Element": 7251,
      "Favorite": 7252,
      "Falklands": 7253,
      "Missile": 7254,
      "Oberons": 7255,
      "Panama": 7256,
      "Rudder": 7257,
      "Scapa": 7258,
      "Today": 7259,
      "Virtual": 7260,
      "phenomenon": 7261,
      "whistle": 7262,
      "independently": 7263,
      "retired": 7264,
      "recipro": 7265,
      "animal": 7266,
      "arithmetic": 7267,
      "chafing": 7268,
      "prolonged": 7269,
      "protruding": 7270,
      "permissible": 7271,
      "prematurely": 7272,
      "Exocet": 7273,
      "Markov": 7274,
      "!\"": 7275,
      "!'": 7276,
      "')": 7277,
      ".'": 7278,
      "..": 7279,
      ".[": 7280,
      "160": 7281,
      "2000": 7282,
      "220": 7283,
      "250": 7284,
      "36": 7285,
      "350": 7286,
      "42": 7287,
      "46": 7288,
      "57": 7289,
      "63": 7290,
      "65": 7291,
      "66": 7292,
      "85": 7293,
      "92": 7294,
      "96": 7295,
      "Ag": 7296,
      "Ax": 7297,
      "Aer": 7298,
      "Ale": 7299,
      "Astr": 7300,
      "Aband": 7301,
      "AUL": 7302,
      "BR": 7303,
      "Br": 7304,
      "Bit": 7305,
      "Band": 7306,
      "Bro": 7307,
      "Bent": 7308,
      "Big": 7309,
      "Bir": 7310,
      "Bur": 7311,
      "Bag": 7312,
      "Bree": 7313,
      "Beach": 7314,
      "Bot": 7315,
      "Bud": 7316,
      "BIL": 7317,
      "BLE": 7318,
      "Broad": 7319,
      "Branch": 7320,
      "Cs": 7321,
      "Cou": 7322,
      "Chi": 7323,
      "Cab": 7324,
      "Cover": 7325,
      "COR": 7326,
      "CES": 7327,
      "Dan": 7328,
      "Dar": 7329,
      "Dif": 7330,
      "Dart": 7331,
      "Dav": 7332,
      "Dem": 7333,
      "Due": 7334,
      "Datab": 7335,
      "Dynamic": 7336,
      "Drift": 7337,
      "Ease": 7338,
      "FE": 7339,
      "FL": 7340,
      "Fri": 7341,
      "Fif": 7342,
      "Fort": 7343,
      "Fail": 7344,
      "Fron": 7345,
      "France": 7346,
      "FLO": 7347,
      "FIPS": 7348,
      "Gl": 7349,
      "Gal": 7350,
      "Gas": 7351,
      "Gul": 7352,
      "Give": 7353,
      "GEN": 7354,
      "Good": 7355,
      "HM": 7356,
      "His": 7357,
      "Har": 7358,
      "Had": 7359,
      "Hom": 7360,
      "Hover": 7361,
      "Hol": 7362,
      "HER": 7363,
      "HAND": 7364,
      "HAW": 7365,
      "HARBO": 7366,
      "IF": 7367,
      "IM": 7368,
      "Ir": 7369,
      "Ide": 7370,
      "Iso": 7371,
      "Iris": 7372,
      "Jack": 7373,
      "Know": 7374,
      "KEE": 7375,
      "LS": 7376,
      "La": 7377,
      "Lat": 7378,
      "Lis": 7379,
      "Lit": 7380,
      "Lou": 7381,
      "Last": 7382,
      "Let": 7383,
      "Lines": 7384,
      "Law": 7385,
      "LAT": 7386,
      "LES": 7387,
      "Living": 7388,
      "Labor": 7389,
      "Mic": 7390,
      "Mut": 7391,
      "Mill": 7392,
      "Mid": 7393,
      "Mart": 7394,
      "Must": 7395,
      "Mary": 7396,
      "Much": 7397,
      "Multiple": 7398,
      "MENT": 7399,
      "NA": 7400,
      "NW": 7401,
      "Nu": 7402,
      "Nun": 7403,
      "None": 7404,
      "Norm": 7405,
      "NAL": 7406,
      "Nile": 7407,
      "OS": 7408,
      "OY": 7409,
      "Oak": 7410,
      "OBO": 7411,
      "PO": 7412,
      "Pall": 7413,
      "Pay": 7414,
      "Pain": 7415,
      "PER": 7416,
      "PRE": 7417,
      "Pie": 7418,
      "Paper": 7419,
      "PROP": 7420,
      "Penn": 7421,
      "RR": 7422,
      "Rear": 7423,
      "SS": 7424,
      "Sk": 7425,
      "Sl": 7426,
      "Side": 7427,
      "Scal": 7428,
      "Soc": 7429,
      "Sud": 7430,
      "Spain": 7431,
      "Scho": 7432,
      "Swing": 7433,
      "SMP": 7434,
      "SUR": 7435,
      "Splic": 7436,
      "Southern": 7437,
      "TS": 7438,
      "Tel": 7439,
      "Trad": 7440,
      "Taking": 7441,
      "TACK": 7442,
      "Tiger": 7443,
      "UB": 7444,
      "Ur": 7445,
      "VA": 7446,
      "Ver": 7447,
      "Vis": 7448,
      "Vent": 7449,
      "VER": 7450,
      "VII": 7451,
      "WE": 7452,
      "WH": 7453,
      "WL": 7454,
      "Wal": 7455,
      "Wet": 7456,
      "Weight": 7457,
      "Wheeled": 7458,
      "Wales": 7459,
      "Washing": 7460,
      "Your": 7461,
      "aiting": 7462,
      "bi": 7463,
      "bac": 7464,
      "bir": 7465,
      "blo": 7466,
      "bru": 7467,
      "bind": 7468,
      "bled": 7469,
      "bron": 7470,
      "bling": 7471,
      "brit": 7472,
      "bals": 7473,
      "baul": 7474,
      "cit": 7475,
      "cil": 7476,
      "cort": 7477,
      "cam": 7478,
      "cating": 7479,
      "cram": 7480,
      "cator": 7481,
      "cris": 7482,
      "crack": 7483,
      "certificate": 7484,
      "da": 7485,
      "dal": 7486,
      "dial": 7487,
      "dome": 7488,
      "dining": 7489,
      "drinking": 7490,
      "dressing": 7491,
      "durable": 7492,
      "ev": 7493,
      "ez": 7494,
      "ell": 7495,
      "fan": 7496,
      "fat": 7497,
      "fist": 7498,
      "fits": 7499,
      "father": 7500,
      "flying": 7501,
      "fake": 7502,
      "faul": 7503,
      "fingers": 7504,
      "flict": 7505,
      "gers": 7506,
      "gim": 7507,
      "gast": 7508,
      "gged": 7509,
      "ggest": 7510,
      "hits": 7511,
      "ii": 7512,
      "iation": 7513,
      "ius": 7514,
      "iance": 7515,
      "ience": 7516,
      "iety": 7517,
      "jur": 7518,
      "jour": 7519,
      "jelly": 7520,
      "junior": 7521,
      "kink": 7522,
      "lf": 7523,
      "lid": 7524,
      "lamp": 7525,
      "lives": 7526,
      "luck": 7527,
      "lenses": 7528,
      "mities": 7529,
      "male": 7530,
      "nations": 7531,
      "nails": 7532,
      "navel": 7533,
      "ogen": 7534,
      "octant": 7535,
      "ographic": 7536,
      "pan": 7537,
      "phis": 7538,
      "pure": 7539,
      "pping": 7540,
      "phere": 7541,
      "penter": 7542,
      "paul": 7543,
      "rard": 7544,
      "rons": 7545,
      "rator": 7546,
      "sac": 7547,
      "send": 7548,
      "sles": 7549,
      "scured": 7550,
      "scut": 7551,
      "scare": 7552,
      "sched": 7553,
      "sited": 7554,
      "sory": 7555,
      "southern": 7556,
      "scopic": 7557,
      "tro": 7558,
      "tent": 7559,
      "tip": 7560,
      "tang": 7561,
      "tween": 7562,
      "tise": 7563,
      "tric": 7564,
      "tific": 7565,
      "trick": 7566,
      "trestle": 7567,
      "uced": 7568,
      "uctant": 7569,
      "van": 7570,
      "vig": 7571,
      "won": 7572,
      "wom": 7573,
      "want": 7574,
      "wished": 7575,
      "wides": 7576,
      "whips": 7577,
      "wants": 7578,
      "wler": 7579,
      "wanted": 7580,
      "xer": 7581,
      "yl": 7582,
      "hear": 7583,
      "hesive": 7584,
      "theod": 7585,
      "theory": 7586,
      "inck": 7587,
      "iners": 7588,
      "inate": 7589,
      "inher": 7590,
      "inflow": 7591,
      "invit": 7592,
      "rear": 7593,
      "reated": 7594,
      "reply": 7595,
      "recover": 7596,
      "returns": 7597,
      "rebuilding": 7598,
      "refrig": 7599,
      "relie": 7600,
      "recovering": 7601,
      "research": 7602,
      "recirculation": 7603,
      "recession": 7604,
      "anks": 7605,
      "analy": 7606,
      "ergy": 7607,
      "ercise": 7608,
      "erration": 7609,
      "onstr": 7610,
      "ongest": 7611,
      "atum": 7612,
      "atile": 7613,
      "oration": 7614,
      "orlo": 7615,
      "orrow": 7616,
      "iss": 7617,
      "isdi": 7618,
      "isters": 7619,
      "isson": 7620,
      "istered": 7621,
      "islands": 7622,
      "aration": 7623,
      "arrest": 7624,
      "arranging": 7625,
      "ena": 7626,
      "ensu": 7627,
      "enab": 7628,
      "ensed": 7629,
      "enna": 7630,
      "told": 7631,
      "toll": 7632,
      "tober": 7633,
      "tocks": 7634,
      "toler": 7635,
      "toggle": 7636,
      "inger": 7637,
      "aling": 7638,
      "allo": 7639,
      "sts": 7640,
      "stat": 7641,
      "stim": 7642,
      "stag": 7643,
      "stick": 7644,
      "storing": 7645,
      "stages": 7646,
      "stamped": 7647,
      "itled": 7648,
      "itative": 7649,
      "itory": 7650,
      "esed": 7651,
      "escort": 7652,
      "aspects": 7653,
      "lean": 7654,
      "thur": 7655,
      "thunder": 7656,
      "bee": 7657,
      "beli": 7658,
      "beating": 7659,
      "belie": 7660,
      "hies": 7661,
      "secu": 7662,
      "chine": 7663,
      "chaff": 7664,
      "dew": 7665,
      "defe": 7666,
      "destruction": 7667,
      "depot": 7668,
      "depression": 7669,
      "delighted": 7670,
      "definite": 7671,
      "iling": 7672,
      "iles": 7673,
      "entangled": 7674,
      "entails": 7675,
      "entitled": 7676,
      "forts": 7677,
      "forrard": 7678,
      "iced": 7679,
      "icate": 7680,
      "veers": 7681,
      "veying": 7682,
      "ado": 7683,
      "adhesive": 7684,
      "shipborne": 7685,
      "omin": 7686,
      "omas": 7687,
      "ominations": 7688,
      "suffic": 7689,
      "suggest": 7690,
      "aret": 7691,
      "arest": 7692,
      "map": 7693,
      "maul": 7694,
      "accompany": 7695,
      "accustom": 7696,
      "pear": 7697,
      "pegs": 7698,
      "aberration": 7699,
      "unnecessary": 7700,
      "unging": 7701,
      "uncommon": 7702,
      "unusual": 7703,
      "unshackled": 7704,
      "unconventional": 7705,
      "unprotected": 7706,
      "unfortunately": 7707,
      "unstudded": 7708,
      "irlad": 7709,
      "vering": 7710,
      "versa": 7711,
      "verpool": 7712,
      "vertically": 7713,
      "vertise": 7714,
      "ula": 7715,
      "ulsion": 7716,
      "ulsory": 7717,
      "weed": 7718,
      "western": 7719,
      "wears": 7720,
      "wealth": 7721,
      "webbing": 7722,
      "conut": 7723,
      "conform": 7724,
      "confir": 7725,
      "contemporary": 7726,
      "conclusion": 7727,
      "configuration": 7728,
      "raction": 7729,
      "rays": 7730,
      "cement": 7731,
      "celest": 7732,
      "urance": 7733,
      "urban": 7734,
      "lope": 7735,
      "logs": 7736,
      "alls": 7737,
      "riv": 7738,
      "rier": 7739,
      "rict": 7740,
      "rive": 7741,
      "rific": 7742,
      "rips": 7743,
      "ribs": 7744,
      "rivers": 7745,
      "proposed": 7746,
      "proportions": 7747,
      "movable": 7748,
      "neg": 7749,
      "utility": 7750,
      "utian": 7751,
      "pless": 7752,
      "plumb": 7753,
      "plunging": 7754,
      "poly": 7755,
      "poles": 7756,
      "polished": 7757,
      "soap": 7758,
      "sophis": 7759,
      "tage": 7760,
      "taper": 7761,
      "tamin": 7762,
      "tages": 7763,
      "imped": 7764,
      "improv": 7765,
      "imply": 7766,
      "immen": 7767,
      "imposes": 7768,
      "iments": 7769,
      "lla": 7770,
      "lland": 7771,
      "illness": 7772,
      "hair": 7773,
      "reser": 7774,
      "resort": 7775,
      "iful": 7776,
      "ids": 7777,
      "keys": 7778,
      "inet": 7779,
      "ineffect": 7780,
      "washing": 7781,
      "outfit": 7782,
      "outcome": 7783,
      "app": 7784,
      "appointed": 7785,
      "dern": 7786,
      "artis": 7787,
      "pery": 7788,
      "hensive": 7789,
      "noticed": 7790,
      "amps": 7791,
      "feather": 7792,
      "feeder": 7793,
      "exc": 7794,
      "export": 7795,
      "expect": 7796,
      "endless": 7797,
      "endange": 7798,
      "endurance": 7799,
      "tear": 7800,
      "Inspe": 7801,
      "Instruction": 7802,
      "Indef": 7803,
      "Invest": 7804,
      "Indom": 7805,
      "Invin": 7806,
      "ists": 7807,
      "istice": 7808,
      "istry": 7809,
      "cans": 7810,
      "canop": 7811,
      "cancelled": 7812,
      "core": 7813,
      "coat": 7814,
      "cores": 7815,
      "coatings": 7816,
      "sag": 7817,
      "sake": 7818,
      "safer": 7819,
      "rum": 7820,
      "ruption": 7821,
      "eties": 7822,
      "upwind": 7823,
      "posal": 7824,
      "hoe": 7825,
      "hood": 7826,
      "shoulder": 7827,
      "acknow": 7828,
      "antly": 7829,
      "antenna": 7830,
      "foreshore": 7831,
      "foregoing": 7832,
      "decked": 7833,
      "manif": 7834,
      "manning": 7835,
      "maneuver": 7836,
      "lowers": 7837,
      "formula": 7838,
      "span": 7839,
      "spons": 7840,
      "cling": 7841,
      "clutch": 7842,
      "spell": 7843,
      "speak": 7844,
      "speaks": 7845,
      "rence": 7846,
      "compare": 7847,
      "compulsory": 7848,
      "agric": 7849,
      "aggregate": 7850,
      "worse": 7851,
      "iptical": 7852,
      "berty": 7853,
      "berately": 7854,
      "acted": 7855,
      "despite": 7856,
      "opus": 7857,
      "opposing": 7858,
      "overload": 7859,
      "overriding": 7860,
      "eful": 7861,
      "efforts": 7862,
      "bud": 7863,
      "caution": 7864,
      "intent": 7865,
      "intensity": 7866,
      "handwheel": 7867,
      "thereby": 7868,
      "anywhere": 7869,
      "dog": 7870,
      "bettes": 7871,
      "understand": 7872,
      "undertake": 7873,
      "pread": 7874,
      "prepare": 7875,
      "preclu": 7876,
      "butt": 7877,
      "headspring": 7878,
      "icebreaking": 7879,
      "stems": 7880,
      "seaweed": 7881,
      "offset": 7882,
      "sailboat": 7883,
      "sailmaker": 7884,
      "attribut": 7885,
      "mains": 7886,
      "pressures": 7887,
      "smalle": 7888,
      "chet": 7889,
      "chever": 7890,
      "cheap": 7891,
      "chester": 7892,
      "cheesed": 7893,
      "marline": 7894,
      "markets": 7895,
      "mariners": 7896,
      "thane": 7897,
      "tram": 7898,
      "tramp": 7899,
      "obstruct": 7900,
      "obscured": 7901,
      "flare": 7902,
      "flush": 7903,
      "flames": 7904,
      "disast": 7905,
      "dispen": 7906,
      "discovered": 7907,
      "discipl": 7908,
      "disease": 7909,
      "discrete": 7910,
      "disposal": 7911,
      "epers": 7912,
      "corners": 7913,
      "dule": 7914,
      "embed": 7915,
      "currents": 7916,
      "roundly": 7917,
      "context": 7918,
      "controlling": 7919,
      "contriv": 7920,
      "topmost": 7921,
      "topmasts": 7922,
      "topgallant": 7923,
      "stringers": 7924,
      "strongest": 7925,
      "Anten": 7926,
      "Angle": 7927,
      "Analo": 7928,
      "wars": 7929,
      "center": 7930,
      "centime": 7931,
      "ideal": 7932,
      "bowed": 7933,
      "bowers": 7934,
      "gunfire": 7935,
      "gunned": 7936,
      "lighting": 7937,
      "lightning": 7938,
      "earning": 7939,
      "condensed": 7940,
      "cedure": 7941,
      "supposed": 7942,
      "readiness": 7943,
      "surveying": 7944,
      "subsequ": 7945,
      "substance": 7946,
      "transform": 7947,
      "equator": 7948,
      "estate": 7949,
      "masting": 7950,
      "sterns": 7951,
      "capsizing": 7952,
      "Commer": 7953,
      "Comput": 7954,
      "cycl": 7955,
      "cycle": 7956,
      "merged": 7957,
      "pings": 7958,
      "positioned": 7959,
      "tenth": 7960,
      "tender": 7961,
      "afternoon": 7962,
      "jection": 7963,
      "worker": 7964,
      "1900": 7965,
      "slender": 7966,
      "whereas": 7967,
      "wherever": 7968,
      "generators": 7969,
      "shoe": 7970,
      "shoal": 7971,
      "shoot": 7972,
      "fulfil": 7973,
      "Secure": 7974,
      "1880s": 7975,
      "lesson": 7976,
      "interpre": 7977,
      "interchanged": 7978,
      "drains": 7979,
      "designate": 7980,
      "Heaving": 7981,
      "woven": 7982,
      "necessitate": 7983,
      "tucks": 7984,
      "holders": 7985,
      "Conver": 7986,
      "Convent": 7987,
      "Consider": 7988,
      "Confeder": 7989,
      "swamp": 7990,
      "switches": 7991,
      "halves": 7992,
      "signalling": 7993,
      "buoyed": 7994,
      "backed": 7995,
      "backward": 7996,
      "backstays": 7997,
      "landings": 7998,
      "landmarks": 7999,
      "piers": 8000,
      "Former": 8001,
      "propel": 8002,
      "clearing": 8003,
      "guides": 8004,
      "Shelf": 8005,
      "ordering": 8006,
      "registered": 8007,
      "examine": 8008,
      "examination": 8009,
      "Ensign": 8010,
      "memor": 8011,
      "untreated": 8012,
      "extrusion": 8013,
      "propelling": 8014,
      "restra": 8015,
      "athy": 8016,
      "preventers": 8017,
      "reductions": 8018,
      "divide": 8019,
      "divides": 8020,
      "torn": 8021,
      "chances": 8022,
      "lowermast": 8023,
      "minute": 8024,
      "psy": 8025,
      "batten": 8026,
      "dried": 8027,
      "helped": 8028,
      "helpless": 8029,
      "rollers": 8030,
      "justified": 8031,
      "advances": 8032,
      "straps": 8033,
      "straining": 8034,
      "product": 8035,
      "DIC": 8036,
      "Motor": 8037,
      "Modern": 8038,
      "stoppers": 8039,
      "belowdeck": 8040,
      "transportation": 8041,
      "via": 8042,
      "ERING": 8043,
      "ERAL": 8044,
      "Reef": 8045,
      "Review": 8046,
      "Remote": 8047,
      "stove": 8048,
      "stout": 8049,
      "stocks": 8050,
      "reluctant": 8051,
      "Still": 8052,
      "Strong": 8053,
      "perienced": 8054,
      "presented": 8055,
      "Altogether": 8056,
      "diame": 8057,
      "divers": 8058,
      "shoreward": 8059,
      "otes": 8060,
      "Arab": 8061,
      "Arrange": 8062,
      "Arabs": 8063,
      "Artific": 8064,
      "Arthur": 8065,
      "engineers": 8066,
      "circulated": 8067,
      "circulate": 8068,
      "circulating": 8069,
      "awl": 8070,
      "Deco": 8071,
      "harm": 8072,
      "splash": 8073,
      "splinters": 8074,
      "splendid": 8075,
      "official": 8076,
      "ifications": 8077,
      "lifebuoys": 8078,
      "easing": 8079,
      "quartermaster": 8080,
      "continuation": 8081,
      "specialist": 8082,
      "controls": 8083,
      "SAFOR": 8084,
      "midway": 8085,
      "machines": 8086,
      "Adjust": 8087,
      "Address": 8088,
      "finish": 8089,
      "barrier": 8090,
      "barbettes": 8091,
      "serviceable": 8092,
      "connects": 8093,
      "colon": 8094,
      "collected": 8095,
      "slipway": 8096,
      "slippery": 8097,
      "Beam": 8098,
      "tightly": 8099,
      "ception": 8100,
      "keelson": 8101,
      "coverage": 8102,
      "Unlike": 8103,
      "Procedure": 8104,
      "casing": 8105,
      "founders": 8106,
      "practically": 8107,
      "DOG": 8108,
      "liness": 8109,
      "ribution": 8110,
      "cruise": 8111,
      "crushing": 8112,
      "magn": 8113,
      "102": 8114,
      "109": 8115,
      "furious": 8116,
      "gypsy": 8117,
      "eyebolt": 8118,
      "missing": 8119,
      "missed": 8120,
      "mistakes": 8121,
      "pride": 8122,
      "Thomas": 8123,
      "outhaul": 8124,
      "leeway": 8125,
      "signalman": 8126,
      "Exper": 8127,
      "External": 8128,
      "Exercise": 8129,
      "frequencies": 8130,
      "risks": 8131,
      "directory": 8132,
      "Allied": 8133,
      "ANS": 8134,
      "Warrant": 8135,
      "availability": 8136,
      "steadily": 8137,
      "consisted": 8138,
      "consistent": 8139,
      "monito": 8140,
      "indicating": 8141,
      "indicator": 8142,
      "Note": 8143,
      "Noise": 8144,
      "grounds": 8145,
      "yardarm": 8146,
      "salv": 8147,
      "salute": 8148,
      "155": 8149,
      "Without": 8150,
      "nevertheless": 8151,
      "amounts": 8152,
      "observe": 8153,
      "eighteen": 8154,
      "thority": 8155,
      "fields": 8156,
      "STR": 8157,
      "STRU": 8158,
      "170": 8159,
      "1759": 8160,
      "1750s": 8161,
      "1793": 8162,
      "hesitate": 8163,
      "knows": 8164,
      "combinations": 8165,
      "Internet": 8166,
      "Manual": 8167,
      "laden": 8168,
      "laterally": 8169,
      "receiving": 8170,
      "receiver": 8171,
      "organized": 8172,
      "insist": 8173,
      "undulation": 8174,
      "locally": 8175,
      "printed": 8176,
      "seeing": 8177,
      "tests": 8178,
      "installing": 8179,
      "ARDS": 8180,
      "harder": 8181,
      "braced": 8182,
      "mirror": 8183,
      "ski": 8184,
      "skill": 8185,
      "strikes": 8186,
      "determines": 8187,
      "Loop": 8188,
      "Loss": 8189,
      "Local": 8190,
      "painter": 8191,
      "routing": 8192,
      "Contin": 8193,
      "exceptions": 8194,
      "launch": 8195,
      "blisters": 8196,
      "badge": 8197,
      "framed": 8198,
      "rotates": 8199,
      "transferring": 8200,
      "radioactive": 8201,
      "Commanding": 8202,
      "burned": 8203,
      "burnt": 8204,
      "burns": 8205,
      "intelligence": 8206,
      "univers": 8207,
      "confine": 8208,
      "confused": 8209,
      "confeder": 8210,
      "conflict": 8211,
      "moderate": 8212,
      "coasts": 8213,
      "coasting": 8214,
      "streamed": 8215,
      "advantageous": 8216,
      "Plain": 8217,
      "Plans": 8218,
      "Platform": 8219,
      "flowing": 8220,
      "gras": 8221,
      "representing": 8222,
      "representation": 8223,
      "actively": 8224,
      "merchantmen": 8225,
      "draughts": 8226,
      "dangerously": 8227,
      "reasonable": 8228,
      "Frenchmen": 8229,
      "sweat": 8230,
      "nettle": 8231,
      "qualitatively": 8232,
      "sooner": 8233,
      "supplying": 8234,
      "commands": 8235,
      "DoDD": 8236,
      "employing": 8237,
      "reality": 8238,
      "realised": 8239,
      "realism": 8240,
      "distribute": 8241,
      "surviving": 8242,
      "Cost": 8243,
      "scrapped": 8244,
      "watching": 8245,
      "stanchions": 8246,
      "adjusting": 8247,
      "doubling": 8248,
      "Accommod": 8249,
      "Leave": 8250,
      "Legal": 8251,
      "Services": 8252,
      "denoting": 8253,
      "denominations": 8254,
      "denotes": 8255,
      "slew": 8256,
      "sleep": 8257,
      "slewing": 8258,
      "sleeping": 8259,
      "sloop": 8260,
      "sloped": 8261,
      "watched": 8262,
      "avoiding": 8263,
      "avoidable": 8264,
      "Seabee": 8265,
      "Armstrong": 8266,
      "Armoured": 8267,
      "Armistice": 8268,
      "functioning": 8269,
      "heels": 8270,
      "revolve": 8271,
      "revolves": 8272,
      "shapes": 8273,
      "society": 8274,
      "transmissions": 8275,
      "hatchway": 8276,
      "authorised": 8277,
      "destroyed": 8278,
      "Americans": 8279,
      "Joining": 8280,
      "Soci": 8281,
      "decided": 8282,
      "decisions": 8283,
      "BOARD": 8284,
      "culver": 8285,
      "drug": 8286,
      "drums": 8287,
      "jacket": 8288,
      "applications": 8289,
      "ballasted": 8290,
      "ballasting": 8291,
      "petty": 8292,
      "135": 8293,
      "ENS": 8294,
      "Medium": 8295,
      "Others": 8296,
      "crab": 8297,
      "crutch": 8298,
      "insert": 8299,
      "reflector": 8300,
      "cepted": 8301,
      "resistible": 8302,
      "spreader": 8303,
      "extremities": 8304,
      "April": 8305,
      "SIDE": 8306,
      "biggest": 8307,
      "meeting": 8308,
      "1865": 8309,
      "ACY": 8310,
      "ACTION": 8311,
      "Liverpool": 8312,
      "MPAS": 8313,
      "dropping": 8314,
      "fathom": 8315,
      "virtue": 8316,
      "explosives": 8317,
      "maintaining": 8318,
      "valuable": 8319,
      "fastening": 8320,
      "counterparts": 8321,
      "Regular": 8322,
      "Register": 8323,
      "Regulating": 8324,
      "DEF": 8325,
      "DECK": 8326,
      "DEMO": 8327,
      "Ports": 8328,
      "Portions": 8329,
      "Portugal": 8330,
      "autonomous": 8331,
      "bitt": 8332,
      "drove": 8333,
      "rescuer": 8334,
      "manufacturing": 8335,
      "squarely": 8336,
      "interested": 8337,
      "networks": 8338,
      "Canopus": 8339,
      "piping": 8340,
      "symp": 8341,
      "trading": 8342,
      "studied": 8343,
      "exists": 8344,
      "Distress": 8345,
      "Distribution": 8346,
      "Merid": 8347,
      "Mercator": 8348,
      "Surviv": 8349,
      "Steel": 8350,
      "friends": 8351,
      "gallons": 8352,
      "releasing": 8353,
      "referring": 8354,
      "potentially": 8355,
      "usefulness": 8356,
      "attacks": 8357,
      "attacked": 8358,
      "1977": 8359,
      "occasional": 8360,
      "Order": 8361,
      "Orbit": 8362,
      "bonus": 8363,
      "fifties": 8364,
      "fifteenth": 8365,
      "annually": 8366,
      "guardrails": 8367,
      "minimised": 8368,
      "customers": 8369,
      "drilled": 8370,
      "establishments": 8371,
      "TTO": 8372,
      "jumping": 8373,
      "sinker": 8374,
      "tablets": 8375,
      "repeater": 8376,
      "repeats": 8377,
      "amphib": 8378,
      "expenses": 8379,
      "relationship": 8380,
      "Electro": 8381,
      "Electric": 8382,
      "Electrical": 8383,
      "Hoses": 8384,
      "Holland": 8385,
      "Newcastle": 8386,
      "Sunset": 8387,
      "Weap": 8388,
      "Weather": 8389,
      "couple": 8390,
      "sounds": 8391,
      "sounding": 8392,
      "soundings": 8393,
      "initially": 8394,
      "arrives": 8395,
      "arrived": 8396,
      "sharks": 8397,
      "corresponds": 8398,
      "programs": 8399,
      "Smaller": 8400,
      "Corpor": 8401,
      "Corvet": 8402,
      "Early": 8403,
      "TRANS": 8404,
      "TERMS": 8405,
      "trying": 8406,
      "trysail": 8407,
      "department": 8408,
      "plains": 8409,
      "narrowing": 8410,
      "Hands": 8411,
      "LOW": 8412,
      "cardinal": 8413,
      "easterly": 8414,
      "gradually": 8415,
      "growing": 8416,
      "morp": 8417,
      "multiplied": 8418,
      "weighs": 8419,
      "travels": 8420,
      "centralised": 8421,
      "Integration": 8422,
      "Activity": 8423,
      "Norman": 8424,
      "gaffs": 8425,
      "jackstays": 8426,
      "judic": 8427,
      "prone": 8428,
      "sliprope": 8429,
      "removable": 8430,
      "westerly": 8431,
      "weaker": 8432,
      "executor": 8433,
      "executive": 8434,
      "companies": 8435,
      "sheltered": 8436,
      "chemicals": 8437,
      "purchases": 8438,
      "COMPAS": 8439,
      "Flood": 8440,
      "Imper": 8441,
      "Lifebuoys": 8442,
      "Quite": 8443,
      "Whereas": 8444,
      "boundary": 8445,
      "boundaries": 8446,
      "lugs": 8447,
      "lugless": 8448,
      "bells": 8449,
      "wearing": 8450,
      "contrast": 8451,
      "displayed": 8452,
      "physically": 8453,
      "manufacturer": 8454,
      "Australian": 8455,
      "Authority": 8456,
      "Chairlad": 8457,
      "FIRE": 8458,
      "Lights": 8459,
      "category": 8460,
      "databases": 8461,
      "housing": 8462,
      "trends": 8463,
      "waiting": 8464,
      "zzles": 8465,
      "stiffening": 8466,
      "abandoning": 8467,
      "utilizing": 8468,
      "competition": 8469,
      "competitive": 8470,
      "illustration": 8471,
      "cooling": 8472,
      "distinguish": 8473,
      "breastrope": 8474,
      "landsman": 8475,
      "Processor": 8476,
      "Processing": 8477,
      "squadrons": 8478,
      "exceptionally": 8479,
      "Planning": 8480,
      "absorbs": 8481,
      "Elizabethan": 8482,
      "BERTH": 8483,
      "Depending": 8484,
      "Deployment": 8485,
      "Deputy": 8486,
      "Formal": 8487,
      "RIGGING": 8488,
      "bombs": 8489,
      "dipped": 8490,
      "dipping": 8491,
      "jammed": 8492,
      "lashings": 8493,
      "hics": 8494,
      "sealing": 8495,
      "decreasing": 8496,
      "holid": 8497,
      "climb": 8498,
      "surveyed": 8499,
      "1907": 8500,
      "Examine": 8501,
      "Execution": 8502,
      "lubricated": 8503,
      "participation": 8504,
      "satisfied": 8505,
      "Draught": 8506,
      "Field": 8507,
      "Fixed": 8508,
      "Sufficient": 8509,
      "bunk": 8510,
      "bunker": 8511,
      "domain": 8512,
      "incidence": 8513,
      "innacle": 8514,
      "reefing": 8515,
      "suspic": 8516,
      "concentrate": 8517,
      "amongst": 8518,
      "exceeds": 8519,
      "Italy": 8520,
      "contribute": 8521,
      "cylindrical": 8522,
      "Securing": 8523,
      "mountings": 8524,
      "exercises": 8525,
      "ROPE": 8526,
      "recommendation": 8527,
      "Victorian": 8528,
      "Close": 8529,
      "Clothing": 8530,
      "Effects": 8531,
      "Minota": 8532,
      "Ministry": 8533,
      "Output": 8534,
      "Powerful": 8535,
      "Turk": 8536,
      "Turks": 8537,
      "global": 8538,
      "schooner": 8539,
      "reinforced": 8540,
      "reinforcing": 8541,
      "compensate": 8542,
      "requests": 8543,
      "surgeon": 8544,
      "Constructive": 8545,
      "occupies": 8546,
      "minesweeper": 8547,
      "SIMONS": 8548,
      "SIMTA": 8549,
      "prediction": 8550,
      "predicts": 8551,
      "hazardous": 8552,
      "BUOY": 8553,
      "Clan": 8554,
      "ELLER": 8555,
      "Facilities": 8556,
      "Landing": 8557,
      "Parts": 8558,
      "Veer": 8559,
      "Vehi": 8560,
      "Valiant": 8561,
      "Validation": 8562,
      "killed": 8563,
      "punishment": 8564,
      "paddles": 8565,
      "scarcely": 8566,
      "belts": 8567,
      "deposit": 8568,
      "adventure": 8569,
      "shutters": 8570,
      "loosely": 8571,
      "poorly": 8572,
      "feedback": 8573,
      "expert": 8574,
      "compressor": 8575,
      "compressors": 8576,
      "document": 8577,
      "lifeline": 8578,
      "1889": 8579,
      "electroly": 8580,
      "casualties": 8581,
      "strengthened": 8582,
      "strictly": 8583,
      "facilit": 8584,
      "synthetic": 8585,
      "Automatic": 8586,
      "popularity": 8587,
      "Buoy": 8588,
      "Centre": 8589,
      "Federation": 8590,
      "Grease": 8591,
      "Half": 8592,
      "Modulation": 8593,
      "Measure": 8594,
      "Measures": 8595,
      "OOD": 8596,
      "Russi": 8597,
      "Russian": 8598,
      "Safety": 8599,
      "WATCH": 8600,
      "critical": 8601,
      "danbuoy": 8602,
      "knocked": 8603,
      "mortar": 8604,
      "mortars": 8605,
      "savings": 8606,
      "wrecked": 8607,
      "recently": 8608,
      "ascertained": 8609,
      "delivery": 8610,
      "deliberately": 8611,
      "conveyor": 8612,
      "agreement": 8613,
      "actuation": 8614,
      "precisely": 8615,
      "trailers": 8616,
      "corvette": 8617,
      "substitute": 8618,
      "Complex": 8619,
      "diagonally": 8620,
      "hydrogen": 8621,
      "smoothly": 8622,
      "symmet": 8623,
      "Surveyor": 8624,
      "Cruiser": 8625,
      "Variation": 8626,
      "Variable": 8627,
      "demonstrated": 8628,
      "Cycle": 8629,
      "Charles": 8630,
      "Estim": 8631,
      "Establ": 8632,
      "Putting": 8633,
      "Whether": 8634,
      "Whenever": 8635,
      "bladed": 8636,
      "blades": 8637,
      "galvan": 8638,
      "gantlines": 8639,
      "image": 8640,
      "images": 8641,
      "pattern": 8642,
      "patterns": 8643,
      "relief": 8644,
      "isolate": 8645,
      "chamber": 8646,
      "police": 8647,
      "perfected": 8648,
      "perfectly": 8649,
      "carronade": 8650,
      "carronades": 8651,
      "Initially": 8652,
      "hospital": 8653,
      "typical": 8654,
      "typically": 8655,
      "afford": 8656,
      "distortion": 8657,
      "numerical": 8658,
      "originates": 8659,
      "accumulation": 8660,
      "accumulated": 8661,
      "snaps": 8662,
      "bombard": 8663,
      "behaviour": 8664,
      "fashioned": 8665,
      "Breathing": 8666,
      "Besides": 8667,
      "Diameter": 8668,
      "Eighteenth": 8669,
      "Flag": 8670,
      "October": 8671,
      "Propulsion": 8672,
      "Rule": 8673,
      "Renown": 8674,
      "Running": 8675,
      "hunting": 8676,
      "knee": 8677,
      "rhumbs": 8678,
      "sensitive": 8679,
      "relax": 8680,
      "retrie": 8681,
      "oriented": 8682,
      "style": 8683,
      "ultimate": 8684,
      "promptly": 8685,
      "projections": 8686,
      "negligible": 8687,
      "queues": 8688,
      "competen": 8689,
      "compliant": 8690,
      "imperative": 8691,
      "article": 8692,
      "spirit": 8693,
      "continents": 8694,
      "subsidiary": 8695,
      "depicts": 8696,
      "audible": 8697,
      "violence": 8698,
      "hydrant": 8699,
      "lighthouse": 8700,
      "Specification": 8701,
      "absentee": 8702,
      "shields": 8703,
      "Terminal": 8704,
      "reckoned": 8705,
      "benefit": 8706,
      "investigation": 8707,
      "simultaneously": 8708,
      "Malaya": 8709,
      "weekly": 8710,
      "scrubbed": 8711,
      "horseshoe": 8712,
      "Agreement": 8713,
      "CRACY": 8714,
      "Choose": 8715,
      "Global": 8716,
      "Gangway": 8717,
      "Graphics": 8718,
      "Helena": 8719,
      "Islands": 8720,
      "MHz": 8721,
      "Metal": 8722,
      "Machine": 8723,
      "Treaty": 8724,
      "Warden": 8725,
      "Wooden": 8726,
      "beneath": 8727,
      "fatigue": 8728,
      "granted": 8729,
      "husband": 8730,
      "kitchen": 8731,
      "muzzle": 8732,
      "spoken": 8733,
      "theoretical": 8734,
      "selecting": 8735,
      "acoustic": 8736,
      "geometric": 8737,
      "conveys": 8738,
      "condemned": 8739,
      "constellation": 8740,
      "proximity": 8741,
      "nocturnal": 8742,
      "respirator": 8743,
      "inexperienced": 8744,
      "outrigger": 8745,
      "avoided": 8746,
      "teorological": 8747,
      "Indic": 8748,
      "traversing": 8749,
      "corrected": 8750,
      "substantially": 8751,
      "interfere": 8752,
      "crippled": 8753,
      "Enterprise": 8754,
      "temperatures": 8755,
      "settling": 8756,
      "institutions": 8757,
      "launchers": 8758,
      "scraping": 8759,
      "ROMEO": 8760,
      "Victory": 8761,
      "Important": 8762,
      "Majesties": 8763,
      "exclusively": 8764,
      "Completely": 8765,
      "hydrostatically": 8766,
      "SOUNDING": 8767,
      "susceptible": 8768,
      "Destroyer": 8769,
      "reciprocating": 8770,
      "Aleutian": 8771,
      "Astronom": 8772,
      "Abandon": 8773,
      "Bentinck": 8774,
      "Breeze": 8775,
      "Bottom": 8776,
      "BILGE": 8777,
      "Demonstr": 8778,
      "Database": 8779,
      "Friction": 8780,
      "Gulf": 8781,
      "HMSAS": 8782,
      "Hadley": 8783,
      "HANDLING": 8784,
      "HARBOUR": 8785,
      "Ideally": 8786,
      "KEEL": 8787,
      "Laboratory": 8788,
      "Nunez": 8789,
      "Pallas": 8790,
      "Pieces": 8791,
      "Social": 8792,
      "Sudden": 8793,
      "Splicing": 8794,
      "Ursa": 8795,
      "Ventil": 8796,
      "Washington": 8797,
      "bacore": 8798,
      "blood": 8799,
      "bronze": 8800,
      "cramped": 8801,
      "crisis": 8802,
      "gimbals": 8803,
      "gastight": 8804,
      "jurisdi": 8805,
      "tricky": 8806,
      "woman": 8807,
      "widespread": 8808,
      "theodolite": 8809,
      "refriger": 8810,
      "relieving": 8811,
      "orlop": 8812,
      "arrester": 8813,
      "enabling": 8814,
      "allotted": 8815,
      "belief": 8816,
      "believe": 8817,
      "secures": 8818,
      "accustomed": 8819,
      "celestial": 8820,
      "immense": 8821,
      "ineffective": 8822,
      "feathering": 8823,
      "endangered": 8824,
      "Indefatig": 8825,
      "Indomitable": 8826,
      "Invinci": 8827,
      "canopy": 8828,
      "smallest": 8829,
      "Antenna": 8830,
      "subsequent": 8831,
      "Artificial": 8832,
      "monitored": 8833,
      "universally": 8834,
      "Accommodation": 8835,
      "DEMOCRACY": 8836,
      "Corvettes": 8837,
      "COMPASS": 8838,
      "Chairlady": 8839,
      "Minotaur": 8840,
      "SIMONSBERG": 8841,
      "SIMTAX": 8842,
      "jurisdiction": 8843,
      "\")": 8844,
      "%.": 8845,
      "''": 8846,
      "(\"": 8847,
      "02": 8848,
      "05": 8849,
      "08": 8850,
      "29": 8851,
      "34": 8852,
      "38": 8853,
      "3000": 8854,
      "340": 8855,
      "3rd": 8856,
      "44": 8857,
      "48": 8858,
      "49": 8859,
      "450": 8860,
      "53": 8861,
      "58": 8862,
      "5s": 8863,
      "600": 8864,
      "650": 8865,
      "71": 8866,
      "72": 8867,
      "76": 8868,
      "88": 8869,
      "91": 8870,
      "??": 8871,
      "Aj": 8872,
      "Ama": 8873,
      "Age": 8874,
      "Ald": 8875,
      "Aby": 8876,
      "Aft": 8877,
      "Aboard": 8878,
      "Astern": 8879,
      "Ashore": 8880,
      "Across": 8881,
      "Amp": 8882,
      "AFI": 8883,
      "BF": 8884,
      "Bat": 8885,
      "Bis": 8886,
      "Bed": 8887,
      "Bof": 8888,
      "Ben": 8889,
      "Bas": 8890,
      "Bend": 8891,
      "Boil": 8892,
      "Bris": 8893,
      "Bank": 8894,
      "BRO": 8895,
      "BRE": 8896,
      "BCD": 8897,
      "BUL": 8898,
      "BRI": 8899,
      "BIT": 8900,
      "C3": 8901,
      "CA": 8902,
      "CB": 8903,
      "Ce": 8904,
      "Cat": 8905,
      "Cal": 8906,
      "Cand": 8907,
      "Cri": 8908,
      "Cam": 8909,
      "Cast": 8910,
      "Cons": 8911,
      "Cring": 8912,
      "Cey": 8913,
      "CRE": 8914,
      "Class": 8915,
      "Civil": 8916,
      "CUM": 8917,
      "Certificate": 8918,
      "DB": 8919,
      "Der": 8920,
      "Dir": 8921,
      "Dred": 8922,
      "Date": 8923,
      "Dup": 8924,
      "Del": 8925,
      "Dise": 8926,
      "Danger": 8927,
      "DAN": 8928,
      "Duck": 8929,
      "DGE": 8930,
      "Drink": 8931,
      "Density": 8932,
      "DAY": 8933,
      "DERS": 8934,
      "DBE": 8935,
      "Dressing": 8936,
      "Durban": 8937,
      "ET": 8938,
      "Es": 8939,
      "Ene": 8940,
      "Eag": 8941,
      "EER": 8942,
      "Eastern": 8943,
      "Eury": 8944,
      "Econom": 8945,
      "Echo": 8946,
      "Emit": 8947,
      "Emp": 8948,
      "EAD": 8949,
      "Eye": 8950,
      "EQU": 8951,
      "Easy": 8952,
      "Ft": 8953,
      "Fra": 8954,
      "Fill": 8955,
      "Fact": 8956,
      "Fair": 8957,
      "Flight": 8958,
      "Few": 8959,
      "Fuel": 8960,
      "Flat": 8961,
      "Faul": 8962,
      "Fishing": 8963,
      "FUL": 8964,
      "Flash": 8965,
      "FREE": 8966,
      "Fidelity": 8967,
      "Falls": 8968,
      "GO": 8969,
      "Gi": 8970,
      "Gy": 8971,
      "Gust": 8972,
      "Game": 8973,
      "GES": 8974,
      "GRO": 8975,
      "Glas": 8976,
      "GNAL": 8977,
      "HF": 8978,
      "HQ": 8979,
      "Hu": 8980,
      "Hen": 8981,
      "How": 8982,
      "Hard": 8983,
      "Hong": 8984,
      "Hitch": 8985,
      "Hier": 8986,
      "Haz": 8987,
      "Hemp": 8988,
      "Harrier": 8989,
      "HAUL": 8990,
      "HEAD": 8991,
      "I7": 8992,
      "I8": 8993,
      "I9": 8994,
      "Id": 8995,
      "Ire": 8996,
      "Ill": 8997,
      "IRE": 8998,
      "IDS": 8999,
      "ITT": 9000,
      "Ju": 9001,
      "Jan": 9002,
      "Jac": 9003,
      "Jul": 9004,
      "Jew": 9005,
      "JACK": 9006,
      "JDBE": 9007,
      "KE": 9008,
      "KN": 9009,
      "Kn": 9010,
      "Ken": 9011,
      "Kong": 9012,
      "Kents": 9013,
      "Kais": 9014,
      "KHEAD": 9015,
      "LU": 9016,
      "Ls": 9017,
      "Lar": 9018,
      "Less": 9019,
      "Leng": 9020,
      "Lear": 9021,
      "Lions": 9022,
      "LOR": 9023,
      "Lash": 9024,
      "LAND": 9025,
      "Lloy": 9026,
      "Mr": 9027,
      "Mon": 9028,
      "Mac": 9029,
      "Mur": 9030,
      "Mater": 9031,
      "Mast": 9032,
      "Mack": 9033,
      "Mines": 9034,
      "Miz": 9035,
      "Move": 9036,
      "MAN": 9037,
      "MOR": 9038,
      "Multip": 9039,
      "MAIN": 9040,
      "MAY": 9041,
      "NS": 9042,
      "Non": 9043,
      "Night": 9044,
      "Nep": 9045,
      "NAT": 9046,
      "Natur": 9047,
      "NIST": 9048,
      "Neut": 9049,
      "NLA": 9050,
      "Niel": 9051,
      "Niger": 9052,
      "NOT": 9053,
      "NBCD": 9054,
      "OL": 9055,
      "Op": 9056,
      "Os": 9057,
      "Oil": 9058,
      "Opt": 9059,
      "Owing": 9060,
      "OVER": 9061,
      "PE": 9062,
      "PL": 9063,
      "PS": 9064,
      "Ph": 9065,
      "Pat": 9066,
      "Ped": 9067,
      "Phi": 9068,
      "Pil": 9069,
      "Pers": 9070,
      "Prom": 9071,
      "Pum": 9072,
      "Pack": 9073,
      "Prope": 9074,
      "Pens": 9075,
      "PING": 9076,
      "Pier": 9077,
      "Pene": 9078,
      "PEN": 9079,
      "PUR": 9080,
      "Pronounced": 9081,
      "Pulse": 9082,
      "Pumping": 9083,
      "RY": 9084,
      "Ri": 9085,
      "Row": 9086,
      "Rap": 9087,
      "Round": 9088,
      "Rel": 9089,
      "Rever": 9090,
      "Rot": 9091,
      "Rale": 9092,
      "Rules": 9093,
      "RES": 9094,
      "Ratings": 9095,
      "SK": 9096,
      "SY": 9097,
      "Sn": 9098,
      "Sen": 9099,
      "Smo": 9100,
      "Spl": 9101,
      "Sam": 9102,
      "Sum": 9103,
      "Sche": 9104,
      "Stop": 9105,
      "Scy": 9106,
      "Sue": 9107,
      "Satur": 9108,
      "Spare": 9109,
      "Shore": 9110,
      "Stern": 9111,
      "SERS": 9112,
      "Slip": 9113,
      "Size": 9114,
      "Sloops": 9115,
      "Squid": 9116,
      "Science": 9117,
      "Satellite": 9118,
      "Sisson": 9119,
      "TY": 9120,
      "Ton": 9121,
      "Tun": 9122,
      "Trom": 9123,
      "Try": 9124,
      "Text": 9125,
      "Tele": 9126,
      "Tud": 9127,
      "TING": 9128,
      "Thim": 9129,
      "Tug": 9130,
      "Trise": 9131,
      "Tying": 9132,
      "TAC": 9133,
      "Tidal": 9134,
      "Tracking": 9135,
      "TAK": 9136,
      "TUM": 9137,
      "Tips": 9138,
      "UT": 9139,
      "Ush": 9140,
      "User": 9141,
      "Upon": 9142,
      "UDS": 9143,
      "U47": 9144,
      "Vin": 9145,
      "Vil": 9146,
      "Vern": 9147,
      "Vice": 9148,
      "Voy": 9149,
      "VES": 9150,
      "VAL": 9151,
      "VEN": 9152,
      "Vangu": 9153,
      "WS": 9154,
      "WW": 9155,
      "Was": 9156,
      "Wave": 9157,
      "Whal": 9158,
      "Weld": 9159,
      "Why": 9160,
      "Waves": 9161,
      "WAR": 9162,
      "WSW": 9163,
      "Yor": 9164,
      "Yach": 9165,
      "ait": 9166,
      "aver": 9167,
      "apo": 9168,
      "aire": 9169,
      "aign": 9170,
      "adel": 9171,
      "athed": 9172,
      "bt": 9173,
      "bble": 9174,
      "brig": 9175,
      "bility": 9176,
      "bath": 9177,
      "bright": 9178,
      "batch": 9179,
      "brown": 9180,
      "bathing": 9181,
      "barely": 9182,
      "bumping": 9183,
      "binary": 9184,
      "binnacle": 9185,
      "cro": 9186,
      "cig": 9187,
      "cation": 9188,
      "cular": 9189,
      "cards": 9190,
      "crop": 9191,
      "cities": 9192,
      "crow": 9193,
      "camp": 9194,
      "cracking": 9195,
      "don": 9196,
      "dread": 9197,
      "died": 9198,
      "dinner": 9199,
      "dressed": 9200,
      "datum": 9201,
      "eman": 9202,
      "eks": 9203,
      "eval": 9204,
      "eject": 9205,
      "erel": 9206,
      "erect": 9207,
      "evalu": 9208,
      "emotion": 9209,
      "ejected": 9210,
      "evap": 9211,
      "eclip": 9212,
      "evolution": 9213,
      "fy": 9214,
      "fen": 9215,
      "fes": 9216,
      "fred": 9217,
      "fate": 9218,
      "fisher": 9219,
      "frank": 9220,
      "fila": 9221,
      "fishes": 9222,
      "fidelity": 9223,
      "finger": 9224,
      "gow": 9225,
      "gad": 9226,
      "gments": 9227,
      "gons": 9228,
      "gress": 9229,
      "ginal": 9230,
      "games": 9231,
      "gift": 9232,
      "hon": 9233,
      "hates": 9234,
      "hanger": 9235,
      "iar": 9236,
      "iqu": 9237,
      "iet": 9238,
      "iber": 9239,
      "iated": 9240,
      "imag": 9241,
      "ivers": 9242,
      "joy": 9243,
      "jaw": 9244,
      "ka": 9245,
      "km": 9246,
      "kedge": 9247,
      "kins": 9248,
      "kah": 9249,
      "lk": 9250,
      "lou": 9251,
      "lion": 9252,
      "lac": 9253,
      "lications": 9254,
      "lbs": 9255,
      "loft": 9256,
      "mpe": 9257,
      "mart": 9258,
      "mend": 9259,
      "mour": 9260,
      "mined": 9261,
      "mult": 9262,
      "mbol": 9263,
      "nd": 9264,
      "ny": 9265,
      "nas": 9266,
      "nally": 9267,
      "nts": 9268,
      "nons": 9269,
      "nual": 9270,
      "nery": 9271,
      "nwall": 9272,
      "og": 9273,
[...]
