<unk>	0
<s>	0
</s>	0
[UNK]	0
[PAD]	0
[SOS]	0
[EOS]	0
▁t	-0
he	-1
▁a	-2
▁the	-3
in	-4
▁o	-5
▁s	-6
re	-7
▁w	-8
nd	-9
er	-10
▁b	-11
▁of	-12
is	-13
ou	-14
ha	-15
▁f	-16
▁c	-17
▁and	-18
on	-19
ed	-20
it	-21
es	-22
▁m	-23
or	-24
▁to	-25
en	-26
ll	-27
ing	-28
▁p	-29
at	-30
ar	-31
▁d	-32
▁in	-33
hi	-34
▁l	-35
▁be	-36
an	-37
▁T	-38
ro	-39
▁y	-40
as	-41
le	-42
▁you	-43
▁n	-44
▁ha	-45
▁is	-46
ion	-47
▁I	-48
se	-49
▁e	-50
ho	-51
ve	-52
▁The	-53
▁g	-54
▁he	-55
id	-56
ut	-57
al	-58
his	-59
st	-60
ent	-61
▁for	-62
ay	-63
ch	-64
▁on	-65
hat	-66
om	-67
▁u	-68
gh	-69
ce	-70
▁A	-71
▁re	-72
ld	-73
ow	-74
▁that	-75
ra	-76
ot	-77
ith	-78
et	-79
▁st	-80
ri	-81
ill	-82
▁it	-83
ir	-84
ct	-85
ver	-86
▁with	-87
ly	-88
▁S	-89
am	-90
her	-91
ad	-92
ur	-93
ah	-94
▁an	-95
ght	-96
we	-97
il	-98
od	-99
ic	-100
▁will	-101
▁are	-102
▁or	-103
▁as	-104
▁we	-105
▁hi	-106
ore	-107
▁Y	-108
ation	-109
▁k	-110
hip	-111
▁se	-112
ain	-113
▁his	-114
ck	-115
▁sha	-116
im	-117
el	-118
rom	-119
▁H	-120
pe	-121
▁who	-122
▁your	-123
▁was	-124
▁by	-125
ers	-126
▁from	-127
ak	-128
▁B	-129
ab	-130
if	-131
all	-132
▁shall	-133
▁"	-134
▁him	-135
ul	-136
▁sa	-137
th	-138
▁ship	-139
▁all	-140
▁whi	-141
▁de	-142
hou	-143
▁them	-144
red	-145
▁com	-146
and	-147
▁me	-148
▁J	-149
ess	-150
weh	-151
ahweh	-152
▁they	-153
▁have	-154
▁G	-155
▁Yahweh	-156
▁which	-157
▁con	-158
ter	-159
▁not	-160
ge	-161
▁M	-162
▁C	-163
hen	-164
▁at	-165
ight	-166
ard	-167
▁pro	-168
▁al	-169
▁th	-170
rou	-171
pp	-172
▁v	-173
▁su	-174
ru	-175
qu	-176
ord	-177
▁their	-178
▁W	-179
os	-180
▁out	-181
est	-182
us	-183
ven	-184
▁D	-185
art	-186
ment	-187
ive	-188
▁E	-189
nt	-190
▁P	-191
▁were	-192
▁F	-193
res	-194
▁my	-195
▁this	-196
▁ne	-197
ist	-198
ame	-199
ast	-200
fore	-201
▁N	-202
▁up	-203
ant	-204
▁go	-205
▁has	-206
ine	-207
▁man	-208
▁us	-209
ort	-210
▁there	-211
▁said	-212
ide	-213
▁He	-214
▁God	-215
▁L	-216
ust	-217
pt	-218
▁ho	-219
▁one	-220
av	-221
em	-222
ther	-223
lo	-224
ong	-225
sel	-226
▁when	-227
▁ex	-228
ity	-229
▁pl	-230
ig	-231
ies	-232
▁bo	-233
."	-234
so	-235
um	-236
▁do	-237
▁This	-238
▁int	-239
ate	-240
ater	-241
ction	-242
au	-243
▁sp	-244
ple	-245
▁ro	-246
ac	-247
iv	-248
able	-249
▁h	-250
▁O	-251
▁so	-252
our	-253
▁off	-254
▁but	-255
ake	-256
▁her	-257
ke	-258
▁le	-259
▁It	-260
▁co	-261
ire	-262
ings	-263
▁ab	-264
ays	-265
han	-266
▁son	-267
ace	-268
▁can	-269
one	-270
▁may	-271
ass	-272
▁Is	-273
ff	-274
ind	-275
ud	-276
▁also	-277
ure	-278
▁had	-279
▁In	-280
▁1	-281
▁into	-282
un	-283
▁shou	-284
ren	-285
▁They	-286
urn	-287
▁hand	-288
▁tw	-289
▁should	-290
▁en	-291
▁ag	-292
▁R	-293
ice	-294
ach	-295
▁over	-296
▁car	-297
▁pe	-298
ather	-299
ep	-300
▁lo	-301
les	-302
▁j	-303
▁bec	-304
ft	-305
▁kn	-306
cc	-307
own	-308
▁hou	-309
very	-310
▁its	-311
▁again	-312
▁(	-313
▁wor	-314
ous	-315
ade	-316
ally	-317
ok	-318
ol	-319
ran	-320
▁king	-321
rael	-322
▁Israel	-323
ect	-324
▁ri	-325
erv	-326
▁no	-327
▁she	-328
▁am	-329
ted	-330
▁water	-331
li	-332
ause	-333
age	-334
▁fe	-335
▁spe	-336
▁before	-337
out	-338
▁made	-339
nder	-340
▁any	-341
▁For	-342
▁must	-343
ble	-344
ign	-345
▁chi	-346
ars	-347
ern	-348
ci	-349
ag	-350
▁tim	-351
▁un	-352
▁li	-353
ward	-354
▁two	-355
▁peo	-356
ull	-357
ree	-358
▁cont	-359
▁ships	-360
ance	-361
ition	-362
▁ar	-363
ome	-364
ack	-365
▁other	-366
ry	-367
▁house	-368
▁land	-369
ould	-370
▁part	-371
reat	-372
▁if	-373
▁ad	-374
▁dis	-375
wn	-376
▁boat	-377
per	-378
▁child	-379
hed	-380
▁people	-381
▁pos	-382
▁ca	-383
▁serv	-384
ise	-385
▁r	-386
▁then	-387
▁fo	-388
▁say	-389
rough	-390
round	-391
hose	-392
▁ra	-393
▁against	-394
fter	-395
▁down	-396
▁more	-397
▁When	-398
te	-399
▁mo	-400
▁these	-401
▁men	-402
▁under	-403
▁acc	-404
▁'	-405
▁day	-406
▁bu	-407
▁inc	-408
▁comm	-409
▁end	-410
ount	-411
▁pre	-412
▁per	-413
ations	-414
ber	-415
▁than	-416
oin	-417
ness	-418
▁comp	-419
▁cl	-420
▁used	-421
▁came	-422
▁children	-423
▁through	-424
▁te	-425
way	-426
here	-427
▁des	-428
ary	-429
ated	-430
▁come	-431
▁bro	-432
ie	-433
▁ke	-434
▁app	-435
▁im	-436
▁those	-437
▁If	-438
▁work	-439
▁been	-440
▁father	-441
▁even	-442
▁But	-443
▁As	-444
▁because	-445
▁turn	-446
hold	-447
orm	-448
ult	-449
ish	-450
▁bet	-451
ound	-452
ress	-453
▁after	-454
hes	-455
▁fir	-456
▁time	-457
▁side	-458
iz	-459
ath	-460
ces	-461
▁lif	-462
▁right	-463
ale	-464
▁ear	-465
▁There	-466
▁sea	-467
essel	-468
▁prov	-469
ave	-470
▁res	-471
▁did	-472
▁know	-473
▁ru	-474
ase	-475
oth	-476
▁vessel	-477
▁like	-478
ines	-479
▁You	-480
led	-481
ub	-482
▁qu	-483
▁br	-484
▁pass	-485
▁went	-486
ite	-487
▁make	-488
▁great	-489
▁call	-490
si	-491
ower	-492
ved	-493
▁deck	-494
de	-495
tain	-496
itt	-497
▁cha	-498
▁Then	-499
▁rem	-500
▁fore	-501
▁first	-502
▁ye	-503
bo	-504
ever	-505
▁sec	-506
ger	-507
ans	-508
mb	-509
ws	-510
ween	-511
▁away	-512
▁word	-513
▁every	-514
der	-515
▁way	-516
▁would	-517
ors	-518
ves	-519
port	-520
go	-521
are	-522
ty	-523
qui	-524
ical	-525
self	-526
▁ob	-527
ue	-528
ts	-529
ps	-530
00	-531
iah	-532
rib	-533
ments	-534
ail	-535
▁between	-536
▁only	-537
▁sho	-538
▁Be	-539
▁sm	-540
▁rope	-541
▁sc	-542
rin	-543
▁let	-544
▁cons	-545
read	-546
▁good	-547
▁pri	-548
▁wind	-549
▁offer	-550
ither	-551
▁saying	-552
▁set	-553
▁fl	-554
orn	-555
other	-556
▁sw	-557
▁anch	-558
▁take	-559
▁She	-560
▁head	-561
▁each	-562
▁sub	-563
oy	-564
ence	-565
▁our	-566
▁sin	-567
▁place	-568
▁about	-569
▁la	-570
erm	-571
▁put	-572
vent	-573
▁lar	-574
pl	-575
ied	-576
ick	-577
▁light	-578
▁These	-579
▁things	-580
▁see	-581
▁bl	-582
▁port	-583
rans	-584
ions	-585
cess	-586
▁Dav	-587
▁where	-588
du	-589
▁line	-590
▁therefore	-591
▁David	-592
▁tra	-593
▁ste	-594
▁tak	-595
▁name	-596
▁sons	-597
▁Lord	-598
gth	-599
ond	-600
ons	-601
▁long	-602
▁fire	-603
ered	-604
▁cargo	-605
▁sl	-606
ving	-607
▁2	-608
get	-609
▁Jes	-610
▁such	-611
llow	-612
▁On	-613
▁says	-614
iven	-615
▁called	-616
▁main	-617
▁command	-618
▁give	-619
▁unt	-620
▁sail	-621
fe	-622
ood	-623
ix	-624
▁bow	-625
▁days	-626
ities	-627
▁earth	-628
▁anchor	-629
ef	-630
▁servant	-631
ks	-632
▁An	-633
▁what	-634
pen	-635
▁carri	-636
▁some	-637
als	-638
▁until	-639
ates	-640
▁nor	-641
ating	-642
▁three	-643
▁Jer	-644
▁heart	-645
rought	-646
rew	-647
ener	-648
ild	-649
▁trans	-650
▁ey	-651
yst	-652
▁K	-653
ced	-654
irc	-655
▁arm	-656
ap	-657
▁U	-658
ove	-659
▁Je	-660
oses	-661
ually	-662
▁fa	-663
ici	-664
ystem	-665
▁being	-666
▁sur	-667
▁form	-668
▁accord	-669
ged	-670
▁thou	-671
und	-672
▁Jesus	-673
gy	-674
sible	-675
▁use	-676
▁high	-677
▁don	-678
▁given	-679
▁brought	-680
▁own	-681
▁among	-682
▁thi	-683
▁Z	-684
▁eff	-685
▁cle	-686
▁dist	-687
▁priest	-688
stru	-689
avy	-690
▁very	-691
▁brother	-692
ational	-693
itted	-694
▁num	-695
▁ent	-696
▁stra	-697
▁small	-698
cy	-699
form	-700
▁same	-701
▁Jud	-702
▁keep	-703
▁cable	-704
uch	-705
▁Ab	-706
▁Now	-707
▁prop	-708
▁life	-709
att	-710
outh	-711
▁speed	-712
▁ang	-713
ost	-714
ari	-715
▁many	-716
▁supp	-717
cha	-718
▁mar	-719
▁might	-720
?"	-721
▁How	-722
▁incre	-723
its	-724
▁follow	-725
▁liv	-726
ng	-727
▁wr	-728
cial	-729
ful	-730
▁according	-731
▁gener	-732
me	-733
▁So	-734
ised	-735
▁done	-736
gether	-737
▁city	-738
ph	-739
ened	-740
▁war	-741
▁stand	-742
▁met	-743
▁dire	-744
ites	-745
oint	-746
▁flo	-747
▁now	-748
▁back	-749
▁gun	-750
side	-751
▁took	-752
▁years	-753
▁well	-754
▁To	-755
▁ty	-756
▁cour	-757
ution	-758
ped	-759
▁dif	-760
▁hold	-761
▁Judah	-762
▁sh	-763
▁does	-764
▁blo	-765
alem	-766
▁large	-767
ular	-768
ilt	-769
▁pres	-770
usalem	-771
▁eng	-772
▁Jerusalem	-773
▁stern	-774
▁together	-775
ens	-776
board	-777
▁del	-778
aught	-779
▁four	-780
ject	-781
▁Se	-782
▁happ	-783
▁dest	-784
▁position	-785
▁sent	-786
selves	-787
▁Ar	-788
▁open	-789
▁ac	-790
▁gl	-791
▁3	-792
▁Moses	-793
▁ev	-794
ning	-795
▁har	-796
▁whom	-797
ron	-798
▁Jo	-799
▁didn	-800
oke	-801
▁power	-802
pes	-803
dom	-804
ory	-805
▁Am	-806
▁bring	-807
▁taken	-808
ured	-809
▁dep	-810
▁cent	-811
gypt	-812
less	-813
▁Com	-814
▁Egypt	-815
▁dra	-816
▁mid	-817
▁another	-818
▁pers	-819
▁rest	-820
eous	-821
ision	-822
▁found	-823
nds	-824
oun	-825
▁offering	-826
head	-827
▁wat	-828
▁possible	-829
▁near	-830
▁Con	-831
▁rep	-832
cted	-833
undred	-834
▁ap	-835
▁both	-836
▁bel	-837
▁much	-838
▁hundred	-839
▁tow	-840
▁could	-841
▁effect	-842
▁cond	-843
▁requi	-844
▁eat	-845
ott	-846
ided	-847
vers	-848
▁ans	-849
▁sim	-850
ial	-851
cl	-852
▁ref	-853
▁neither	-854
▁19	-855
▁gra	-856
▁fitted	-857
ures	-858
▁Therefore	-859
.'	-860
aven	-861
▁len	-862
▁number	-863
▁without	-864
▁feet	-865
oice	-866
itud	-867
▁St	-868
▁po	-869
▁Re	-870
▁All	-871
ertain	-872
cept	-873
▁bre	-874
aul	-875
▁new	-876
ility	-877
▁most	-878
▁term	-879
atter	-880
ual	-881
▁sk	-882
▁fall	-883
▁built	-884
ib	-885
▁cut	-886
▁Le	-887
▁saw	-888
▁above	-889
lf	-890
▁wom	-891
▁ind	-892
ctions	-893
▁However	-894
uring	-895
▁conc	-896
▁length	-897
▁sign	-898
rent	-899
ways	-900
▁sou	-901
▁full	-902
▁oper	-903
irit	-904
▁hull	-905
▁str	-906
pment	-907
▁air	-908
ank	-909
ished	-910
ship	-911
ives	-912
▁necess	-913
▁pur	-914
▁thir	-915
ric	-916
ros	-917
ling	-918
▁jud	-919
stit	-920
▁inter	-921
▁em	-922
▁speak	-923
▁cur	-924
▁around	-925
uth	-926
▁heard	-927
▁himself	-928
▁V	-929
▁beg	-930
▁rec	-931
▁usually	-932
ob	-933
illed	-934
▁tell	-935
▁ret	-936
▁need	-937
▁contin	-938
roy	-939
▁stru	-940
ides	-941
▁law	-942
▁toward	-943
hy	-944
lic	-945
cks	-946
▁evil	-947
▁run	-948
▁system	-949
med	-950
▁det	-951
ches	-952
ked	-953
▁words	-954
▁contain	-955
▁Ch	-956
hing	-957
▁round	-958
▁required	-959
ared	-960
▁left	-961
▁prin	-962
▁gave	-963
▁chan	-964
▁righteous	-965
ray	-966
▁At	-967
ily	-968
▁att	-969
ples	-970
ined	-971
semb	-972
ield	-973
▁plac	-974
ting	-975
▁div	-976
▁Man	-977
▁six	-978
▁old	-979
▁appro	-980
▁mount	-981
ets	-982
▁leg	-983
▁destroy	-984
▁Pro	-985
▁forth	-986
rist	-987
▁eyes	-988
▁[	-989
▁along	-990
act	-991
▁design	-992
row	-993
ne	-994
ret	-995
▁order	-996
ds	-997
▁ele	-998
▁reg	-999
ots	-1000
▁mer	-1001
▁tru	-1002
▁act	-1003
wever	-1004
▁however	-1005
els	-1006
ards	-1007
▁dri	-1008
ile	-1009
▁circ	-1010
ract	-1011
▁Christ	-1012
ased	-1013
ative	-1014
iss	-1015
▁just	-1016
ges	-1017
raft	-1018
▁add	-1019
▁daught	-1020
sand	-1021
▁certain	-1022
▁4	-1023
▁strong	-1024
▁necessary	-1025
▁thousand	-1026
az	-1027
▁fathers	-1028
op	-1029
▁mast	-1030
▁carry	-1031
▁hands	-1032
▁person	-1033
▁remain	-1034
nded	-1035
ten	-1036
▁carried	-1037
▁gu	-1038
▁dead	-1039
▁return	-1040
▁second	-1041
▁Al	-1042
▁behold	-1043
▁count	-1044
▁whe	-1045
cle	-1046
pper	-1047
ross	-1048
▁cor	-1049
ched	-1050
ring	-1051
▁look	-1052
▁meas	-1053
▁rece	-1054
ough	-1055
▁how	-1056
rink	-1057
ately	-1058
▁fam	-1059
▁kind	-1060
well	-1061
▁requ	-1062
▁stren	-1063
▁brothers	-1064
ging	-1065
▁bod	-1066
▁alt	-1067
▁cap	-1068
▁hel	-1069
▁allow	-1070
▁heaven	-1071
▁while	-1072
ified	-1073
▁means	-1074
▁Th	-1075
pped	-1076
ious	-1077
▁imp	-1078
▁tre	-1079
ms	-1080
yl	-1081
▁surf	-1082
▁lay	-1083
ute	-1084
▁bott	-1085
▁nations	-1086
▁comple	-1087
ife	-1088
▁happened	-1089
ec	-1090
▁bur	-1091
pell	-1092
▁tem	-1093
iron	-1094
▁course	-1095
ages	-1096
▁mult	-1097
ping	-1098
xt	-1099
ize	-1100
ose	-1101
▁capt	-1102
▁equi	-1103
▁soul	-1104
▁load	-1105
▁bread	-1106
▁spoke	-1107
ner	-1108
▁Sp	-1109
rol	-1110
▁oil	-1111
▁list	-1112
▁weight	-1113
▁low	-1114
▁ser	-1115
▁prophe	-1116
▁ext	-1117
▁class	-1118
▁Ad	-1119
lied	-1120
▁service	-1121
▁mouth	-1122
ier	-1123
▁break	-1124
▁far	-1125
▁cause	-1126
icer	-1127
itude	-1128
▁type	-1129
▁est	-1130
▁servants	-1131
▁voice	-1132
▁year	-1133
▁themselves	-1134
ug	-1135
▁fast	-1136
▁Behold	-1137
▁lead	-1138
▁ast	-1139
▁dev	-1140
▁char	-1141
▁gold	-1142
▁become	-1143
▁forward	-1144
velo	-1145
▁condition	-1146
▁holy	-1147
▁read	-1148
▁sing	-1149
▁concern	-1150
ang	-1151
▁Ne	-1152
icked	-1153
).	-1154
ark	-1155
▁Let	-1156
▁known	-1157
▁clo	-1158
▁times	-1159
▁within	-1160
▁ass	-1161
▁mon	-1162
sembly	-1163
cri	-1164
▁always	-1165
▁blood	-1166
▁commanded	-1167
ency	-1168
ific	-1169
▁18	-1170
▁cast	-1171
▁world	-1172
ature	-1173
ident	-1174
▁build	-1175
▁vessels	-1176
isl	-1177
▁bear	-1178
▁laid	-1179
▁bottom	-1180
▁.	-1181
▁gre	-1182
▁mak	-1183
▁rud	-1184
▁wood	-1185
aut	-1186
wered	-1187
▁field	-1188
ason	-1189
icular	-1190
▁answered	-1191
ken	-1192
▁mod	-1193
igh	-1194
▁burn	-1195
▁appe	-1196
▁batt	-1197
ants	-1198
▁heavy	-1199
hab	-1200
ider	-1201
tern	-1202
▁5	-1203
▁adv	-1204
▁incl	-1205
▁av	-1206
ances	-1207
stand	-1208
▁direction	-1209
▁test	-1210
▁occ	-1211
ittle	-1212
▁seven	-1213
▁ground	-1214
▁prevent	-1215
man	-1216
▁suff	-1217
▁exam	-1218
▁legisl	-1219
▁wicked	-1220
!"	-1221
▁6	-1222
▁opp	-1223
▁enem	-1224
▁guns	-1225
▁became	-1226
ear	-1227
rig	-1228
deck	-1229
▁min	-1230
▁val	-1231
▁redu	-1232
▁peace	-1233
▁aff	-1234
ram	-1235
▁propell	-1236
ham	-1237
ins	-1238
▁yet	-1239
uel	-1240
▁point	-1241
▁having	-1242
▁One	-1243
▁sword	-1244
▁import	-1245
▁dwell	-1246
You	-1247
fic	-1248
▁hear	-1249
▁kept	-1250
▁still	-1251
▁cities	-1252
▁little	-1253
▁half	-1254
▁ma	-1255
enty	-1256
▁metho	-1257
iver	-1258
▁fle	-1259
▁whole	-1260
▁result	-1261
▁lower	-1262
▁def	-1263
▁hor	-1264
▁show	-1265
▁either	-1266
ried	-1267
▁buoy	-1268
▁below	-1269
ey	-1270
▁face	-1271
▁free	-1272
▁wife	-1273
stitution	-1274
▁bul	-1275
▁clear	-1276
eth	-1277
▁dam	-1278
▁conf	-1279
▁provin	-1280
▁wal	-1281
▁waters	-1282
ses	-1283
▁body	-1284
▁night	-1285
▁rudder	-1286
▁vari	-1287
The	-1288
ream	-1289
▁Comm	-1290
▁rig	-1291
000	-1292
▁diffe	-1293
vel	-1294
▁rel	-1295
▁death	-1296
▁Saul	-1297
ently	-1298
▁caus	-1299
▁inte	-1300
▁stri	-1301
▁require	-1302
ats	-1303
▁Sim	-1304
▁strength	-1305
crib	-1306
▁too	-1307
▁boats	-1308
▁equipment	-1309
bu	-1310
pect	-1311
▁short	-1312
▁weather	-1313
IN	-1314
up	-1315
▁thus	-1316
ointed	-1317
▁transport	-1318
air	-1319
▁sil	-1320
▁drink	-1321
▁forever	-1322
▁particular	-1323
▁ple	-1324
▁develo	-1325
▁fun	-1326
▁rad	-1327
▁crew	-1328
og	-1329
ering	-1330
▁turned	-1331
▁sight	-1332
▁present	-1333
▁ve	-1334
▁sun	-1335
▁faith	-1336
ases	-1337
ived	-1338
▁instru	-1339
▁passed	-1340
osed	-1341
▁nav	-1342
▁size	-1343
▁par	-1344
▁sal	-1345
ables	-1346
ulation	-1347
▁mountain	-1348
acob	-1349
▁eye	-1350
▁thing	-1351
▁ed	-1352
▁inst	-1353
▁wire	-1354
ia	-1355
den	-1356
▁glory	-1357
▁includ	-1358
iqu	-1359
▁Pha	-1360
▁ins	-1361
range	-1362
▁less	-1363
lesh	-1364
▁Off	-1365
▁flesh	-1366
▁find	-1367
▁priests	-1368
ai	-1369
▁Jacob	-1370
▁month	-1371
▁surface	-1372
▁distance	-1373
),	-1374
ell	-1375
▁Don	-1376
▁bless	-1377
abl	-1378
ock	-1379
▁equ	-1380
▁comes	-1381
▁twenty	-1382
▁seen	-1383
▁young	-1384
▁Arm	-1385
ned	-1386
▁No	-1387
▁Thus	-1388
▁es	-1389
ata	-1390
rit	-1391
▁fin	-1392
▁rul	-1393
▁tri	-1394
▁altar	-1395
▁pie	-1396
▁top	-1397
thing	-1398
▁tank	-1399
▁consider	-1400
oc	-1401
▁five	-1402
▁upper	-1403
▁secured	-1404
▁provided	-1405
ety	-1406
▁stow	-1407
▁press	-1408
▁following	-1409
con	-1410
ably	-1411
atch	-1412
anger	-1413
▁live	-1414
hu	-1415
▁move	-1416
io	-1417
ament	-1418
▁room	-1419
▁fif	-1420
aves	-1421
line	-1422
▁whose	-1423
▁during	-1424
ense	-1425
▁bulk	-1426
▁woman	-1427
▁haul	-1428
▁wall	-1429
▁care	-1430
▁trib	-1431
▁board	-1432
▁general	-1433
lie	-1434
eter	-1435
land	-1436
▁purp	-1437
▁special	-1438
▁support	-1439
Be	-1440
ilar	-1441
▁Lev	-1442
▁lin	-1443
▁dock	-1444
ination	-1445
▁establ	-1446
▁che	-1447
▁dec	-1448
▁mem	-1449
▁wild	-1450
▁midst	-1451
ission	-1452
▁sit	-1453
ury	-1454
ected	-1455
▁love	-1456
▁subm	-1457
▁close	-1458
▁System	-1459
▁engine	-1460
▁increase	-1461
ek	-1462
▁-	-1463
medi	-1464
▁obs	-1465
aster	-1466
mbers	-1467
▁lines	-1468
▁concerning	-1469
ylon	-1470
▁reason	-1471
athe	-1472
▁struck	-1473
▁addition	-1474
▁compart	-1475
cil	-1476
over	-1477
ying	-1478
itten	-1479
hie	-1480
ices	-1481
▁parts	-1482
▁shack	-1483
▁members	-1484
fl	-1485
▁eight	-1486
▁Phi	-1487
▁sli	-1488
▁fact	-1489
▁ahead	-1490
formation	-1491
▁haws	-1492
aid	-1493
inch	-1494
▁able	-1495
enth	-1496
rown	-1497
▁area	-1498
▁National	-1499
▁produ	-1500
ER	-1501
▁fru	-1502
▁disci	-1503
▁mother	-1504
▁written	-1505
bs	-1506
aron	-1507
▁god	-1508
chn	-1509
ian	-1510
mon	-1511
▁aft	-1512
▁cru	-1513
▁ord	-1514
▁last	-1515
wor	-1516
▁often	-1517
▁iron	-1518
▁Aaron	-1519
fer	-1520
▁By	-1521
ceed	-1522
▁star	-1523
aces	-1524
▁bar	-1525
▁ends	-1526
▁prep	-1527
▁mater	-1528
ited	-1529
rence	-1530
▁reign	-1531
apt	-1532
▁cho	-1533
▁Navy	-1534
▁angle	-1535
rest	-1536
▁sat	-1537
▁fear	-1538
ouncil	-1539
▁spirit	-1540
▁example	-1541
▁af	-1542
ery	-1543
rely	-1544
▁going	-1545
sess	-1546
▁case	-1547
▁lived	-1548
▁compass	-1549
▁My	-1550
king	-1551
ries	-1552
▁Sam	-1553
▁bows	-1554
▁depart	-1555
▁eas	-1556
amp	-1557
pend	-1558
ached	-1559
▁danger	-1560
▁His	-1561
▁join	-1562
▁continu	-1563
,000	-1564
▁ens	-1565
▁few	-1566
▁Sol	-1567
▁pract	-1568
▁Spirit	-1569
▁swe	-1570
▁next	-1571
▁doesn	-1572
▁kings	-1573
▁conditions	-1574
oe	-1575
ises	-1576
▁placed	-1577
▁similar	-1578
▁daughter	-1579
ents	-1580
uthor	-1581
itting	-1582
▁burnt	-1583
nel	-1584
omet	-1585
▁told	-1586
▁tons	-1587
▁sacri	-1588
▁centre	-1589
dle	-1590
ones	-1591
▁Eli	-1592
▁coven	-1593
▁get	-1594
▁stood	-1595
▁circum	-1596
▁control	-1597
▁important	-1598
▁We	-1599
▁ber	-1600
right	-1601
▁brid	-1602
icient	-1603
▁single	-1604
▁norm	-1605
▁inher	-1606
oh	-1607
▁fre	-1608
▁covenant	-1609
▁hour	-1610
▁understand	-1611
▁inv	-1612
▁King	-1613
omon	-1614
▁cub	-1615
▁belie	-1616
▁works	-1617
▁astern	-1618
hips	-1619
▁Their	-1620
▁8	-1621
ime	-1622
▁di	-1623
▁ten	-1624
▁seam	-1625
erness	-1626
▁righteousness	-1627
▁Ex	-1628
▁tur	-1629
▁elect	-1630
▁Solomon	-1631
Behold	-1632
▁battle	-1633
▁object	-1634
▁inherit	-1635
▁possess	-1636
▁wilderness	-1637
,"	-1638
tal	-1639
▁Bo	-1640
izon	-1641
wise	-1642
▁Cha	-1643
ator	-1644
▁help	-1645
▁nothing	-1646
▁chief	-1647
▁cover	-1648
▁broken	-1649
▁consist	-1650
aw	-1651
char	-1652
▁anim	-1653
▁silver	-1654
▁describ	-1655
list	-1656
▁sto	-1657
ister	-1658
▁roll	-1659
▁terms	-1660
rop	-1661
▁plan	-1662
▁pray	-1663
utes	-1664
oured	-1665
▁lord	-1666
ficult	-1667
▁After	-1668
▁avail	-1669
▁different	-1670
▁here	-1671
▁force	-1672
▁outside	-1673
▁section	-1674
▁wa	-1675
▁iniqu	-1676
▁sevent	-1677
▁Philist	-1678
▁–	-1679
yri	-1680
▁enc	-1681
urther	-1682
▁difficult	-1683
rem	-1684
▁Bab	-1685
▁mess	-1686
▁third	-1687
ability	-1688
to	-1689
▁die	-1690
ledge	-1691
▁spok	-1692
▁clean	-1693
▁method	-1694
▁whether	-1695
ys	-1696
ash	-1697
cture	-1698
▁never	-1699
▁action	-1700
▁Officer	-1701
▁Constitution	-1702
▁De	-1703
▁exp	-1704
▁beam	-1705
▁disc	-1706
▁resp	-1707
▁tack	-1708
▁depth	-1709
▁steel	-1710
▁member	-1711
▁spoken	-1712
▁Council	-1713
ayed	-1714
▁mot	-1715
▁pull	-1716
▁serve	-1717
▁Jos	-1718
▁gear	-1719
▁better	-1720
▁available	-1721
mp	-1722
▁dou	-1723
▁inhab	-1724
ible	-1725
raoh	-1726
▁Ben	-1727
▁Who	-1728
▁least	-1729
▁Babylon	-1730
ior	-1731
▁Me	-1732
▁Son	-1733
▁nam	-1734
▁corre	-1735
▁knots	-1736
▁since	-1737
▁mighty	-1738
IS	-1739
▁Or	-1740
▁fat	-1741
▁loc	-1742
▁What	-1743
▁dark	-1744
▁prom	-1745
▁Armies	-1746
▁delive	-1747
▁Pharaoh	-1748
rie	-1749
▁ports	-1750
▁turns	-1751
▁designed	-1752
▁indic	-1753
▁Can	-1754
▁Your	-1755
▁7	-1756
not	-1757
anct	-1758
roll	-1759
▁kill	-1760
arter	-1761
aving	-1762
▁constru	-1763
▁engines	-1764
ING	-1765
iod	-1766
ows	-1767
▁cross	-1768
▁store	-1769
athered	-1770
▁delivered	-1771
gre	-1772
▁Of	-1773
chant	-1774
iding	-1775
▁best	-1776
▁start	-1777
▁steam	-1778
▁author	-1779
▁larger	-1780
mediately	-1781
sed	-1782
▁Mo	-1783
▁mach	-1784
▁quick	-1785
▁killed	-1786
▁current	-1787
▁horizon	-1788
par	-1789
▁Un	-1790
▁fig	-1791
▁pum	-1792
asing	-1793
EE	-1794
of	-1795
gers	-1796
▁cal	-1797
▁spread	-1798
▁pi	-1799
▁lim	-1800
ember	-1801
▁fell	-1802
▁fruit	-1803
▁Father	-1804
▁greater	-1805
ctly	-1806
▁Eng	-1807
▁sol	-1808
ining	-1809
▁foot	-1810
▁wave	-1811
ention	-1812
▁except	-1813
▁fut	-1814
▁With	-1815
▁deep	-1816
▁gate	-1817
itable	-1818
▁damage	-1819
▁gathered	-1820
▁yourself	-1821
zz	-1822
▁hat	-1823
▁sky	-1824
▁Every	-1825
▁types	-1826
▁uncle	-1827
▁caused	-1828
ixed	-1829
ublic	-1830
▁decks	-1831
▁complete	-1832
▁container	-1833
ically	-1834
▁shore	-1835
▁deliver	-1836
▁propeller	-1837
the	-1838
hite	-1839
▁sanct	-1840
▁state	-1841
ircraft	-1842
hua	-1843
oud	-1844
wel	-1845
xim	-1846
most	-1847
raid	-1848
▁seed	-1849
▁gover	-1850
▁afraid	-1851
▁pressure	-1852
▁gr	-1853
itch	-1854
▁bas	-1855
▁cargoes	-1856
▁national	-1857
wo	-1858
▁Ho	-1859
▁bord	-1860
.'"	-1861
iness	-1862
▁send	-1863
▁accom	-1864
▁watch	-1865
▁places	-1866
▁country	-1867
▁provide	-1868
arn	-1869
aled	-1870
ption	-1871
▁anger	-1872
▁north	-1873
▁appear	-1874
▁period	-1875
▁10	-1876
▁flag	-1877
▁wine	-1878
▁cloth	-1879
▁future	-1880
▁captain	-1881
▁standing	-1882
ify	-1883
▁hard	-1884
aching	-1885
orning	-1886
oney	-1887
▁led	-1888
cially	-1889
▁determ	-1890
▁proper	-1891
▁Levites	-1892
agn	-1893
ught	-1894
▁door	-1895
▁various	-1896
▁disciples	-1897
▁offerings	-1898
men	-1899
sib	-1900
work	-1901
raham	-1902
▁meet	-1903
ressed	-1904
▁respon	-1905
▁perform	-1906
▁Philistines	-1907
▁legislation	-1908
uty	-1909
▁Do	-1910
▁dry	-1911
▁Jose	-1912
▁army	-1913
▁ways	-1914
▁enemies	-1915
▁morning	-1916
▁prophet	-1917
▁strands	-1918
▁unclean	-1919
▁everyone	-1920
▁12	-1921
▁ut	-1922
▁Sha	-1923
▁edge	-1924
▁food	-1925
tained	-1926
▁gives	-1927
▁techn	-1928
▁princes	-1929
▁knowledge	-1930
If	-1931
What	-1932
ires	-1933
vert	-1934
▁Joseph	-1935
▁though	-1936
▁daughters	-1937
▁rej	-1938
bered	-1939
▁Abraham	-1940
▁dischar	-1941
▁kingdom	-1942
▁process	-1943
▁coun	-1944
▁upon	-1945
▁living	-1946
▁iniquity	-1947
wer	-1948
▁lee	-1949
▁east	-1950
▁wise	-1951
▁running	-1952
▁Assembly	-1953
▁multitude	-1954
verse	-1955
▁Brit	-1956
▁Jews	-1957
▁enough	-1958
▁followed	-1959
dden	-1960
fort	-1961
▁maj	-1962
tight	-1963
▁inde	-1964
▁proble	-1965
aiah	-1966
rope	-1967
▁makes	-1968
▁towards	-1969
▁starboard	-1970
abb	-1971
erg	-1972
▁pra	-1973
▁vis	-1974
▁salv	-1975
▁soon	-1976
aft	-1977
ought	-1978
ready	-1979
▁infl	-1980
▁remo	-1981
▁seek	-1982
▁trou	-1983
▁walk	-1984
▁early	-1985
ene	-1986
sha	-1987
iles	-1988
▁Yes	-1989
▁Jeho	-1990
▁deal	-1991
▁achie	-1992
▁craft	-1993
▁wrath	-1994
▁further	-1995
▁inhabit	-1996
▁quarter	-1997
ships	-1998
▁keel	-1999
▁compan	-2000
▁thirty	-2001
▁towing	-2002
aff	-2003
loy	-2004
▁wis	-2005
▁sound	-2006
val	-2007
▁Mod	-2008
▁rou	-2009
▁pain	-2010
▁"'	-2011
▁DO	-2012
alley	-2013
▁gone	-2014
▁none	-2015
▁already	-2016
▁respect	-2017
▁inheritance	-2018
ural	-2019
▁emp	-2020
▁lad	-2021
▁Pres	-2022
▁died	-2023
▁judg	-2024
▁listen	-2025
▁sailing	-2026
▁provincial	-2027
▁throughout	-2028
▁El	-2029
▁sle	-2030
▁leave	-2031
▁prophets	-2032
ON	-2033
▁el	-2034
aged	-2035
born	-2036
ized	-2037
▁squ	-2038
▁spec	-2039
▁sides	-2040
▁cannot	-2041
▁height	-2042
▁assembly	-2043
ris	-2044
oring	-2045
▁famil	-2046
▁hoist	-2047
▁navig	-2048
▁et	-2049
fety	-2050
▁net	-2051
▁coll	-2052
▁ever	-2053
▁flood	-2054
▁using	-2055
▁yourselves	-2056
0.	-2057
▁held	-2058
▁stream	-2059
uck	-2060
ruth	-2061
▁asked	-2062
▁separ	-2063
▁filled	-2064
▁turning	-2065
▁Roy	-2066
▁Comp	-2067
▁stat	-2068
▁began	-2069
▁begin	-2070
▁chain	-2071
isation	-2072
▁ensure	-2073
hel	-2074
hem	-2075
▁(1	-2076
▁17	-2077
inal	-2078
water	-2079
▁wars	-2080
▁govern	-2081
▁pieces	-2082
hic	-2083
lect	-2084
▁gods	-2085
▁Royal	-2086
▁enter	-2087
▁heads	-2088
▁coming	-2089
▁receive	-2090
▁eld	-2091
▁hig	-2092
▁foreign	-2093
mir	-2094
▁En	-2095
▁sn	-2096
uted	-2097
▁Her	-2098
▁ris	-2099
arine	-2100
▁book	-2101
▁peoples	-2102
▁alongside	-2103
ape	-2104
oil	-2105
oss	-2106
▁War	-2107
▁slip	-2108
▁Joshua	-2109
▁repres	-2110
▁portion	-2111
▁division	-2112
iel	-2113
▁etc	-2114
▁gar	-2115
▁hon	-2116
▁tor	-2117
welve	-2118
▁Some	-2119
▁cove	-2120
▁truth	-2121
▁passen	-2122
ert	-2123
gan	-2124
aced	-2125
▁fuel	-2126
▁poor	-2127
▁occur	-2128
▁space	-2129
▁aircraft	-2130
▁electric	-2131
▁President	-2132
ung	-2133
▁20	-2134
icers	-2135
inery	-2136
▁decl	-2137
▁berth	-2138
▁judge	-2139
▁ready	-2140
▁amount	-2141
▁wisdom	-2142
▁subject	-2143
omin	-2144
▁bir	-2145
▁dem	-2146
▁hum	-2147
▁Data	-2148
▁cost	-2149
▁somet	-2150
▁surely	-2151
▁working	-2152
▁spl	-2153
▁clot	-2154
▁prot	-2155
▁slow	-2156
▁applied	-2157
lease	-2158
place	-2159
▁hook	-2160
min	-2161
ails	-2162
icip	-2163
▁draw	-2164
▁particularly	-2165
erc	-2166
jah	-2167
anks	-2168
▁Ass	-2169
▁lie	-2170
▁born	-2171
▁ones	-2172
▁level	-2173
▁sheep	-2174
▁twelve	-2175
▁immediately	-2176
hand	-2177
▁med	-2178
miral	-2179
▁prof	-2180
▁merchant	-2181
▁bes	-2182
wards	-2183
▁comb	-2184
▁tribe	-2185
ference	-2186
▁houses	-2187
▁longer	-2188
▁making	-2189
▁kindness	-2190
AN	-2191
err	-2192
▁15	-2193
bour	-2194
hore	-2195
ccess	-2196
pping	-2197
▁Prov	-2198
▁vert	-2199
▁fight	-2200
ip	-2201
su	-2202
esh	-2203
utom	-2204
▁Eph	-2205
▁fine	-2206
▁raft	-2207
▁women	-2208
▁cubits	-2209
▁purpose	-2210
▁anything	-2211
ems	-2212
osite	-2213
▁stone	-2214
▁matter	-2215
▁machinery	-2216
▁common	-2217
▁raised	-2218
▁9	-2219
ume	-2220
▁esc	-2221
athan	-2222
ional	-2223
iving	-2224
▁Bill	-2225
band	-2226
ience	-2227
▁court	-2228
▁later	-2229
amin	-2230
bers	-2231
erve	-2232
rise	-2233
▁adj	-2234
▁joy	-2235
▁strand	-2236
▁increased	-2237
▁tou	-2238
▁answer	-2239
▁returned	-2240
▁described	-2241
▁inhabitants	-2242
▁Q	-2243
▁cry	-2244
▁mine	-2245
▁sins	-2246
uation	-2247
▁broad	-2248
▁capac	-2249
▁coast	-2250
▁fleet	-2251
▁subse	-2252
▁princi	-2253
▁handling	-2254
ead	-2255
ols	-2256
▁Bec	-2257
▁mark	-2258
▁enemy	-2259
▁equal	-2260
▁stret	-2261
▁border	-2262
▁happen	-2263
▁temple	-2264
▁officer	-2265
▁station	-2266
▁vine	-2267
▁major	-2268
▁inches	-2269
▁middle	-2270
▁safety	-2271
▁watertight	-2272
cast	-2273
chan	-2274
▁bra	-2275
▁tree	-2276
▁block	-2277
▁swing	-2278
▁advant	-2279
▁measure	-2280
▁appointed	-2281
?'	-2282
oid	-2283
ully	-2284
▁That	-2285
▁bight	-2286
▁quickly	-2287
▁containers	-2288
▁dru	-2289
▁lab	-2290
▁boil	-2291
ration	-2292
▁angel	-2293
▁exper	-2294
▁shown	-2295
▁represent	-2296
eb	-2297
mer	-2298
imes	-2299
yria	-2300
▁gas	-2301
▁lau	-2302
ordan	-2303
▁save	-2304
▁fifty	-2305
▁Jordan	-2306
▁employ	-2307
▁hawser	-2308
▁century	-2309
▁building	-2310
▁officers	-2311
▁received	-2312
▁operation	-2313
▁increasing	-2314
sal	-2315
▁Any	-2316
▁Beth	-2317
▁From	-2318
▁lies	-2319
▁ordin	-2320
ergency	-2321
▁material	-2322
AR	-2323
▁ark	-2324
▁Cont	-2325
▁once	-2326
▁perm	-2327
▁established	-2328
ote	-2329
pid	-2330
conom	-2331
▁Moab	-2332
▁bore	-2333
▁gather	-2334
▁judgment	-2335
ES	-2336
uv	-2337
aan	-2338
▁Ag	-2339
▁ce	-2340
▁And	-2341
▁pol	-2342
▁male	-2343
▁seas	-2344
AT	-2345
uff	-2346
rone	-2347
▁pay	-2348
eping	-2349
▁conn	-2350
▁across	-2351
▁econom	-2352
▁Because	-2353
▁destroyed	-2354
sc	-2355
ians	-2356
raim	-2357
▁unc	-2358
▁forg	-2359
▁safe	-2360
▁sufficient	-2361
bor	-2362
fice	-2363
▁Rep	-2364
▁bound	-2365
▁ropes	-2366
▁waves	-2367
▁change	-2368
▁elders	-2369
ler	-2370
▁Why	-2371
▁awn	-2372
▁served	-2373
ues	-2374
ecut	-2375
▁lift	-2376
▁prev	-2377
▁Watch	-2378
▁account	-2379
pi	-2380
for	-2381
▁Net	-2382
ekiah	-2383
oints	-2384
▁boom	-2385
▁rapid	-2386
▁stowed	-2387
▁shackle	-2388
▁effective	-2389
hion	-2390
aries	-2391
▁Most	-2392
▁bull	-2393
▁exte	-2394
isions	-2395
▁takes	-2396
▁signal	-2397
▁blessed	-2398
▁sacrifice	-2399
▁Information	-2400
uls	-2401
yard	-2402
▁forty	-2403
▁spring	-2404
▁valley	-2405
▁hy	-2406
pedo	-2407
▁bad	-2408
fully	-2409
▁hill	-2410
▁neigh	-2411
▁covered	-2412
▁compartments	-2413
▁lam	-2414
ential	-2415
▁tanks	-2416
▁report	-2417
▁throne	-2418
▁unless	-2419
▁British	-2420
▁relative	-2421
▁requirements	-2422
▁understanding	-2423
day	-2424
▁vi	-2425
▁Dan	-2426
▁ton	-2427
agnet	-2428
▁Even	-2429
▁goes	-2430
▁desol	-2431
▁exceed	-2432
▁anchors	-2433
▁suitable	-2434
ulf	-2435
angu	-2436
gress	-2437
weight	-2438
▁south	-2439
▁lifted	-2440
▁Ephraim	-2441
oeuv	-2442
rose	-2443
▁hus	-2444
▁rev	-2445
aches	-2446
▁pill	-2447
▁metal	-2448
▁pleas	-2449
▁refer	-2450
▁itself	-2451
▁arrange	-2452
▁opposite	-2453
▁mountains	-2454
▁Ind	-2455
▁wid	-2456
▁prob	-2457
▁Those	-2458
▁impro	-2459
▁wooden	-2460
▁smaller	-2461
▁supplied	-2462
▁Benj	-2463
▁dece	-2464
▁money	-2465
▁white	-2466
▁observ	-2467
▁capacity	-2468
▁darkness	-2469
▁prepared	-2470
▁presence	-2471
Go	-2472
▁sy	-2473
ials	-2474
lish	-2475
▁Dep	-2476
▁kne	-2477
▁cord	-2478
▁rise	-2479
▁rule	-2480
▁true	-2481
▁chart	-2482
▁super	-2483
▁manoeuv	-2484
▁families	-2485
▁structure	-2486
▁Simulation	-2487
end	-2488
ics	-2489
▁Sec	-2490
▁ran	-2491
ality	-2492
▁affli	-2493
▁cruis	-2494
▁development	-2495
'.	-2496
por	-2497
▁Ma	-2498
aker	-2499
yond	-2500
owing	-2501
▁home	-2502
▁feast	-2503
▁frequ	-2504
▁accept	-2505
▁formed	-2506
▁latter	-2507
▁nation	-2508
pecially	-2509
▁countries	-2510
lies	-2511
rodu	-2512
▁Def	-2513
▁fair	-2514
▁rock	-2515
▁organ	-2516
▁sails	-2517
▁easily	-2518
▁loving	-2519
▁stones	-2520
▁husband	-2521
har	-2522
cing	-2523
▁Nav	-2524
▁Sea	-2525
▁fav	-2526
▁Each	-2527
▁tend	-2528
▁falls	-2529
▁rules	-2530
▁table	-2531
▁secure	-2532
▁worship	-2533
This	-2534
greg	-2535
▁jet	-2536
▁Tent	-2537
▁laun	-2538
▁post	-2539
▁Other	-2540
▁beyond	-2541
▁higher	-2542
▁taking	-2543
▁especially	-2544
aim	-2545
hief	-2546
▁Model	-2547
▁river	-2548
▁screw	-2549
ecutive	-2550
▁bridge	-2551
▁double	-2552
▁counsel	-2553
▁harbour	-2554
▁vertical	-2555
ient	-2556
ital	-2557
▁Jon	-2558
ivity	-2559
▁liqu	-2560
▁sake	-2561
abbath	-2562
though	-2563
▁radio	-2564
ilities	-2565
▁anyone	-2566
▁compartment	-2567
ax	-2568
mod	-2569
▁env	-2570
▁tal	-2571
▁Also	-2572
▁Holy	-2573
▁bran	-2574
▁stay	-2575
atform	-2576
▁Peter	-2577
▁opened	-2578
▁Admiral	-2579
▁bearing	-2580
▁believe	-2581
▁reduced	-2582
▁thought	-2583
▁movement	-2584
▁emergency	-2585
OR	-2586
▁camp	-2587
▁thin	-2588
▁arose	-2589
▁Provin	-2590
▁looked	-2591
▁function	-2592
▁measured	-2593
▁Ba	-2594
lass	-2595
ored	-2596
▁unit	-2597
▁South	-2598
▁chari	-2599
▁master	-2600
▁normal	-2601
▁supply	-2602
▁interest	-2603
cus	-2604
tes	-2605
▁Pl	-2606
▁Te	-2607
▁ft	-2608
uter	-2609
▁due	-2610
▁lying	-2611
▁moving	-2612
▁praise	-2613
▁authority	-2614
pted	-2615
eting	-2616
▁Capt	-2617
▁Paul	-2618
▁becom	-2619
▁cried	-2620
▁honor	-2621
▁Canaan	-2622
▁indust	-2623
▁Sabbath	-2624
hind	-2625
resp	-2626
uary	-2627
▁Bal	-2628
rench	-2629
▁Serv	-2630
▁mind	-2631
▁surv	-2632
▁whip	-2633
▁alone	-2634
▁check	-2635
▁model	-2636
▁moved	-2637
▁enable	-2638
▁Captain	-2639
▁correct	-2640
▁success	-2641
▁torpedo	-2642
▁approach	-2643
▁shipping	-2644
He	-2645
arch	-2646
▁dro	-2647
▁tug	-2648
tered	-2649
▁Zion	-2650
▁fool	-2651
▁orig	-2652
▁stem	-2653
▁crown	-2654
▁points	-2655
▁regard	-2656
▁animals	-2657
▁Benjamin	-2658
▁clothing	-2659
▁maintain	-2660
ti	-2661
olo	-2662
▁inside	-2663
▁rejoice	-2664
▁beginning	-2665
EN	-2666
off	-2667
ral	-2668
aked	-2669
unic	-2670
▁Act	-2671
▁Med	-2672
▁See	-2673
amped	-2674
▁step	-2675
▁motor	-2676
▁charge	-2677
▁worked	-2678
▁systems	-2679
▁certainly	-2680
▁salvation	-2681
▁commandment	-2682
▁construction	-2683
sol	-2684
acle	-2685
gest	-2686
hile	-2687
▁Par	-2688
▁den	-2689
▁yach	-2690
▁fixed	-2691
▁guard	-2692
▁plant	-2693
stances	-2694
▁rather	-2695
▁repair	-2696
ironment	-2697
▁plating	-2698
Why	-2699
▁Ham	-2700
▁nat	-2701
▁tab	-2702
▁frig	-2703
▁hope	-2704
▁lives	-2705
▁utter	-2706
▁wheel	-2707
▁assist	-2708
▁entered	-2709
▁passing	-2710
▁removed	-2711
▁whatever	-2712
DIS	-2713
Don	-2714
ush	-2715
▁col	-2716
▁red	-2717
rated	-2718
▁heav	-2719
▁knot	-2720
▁trees	-2721
agnetic	-2722
▁desire	-2723
▁family	-2724
▁heavens	-2725
▁reigned	-2726
▁tankers	-2727
▁remember	-2728
▁information	-2729
hn	-2730
▁ado	-2731
▁want	-2732
▁gates	-2733
▁behind	-2734
▁evening	-2735
ification	-2736
Do	-2737
tic	-2738
ancy	-2739
▁Hez	-2740
▁pat	-2741
▁und	-2742
▁hang	-2743
▁reve	-2744
▁Jerem	-2745
▁donke	-2746
▁goods	-2747
▁range	-2748
▁Command	-2749
▁comfort	-2750
▁instead	-2751
▁establish	-2752
umed	-2753
▁bed	-2754
▁mom	-2755
▁John	-2756
▁sick	-2757
utions	-2758
▁splice	-2759
▁burning	-2760
▁carriers	-2761
▁carrying	-2762
▁consists	-2763
sec	-2764
▁id	-2765
teen	-2766
then	-2767
▁fac	-2768
▁wit	-2769
▁rose	-2770
▁sold	-2771
▁creat	-2772
▁exerc	-2773
▁fully	-2774
▁mercy	-2775
▁storm	-2776
▁cables	-2777
▁intern	-2778
▁English	-2779
▁bulkhead	-2780
pri	-2781
▁Es	-2782
ired	-2783
rews	-2784
ware	-2785
▁ess	-2786
▁fra	-2787
aring	-2788
attle	-2789
▁depe	-2790
▁dust	-2791
▁brass	-2792
▁shaft	-2793
▁waste	-2794
ION	-2795
Let	-2796
haz	-2797
kes	-2798
sen	-2799
gthen	-2800
▁expl	-2801
▁frie	-2802
▁loss	-2803
▁shut	-2804
▁Where	-2805
▁piece	-2806
▁trust	-2807
▁office	-2808
▁allowed	-2809
▁attached	-2810
▁directly	-2811
▁16	-2812
ctor	-2813
mast	-2814
mble	-2815
▁Int	-2816
▁yes	-2817
▁More	-2818
▁lest	-2819
ulsion	-2820
▁Inter	-2821
agement	-2822
▁lights	-2823
▁seaman	-2824
▁stores	-2825
▁draught	-2826
▁hawsers	-2827
▁install	-2828
▁platform	-2829
lly	-2830
alth	-2831
boam	-2832
cket	-2833
▁(1)	-2834
▁Sin	-2835
▁lost	-2836
▁trade	-2837
▁French	-2838
▁prophes	-2839
be	-2840
co	-2841
▁30	-2842
▁Spe	-2843
▁won	-2844
cious	-2845
rison	-2846
▁data	-2847
▁dies	-2848
▁past	-2849
▁apart	-2850
▁chosen	-2851
▁remains	-2852
▁statutes	-2853
,'	-2854
umb	-2855
vas	-2856
▁Bl	-2857
▁why	-2858
nding	-2859
▁naval	-2860
▁sever	-2861
▁indeed	-2862
▁moment	-2863
▁Meeting	-2864
▁introdu	-2865
▁methods	-2866
▁specific	-2867
▁commandments	-2868
isf	-2869
▁Co	-2870
abin	-2871
asse	-2872
stant	-2873
▁gain	-2874
▁resc	-2875
▁taut	-2876
▁grain	-2877
▁names	-2878
▁rooms	-2879
▁Samuel	-2880
▁likely	-2881
▁Jeremiah	-2882
▁discharge	-2883
▁ox	-2884
imon	-2885
resh	-2886
▁Bar	-2887
▁vol	-2888
arily	-2889
eenth	-2890
ilead	-2891
▁stop	-2892
▁autom	-2893
▁langu	-2894
▁thick	-2895
▁Gilead	-2896
▁depend	-2897
▁modern	-2898
▁tackle	-2899
▁greatly	-2900
▁accommod	-2901
▁continue	-2902
▁numbered	-2903
bed	-2904
hah	-2905
▁(2	-2906
▁pow	-2907
▁desp	-2908
▁fled	-2909
▁glad	-2910
▁mean	-2911
idered	-2912
▁cloud	-2913
▁event	-2914
▁horse	-2915
▁slight	-2916
▁Kingdom	-2917
▁neighbor	-2918
▁firstborn	-2919
▁legislature	-2920
vi	-2921
lem	-2922
▁AN	-2923
asseh	-2924
▁duty	-2925
▁fish	-2926
▁fulf	-2927
▁quest	-2928
tection	-2929
▁Manasseh	-2930
▁normally	-2931
▁services	-2932
▁advantage	-2933
▁considerable	-2934
hon	-2935
▁Shi	-2936
▁pil	-2937
ively	-2938
ximum	-2939
▁Joab	-2940
▁meal	-2941
▁rain	-2942
▁ring	-2943
▁manner	-2944
▁temper	-2945
▁thanks	-2946
sibility	-2947
▁justice	-2948
gregation	-2949
▁practice	-2950
▁submarine	-2951
▁propellers	-2952
For	-2953
Who	-2954
boat	-2955
rane	-2956
arent	-2957
▁coil	-2958
▁fail	-2959
▁square	-2960
▁dangerous	-2961
▁generally	-2962
▁positions	-2963
▁sometimes	-2964
▁technical	-2965
AL	-2966
cent	-2967
irst	-2968
ming	-2969
▁Mer	-2970
▁hyd	-2971
orrow	-2972
rance	-2973
▁disp	-2974
▁fill	-2975
▁wait	-2976
▁Mount	-2977
▁access	-2978
▁myself	-2979
▁loading	-2980
▁several	-2981
▁propulsion	-2982
ze	-2983
aph	-2984
iew	-2985
alse	-2986
ivid	-2987
ters	-2988
▁Two	-2989
▁bol	-2990
▁cat	-2991
▁imm	-2992
▁rot	-2993
▁sum	-2994
▁tub	-2995
▁wide	-2996
ternal	-2997
▁extent	-2998
▁passes	-2999
▁speeds	-3000
▁depends	-3001
▁maximum	-3002
▁stopped	-3003
▁province	-3004
▁purposes	-3005
aac	-3006
▁OF	-3007
▁Ty	-3008
cean	-3009
eric	-3010
▁fib	-3011
▁tas	-3012
▁ears	-3013
▁tent	-3014
▁hatch	-3015
▁inner	-3016
▁stead	-3017
▁trave	-3018
▁company	-3019
▁employed	-3020
▁completed	-3021
▁household	-3022
▁instrument	-3023
ike	-3024
let	-3025
atic	-3026
pher	-3027
▁ask	-3028
▁big	-3029
▁bil	-3030
▁vir	-3031
orses	-3032
▁Many	-3033
▁ball	-3034
▁grou	-3035
▁mour	-3036
▁oars	-3037
▁pros	-3038
▁repl	-3039
▁Isaac	-3040
itation	-3041
▁messen	-3042
▁essential	-3043
▁sanctuary	-3044
law	-3045
leg	-3046
▁Su	-3047
▁Car	-3048
▁cou	-3049
▁mis	-3050
ustom	-3051
▁High	-3052
unicip	-3053
▁shell	-3054
ression	-3055
▁Americ	-3056
▁animal	-3057
▁proced	-3058
▁satisf	-3059
▁sister	-3060
▁strain	-3061
▁transm	-3062
▁transfer	-3063
▁appearance	-3064
▁continuous	-3065
▁subsection	-3066
We	-3067
▁*	-3068
▁Az	-3069
ront	-3070
▁Bet	-3071
▁pit	-3072
▁voy	-3073
▁diam	-3074
▁tide	-3075
▁trad	-3076
▁false	-3077
▁repro	-3078
▁record	-3079
▁divided	-3080
▁functions	-3081
▁generations	-3082
▁congregation	-3083
na	-3084
ift	-3085
▁Wor	-3086
entil	-3087
▁path	-3088
estock	-3089
minist	-3090
pected	-3091
▁invol	-3092
▁treas	-3093
▁almost	-3094
▁strike	-3095
▁Service	-3096
▁offered	-3097
▁livestock	-3098
nage	-3099
▁100	-3100
▁Rem	-3101
allel	-3102
▁jack	-3103
▁lock	-3104
▁trim	-3105
lected	-3106
▁named	-3107
▁occas	-3108
idships	-3109
▁canvas	-3110
▁horses	-3111
▁liquid	-3112
▁spaces	-3113
▁timber	-3114
▁fitting	-3115
▁carriage	-3116
▁forecast	-3117
▁circumstances	-3118
gree	-3119
reme	-3120
▁Heb	-3121
▁haw	-3122
icial	-3123
▁fors	-3124
▁perf	-3125
▁prec	-3126
▁doing	-3127
▁wives	-3128
ulations	-3129
▁individ	-3130
▁mooring	-3131
▁upright	-3132
▁armament	-3133
▁sacrific	-3134
▁considered	-3135
▁deadweight	-3136
2.	-3137
AS	-3138
gs	-3139
com	-3140
▁Im	-3141
aken	-3142
iful	-3143
orns	-3144
▁der	-3145
▁heat	-3146
▁plag	-3147
▁refu	-3148
▁holds	-3149
ernacle	-3150
ruction	-3151
▁driven	-3152
▁nearly	-3153
▁departed	-3154
▁referred	-3155
▁materials	-3156
▁generation	-3157
ii	-3158
hir	-3159
pter	-3160
▁ice	-3161
▁base	-3162
▁lips	-3163
▁pure	-3164
▁west	-3165
ection	-3166
▁drawn	-3167
▁drift	-3168
▁hauled	-3169
▁needed	-3170
▁protect	-3171
▁trouble	-3172
placement	-3173
▁floating	-3174
▁intended	-3175
▁completely	-3176
▁horizontal	-3177
3.	-3178
▁ram	-3179
boats	-3180
ising	-3181
▁doors	-3182
▁dream	-3183
▁outer	-3184
▁batter	-3185
▁blocks	-3186
▁breast	-3187
▁prince	-3188
▁public	-3189
▁sought	-3190
▁proport	-3191
▁stowage	-3192
▁including	-3193
▁protection	-3194
▁responsible	-3195
MS	-3196
nk	-3197
zer	-3198
▁Sh	-3199
aria	-3200
wing	-3201
error	-3202
▁obey	-3203
▁skin	-3204
ulated	-3205
▁hawse	-3206
▁radar	-3207
▁saved	-3208
▁smoke	-3209
▁reduce	-3210
lication	-3211
▁holding	-3212
▁problem	-3213
▁Hezekiah	-3214
▁training	-3215
0°	-3216
▁Nor	-3217
▁emb	-3218
▁fou	-3219
▁pal	-3220
▁Only	-3221
▁tong	-3222
▁beaut	-3223
▁wound	-3224
stitute	-3225
▁Before	-3226
▁burned	-3227
▁others	-3228
▁connected	-3229
▁stability	-3230
▁tabernacle	-3231
1.	-3232
bled	-3233
empt	-3234
ilit	-3235
acher	-3236
idian	-3237
inally	-3238
▁quite	-3239
▁Assyria	-3240
▁distrib	-3241
▁Admiralty	-3242
▁waterline	-3243
It	-3244
ba	-3245
by	-3246
ee	-3247
ule	-3248
screw	-3249
▁First	-3250
▁grace	-3251
▁guide	-3252
▁slain	-3253
▁strop	-3254
▁therein	-3255
▁straight	-3256
▁testimon	-3257
▁wickedness	-3258
pro	-3259
vey	-3260
▁Af	-3261
▁reb	-3262
anced	-3263
▁Cour	-3264
▁init	-3265
▁plate	-3266
▁natural	-3267
▁appropri	-3268
▁speaking	-3269
▁additional	-3270
5.	-3271
50	-3272
▁Ele	-3273
▁Min	-3274
▁hur	-3275
▁Good	-3276
▁heel	-3277
lessed	-3278
▁Chief	-3279
▁abund	-3280
▁avoid	-3281
▁hours	-3282
▁worth	-3283
▁awning	-3284
▁orders	-3285
▁keeping	-3286
▁persons	-3287
▁proceed	-3288
▁witness	-3289
▁Jonathan	-3290
▁parallel	-3291
chi	-3292
uct	-3293
idal	-3294
ties	-3295
▁pun	-3296
▁Take	-3297
▁boll	-3298
▁navy	-3299
▁alter	-3300
▁fourth	-3301
▁Samaria	-3302
▁effects	-3303
▁opening	-3304
▁rigging	-3305
▁faithful	-3306
4.	-3307
rust	-3308
▁Res	-3309
izing	-3310
▁corn	-3311
▁exist	-3312
▁degree	-3313
▁battles	-3314
▁breadth	-3315
▁seventh	-3316
▁seventy	-3317
▁whoever	-3318
▁obtained	-3319
▁amidships	-3320
▁destruction	-3321
▁<	-3322
isha	-3323
▁ill	-3324
▁flat	-3325
▁inch	-3326
▁shar	-3327
asting	-3328
idence	-3329
▁areas	-3330
▁scale	-3331
▁scrib	-3332
tenance	-3333
▁causes	-3334
▁rigged	-3335
▁sinned	-3336
▁mounted	-3337
▁distress	-3338
▁measures	-3339
▁outboard	-3340
▁steering	-3341
>>	-3342
▁<<	-3343
imum	-3344
▁Cent	-3345
▁beha	-3346
▁drag	-3347
▁feed	-3348
▁rate	-3349
▁Ammon	-3350
▁today	-3351
▁treat	-3352
liament	-3353
▁hearts	-3354
▁marked	-3355
▁perish	-3356
▁becomes	-3357
▁clothes	-3358
▁finished	-3359
▁standard	-3360
▁exceeding	-3361
▁navigation	-3362
▁strengthen	-3363
inn	-3364
ium	-3365
gram	-3366
leet	-3367
load	-3368
phat	-3369
rial	-3370
urbs	-3371
▁lat	-3372
▁acts	-3373
▁anti	-3374
▁band	-3375
▁glor	-3376
▁cases	-3377
▁flock	-3378
▁revol	-3379
▁signs	-3380
▁belong	-3381
▁commit	-3382
▁government	-3383
een	-3384
eon	-3385
▁Ro	-3386
▁da	-3387
rows	-3388
soci	-3389
▁ate	-3390
▁grow	-3391
▁hole	-3392
▁sand	-3393
▁wash	-3394
▁adjust	-3395
▁forces	-3396
▁mention	-3397
▁achieved	-3398
▁problems	-3399
▁11	-3400
▁Go	-3401
owed	-3402
▁(2)	-3403
▁Not	-3404
▁lack	-3405
▁viol	-3406
▁breat	-3407
▁trump	-3408
▁circle	-3409
▁closed	-3410
▁months	-3411
▁Defense	-3412
▁incense	-3413
▁suburbs	-3414
ventional	-3415
▁probably	-3416
▁appropriate	-3417
lay	-3418
▁Baal	-3419
▁cold	-3420
▁paid	-3421
▁pair	-3422
▁weap	-3423
▁staff	-3424
▁advers	-3425
▁direct	-3426
▁tongue	-3427
▁carrier	-3428
▁damaged	-3429
▁shallow	-3430
.>>	-3431
ban	-3432
lech	-3433
▁Yet	-3434
ially	-3435
▁Jero	-3436
▁Will	-3437
▁fort	-3438
▁stre	-3439
▁weak	-3440
▁Afric	-3441
▁Gener	-3442
▁capst	-3443
▁favor	-3444
▁jetty	-3445
▁handle	-3446
▁sudden	-3447
▁changes	-3448
▁diameter	-3449
▁encamped	-3450
▁increases	-3451
▁situation	-3452
sp	-3453
met	-3454
ders	-3455
four	-3456
nant	-3457
▁ide	-3458
▁nin	-3459
ching	-3460
▁pumps	-3461
▁shape	-3462
ittings	-3463
▁buried	-3464
▁hidden	-3465
▁ladder	-3466
▁prison	-3467
▁tribes	-3468
▁pillars	-3469
▁regular	-3470
▁Moreover	-3471
▁simulation	-3472
▁instruments	-3473
▁Sc	-3474
arer	-3475
oted	-3476
raph	-3477
▁App	-3478
▁dim	-3479
▁Edom	-3480
▁firm	-3481
▁tuck	-3482
itudes	-3483
▁fatho	-3484
▁slack	-3485
▁steps	-3486
▁wires	-3487
▁former	-3488
▁loaded	-3489
▁multip	-3490
▁buoyancy	-3491
▁chariots	-3492
▁passenger	-3493
▁Parliament	-3494
▁temperature	-3495
app	-3496
two	-3497
wart	-3498
▁Bel	-3499
rings	-3500
▁leak	-3501
▁spar	-3502
racter	-3503
▁front	-3504
▁stran	-3505
▁wrong	-3506
▁custom	-3507
▁perman	-3508
▁please	-3509
▁appoint	-3510
▁constant	-3511
▁desolate	-3512
▁garments	-3513
▁passengers	-3514
▁Air	-3515
▁abs	-3516
salom	-3517
▁flow	-3518
▁hair	-3519
▁reach	-3520
▁attack	-3521
▁joined	-3522
▁plates	-3523
▁stayed	-3524
▁ventil	-3525
▁Absalom	-3526
▁hauling	-3527
▁captivity	-3528
car	-3529
tle	-3530
▁ep	-3531
iter	-3532
like	-3533
rant	-3534
▁194	-3535
▁Gib	-3536
▁Its	-3537
ailed	-3538
isher	-3539
itter	-3540
▁rede	-3541
rolled	-3542
▁Naval	-3543
▁alive	-3544
▁expen	-3545
▁frame	-3546
▁sweep	-3547
▁towed	-3548
osition	-3549
▁nature	-3550
▁produce	-3551
▁appeared	-3552
▁surround	-3553
▁accordance	-3554
▁ordinances	-3555
▁possession	-3556
--	-3557
rab	-3558
▁je	-3559
▁wo	-3560
cell	-3561
▁rod	-3562
loved	-3563
ology	-3564
▁Dist	-3565
▁beat	-3566
▁flee	-3567
hicles	-3568
overed	-3569
▁Never	-3570
▁armed	-3571
▁extra	-3572
▁fresh	-3573
▁image	-3574
▁meant	-3575
▁quant	-3576
▁recom	-3577
▁tight	-3578
autical	-3579
▁obtain	-3580
▁Network	-3581
▁captains	-3582
▁windward	-3583
▁importance	-3584
My	-3585
ls	-3586
▁nu	-3587
▁fly	-3588
▁rat	-3589
rates	-3590
uties	-3591
▁Stand	-3592
▁While	-3593
▁apply	-3594
▁arise	-3595
▁labor	-3596
▁think	-3597
theless	-3598
▁mechan	-3599
▁resist	-3600
▁walked	-3601
▁beloved	-3602
▁follows	-3603
▁rapidly	-3604
▁economic	-3605
▁revealed	-3606
▁continued	-3607
rer	-3608
ura	-3609
uri	-3610
▁14	-3611
▁Pe	-3612
emed	-3613
used	-3614
▁Han	-3615
aints	-3616
ckets	-3617
hicle	-3618
iting	-3619
▁lion	-3620
▁stro	-3621
▁linen	-3622
▁angles	-3623
▁results	-3624
▁shepher	-3625
▁tonnage	-3626
▁administ	-3627
▁progress	-3628
▁vehicles	-3629
ma	-3630
EEE	-3631
ane	-3632
ism	-3633
mos	-3634
oned	-3635
urity	-3636
▁Esau	-3637
▁Such	-3638
▁exal	-3639
▁rove	-3640
▁accur	-3641
▁broke	-3642
▁displ	-3643
▁naked	-3644
▁party	-3645
▁procl	-3646
▁sixty	-3647
▁sleep	-3648
▁value	-3649
▁yacht	-3650
▁brings	-3651
▁fought	-3652
▁simple	-3653
▁sitting	-3654
▁sections	-3655
bt	-3656
now	-3657
ump	-3658
▁Sm	-3659
part	-3660
▁hot	-3661
▁non	-3662
▁sen	-3663
▁tar	-3664
▁Ship	-3665
▁bapt	-3666
▁rich	-3667
teenth	-3668
▁masts	-3669
▁yards	-3670
▁altern	-3671
▁conver	-3672
▁tanker	-3673
▁Pharise	-3674
▁project	-3675
▁Jeroboam	-3676
▁branches	-3677
▁flooding	-3678
▁question	-3679
unications	-3680
▁Management	-3681
hus	-3682
ilk	-3683
ades	-3684
ales	-3685
azar	-3686
nels	-3687
zzar	-3688
▁Ahi	-3689
▁Mic	-3690
▁fer	-3691
ening	-3692
igned	-3693
▁Mess	-3694
▁rele	-3695
▁sure	-3696
Yahweh	-3697
iation	-3698
▁aside	-3699
▁blind	-3700
▁floor	-3701
▁items	-3702
▁total	-3703
▁tresp	-3704
▁prayer	-3705
▁surviv	-3706
▁develop	-3707
▁lowered	-3708
▁utterly	-3709
▁anointed	-3710
▁trespass	-3711
▁Executive	-3712
▁Commission	-3713
8.	-3714
eds	-3715
put	-3716
▁40	-3717
▁aw	-3718
Come	-3719
amar	-3720
rate	-3721
sued	-3722
▁pin	-3723
arrow	-3724
hield	-3725
▁wear	-3726
▁curse	-3727
▁eaten	-3728
▁rough	-3729
▁famine	-3730
handling	-3731
▁achieve	-3732
▁cordage	-3733
▁delight	-3734
▁warship	-3735
▁magnetic	-3736
▁character	-3737
▁testimony	-3738
.,	-3739
ops	-3740
pipe	-3741
room	-3742
▁Abi	-3743
▁Gad	-3744
▁Nebu	-3745
▁qual	-3746
▁swim	-3747
iously	-3748
▁abaft	-3749
▁idols	-3750
▁leads	-3751
▁ruler	-3752
▁assemb	-3753
▁effici	-3754
▁rebell	-3755
▁shield	-3756
▁tempor	-3757
▁inboard	-3758
▁joining	-3759
▁sailors	-3760
▁fittings	-3761
▁provision	-3762
▁determined	-3763
▁forecastle	-3764
▁underwater	-3765
7.	-3766
ien	-3767
ils	-3768
five	-3769
▁AND	-3770
▁try	-3771
▁News	-3772
▁Port	-3773
▁date	-3774
▁fram	-3775
▁lamp	-3776
▁shek	-3777
atures	-3778
ension	-3779
isters	-3780
▁angry	-3781
▁bones	-3782
▁knows	-3783
▁shows	-3784
▁teach	-3785
▁tidal	-3786
▁traff	-3787
▁armour	-3788
▁plague	-3789
▁poured	-3790
▁restri	-3791
▁besides	-3792
▁extreme	-3793
▁largest	-3794
▁leeward	-3795
▁individual	-3796
⁄2	-3797
phe	-3798
▁Eu	-3799
road	-3800
▁Per	-3801
▁bus	-3802
▁Shem	-3803
▁else	-3804
▁hung	-3805
▁turb	-3806
▁spoil	-3807
▁Elijah	-3808
▁fellow	-3809
unicipal	-3810
▁fathoms	-3811
▁entrance	-3812
Now	-3813
▁Ke	-3814
▁SA	-3815
akes	-3816
▁Gal	-3817
▁Tra	-3818
▁inj	-3819
aking	-3820
ronic	-3821
tingu	-3822
▁arms	-3823
▁cher	-3824
▁exec	-3825
▁Trans	-3826
▁Under	-3827
▁conne	-3828
▁dealt	-3829
▁device	-3830
▁fallen	-3831
▁holder	-3832
▁needle	-3833
▁Everyone	-3834
▁arrangements	-3835
RE	-3836
aam	-3837
ode	-3838
ton	-3839
▁ch	-3840
haps	-3841
lock	-3842
sing	-3843
▁Sel	-3844
▁age	-3845
▁slo	-3846
There	-3847
grees	-3848
lands	-3849
uated	-3850
▁Here	-3851
▁hate	-3852
▁real	-3853
▁rebu	-3854
▁conce	-3855
▁drive	-3856
▁fibre	-3857
▁remem	-3858
▁duties	-3859
▁purcha	-3860
▁secret	-3861
▁useful	-3862
▁capstan	-3863
▁perfect	-3864
▁request	-3865
▁vehicle	-3866
▁requires	-3867
▁accommodation	-3868
rap	-3869
unt	-3870
cies	-3871
ilee	-3872
vals	-3873
▁Zeb	-3874
▁log	-3875
asons	-3876
erted	-3877
unity	-3878
▁Ahab	-3879
▁haly	-3880
▁knew	-3881
▁self	-3882
▁view	-3883
handed	-3884
▁Jehoi	-3885
▁Since	-3886
▁bilge	-3887
▁birds	-3888
▁edges	-3889
▁loved	-3890
▁throw	-3891
▁abomin	-3892
▁compar	-3893
▁donkey	-3894
▁escape	-3895
▁tables	-3896
▁Computer	-3897
▁breaking	-3898
▁frigates	-3899
▁includes	-3900
▁bulkheads	-3901
▁concerned	-3902
▁operations	-3903
▁proportion	-3904
9.	-3905
IP	-3906
How	-3907
equ	-3908
set	-3909
oura	-3910
rets	-3911
wind	-3912
▁Acc	-3913
▁bal	-3914
▁inn	-3915
ators	-3916
ivers	-3917
▁late	-3918
arines	-3919
▁costs	-3920
▁ident	-3921
▁mines	-3922
▁remove	-3923
▁vision	-3924
▁degrees	-3925
▁prepare	-3926
▁signals	-3927
▁launched	-3928
▁slightly	-3929
▁Egyptians	-3930
▁operating	-3931
▁commission	-3932
▁conventional	-3933
60	-3934
As	-3935
MP	-3936
▁‘	-3937
war	-3938
▁Ac	-3939
▁Ge	-3940
▁Lo	-3941
come	-3942
iers	-3943
jack	-3944
oard	-3945
▁Are	-3946
▁May	-3947
▁Out	-3948
▁cas	-3949
▁cre	-3950
urely	-3951
where	-3952
▁Oper	-3953
▁link	-3954
ashing	-3955
▁added	-3956
▁engra	-3957
▁raise	-3958
▁shame	-3959
▁swore	-3960
▁winds	-3961
▁Deputy	-3962
▁aboard	-3963
▁associ	-3964
▁demand	-3965
▁forced	-3966
▁giving	-3967
▁riding	-3968
▁voyage	-3969
▁Whoever	-3970
▁ballast	-3971
▁extingu	-3972
▁improve	-3973
▁minimum	-3974
▁separate	-3975
▁continually	-3976
▁maintenance	-3977
LE	-3978
▁i	-3979
gin	-3980
non	-3981
vant	-3982
▁Ram	-3983
▁cup	-3984
cient	-3985
clear	-3986
yards	-3987
ylind	-3988
▁pour	-3989
▁seat	-3990
▁song	-3991
▁green	-3992
▁miles	-3993
▁angels	-3994
▁frames	-3995
▁notice	-3996
▁prefer	-3997
▁search	-3998
▁Control	-3999
▁looking	-4000
▁seizing	-4001
▁warships	-4002
▁intervals	-4003
Is	-4004
fo	-4005
dne	-4006
lde	-4007
ogn	-4008
hath	-4009
roud	-4010
sail	-4011
▁Had	-4012
▁Har	-4013
▁Pre	-4014
▁arc	-4015
▁dav	-4016
▁mur	-4017
▁rub	-4018
▁Prem	-4019
▁news	-4020
▁risk	-4021
▁runs	-4022
▁seve	-4023
arters	-4024
▁Elect	-4025
▁North	-4026
▁Shall	-4027
▁Ships	-4028
▁faces	-4029
▁occup	-4030
▁stars	-4031
▁cylind	-4032
▁narrow	-4033
▁powers	-4034
▁saints	-4035
▁landing	-4036
▁leading	-4037
▁approxim	-4038
▁believed	-4039
▁remained	-4040
▁shackles	-4041
▁Pharisees	-4042
▁freeboard	-4043
▁fulfilled	-4044
▁prostitute	-4045
▁,	-4046
▁Ze	-4047
laid	-4048
uben	-4049
▁bri	-4050
▁fem	-4051
▁ign	-4052
▁rob	-4053
under	-4054
▁Part	-4055
▁drew	-4056
▁neck	-4057
▁bowed	-4058
▁weigh	-4059
actical	-4060
▁cherub	-4061
▁figure	-4062
▁foolish	-4063
▁original	-4064
▁foreigner	-4065
iced	-4066
iled	-4067
wain	-4068
▁Lab	-4069
▁lot	-4070
▁pot	-4071
going	-4072
▁Inde	-4073
▁bank	-4074
▁grav	-4075
▁salt	-4076
▁vain	-4077
atters	-4078
▁exact	-4079
▁local	-4080
▁multi	-4081
▁tenth	-4082
▁units	-4083
▁youth	-4084
ibility	-4085
onement	-4086
▁Chalde	-4087
▁Reuben	-4088
▁refuge	-4089
▁reject	-4090
▁suffer	-4091
▁concent	-4092
▁expected	-4093
▁attention	-4094
▁permanent	-4095
▁procedure	-4096
!'	-4097
";	-4098
hib	-4099
iff	-4100
pit	-4101
▁Ob	-4102
Thus	-4103
ruis	-4104
▁Zer	-4105
▁fit	-4106
▁pet	-4107
▁Gent	-4108
▁empt	-4109
▁flex	-4110
▁play	-4111
▁prim	-4112
▁repe	-4113
▁tomb	-4114
▁vill	-4115
▁yarn	-4116
▁interp	-4117
▁Another	-4118
▁reasons	-4119
▁Republic	-4120
▁covering	-4121
▁cruisers	-4122
▁exercise	-4123
▁pleasant	-4124
▁solution	-4125
▁atonement	-4126
▁everything	-4127
DoD	-4128
bon	-4129
has	-4130
▁6-	-4131
stay	-4132
utch	-4133
▁Ant	-4134
▁Dis	-4135
▁Rad	-4136
▁isn	-4137
▁arri	-4138
▁fier	-4139
▁grie	-4140
▁moon	-4141
chadne	-4142
▁hitch	-4143
▁hydro	-4144
▁skill	-4145
▁female	-4146
▁occurs	-4147
▁upward	-4148
▁Blessed	-4149
▁adopted	-4150
▁channel	-4151
▁contact	-4152
▁factors	-4153
▁hoisted	-4154
▁located	-4155
▁medical	-4156
▁observe	-4157
▁consumed	-4158
▁traveled	-4159
chadnezzar	-4160
▁otherwise	-4161
▁superstru	-4162
▁environment	-4163
▁Nebuchadnezzar	-4164
elt	-4165
sue	-4166
▁Fl	-4167
hull	-4168
▁Jap	-4169
dered	-4170
iform	-4171
phere	-4172
▁Amor	-4173
▁bend	-4174
▁hide	-4175
▁pipe	-4176
▁task	-4177
▁twin	-4178
▁Court	-4179
▁Joint	-4180
▁impos	-4181
▁devour	-4182
▁capable	-4183
▁lighter	-4184
▁minutes	-4185
▁equipped	-4186
▁language	-4187
▁powerful	-4188
▁carefully	-4189
▁industrial	-4190
▁remembered	-4191
▁responsibility	-4192
.)	-4193
32	-4194
6.	-4195
HE	-4196
Lord	-4197
▁Est	-4198
▁Hor	-4199
ained	-4200
istic	-4201
▁reef	-4202
▁Again	-4203
▁Water	-4204
▁apost	-4205
▁polic	-4206
▁walls	-4207
▁write	-4208
cushion	-4209
▁ashore	-4210
▁bitter	-4211
▁flocks	-4212
▁letter	-4213
▁riches	-4214
▁battery	-4215
▁circumc	-4216
▁Although	-4217
▁Gentiles	-4218
▁included	-4219
▁lifejack	-4220
▁provides	-4221
▁overboard	-4222
▁stretched	-4223
▁displacement	-4224
3)	-4225
eg	-4226
yn	-4227
amm	-4228
arm	-4229
aint	-4230
asso	-4231
bles	-4232
ners	-4233
vest	-4234
▁syn	-4235
astic	-4236
inged	-4237
▁poll	-4238
▁Simon	-4239
▁Techn	-4240
▁thres	-4241
▁wings	-4242
atively	-4243
ilitary	-4244
ishment	-4245
mediate	-4246
▁Daniel	-4247
▁Second	-4248
▁bodies	-4249
▁recogn	-4250
▁rescue	-4251
▁slowly	-4252
▁stress	-4253
▁Premier	-4254
▁classes	-4255
▁include	-4256
▁remnant	-4257
▁serious	-4258
▁American	-4259
▁prophesy	-4260
▁securing	-4261
▁hawsepipe	-4262
▁supported	-4263
▁frequently	-4264
▁relatively	-4265
IT	-4266
TER	-4267
atus	-4268
hest	-4269
▁191	-4270
▁Ish	-4271
▁box	-4272
▁cam	-4273
▁ter	-4274
▁wet	-4275
▁win	-4276
alous	-4277
ronom	-4278
▁hove	-4279
▁pack	-4280
▁womb	-4281
ailing	-4282
▁pilot	-4283
▁spray	-4284
shaphat	-4285
▁judged	-4286
▁routes	-4287
▁rulers	-4288
▁greatest	-4289
▁hoisting	-4290
▁determine	-4291
▁difference	-4292
▁messengers	-4293
▁Jehoshaphat	-4294
1-	-4295
hod	-4296
rah	-4297
▁Vi	-4298
When	-4299
▁Dam	-4300
▁aid	-4301
▁hab	-4302
abled	-4303
▁Prot	-4304
▁clos	-4305
▁harm	-4306
▁rejo	-4307
▁tugs	-4308
verage	-4309
▁daily	-4310
▁deleg	-4311
▁derri	-4312
▁forms	-4313
▁kinds	-4314
▁mixed	-4315
▁ocean	-4316
▁spare	-4317
▁stage	-4318
▁tents	-4319
▁track	-4320
ounders	-4321
▁conven	-4322
▁sprink	-4323
▁thrown	-4324
▁attempt	-4325
▁gravity	-4326
▁traffic	-4327
▁armoured	-4328
▁replaced	-4329
▁Provinces	-4330
▁remaining	-4331
▁controlled	-4332
;'	-4333
ada	-4334
ney	-4335
▁CO	-4336
ames	-4337
aped	-4338
izes	-4339
riah	-4340
▁197	-4341
▁Bas	-4342
▁Reg	-4343
▁ann	-4344
▁obv	-4345
ariah	-4346
▁Have	-4347
▁pump	-4348
▁beams	-4349
▁disob	-4350
▁owner	-4351
▁actual	-4352
▁healed	-4353
▁proved	-4354
▁taught	-4355
▁advance	-4356
▁curtain	-4357
▁ordered	-4358
▁prosper	-4359
▁turrets	-4360
omination	-4361
▁nautical	-4362
▁committed	-4363
▁principle	-4364
▁circumference	-4365
▁international	-4366
aps	-4367
cho	-4368
use	-4369
Take	-4370
▁Ste	-4371
hough	-4372
▁Both	-4373
▁Shec	-4374
▁bars	-4375
▁jour	-4376
▁pick	-4377
▁prem	-4378
▁priv	-4379
▁quad	-4380
▁scar	-4381
cribed	-4382
ecting	-4383
▁Passo	-4384
▁drill	-4385
▁Hebron	-4386
▁beside	-4387
▁burden	-4388
▁diesel	-4389
▁judges	-4390
▁rivers	-4391
▁turret	-4392
▁bollard	-4393
▁conduct	-4394
▁friends	-4395
▁heaving	-4396
▁network	-4397
▁perhaps	-4398
▁bearings	-4399
▁indicate	-4400
▁operated	-4401
▁pleasure	-4402
▁property	-4403
▁teaching	-4404
▁personnel	-4405
▁impossible	-4406
▁submarines	-4407
',	-4408
gu	-4409
hys	-4410
▁21	-4411
▁pr	-4412
ison	-4413
oper	-4414
ouds	-4415
▁Sub	-4416
▁gri	-4417
▁Ahaz	-4418
▁Dire	-4419
▁Levi	-4420
▁bind	-4421
▁furn	-4422
▁shel	-4423
▁tube	-4424
▁wond	-4425
ensive	-4426
▁World	-4427
▁hulls	-4428
▁human	-4429
▁integ	-4430
▁lambs	-4431
▁pipes	-4432
▁sharp	-4433
▁entire	-4434
▁excess	-4435
▁possib	-4436
▁thrust	-4437
▁declare	-4438
▁garment	-4439
▁herself	-4440
▁leaving	-4441
▁nuclear	-4442
▁recomme	-4443
▁Passover	-4444
▁business	-4445
▁proclaim	-4446
▁abundance	-4447
▁mentioned	-4448
".	-4449
cts	-4450
int	-4451
320.	-4452
maid	-4453
▁Ear	-4454
▁Uzz	-4455
▁cra	-4456
▁lod	-4457
▁van	-4458
orage	-4459
otten	-4460
shore	-4461
▁bent	-4462
▁rout	-4463
▁soft	-4464
▁8320.	-4465
▁atmos	-4466
▁fifth	-4467
▁learn	-4468
▁plain	-4469
▁swell	-4470
▁condem	-4471
▁covers	-4472
▁opport	-4473
▁reward	-4474
▁senior	-4475
▁lifting	-4476
▁message	-4477
▁although	-4478
▁flagship	-4479
▁windlass	-4480
▁beautiful	-4481
▁sacrifices	-4482
▁constitution	-4483
▁%	-4484
But	-4485
▁50	-4486
agog	-4487
face	-4488
hish	-4489
pers	-4490
▁Jez	-4491
▁ski	-4492
cript	-4493
erver	-4494
▁blue	-4495
▁foam	-4496
▁mill	-4497
▁shad	-4498
▁sour	-4499
▁warm	-4500
Please	-4501
avened	-4502
ecause	-4503
▁based	-4504
▁birth	-4505
▁bonds	-4506
▁goats	-4507
▁grass	-4508
▁group	-4509
▁keeps	-4510
▁pitch	-4511
▁souls	-4512
▁twice	-4513
▁usual	-4514
▁widow	-4515
ensions	-4516
▁showed	-4517
▁speaks	-4518
▁struct	-4519
▁undert	-4520
▁volume	-4521
▁worthy	-4522
▁captive	-4523
▁exalted	-4524
▁reached	-4525
▁reproach	-4526
▁something	-4527
▁maintained	-4528
▁constructed	-4529
▁ventilation	-4530
▁Nevertheless	-4531
RO	-4532
dra	-4533
ror	-4534
▁13	-4535
ergy	-4536
▁Asa	-4537
▁Env	-4538
▁Gre	-4539
▁piv	-4540
Where	-4541
quire	-4542
▁Make	-4543
▁Syri	-4544
▁calm	-4545
▁cool	-4546
abinet	-4547
ranean	-4548
▁Selah	-4549
▁grant	-4550
▁noise	-4551
edience	-4552
lasting	-4553
▁Center	-4554
▁During	-4555
▁bridle	-4556
▁deceit	-4557
▁explos	-4558
▁forget	-4559
▁inform	-4560
▁mainly	-4561
pounders	-4562
▁Mediter	-4563
▁counter	-4564
▁objects	-4565
▁thimble	-4566
▁reasonable	-4567
▁Mediterranean	-4568
RA	-4569
▁X	-4570
iar	-4571
▁Qu	-4572
ects	-4573
ingu	-4574
rank	-4575
sive	-4576
▁Des	-4577
▁Red	-4578
▁Sir	-4579
▁Sur	-4580
▁ced	-4581
ented	-4582
ights	-4583
▁stir	-4584
▁sunk	-4585
▁yard	-4586
itions	-4587
▁Board	-4588
▁black	-4589
▁influ	-4590
▁seems	-4591
▁sling	-4592
attered	-4593
▁careful	-4594
▁eternal	-4595
▁handmaid	-4596
▁vineyard	-4597
▁Chaldeans	-4598
▁directions	-4599
ody	-4600
rote	-4601
rupt	-4602
▁Pil	-4603
▁Ter	-4604
▁mag	-4605
▁pen	-4606
ended	-4607
▁IEEE	-4608
▁adul	-4609
▁clim	-4610
▁rams	-4611
agraph	-4612
atives	-4613
urance	-4614
▁Small	-4615
▁adequ	-4616
▁basic	-4617
▁brake	-4618
▁freed	-4619
▁twist	-4620
Because	-4621
imelech	-4622
▁energy	-4623
▁flight	-4624
▁golden	-4625
▁Eleazar	-4626
▁applies	-4627
▁changed	-4628
▁harvest	-4629
▁assigned	-4630
▁listened	-4631
▁manoeuvre	-4632
▁scattered	-4633
▁everlasting	-4634
▁ax	-4635
▁Mar	-4636
▁cit	-4637
▁jib	-4638
akers	-4639
erged	-4640
erman	-4641
ighty	-4642
umble	-4643
▁Hand	-4644
▁gall	-4645
▁pier	-4646
▁prey	-4647
▁vary	-4648
▁wept	-4649
orough	-4650
▁Leban	-4651
▁limit	-4652
▁pride	-4653
ighting	-4654
▁cattle	-4655
▁season	-4656
▁target	-4657
▁travel	-4658
▁washed	-4659
▁minister	-4660
▁situated	-4661
▁affliction	-4662
▁efficiency	-4663
▁Environment	-4664
IL	-4665
orts	-4666
▁Pra	-4667
▁hid	-4668
▁smo	-4669
aniah	-4670
▁Supp	-4671
▁cock	-4672
▁grew	-4673
▁oath	-4674
▁radi	-4675
▁sees	-4676
▁tear	-4677
lemish	-4678
raphic	-4679
▁catch	-4680
▁solid	-4681
aughter	-4682
▁Battle	-4683
▁friend	-4684
▁highly	-4685
▁8320.1-	-4686
▁Galilee	-4687
▁clothed	-4688
▁limited	-4689
▁synagog	-4690
▁engraved	-4691
▁majority	-4692
▁precious	-4693
▁suddenly	-4694
▁reduction	-4695
▁thousands	-4696
▁destroyers	-4697
▁dimensions	-4698
▁electrical	-4699
▁introduced	-4700
▁exceedingly	-4701
▁abominations	-4702
80	-4703
ET	-4704
rim	-4705
umn	-4706
hood	-4707
ilig	-4708
umin	-4709
▁gro	-4710
▁lug	-4711
▁sex	-4712
hould	-4713
ician	-4714
▁belt	-4715
▁bene	-4716
▁phys	-4717
▁vote	-4718
thwart	-4719
urning	-4720
▁Japan	-4721
▁Syria	-4722
▁error	-4723
▁estim	-4724
▁horns	-4725
▁loves	-4726
▁swive	-4727
▁waist	-4728
▁Europe	-4729
▁Please	-4730
▁boards	-4731
▁boiler	-4732
▁caught	-4733
▁depths	-4734
▁wouldn	-4735
▁Lebanon	-4736
▁weapons	-4737
▁observer	-4738
▁openings	-4739
▁stations	-4740
▁tendency	-4741
▁thorough	-4742
▁efficient	-4743
▁transverse	-4744
);	-4745
IC	-4746
▁“	-4747
ads	-4748
hor	-4749
rel	-4750
rus	-4751
▁1.	-4752
▁60	-4753
buoy	-4754
ifts	-4755
ture	-4756
antly	-4757
ordin	-4758
▁conv	-4759
▁dism	-4760
▁foul	-4761
elines	-4762
icable	-4763
▁dilig	-4764
▁proud	-4765
▁prove	-4766
▁tower	-4767
▁wrote	-4768
▁yours	-4769
autions	-4770
▁Midian	-4771
▁Though	-4772
▁chains	-4773
▁choose	-4774
▁disapp	-4775
▁fairly	-4776
▁Cabinet	-4777
▁Shechem	-4778
▁beneath	-4779
▁central	-4780
▁cruiser	-4781
▁hatches	-4782
▁apparent	-4783
▁blessing	-4784
▁produced	-4785
▁troubled	-4786
▁villages	-4787
▁correctly	-4788
▁developed	-4789
▁divisions	-4790
ED	-4791
tee	-4792
▁2.	-4793
▁ST	-4794
▁Us	-4795
They	-4796
tles	-4797
▁Haz	-4798
▁tax	-4799
▁tro	-4800
acent	-4801
eight	-4802
isten	-4803
▁Give	-4804
▁Pers	-4805
▁aren	-4806
▁easy	-4807
▁loud	-4808
▁nine	-4809
▁vers	-4810
istics	-4811
nought	-4812
▁cease	-4813
▁doubt	-4814
▁overt	-4815
▁plane	-4816
ivision	-4817
▁Bethel	-4818
▁permit	-4819
▁valves	-4820
▁blemish	-4821
▁desired	-4822
▁uniform	-4823
▁occasion	-4824
▁whipping	-4825
▁associated	-4826
▁transgress	-4827
ded	-4828
ech	-4829
iet	-4830
lip	-4831
pan	-4832
spe	-4833
akim	-4834
eral	-4835
salm	-4836
▁New	-4837
▁bag	-4838
▁ded	-4839
▁flu	-4840
▁ham	-4841
▁neg	-4842
▁pad	-4843
▁yaw	-4844
build	-4845
▁bolt	-4846
▁ease	-4847
▁gang	-4848
▁item	-4849
▁milk	-4850
▁seab	-4851
▁steer	-4852
▁tremb	-4853
ization	-4854
▁breath	-4855
▁clouds	-4856
▁fields	-4857
▁appears	-4858
▁jealous	-4859
▁matters	-4860
▁reaches	-4861
▁scribes	-4862
▁springs	-4863
▁towrope	-4864
▁affected	-4865
▁describe	-4866
▁dwelling	-4867
▁premises	-4868
▁shackled	-4869
▁Abimelech	-4870
▁subjected	-4871
▁abomination	-4872
▁adversaries	-4873
IG	-4874
No	-4875
mi	-4876
ENT	-4877
bat	-4878
irt	-4879
yal	-4880
zab	-4881
hich	-4882
hift	-4883
rast	-4884
sequ	-4885
▁Ash	-4886
▁Cor	-4887
▁Sal	-4888
▁Sar	-4889
▁ben	-4890
▁hit	-4891
▁pub	-4892
▁row	-4893
ircum	-4894
▁Like	-4895
▁goat	-4896
▁Fleet	-4897
▁empty	-4898
▁honey	-4899
▁rings	-4900
▁touch	-4901
▁compet	-4902
▁extend	-4903
▁motion	-4904
▁rising	-4905
▁screws	-4906
▁shadow	-4907
▁awnings	-4908
▁boilers	-4909
▁created	-4910
▁handled	-4911
▁heavier	-4912
▁kindled	-4913
▁trumpet	-4914
▁willing	-4915
▁accident	-4916
▁portable	-4917
▁converted	-4918
▁executive	-4919
▁indicates	-4920
▁paragraph	-4921
▁difficulty	-4922
▁considerably	-4923
▁disappointed	-4924
▁extinguisher	-4925
DS	-4926
▁z	-4927
▁(3)	-4928
▁Mus	-4929
▁Tim	-4930
▁mor	-4931
itime	-4932
ously	-4933
▁Cape	-4934
▁Mary	-4935
▁Prin	-4936
▁gard	-4937
▁mass	-4938
▁mock	-4939
▁role	-4940
▁sack	-4941
▁unle	-4942
▁worn	-4943
aratus	-4944
▁Sheol	-4945
▁buoys	-4946
▁float	-4947
▁flour	-4948
▁heave	-4949
▁loose	-4950
▁quiet	-4951
▁Africa	-4952
▁Having	-4953
▁Praise	-4954
▁bought	-4955
▁branch	-4956
▁factor	-4957
▁finish	-4958
▁health	-4959
▁limits	-4960
▁persec	-4961
▁seeing	-4962
▁stroke	-4963
▁swivel	-4964
▁tested	-4965
▁Distrib	-4966
▁carries	-4967
▁halyard	-4968
▁journey	-4969
▁started	-4970
▁touched	-4971
▁Remember	-4972
▁apostles	-4973
▁declared	-4974
▁forsaken	-4975
▁heavenly	-4976
▁latitude	-4977
▁observed	-4978
▁selected	-4979
▁performed	-4980
▁separated	-4981
▁compassion	-4982
▁facilities	-4983
▁quantities	-4984
▁restricted	-4985
▁combination	-4986
▁superstructure	-4987
CT	-4988
bre	-4989
bus	-4990
six	-4991
▁Cl	-4992
Your	-4993
cher	-4994
ecai	-4995
foil	-4996
▁Adv	-4997
▁Mem	-4998
▁ine	-4999
ATION	-5000
itive	-5001
▁City	-5002
▁Sing	-5003
▁fing	-5004
▁heal	-5005
▁reli	-5006
▁till	-5007
ronoun	-5008
▁Abram	-5009
▁brook	-5010
▁glass	-5011
▁allows	-5012
▁bright	-5013
▁excell	-5014
▁fruits	-5015
▁invest	-5016
▁rating	-5017
▁sorrow	-5018
▁steady	-5019
cription	-5020
▁escaped	-5021
▁princip	-5022
▁salvage	-5023
▁someone	-5024
▁stretch	-5025
▁adequate	-5026
▁adjacent	-5027
▁entering	-5028
▁flexible	-5029
▁quadrant	-5030
▁specially	-5031
▁desolation	-5032
▁experience	-5033
▁resistance	-5034
GE	-5035
St	-5036
UR	-5037
uf	-5038
hal	-5039
iri	-5040
irm	-5041
lah	-5042
▁Gu	-5043
▁US	-5044
adab	-5045
icho	-5046
reci	-5047
rity	-5048
▁Alm	-5049
▁Que	-5050
▁Sat	-5051
▁buy	-5052
▁inf	-5053
▁mix	-5054
ashed	-5055
ences	-5056
hamed	-5057
oting	-5058
rical	-5059
▁calc	-5060
▁diff	-5061
▁legs	-5062
▁pole	-5063
▁town	-5064
▁amend	-5065
▁crest	-5066
▁final	-5067
▁fires	-5068
▁haven	-5069
▁helic	-5070
▁incor	-5071
▁needy	-5072
▁rises	-5073
▁splic	-5074
rection	-5075
▁accompl	-5076
▁ashamed	-5077
▁athwart	-5078
▁coastal	-5079
▁frigate	-5080
▁numbers	-5081
▁parties	-5082
▁release	-5083
▁shekels	-5084
▁storage	-5085
▁computer	-5086
▁involved	-5087
▁longitud	-5088
▁overcome	-5089
▁particip	-5090
readnought	-5091
▁interpret	-5092
▁prescribed	-5093
▁application	-5094
xs	-5095
AND	-5096
ich	-5097
▁32	-5098
▁SH	-5099
▁ge	-5100
aper	-5101
bing	-5102
leph	-5103
thir	-5104
▁187	-5105
▁Woe	-5106
▁fed	-5107
ander	-5108
▁Arab	-5109
▁Chan	-5110
▁Mult	-5111
▁fend	-5112
▁lamb	-5113
xswain	-5114
▁Autom	-5115
▁aband	-5116
▁benef	-5117
▁decre	-5118
▁earli	-5119
▁shift	-5120
▁sixth	-5121
▁teeth	-5122
▁winch	-5123
uration	-5124
▁Engine	-5125
▁German	-5126
▁column	-5127
▁liable	-5128
▁metres	-5129
▁seamen	-5130
▁stands	-5131
atically	-5132
fighting	-5133
▁Jericho	-5134
▁knowing	-5135
▁suffici	-5136
▁testify	-5137
▁cherubim	-5138
▁distingu	-5139
▁sideways	-5140
▁apparatus	-5141
▁collision	-5142
▁expensive	-5143
▁ourselves	-5144
▁multitudes	-5145
▁opportunity	-5146
▁performance	-5147
▁transferred	-5148
▁Constitutional	-5149
CH	-5150
ira	-5151
lig	-5152
nah	-5153
sle	-5154
son	-5155
▁24	-5156
▁25	-5157
▁Ah	-5158
▁Ap	-5159
▁Ed	-5160
alys	-5161
fare	-5162
orah	-5163
ores	-5164
▁THE	-5165
▁Vol	-5166
▁Zed	-5167
▁raw	-5168
▁ven	-5169
rouds	-5170
▁Anch	-5171
▁Once	-5172
▁Reho	-5173
▁Term	-5174
▁Unit	-5175
▁jump	-5176
▁rode	-5177
rences	-5178
▁Abner	-5179
▁Damas	-5180
▁Great	-5181
▁State	-5182
▁activ	-5183
▁aston	-5184
▁borne	-5185
▁domin	-5186
▁grown	-5187
▁perce	-5188
▁sizes	-5189
▁swall	-5190
▁tread	-5191
unction	-5192
▁abroad	-5193
▁anoint	-5194
▁breaks	-5195
▁feared	-5196
▁lament	-5197
▁repent	-5198
▁smooth	-5199
▁Syrians	-5200
▁Systems	-5201
▁appreci	-5202
▁corners	-5203
▁drawing	-5204
▁lengths	-5205
▁streets	-5206
▁fighting	-5207
▁industry	-5208
▁maritime	-5209
▁official	-5210
▁stronger	-5211
▁violence	-5212
▁afflicted	-5213
▁worshiped	-5214
▁eighteenth	-5215
▁approximately	-5216
di	-5217
ux	-5218
oms	-5219
▁Sw	-5220
▁TO	-5221
ilty	-5222
pent	-5223
rary	-5224
sile	-5225
▁got	-5226
▁tit	-5227
▁unf	-5228
iring	-5229
ufact	-5230
▁Hear	-5231
▁Mord	-5232
▁Name	-5233
▁Noah	-5234
▁Time	-5235
▁pred	-5236
▁stud	-5237
▁suit	-5238
alysis	-5239
ienced	-5240
ircumc	-5241
ranged	-5242
▁Navig	-5243
▁Shime	-5244
▁loads	-5245
▁marks	-5246
▁royal	-5247
▁stiff	-5248
▁sweet	-5249
▁Balaam	-5250
▁Bashan	-5251
▁cleans	-5252
▁guilty	-5253
▁prayed	-5254
▁rights	-5255
▁social	-5256
▁speech	-5257
▁General	-5258
▁catamar	-5259
▁discipl	-5260
▁donkeys	-5261
▁initial	-5262
▁painted	-5263
▁reflect	-5264
▁routine	-5265
▁stumble	-5266
▁Amorites	-5267
▁Damascus	-5268
▁Mordecai	-5269
▁reference	-5270
▁tradition	-5271
▁confidence	-5272
▁foundation	-5273
▁provisions	-5274
▁supporting	-5275
▁approaching	-5276
▁requirement	-5277
EA	-5278
EL	-5279
dri	-5280
gen	-5281
ley	-5282
aned	-5283
clud	-5284
oked	-5285
▁Miz	-5286
▁mir	-5287
▁vap	-5288
oking	-5289
ulted	-5290
▁Jehu	-5291
▁Tyre	-5292
▁blas	-5293
▁exha	-5294
▁scre	-5295
▁Earth	-5296
▁Integ	-5297
▁Sched	-5298
▁crane	-5299
▁holes	-5300
▁links	-5301
▁width	-5302
▁yarns	-5303
pendent	-5304
▁Should	-5305
▁altars	-5306
▁illust	-5307
▁merely	-5308
▁sailor	-5309
▁Finally	-5310
▁Neither	-5311
▁contrib	-5312
▁endures	-5313
▁happens	-5314
▁heading	-5315
▁operate	-5316
▁passage	-5317
▁shrouds	-5318
▁Almighty	-5319
▁Zedekiah	-5320
▁accepted	-5321
▁accurate	-5322
▁approved	-5323
▁baptized	-5324
▁devoured	-5325
▁election	-5326
▁thoughts	-5327
▁unleavened	-5328
▁Immediately	-5329
▁specialised	-5330
▁sufficiently	-5331
-1	-5332
CK	-5333
▁Ko	-5334
fast	-5335
▁DIS	-5336
▁Met	-5337
▁jam	-5338
ishes	-5339
▁Gree	-5340
▁Soft	-5341
▁Used	-5342
▁encl	-5343
▁merc	-5344
▁rail	-5345
▁stan	-5346
ording	-5347
▁Psalm	-5348
▁beach	-5349
▁gradu	-5350
▁monit	-5351
▁moves	-5352
▁swear	-5353
▁Elisha	-5354
▁Instru	-5355
▁berths	-5356
▁discus	-5357
▁faster	-5358
▁forest	-5359
▁leaves	-5360
▁overth	-5361
▁survey	-5362
▁tender	-5363
▁Process	-5364
▁Program	-5365
▁ability	-5366
▁exhaust	-5367
▁exposed	-5368
▁forsake	-5369
▁islands	-5370
▁repairs	-5371
▁seaward	-5372
▁sockets	-5373
▁lighters	-5374
▁Otherwise	-5375
▁satisfied	-5376
▁specified	-5377
▁temporary	-5378
▁lifejacket	-5379
▁principles	-5380
In	-5381
ea	-5382
bal	-5383
▁Bu	-5384
▁Po	-5385
cont	-5386
ocol	-5387
rete	-5388
cruis	-5389
eness	-5390
ersed	-5391
gical	-5392
▁Boat	-5393
▁Come	-5394
▁Test	-5395
▁dred	-5396
▁drop	-5397
▁sell	-5398
▁torn	-5399
▁yoke	-5400
atable	-5401
igital	-5402
▁Herod	-5403
▁boast	-5404
▁crews	-5405
▁fails	-5406
▁posts	-5407
▁resol	-5408
▁sheet	-5409
ammable	-5410
▁Depart	-5411
▁easier	-5412
▁firmly	-5413
▁issued	-5414
▁obstru	-5415
▁severe	-5416
▁thirst	-5417
▁chapter	-5418
▁enables	-5419
▁flooded	-5420
▁program	-5421
▁touches	-5422
▁fastened	-5423
▁horsemen	-5424
▁internal	-5425
▁previous	-5426
▁purchase	-5427
▁rejected	-5428
▁broadside	-5429
▁integrity	-5430
▁remainder	-5431
▁shipbuild	-5432
▁withstand	-5433
▁advantages	-5434
▁atmosphere	-5435
▁arrangement	-5436
▁battleships	-5437
ply	-5438
▁IN	-5439
▁ur	-5440
iant	-5441
reel	-5442
ules	-5443
▁199	-5444
▁200	-5445
▁DoD	-5446
▁Gra	-5447
▁Mal	-5448
▁fog	-5449
built	-5450
eless	-5451
ighed	-5452
otion	-5453
▁Char	-5454
▁East	-5455
▁blow	-5456
▁bond	-5457
▁bree	-5458
▁crus	-5459
▁gunw	-5460
▁pend	-5461
▁sets	-5462
estern	-5463
ounded	-5464
▁James	-5465
▁Laban	-5466
▁Light	-5467
▁Satan	-5468
▁Zebul	-5469
▁drunk	-5470
▁gifts	-5471
▁hills	-5472
▁needs	-5473
▁plank	-5474
▁tends	-5475
▁yield	-5476
aration	-5477
respond	-5478
riction	-5479
▁Nathan	-5480
▁Pilate	-5481
▁demons	-5482
▁firing	-5483
▁marine	-5484
▁plants	-5485
▁profit	-5486
▁series	-5487
▁unable	-5488
▁virgin	-5489
▁Britain	-5490
▁borders	-5491
▁cockpit	-5492
▁defiled	-5493
▁derrick	-5494
▁heavily	-5495
▁lightly	-5496
▁Schedule	-5497
▁Software	-5498
▁disabled	-5499
▁drinking	-5500
▁governor	-5501
▁inserted	-5502
▁receives	-5503
▁stranger	-5504
▁swinging	-5505
▁allowance	-5506
▁nakedness	-5507
▁slaughter	-5508
▁standards	-5509
▁submerged	-5510
▁connection	-5511
▁correspond	-5512
▁multiplied	-5513
▁represented	-5514
▁organisation	-5515
▁strengthened	-5516
4,	-5517
See	-5518
ese	-5519
sub	-5520
ulk	-5521
▁ir	-5522
arge	-5523
foot	-5524
odom	-5525
▁Cur	-5526
▁Eff	-5527
▁Gaz	-5528
▁Has	-5529
▁Set	-5530
▁Sun	-5531
▁alo	-5532
▁cop	-5533
▁hen	-5534
▁lan	-5535
acing	-5536
ctive	-5537
ctory	-5538
▁gift	-5539
▁magn	-5540
▁tops	-5541
change	-5542
cience	-5543
igence	-5544
▁Queen	-5545
▁advis	-5546
▁deeds	-5547
▁mourn	-5548
▁rescu	-5549
▁route	-5550
▁shock	-5551
▁Esther	-5552
▁Indeed	-5553
▁corner	-5554
▁eighty	-5555
▁safely	-5556
▁sheave	-5557
▁pleased	-5558
▁pulling	-5559
▁rolling	-5560
▁subsequ	-5561
▁Musician	-5562
▁kingdoms	-5563
▁anchoring	-5564
▁distances	-5565
▁forgotten	-5566
▁hydrofoil	-5567
▁measuring	-5568
▁principal	-5569
▁provinces	-5570
▁uncircumc	-5571
▁variation	-5572
▁stronghold	-5573
▁manoeuvring	-5574
▁precautions	-5575
gal	-5576
gle	-5577
urb	-5578
▁AB	-5579
▁Cy	-5580
▁II	-5581
▁kW	-5582
agon	-5583
ique	-5584
loat	-5585
made	-5586
peak	-5587
racy	-5588
tali	-5589
▁Gil	-5590
▁Sid	-5591
▁aim	-5592
▁ble	-5593
▁fro	-5594
▁sor	-5595
adron	-5596
inity	-5597
▁Naph	-5598
▁Span	-5599
▁palm	-5600
▁reck	-5601
▁tape	-5602
▁Ishma	-5603
▁dress	-5604
▁helms	-5605
▁lands	-5606
▁trend	-5607
section	-5608
▁Josiah	-5609
▁commer	-5610
▁comply	-5611
▁revers	-5612
▁unlike	-5613
▁wealth	-5614
▁chariot	-5615
▁consult	-5616
▁exactly	-5617
▁headway	-5618
▁largely	-5619
▁letters	-5620
▁married	-5621
▁putting	-5622
▁serving	-5623
▁wonders	-5624
▁Tactical	-5625
▁combined	-5626
▁forgiven	-5627
▁masthead	-5628
▁military	-5629
▁mourning	-5630
▁multiply	-5631
▁redeemed	-5632
▁regarded	-5633
▁shepherd	-5634
▁starting	-5635
▁conceived	-5636
▁installed	-5637
▁messenger	-5638
▁approaches	-5639
▁mechanical	-5640
▁practicable	-5641
▁difficulties	-5642
..	-5643
alk	-5644
▁Em	-5645
adok	-5646
down	-5647
ribe	-5648
zzle	-5649
▁186	-5650
▁Our	-5651
▁enl	-5652
▁gir	-5653
▁por	-5654
▁pul	-5655
▁tom	-5656
▁vac	-5657
abric	-5658
borne	-5659
cargo	-5660
ifies	-5661
lding	-5662
lehem	-5663
overy	-5664
three	-5665
uting	-5666
xtant	-5667
▁Keep	-5668
▁bare	-5669
▁drum	-5670
▁mile	-5671
▁virt	-5672
▁weep	-5673
geance	-5674
shaped	-5675
▁Dutch	-5676
▁Force	-5677
▁River	-5678
▁Zadok	-5679
▁cabin	-5680
▁calls	-5681
▁cedar	-5682
▁desce	-5683
▁hooks	-5684
▁pluck	-5685
▁queen	-5686
▁rates	-5687
▁towns	-5688
▁Script	-5689
▁Simeon	-5690
▁astray	-5691
▁images	-5692
▁listed	-5693
▁lowest	-5694
▁threat	-5695
▁yachts	-5696
ometimes	-5697
▁Further	-5698
▁Ishmael	-5699
▁clearly	-5700
▁defence	-5701
▁falling	-5702
▁forgive	-5703
▁hearing	-5704
▁highest	-5705
▁promise	-5706
▁talents	-5707
▁weeping	-5708
▁decision	-5709
▁dockyard	-5710
▁familiar	-5711
▁features	-5712
▁likewise	-5713
▁quarters	-5714
▁Bethlehem	-5715
▁assembled	-5716
▁continues	-5717
▁justified	-5718
▁treasures	-5719
▁convenient	-5720
▁regulations	-5721
3,	-5722
UT	-5723
dd	-5724
ink	-5725
mat	-5726
une	-5727
▁22	-5728
alek	-5729
ares	-5730
ateg	-5731
lant	-5732
main	-5733
▁Job	-5734
▁bud	-5735
▁sup	-5736
cloth	-5737
tally	-5738
usion	-5739
▁Cons	-5740
▁bask	-5741
▁caps	-5742
▁kiss	-5743
▁meat	-5744
▁miss	-5745
▁mist	-5746
▁plot	-5747
▁wing	-5748
aneous	-5749
ifying	-5750
liness	-5751
marine	-5752
▁Nylon	-5753
▁Radio	-5754
▁Short	-5755
▁array	-5756
▁hated	-5757
▁hears	-5758
▁innoc	-5759
▁inspe	-5760
▁ought	-5761
▁proof	-5762
▁sense	-5763
▁stock	-5764
▁Isaiah	-5765
▁Surely	-5766
▁divide	-5767
▁garden	-5768
▁layout	-5769
▁moored	-5770
▁pillar	-5771
▁seaway	-5772
▁silent	-5773
▁Chapter	-5774
▁courses	-5775
▁desires	-5776
▁oppress	-5777
▁periods	-5778
▁pronoun	-5779
▁setting	-5780
▁windows	-5781
▁writing	-5782
▁Naphtali	-5783
▁improved	-5784
▁manufact	-5785
▁properly	-5786
▁fortified	-5787
▁lifeboats	-5788
▁treatment	-5789
▁experienced	-5790
▁operational	-5791
▁0	-5792
eph	-5793
mar	-5794
ope	-5795
pah	-5796
▁Et	-5797
▁Na	-5798
iber	-5799
ivil	-5800
more	-5801
nger	-5802
wood	-5803
▁500	-5804
▁Hel	-5805
▁Log	-5806
▁aer	-5807
power	-5808
ropes	-5809
vable	-5810
worth	-5811
▁Amen	-5812
▁Army	-5813
▁Fire	-5814
▁Plan	-5815
▁Sign	-5816
▁beac	-5817
▁hast	-5818
▁horn	-5819
▁hose	-5820
▁mort	-5821
▁spot	-5822
ulator	-5823
▁Class	-5824
▁Haman	-5825
▁absor	-5826
▁booms	-5827
▁bulls	-5828
▁clock	-5829
▁lifts	-5830
▁poles	-5831
▁tasks	-5832
▁tried	-5833
▁visit	-5834
▁Amalek	-5835
▁Intern	-5836
▁fabric	-5837
▁offers	-5838
▁output	-5839
▁policy	-5840
▁redeem	-5841
▁render	-5842
▁simply	-5843
▁varies	-5844
▁docking	-5845
▁obvious	-5846
▁regions	-5847
▁restore	-5848
righteous	-5849
▁coxswain	-5850
▁despised	-5851
▁dominion	-5852
▁friction	-5853
▁jackstay	-5854
▁physical	-5855
▁Municipal	-5856
▁influence	-5857
▁shepherds	-5858
▁Technology	-5859
▁activities	-5860
▁authorised	-5861
▁households	-5862
▁sanctified	-5863
▁automatically	-5864
▁Communications	-5865
▁administration	-5866
af	-5867
All	-5868
ila	-5869
ili	-5870
▁Ai	-5871
▁ol	-5872
aded	-5873
ange	-5874
heth	-5875
tend	-5876
▁Iss	-5877
▁pop	-5878
▁wed	-5879
achel	-5880
fleet	-5881
ppers	-5882
ulate	-5883
ylene	-5884
▁Ital	-5885
▁Main	-5886
▁Matt	-5887
▁aven	-5888
▁idea	-5889
▁lust	-5890
▁plug	-5891
▁scra	-5892
▁trop	-5893
▁Jesse	-5894
▁Sodom	-5895
▁badly	-5896
▁basis	-5897
▁blast	-5898
▁fault	-5899
▁slept	-5900
▁spear	-5901
▁threw	-5902
▁twine	-5903
▁veget	-5904
▁wheat	-5905
angular	-5906
▁chance	-5907
▁charts	-5908
▁choice	-5909
▁distin	-5910
▁fierce	-5911
▁purple	-5912
▁sailed	-5913
▁scribe	-5914
▁strake	-5915
▁terror	-5916
▁Azariah	-5917
▁Digital	-5918
▁Spanish	-5919
▁Zebulun	-5920
▁adulter	-5921
▁average	-5922
▁collect	-5923
▁freight	-5924
▁scarlet	-5925
▁sinners	-5926
▁sisters	-5927
▁towline	-5928
▁weighed	-5929
▁actually	-5930
▁arranged	-5931
▁berthing	-5932
▁investig	-5933
▁wherever	-5934
▁Provincial	-5935
▁discharged	-5936
▁oppression	-5937
▁thoroughly	-5938
▁distributed	-5939
▁inflammable	-5940
▁establishment	-5941
",	-5942
ST	-5943
MSO	-5944
aes	-5945
gue	-5946
inc	-5947
whe	-5948
▁BO	-5949
ekah	-5950
ival	-5951
quis	-5952
roup	-5953
▁Col	-5954
▁Mes	-5955
▁Rev	-5956
▁Sho	-5957
▁ago	-5958
▁unb	-5959
▁vic	-5960
aming	-5961
iment	-5962
lling	-5963
▁cell	-5964
▁cert	-5965
▁eats	-5966
▁feel	-5967
▁poop	-5968
▁rank	-5969
▁snow	-5970
▁spir	-5971
driven	-5972
ishing	-5973
▁Joash	-5974
▁agree	-5975
▁alloc	-5976
▁blade	-5977
▁cleat	-5978
▁dedic	-5979
▁demon	-5980
▁entry	-5981
▁ephod	-5982
▁ferry	-5983
▁flags	-5984
▁ratio	-5985
▁valve	-5986
▁Public	-5987
▁arrows	-5988
▁cursed	-5989
▁davits	-5990
▁decree	-5991
▁inland	-5992
▁Jezreel	-5993
▁Message	-5994
▁assumed	-5995
▁capital	-5996
▁figures	-5997
▁letting	-5998
▁parable	-5999
▁perpend	-6000
▁picking	-6001
▁recover	-6002
▁sheaves	-6003
urrection	-6004
▁Protocol	-6005
▁accompan	-6006
▁adjusted	-6007
▁confined	-6008
▁helmsman	-6009
▁mainsail	-6010
▁supplies	-6011
▁tomorrow	-6012
▁trumpets	-6013
▁vicinity	-6014
▁According	-6015
▁extremely	-6016
▁immediate	-6017
▁indicated	-6018
▁occasions	-6019
▁sackcloth	-6020
▁vengeance	-6021
▁witnesses	-6022
▁production	-6023
▁measurement	-6024
▁unrighteous	-6025
▁disobedience	-6026
▁instructions	-6027
▁interpretation	-6028
▁specialisation	-6029
▁transgressions	-6030
.5	-6031
hom	-6032
oni	-6033
she	-6034
vet	-6035
▁Ez	-6036
mers	-6037
▁Bil	-6038
▁art	-6039
▁fil	-6040
▁oar	-6041
aliah	-6042
arest	-6043
istry	-6044
night	-6045
onent	-6046
▁Hitt	-6047
▁Pass	-6048
▁Wars	-6049
▁hemp	-6050
▁onto	-6051
▁reap	-6052
▁sits	-6053
▁veil	-6054
chored	-6055
ermost	-6056
stream	-6057
▁Black	-6058
▁Group	-6059
▁bride	-6060
▁gases	-6061
▁older	-6062
▁paint	-6063
▁paths	-6064
▁snare	-6065
ception	-6066
ulating	-6067
▁acting	-6068
▁arrest	-6069
▁behalf	-6070
▁camels	-6071
▁convey	-6072
▁entity	-6073
▁freely	-6074
▁lawful	-6075
▁summer	-6076
▁tiller	-6077
▁values	-6078
▁vanity	-6079
▁checked	-6080
▁confess	-6081
▁details	-6082
▁Advanced	-6083
▁anchored	-6084
▁astronom	-6085
▁bringing	-6086
▁circular	-6087
▁communic	-6088
▁curtains	-6089
▁meridian	-6090
▁reported	-6091
▁securely	-6092
▁security	-6093
▁shoulder	-6094
▁steaming	-6095
▁stresses	-6096
▁whenever	-6097
▁advisable	-6098
▁continual	-6099
▁lightning	-6100
▁practical	-6101
▁solutions	-6102
▁battleship	-6103
▁sacrificed	-6104
▁successful	-6105
▁destination	-6106
▁discharging	-6107
▁distribution	-6108
."'	-6109
him	-6110
mun	-6111
▁cy	-6112
ding	-6113
esty	-6114
lled	-6115
nown	-6116
time	-6117
tled	-6118
▁190	-6119
▁195	-6120
▁196	-6121
▁Cle	-6122
▁Dev	-6123
▁Ged	-6124
▁Hag	-6125
▁Pol	-6126
▁Put	-6127
▁amb	-6128
Speak	-6129
aying	-6130
▁Amaz	-6131
▁Base	-6132
▁Jeph	-6133
▁SHIP	-6134
▁bird	-6135
▁blam	-6136
▁cran	-6137
▁crit	-6138
▁dise	-6139
▁lear	-6140
▁puri	-6141
attern	-6142
errors	-6143
fortun	-6144
▁Asaph	-6145
▁Korah	-6146
▁Sidon	-6147
▁aloft	-6148
▁democ	-6149
▁ephah	-6150
▁flame	-6151
▁looks	-6152
▁marry	-6153
▁rocks	-6154
▁seeks	-6155
▁tears	-6156
lephone	-6157
▁Elizab	-6158
▁Office	-6159
▁Rachel	-6160
▁applic	-6161
▁armies	-6162
▁consum	-6163
▁courts	-6164
▁deeper	-6165
▁desert	-6166
▁flying	-6167
▁hungry	-6168
▁trials	-6169
▁vapour	-6170
▁Usually	-6171
▁calling	-6172
▁consume	-6173
▁fenders	-6174
▁fishing	-6175
▁funnels	-6176
▁sixteen	-6177
▁variety	-6178
▁weights	-6179
quisition	-6180
▁Jehoiada	-6181
▁compared	-6182
▁eastward	-6183
▁innocent	-6184
▁Sometimes	-6185
▁formation	-6186
▁lampstand	-6187
▁municipal	-6188
▁protected	-6189
▁providing	-6190
▁acceptable	-6191
▁habitation	-6192
▁iniquities	-6193
▁observation	-6194
▁possibility	-6195
lt	-6196
1⁄2	-6197
bol	-6198
gra	-6199
▁4-	-6200
▁Fo	-6201
▁Ja	-6202
▁Oh	-6203
Give	-6204
imin	-6205
long	-6206
reck	-6207
ygen	-6208
▁Did	-6209
▁Fre	-6210
▁Jew	-6211
▁Tem	-6212
▁Yah	-6213
▁boy	-6214
▁job	-6215
▁opt	-6216
▁pan	-6217
aging	-6218
cepts	-6219
nment	-6220
opter	-6221
uxili	-6222
▁Caes	-6223
▁Gibe	-6224
▁Life	-6225
▁Line	-6226
▁Long	-6227
▁Over	-6228
▁Vari	-6229
▁cruc	-6230
▁defe	-6231
▁luff	-6232
▁push	-6233
ancial	-6234
decker	-6235
itical	-6236
lantic	-6237
stance	-6238
▁Boats	-6239
▁Three	-6240
▁envis	-6241
▁fired	-6242
▁hence	-6243
▁herds	-6244
▁knees	-6245
▁olive	-6246
▁persu	-6247
▁thigh	-6248
▁tubes	-6249
emption	-6250
jection	-6251
▁Intell	-6252
▁Prince	-6253
▁doings	-6254
▁dwells	-6255
▁laying	-6256
▁source	-6257
▁sphere	-6258
▁trough	-6259
▁ancient	-6260
▁belongs	-6261
▁consequ	-6262
▁counted	-6263
▁inquire	-6264
▁mixture	-6265
▁pendant	-6266
▁reverse	-6267
▁sextant	-6268
▁tackles	-6269
▁univers	-6270
▁warning	-6271
▁Analysis	-6272
▁adoption	-6273
▁becoming	-6274
▁bondserv	-6275
▁dismayed	-6276
▁extended	-6277
▁ordinary	-6278
▁promised	-6279
▁recovery	-6280
▁rejoiced	-6281
▁sanctify	-6282
▁suffered	-6283
▁turbines	-6284
▁blameless	-6285
▁destroyer	-6286
▁glorified	-6287
▁synagogue	-6288
▁threshing	-6289
▁torpedoes	-6290
▁vineyards	-6291
▁assistance	-6292
▁containing	-6293
▁visibility	-6294
▁description	-6295
▁characteristics	-6296
CD	-6297
rs	-6298
?'"	-6299
God	-6300
era	-6301
gun	-6302
izz	-6303
lex	-6304
unk	-6305
DMSO	-6306
with	-6307
▁Isn	-6308
▁Lot	-6309
▁Men	-6310
▁Use	-6311
▁dog	-6312
▁enj	-6313
▁glo	-6314
▁ore	-6315
▁rid	-6316
eraft	-6317
oline	-6318
osing	-6319
▁Gers	-6320
▁Gide	-6321
▁Turn	-6322
▁bold	-6323
▁coat	-6324
▁grom	-6325
▁nets	-6326
▁publ	-6327
▁quay	-6328
advant	-6329
encies	-6330
ilence	-6331
ounter	-6332
quired	-6333
▁Asher	-6334
▁Jebus	-6335
▁Judea	-6336
▁armor	-6337
▁cring	-6338
▁issue	-6339
▁price	-6340
▁risen	-6341
▁spinn	-6342
▁sworn	-6343
▁valor	-6344
▁weary	-6345
▁Altern	-6346
▁Gibeon	-6347
▁Kohath	-6348
▁Shimei	-6349
▁beaten	-6350
▁beauty	-6351
▁begged	-6352
▁couldn	-6353
▁funnel	-6354
▁groups	-6355
▁helped	-6356
▁hinged	-6357
▁indign	-6358
▁sexual	-6359
▁tucked	-6360
▁widely	-6361
▁wonder	-6362
ographic	-6363
▁condemn	-6364
▁convers	-6365
▁council	-6366
▁encoura	-6367
▁forming	-6368
▁gunwale	-6369
▁reading	-6370
▁skipper	-6371
▁Rehoboam	-6372
▁lowering	-6373
▁products	-6374
▁surfaces	-6375
▁unlikely	-6376
▁weighing	-6377
▁expressed	-6378
▁languages	-6379
▁relatives	-6380
▁Distributed	-6381
▁alternative	-6382
▁instruction	-6383
▁longitudinal	-6384
▁navigational	-6385
▁installations	-6386
(1	-6387
MC	-6388
uc	-6389
gar	-6390
hol	-6391
ids	-6392
wed	-6393
▁23	-6394
▁35	-6395
▁CH	-6396
▁Sa	-6397
▁cr	-6398
chit	-6399
flow	-6400
iner	-6401
lead	-6402
onto	-6403
pose	-6404
▁Att	-6405
▁Equ	-6406
▁Naz	-6407
▁fix	-6408
▁oak	-6409
▁sad	-6410
▁sow	-6411
achar	-6412
atory	-6413
cking	-6414
▁Gath	-6415
▁Head	-6416
▁Just	-6417
▁Kiri	-6418
▁arom	-6419
▁bell	-6420
▁forb	-6421
▁hind	-6422
▁lady	-6423
▁laws	-6424
▁oxen	-6425
▁pest	-6426
▁puts	-6427
▁tail	-6428
▁thro	-6429
▁Multi	-6430
▁bears	-6431
▁canal	-6432
▁deter	-6433
▁liken	-6434
▁lions	-6435
▁oblig	-6436
▁prior	-6437
▁spike	-6438
issions	-6439
vention	-6440
▁Gibeah	-6441
▁colour	-6442
▁contra	-6443
▁locker	-6444
▁punish	-6445
▁seized	-6446
▁stored	-6447
▁weapon	-6448
ological	-6449
▁African	-6450
▁Certain	-6451
▁devices	-6452
▁finally	-6453
▁granted	-6454
▁midship	-6455
▁offence	-6456
▁outward	-6457
▁precise	-6458
▁pumping	-6459
▁quality	-6460
▁spirits	-6461
▁steered	-6462
▁wounded	-6463
▁cleansed	-6464
▁enclosed	-6465
▁gladness	-6466
▁jealousy	-6467
▁liferaft	-6468
▁preserve	-6469
▁reducing	-6470
▁released	-6471
▁treasure	-6472
▁disadvant	-6473
▁extensive	-6474
▁presented	-6475
▁testified	-6476
▁designated	-6477
▁developing	-6478
▁prophesied	-6479
▁differences	-6480
▁revolutions	-6481
▁surrounding	-6482
▁respectively	-6483
▁resurrection	-6484
▁shipbuilding	-6485
ex	-6486
cal	-6487
ihon	-6488
mber	-6489
onze	-6490
rain	-6491
▁Ast	-6492
▁Rel	-6493
▁Sen	-6494
▁Tru	-6495
▁ban	-6496
▁dew	-6497
▁key	-6498
▁wha	-6499
aired	-6500
infor	-6501
▁Open	-6502
▁hail	-6503
▁helm	-6504
▁mild	-6505
▁ride	-6506
▁root	-6507
▁sink	-6508
▁tast	-6509
▁trun	-6510
▁wake	-6511
▁Balak	-6512
▁Gover	-6513
▁Place	-6514
▁Sarah	-6515
▁Zecha	-6516
▁aroma	-6517
▁chose	-6518
▁citiz	-6519
▁enjoy	-6520
▁faint	-6521
▁immor	-6522
▁joint	-6523
▁leaks	-6524
▁liner	-6525
▁magaz	-6526
▁plans	-6527
▁shout	-6528
▁spars	-6529
deckers	-6530
eration	-6531
lection	-6532
▁Contin	-6533
▁Victor	-6534
▁bronze	-6535
▁cranes	-6536
▁defile	-6537
▁dishon	-6538
▁finger	-6539
▁gained	-6540
▁really	-6541
▁rebuke	-6542
▁region	-6543
▁sealed	-6544
▁thorns	-6545
▁wheels	-6546
▁Constru	-6547
▁execute	-6548
▁feature	-6549
▁fifteen	-6550
▁million	-6551
▁nearest	-6552
▁pattern	-6553
▁planned	-6554
▁praises	-6555
▁primary	-6556
▁ratings	-6557
▁scatter	-6558
▁showing	-6559
▁teacher	-6560
▁thunder	-6561
▁Issachar	-6562
▁detailed	-6563
▁elements	-6564
▁informed	-6565
▁preached	-6566
▁recorded	-6567
▁supports	-6568
▁Zechariah	-6569
▁extending	-6570
▁inhabited	-6571
▁launching	-6572
▁processes	-6573
▁relations	-6574
▁strangers	-6575
▁substance	-6576
▁foreigners	-6577
▁pestilence	-6578
▁procedures	-6579
▁properties	-6580
▁rebellious	-6581
▁Engineering	-6582
▁independent	-6583
▁faithfulness	-6584
▁communications	-6585
ID	-6586
IV	-6587
eks	-6588
iam	-6589
sea	-6590
▁Av	-6591
▁DE	-6592
▁Ep	-6593
▁Zi	-6594
ager	-6595
ette	-6596
hort	-6597
nken	-6598
uous	-6599
▁Cut	-6600
▁Gun	-6601
▁bos	-6602
▁mud	-6603
aning	-6604
field	-6605
lines	-6606
mical	-6607
mouth	-6608
oning	-6609
pects	-6610
point	-6611
▁Barn	-6612
▁Dock	-6613
▁Fore	-6614
▁West	-6615
▁cult	-6616
▁hist	-6617
▁road	-6618
▁seem	-6619
▁sole	-6620
▁uses	-6621
rative	-6622
urpose	-6623
▁White	-6624
▁basin	-6625
▁davit	-6626
▁dried	-6627
▁memor	-6628
▁slide	-6629
▁stick	-6630
▁stuff	-6631
▁stumb	-6632
chitect	-6633
▁Listen	-6634
▁Object	-6635
▁consec	-6636
▁fender	-6637
▁liners	-6638
▁ninety	-6639
▁played	-6640
▁propos	-6641
▁refuse	-6642
▁veered	-6643
▁Channel	-6644
▁Special	-6645
▁complic	-6646
▁designs	-6647
▁discern	-6648
▁element	-6649
▁pursued	-6650
▁replace	-6651
▁slipped	-6652
▁statute	-6653
▁strange	-6654
▁trained	-6655
submarine	-6656
▁Terylene	-6657
▁bollards	-6658
▁channels	-6659
▁chemical	-6660
▁cleaning	-6661
▁relevant	-6662
▁automatic	-6663
▁companion	-6664
▁delegates	-6665
▁excessive	-6666
▁frequency	-6667
▁recovered	-6668
▁reflected	-6669
▁resulting	-6670
▁Department	-6671
▁assemblies	-6672
▁diligently	-6673
▁inspection	-6674
▁permission	-6675
▁horizontally	-6676
HT	-6677
UN	-6678
amb	-6679
pet	-6680
▁Up	-6681
cope	-6682
eles	-6683
lemn	-6684
rous	-6685
umes	-6686
▁Art	-6687
▁Del	-6688
▁fas	-6689
▁fur	-6690
▁haz	-6691
▁lep	-6692
▁lub	-6693
▁tie	-6694
earch	-6695
eline	-6696
erved	-6697
ounds	-6698
press	-6699
proof	-6700
ticle	-6701
while	-6702
▁Back	-6703
▁Fund	-6704
▁axis	-6705
▁bath	-6706
▁gaff	-6707
▁pled	-6708
▁seal	-6709
▁subd	-6710
▁warp	-6711
ources	-6712
▁Large	-6713
▁Ocean	-6714
▁appli	-6715
▁brief	-6716
▁cubic	-6717
▁cubit	-6718
▁knock	-6719
▁lamps	-6720
▁tides	-6721
▁walks	-6722
century	-6723
olution	-6724
▁Gilgal	-6725
▁Samson	-6726
▁affect	-6727
▁casual	-6728
▁eighth	-6729
▁ironcl	-6730
▁oxygen	-6731
▁preach	-6732
▁serves	-6733
▁shaped	-6734
nowledge	-6735
▁Benaiah	-6736
▁belayed	-6737
▁blowing	-6738
▁bondage	-6739
▁casting	-6740
▁chronic	-6741
▁closely	-6742
▁corrupt	-6743
▁despise	-6744
▁devoted	-6745
▁engaged	-6746
▁freedom	-6747
▁grieved	-6748
▁meaning	-6749
▁planted	-6750
▁reinfor	-6751
▁suction	-6752
▁timbers	-6753
▁Japanese	-6754
▁Modeling	-6755
▁Shemaiah	-6756
▁adultery	-6757
▁external	-6758
▁firemain	-6759
▁operator	-6760
▁outwards	-6761
▁pointing	-6762
▁prevents	-6763
▁quantity	-6764
▁survival	-6765
▁departure	-6766
▁excellent	-6767
▁judgments	-6768
▁oppressed	-6769
▁platforms	-6770
▁primarily	-6771
▁promotion	-6772
▁published	-6773
▁recommend	-6774
▁Government	-6775
▁consisting	-6776
▁fatherless	-6777
▁connections	-6778
▁legislative	-6779
▁traditional	-6780
.*	-6781
AP	-6782
LO	-6783
ani	-6784
bar	-6785
bit	-6786
rid	-6787
uit	-6788
▁45	-6789
back	-6790
ctic	-6791
icul	-6792
lded	-6793
lers	-6794
oing	-6795
rage	-6796
ynam	-6797
▁Aha	-6798
▁Ber	-6799
▁Hal	-6800
▁Lib	-6801
▁Nab	-6802
▁bom	-6803
▁dug	-6804
▁nur	-6805
Bring	-6806
acted	-6807
ading	-6808
ashes	-6809
eturn	-6810
maker	-6811
ories	-6812
riage	-6813
seven	-6814
uries	-6815
▁Ashe	-6816
▁Hesh	-6817
▁Mark	-6818
▁Sail	-6819
▁Seir	-6820
▁Wind	-6821
▁bill	-6822
▁crow	-6823
▁dogs	-6824
▁earn	-6825
▁heed	-6826
▁hurt	-6827
▁moor	-6828
▁pins	-6829
▁race	-6830
▁robe	-6831
▁semi	-6832
▁shed	-6833
▁talk	-6834
▁tied	-6835
Surely	-6836
chions	-6837
▁Sinai	-6838
▁adapt	-6839
▁ashes	-6840
▁eased	-6841
▁helps	-6842
▁lever	-6843
▁ponto	-6844
▁porch	-6845
▁relig	-6846
▁sheer	-6847
▁spent	-6848
▁strip	-6849
▁worse	-6850
uminium	-6851
▁Gideon	-6852
▁Heaven	-6853
▁assess	-6854
▁bilges	-6855
▁copper	-6856
▁corros	-6857
▁differ	-6858
▁eating	-6859
▁expect	-6860
▁famous	-6861
▁manned	-6862
▁marvel	-6863
▁medium	-6864
▁morale	-6865
▁pulled	-6866
▁radius	-6867
▁shores	-6868
▁strife	-6869
▁talked	-6870
▁thread	-6871
▁England	-6872
▁Sailing	-6873
▁drunken	-6874
▁equally	-6875
▁examine	-6876
▁leaders	-6877
▁liquids	-6878
▁overall	-6879
▁partial	-6880
▁provoke	-6881
▁upwards	-6882
▁Atlantic	-6883
▁entirely	-6884
▁possibly	-6885
▁probable	-6886
▁Interface	-6887
▁Simulator	-6888
▁deviation	-6889
▁movements	-6890
▁qualities	-6891
▁questions	-6892
▁spinnaker	-6893
▁calculated	-6894
▁helicopter	-6895
▁vertically	-6896
▁circumcised	-6897
▁temporarily	-6898
▁uncleanness	-6899
▁continuously	-6900
▁supplication	-6901
▁International	-6902
▁comparatively	-6903
▁perpendicular	-6904
UL	-6905
US	-6906
hai	-6907
que	-6908
▁Sy	-6909
MENT	-6910
airs	-6911
dent	-6912
hook	-6913
orne	-6914
▁12-	-6915
▁180	-6916
▁Jed	-6917
▁Ken	-6918
▁Tur	-6919
▁dig	-6920
▁pus	-6921
▁rus	-6922
▁vow	-6923
celer	-6924
gging	-6925
inals	-6926
itate	-6927
third	-6928
wheel	-6929
▁blew	-6930
▁bury	-6931
▁clay	-6932
▁lose	-6933
▁rect	-6934
▁reel	-6935
▁roof	-6936
▁tore	-6937
active	-6938
▁Arise	-6939
▁Blake	-6940
▁Power	-6941
▁Ramah	-6942
▁bolts	-6943
▁cords	-6944
▁drain	-6945
▁folly	-6946
▁gross	-6947
▁hired	-6948
▁nomin	-6949
▁vital	-6950
ificate	-6951
istered	-6952
▁Anchor	-6953
▁Barnab	-6954
▁Common	-6955
▁Hamath	-6956
▁Master	-6957
▁Merari	-6958
▁afford	-6959
▁begins	-6960
▁blades	-6961
▁closer	-6962
▁decide	-6963
▁detail	-6964
▁galley	-6965
▁humble	-6966
▁market	-6967
▁preced	-6968
▁retain	-6969
▁rubber	-6970
▁screen	-6971
▁sewing	-6972
▁slings	-6973
▁solemn	-6974
▁stages	-6975
▁thwart	-6976
▁Amaziah	-6977
▁Heshbon	-6978
▁bottoms	-6979
▁defined	-6980
▁display	-6981
▁dressed	-6982
▁dropped	-6983
▁equival	-6984
▁getting	-6985
▁lookout	-6986
▁majesty	-6987
▁profane	-6988
▁rudders	-6989
▁walking	-6990
▁Merchant	-6991
▁Research	-6992
▁Whatever	-6993
▁advanced	-6994
▁deceived	-6995
▁fruitful	-6996
▁merciful	-6997
▁modified	-6998
▁offshore	-6999
▁planking	-7000
▁rebelled	-7001
▁skillful	-7002
▁superior	-7003
▁cylinders	-7004
▁exception	-7005
▁permitted	-7006
▁satisfact	-7007
▁Canaanites	-7008
▁Electronic	-7009
▁chronicles	-7010
▁confounded	-7011
▁punishment	-7012
▁appointment	-7013
▁transmitted	-7014
▁Intelligence	-7015
▁possibilities	-7016
▁uncircumcised	-7017
On	-7018
ew	-7019
mo	-7020
ael	-7021
▁Du	-7022
fing	-7023
haim	-7024
hiah	-7025
oram	-7026
uish	-7027
west	-7028
▁Che	-7029
▁Ens	-7030
▁Flo	-7031
▁Hum	-7032
▁Kad	-7033
▁Mag	-7034
▁Squ	-7035
▁eun	-7036
▁mat	-7037
▁mus	-7038
▁pru	-7039
▁typ	-7040
esome	-7041
idity	-7042
itled	-7043
light	-7044
neath	-7045
reast	-7046
▁5000	-7047
▁Aust	-7048
▁Cale	-7049
▁Circ	-7050
▁Inst	-7051
▁Star	-7052
▁sust	-7053
action	-7054
anship	-7055
irable	-7056
ndered	-7057
ounder	-7058
▁Bring	-7059
▁barge	-7060
▁civil	-7061
▁delay	-7062
▁devil	-7063
▁drank	-7064
▁ended	-7065
▁fools	-7066
▁pairs	-7067
▁shake	-7068
▁simpl	-7069
▁split	-7070
▁steep	-7071
▁wages	-7072
▁Commit	-7073
▁Rights	-7074
▁afloat	-7075
▁betray	-7076
▁concub	-7077
▁contem	-7078
▁eunuch	-7079
▁exhort	-7080
▁impact	-7081
▁stated	-7082
▁winter	-7083
quarters	-7084
uxiliary	-7085
▁Current	-7086
▁Hittite	-7087
▁awesome	-7088
▁cutting	-7089
▁finding	-7090
▁municip	-7091
▁patient	-7092
▁roughly	-7093
▁seconds	-7094
▁shelter	-7095
▁silence	-7096
▁treated	-7097
▁tremble	-7098
▁turbine	-7099
▁visible	-7100
▁Security	-7101
▁Standard	-7102
▁believes	-7103
▁contrary	-7104
▁deterior	-7105
▁dredging	-7106
▁eighteen	-7107
▁entitled	-7108
▁gasoline	-7109
▁immersed	-7110
▁interval	-7111
▁lifebuoy	-7112
▁reaching	-7113
▁resulted	-7114
▁seaborne	-7115
▁adversary	-7116
▁anchorage	-7117
▁catamaran	-7118
▁crucified	-7119
▁customary	-7120
▁greatness	-7121
▁pollution	-7122
▁possessed	-7123
▁potential	-7124
▁survivors	-7125
▁Operations	-7126
▁discipline	-7127
▁inflatable	-7128
▁proclaimed	-7129
▁stanchions	-7130
▁surrounded	-7131
▁foundations	-7132
▁circumcision	-7133
▁municipality	-7134
▁prostitution	-7135
,5	-7136
KE	-7137
To	-7138
sk	-7139
uts	-7140
atab	-7141
elie	-7142
gall	-7143
haul	-7144
vous	-7145
weep	-7146
what	-7147
▁185	-7148
▁189	-7149
▁193	-7150
▁Dra	-7151
▁Maj	-7152
▁Old	-7153
▁Ser	-7154
▁avo	-7155
▁cli	-7156
▁cri	-7157
▁cus	-7158
▁mel	-7159
▁mol	-7160
These	-7161
adays	-7162
house	-7163
plain	-7164
stood	-7165
tribe	-7166
▁ABCD	-7167
▁Form	-7168
▁Norm	-7169
▁Type	-7170
▁agre	-7171
▁copy	-7172
▁sewn	-7173
▁sort	-7174
▁util	-7175
▁whis	-7176
ensity	-7177
pelled	-7178
solute	-7179
urally	-7180
▁Caleb	-7181
▁Sihon	-7182
▁beast	-7183
▁depos	-7184
▁drove	-7185
▁finds	-7186
▁greet	-7187
▁liber	-7188
▁purif	-7189
▁slips	-7190
▁stops	-7191
▁swung	-7192
▁terri	-7193
unities	-7194
versely	-7195
▁Mizpah	-7196
▁active	-7197
▁barrel	-7198
▁basket	-7199
▁ceased	-7200
▁conspi	-7201
▁fibres	-7202
▁grapes	-7203
▁growth	-7204
▁island	-7205
▁locust	-7206
▁manila	-7207
▁owners	-7208
▁partly	-7209
▁powder	-7210
▁scales	-7211
▁Austral	-7212
▁Kiriath	-7213
▁Similar	-7214
▁anguish	-7215
▁contend	-7216
▁elected	-7217
▁heights	-7218
▁injured	-7219
▁lashing	-7220
▁machine	-7221
▁meeting	-7222
▁private	-7223
▁shields	-7224
▁thereby	-7225
▁younger	-7226
▁existing	-7227
▁fourteen	-7228
▁gracious	-7229
▁likeness	-7230
▁overlaid	-7231
▁repaired	-7232
▁reversed	-7233
▁Jehoiakim	-7234
▁contained	-7235
▁creatures	-7236
▁ordinance	-7237
▁political	-7238
▁similarly	-7239
▁Integrated	-7240
▁accurately	-7241
▁equivalent	-7242
▁improvement	-7243
▁indignation	-7244
▁interesting	-7245
▁necessarily	-7246
▁athwartships	-7247
▁increasingly	-7248
▁installation	-7249
4)	-7250
],	-7251
cu	-7252
ESS	-7253
aws	-7254
cer	-7255
eng	-7256
mel	-7257
rog	-7258
▁27	-7259
▁Er	-7260
▁gy	-7261
IGHT	-7262
Most	-7263
ench	-7264
rers	-7265
uses	-7266
▁Cap	-7267
▁Ext	-7268
▁Nah	-7269
▁Run	-7270
▁Sav	-7271
▁bab	-7272
▁tun	-7273
hanan	-7274
icing	-7275
orter	-7276
plate	-7277
pling	-7278
ullam	-7279
umber	-7280
▁Area	-7281
▁Conf	-7282
▁Eval	-7283
▁Next	-7284
▁cave	-7285
▁deny	-7286
▁felt	-7287
▁hunt	-7288
▁inev	-7289
▁loop	-7290
▁murm	-7291
▁reed	-7292
▁shot	-7293
▁stub	-7294
▁valu	-7295
▁vows	-7296
giving	-7297
icians	-7298
pheric	-7299
▁1,000	-7300
▁Adoni	-7301
▁Hadad	-7302
▁categ	-7303
▁enlar	-7304
▁lords	-7305
▁ninth	-7306
▁patch	-7307
▁scope	-7308
Blessed	-7309
iveness	-7310
loading	-7311
purpose	-7312
▁Access	-7313
▁Combat	-7314
▁Philip	-7315
▁Volume	-7316
▁attain	-7317
▁cloths	-7318
▁convoy	-7319
▁dispos	-7320
▁flukes	-7321
▁lashed	-7322
▁liquef	-7323
▁molten	-7324
▁obeyed	-7325
▁shekel	-7326
▁wanted	-7327
▁arrival	-7328
▁cleared	-7329
▁decided	-7330
▁flowing	-7331
▁furnace	-7332
▁hurried	-7333
▁plastic	-7334
▁pointed	-7335
▁refused	-7336
▁reserve	-7337
▁testing	-7338
▁whereas	-7339
Therefore	-7340
▁Minister	-7341
▁Position	-7342
▁altitude	-7343
▁breakers	-7344
▁patience	-7345
▁personal	-7346
▁rational	-7347
▁repeated	-7348
▁restored	-7349
▁slipping	-7350
▁somewhat	-7351
▁Elizabeth	-7352
▁afterward	-7353
▁committee	-7354
▁corrosion	-7355
▁financial	-7356
▁grounding	-7357
▁lifelines	-7358
▁steadfast	-7359
▁trembling	-7360
▁astonished	-7361
▁management	-7362
▁originally	-7363
▁structural	-7364
▁Acquisition	-7365
▁accomplished	-7366
▁disadvantage	-7367
▁organization	-7368
▁transmission	-7369
5,	-7370
AY	-7371
IR	-7372
cur	-7373
eam	-7374
see	-7375
xes	-7376
▁3-	-7377
▁80	-7378
▁Hu	-7379
Have	-7380
Hear	-7381
ests	-7382
heba	-7383
hine	-7384
ists	-7385
ldom	-7386
rosy	-7387
▁120	-7388
▁Lad	-7389
▁Val	-7390
▁hyp	-7391
adiah	-7392
alled	-7393
arius	-7394
ciety	-7395
elson	-7396
ental	-7397
hered	-7398
otton	-7399
pense	-7400
uracy	-7401
veloc	-7402
venue	-7403
▁Equi	-7404
▁Merc	-7405
▁asce	-7406
▁calf	-7407
▁card	-7408
▁coal	-7409
▁code	-7410
▁gast	-7411
▁gets	-7412
▁harp	-7413
▁host	-7414
▁lame	-7415
▁maid	-7416
▁tall	-7417
ctures	-7418
seless	-7419
▁ammun	-7420
▁anten	-7421
▁bases	-7422
▁calam	-7423
▁curve	-7424
▁defin	-7425
▁diver	-7426
▁grave	-7427
▁guilt	-7428
▁shank	-7429
▁stack	-7430
▁stays	-7431
▁teles	-7432
athemat	-7433
▁barley	-7434
▁effort	-7435
▁elimin	-7436
▁facing	-7437
▁fasten	-7438
▁loaves	-7439
▁parent	-7440
▁pumped	-7441
▁scient	-7442
▁shaken	-7443
standing	-7444
▁Ahaziah	-7445
▁America	-7446
▁Western	-7447
▁address	-7448
▁cleanse	-7449
▁compens	-7450
▁facilit	-7451
▁grommet	-7452
▁humbled	-7453
▁leprosy	-7454
▁marking	-7455
▁missile	-7456
▁prevail	-7457
▁promote	-7458
▁reports	-7459
▁serpent	-7460
▁shorter	-7461
▁singing	-7462
▁strikes	-7463
▁tension	-7464
▁voyages	-7465
▁withdra	-7466
ultaneous	-7467
▁changing	-7468
▁cylinder	-7469
▁evidence	-7470
▁frequent	-7471
▁overtake	-7472
▁soldiers	-7473
▁tactical	-7474
▁Transport	-7475
▁amendment	-7476
▁comforted	-7477
▁interests	-7478
▁longitude	-7479
▁objective	-7480
▁prevailed	-7481
▁uncovered	-7482
fortunately	-7483
▁Evaluation	-7484
▁alteration	-7485
▁ammunition	-7486
▁appliances	-7487
▁economical	-7488
▁underneath	-7489
▁recommended	-7490
▁transported	-7491
▁introduction	-7492
▁communication	-7493
▁corresponding	-7494
▁distinguished	-7495
.2	-7496
1,	-7497
8,	-7498
BO	-7499
CE	-7500
AGE	-7501
Yes	-7502
bur	-7503
pin	-7504
▁Sl	-7505
body	-7506
lets	-7507
lose	-7508
oved	-7509
rail	-7510
▁150	-7511
▁300	-7512
▁FOR	-7513
▁Jut	-7514
▁Pub	-7515
▁Unt	-7516
▁ack	-7517
▁ant	-7518
▁gap	-7519
▁sug	-7520
▁sus	-7521
▁ver	-7522
Arise	-7523
after	-7524
allet	-7525
atell	-7526
imuth	-7527
▁Care	-7528
▁Dest	-7529
▁Exam	-7530
▁Leah	-7531
▁Maac	-7532
▁Mean	-7533
▁Moon	-7534
▁Obed	-7535
▁amaz	-7536
▁burd	-7537
▁cand	-7538
▁docu	-7539
▁grip	-7540
▁hasn	-7541
▁heap	-7542
▁herd	-7543
▁note	-7544
▁rese	-7545
▁week	-7546
▁wish	-7547
spring	-7548
tended	-7549
urious	-7550
ynamic	-7551
▁Beers	-7552
▁Broad	-7553
▁Chair	-7554
▁Greet	-7555
▁Jonah	-7556
▁Sheba	-7557
▁Shilo	-7558
▁Uriah	-7559
▁chast	-7560
▁compl	-7561
▁const	-7562
▁minor	-7563
▁moist	-7564
▁ninet	-7565
▁repay	-7566
▁rigid	-7567
▁swift	-7568
▁wreck	-7569
▁attend	-7570
▁beacon	-7571
▁curved	-7572
▁defect	-7573
▁embark	-7574
▁hooked	-7575
▁inward	-7576
▁nobles	-7577
▁planks	-7578
▁plenty	-7579
▁pursue	-7580
▁rolled	-7581
▁street	-7582
▁superv	-7583
cruisers	-7584
▁Speaker	-7585
▁aground	-7586
▁antenna	-7587
▁bridles	-7588
▁efforts	-7589
▁express	-7590
▁fashion	-7591
▁hanging	-7592
▁history	-7593
▁prolong	-7594
▁resting	-7595
▁sending	-7596
▁singers	-7597
▁stopper	-7598
▁suggest	-7599
▁trimmed	-7600
▁warfare	-7601
▁workers	-7602
▁executed	-7603
▁goodness	-7604
▁hardened	-7605
▁mathemat	-7606
▁midnight	-7607
▁survived	-7608
▁treacher	-7609
stitutions	-7610
▁Beersheba	-7611
▁Equipment	-7612
▁democracy	-7613
▁insurance	-7614
▁prevented	-7615
▁threshold	-7616
▁Philistine	-7617
▁eventually	-7618
▁reasonably	-7619
▁technology	-7620
▁Dreadnought	-7621
▁effectively	-7622
▁concentrated	-7623
40	-7624
Te	-7625
acy	-7626
aly	-7627
lst	-7628
▁3.	-7629
bone	-7630
gran	-7631
phan	-7632
raul	-7633
rier	-7634
tees	-7635
thed	-7636
umph	-7637
▁201	-7638
▁Bes	-7639
▁Day	-7640
▁Fin	-7641
▁Jab	-7642
▁Ref	-7643
▁Whe	-7644
▁adm	-7645
▁unp	-7646
eterm	-7647
known	-7648
lying	-7649
uzzle	-7650
which	-7651
▁Ahit	-7652
▁Does	-7653
▁Tars	-7654
▁brow	-7655
▁fart	-7656
▁gent	-7657
▁mesh	-7658
▁sens	-7659
▁trip	-7660
▁void	-7661
▁Micah	-7662
▁Space	-7663
▁aloud	-7664
▁begun	-7665
▁besie	-7666
▁burns	-7667
▁chafe	-7668
▁corru	-7669
▁enorm	-7670
▁rafts	-7671
▁relie	-7672
▁resid	-7673
▁seats	-7674
▁share	-7675
▁slung	-7676
▁smell	-7677
▁thumb	-7678
▁truly	-7679
▁veloc	-7680
▁Abisha	-7681
▁Develo	-7682
▁Shiloh	-7683
▁advice	-7684
▁arises	-7685
▁bolted	-7686
▁drogue	-7687
▁seldom	-7688
▁shafts	-7689
▁sloops	-7690
▁spices	-7691
▁summon	-7692
▁trades	-7693
▁Members	-7694
▁abreast	-7695
▁berthed	-7696
▁bridges	-7697
▁causing	-7698
▁earlier	-7699
▁earnest	-7700
▁entreat	-7701
▁expense	-7702
▁hydraul	-7703
▁ladders	-7704
▁pierced	-7705
▁profess	-7706
▁reduces	-7707
▁shipown	-7708
▁stepped	-7709
▁sunrise	-7710
ufficient	-7711
▁backward	-7712
▁confused	-7713
▁drifting	-7714
▁foremost	-7715
▁fortress	-7716
▁inclined	-7717
▁occupied	-7718
▁sounding	-7719
▁tropical	-7720
chitecture	-7721
ifications	-7722
▁Canaanite	-7723
▁Committee	-7724
▁framework	-7725
▁secondary	-7726
▁spreading	-7727
▁universal	-7728
▁virtually	-7729
▁constantly	-7730
▁immorality	-7731
▁preferable	-7732
▁developments	-7733
▁simultaneous	-7734
▁thanksgiving	-7735
▁transporting	-7736
.1	-7737
9,	-7738
By	-7739
TH	-7740
oa	-7741
ARD	-7742
Are	-7743
Get	-7744
ama	-7745
bab	-7746
lon	-7747
och	-7748
oll	-7749
ool	-7750
reg	-7751
▁7-	-7752
▁MA	-7753
▁Tw	-7754
▁ze	-7755
LING	-7756
adel	-7757
conn	-7758
free	-7759
ften	-7760
hiop	-7761
ilah	-7762
oday	-7763
onia	-7764
otes	-7765
pass	-7766
post	-7767
rior	-7768
that	-7769
▁Hus	-7770
▁Inf	-7771
▁Mid	-7772
▁Reb	-7773
▁Wat	-7774
▁anx	-7775
▁asc	-7776
▁ere	-7777
▁hin	-7778
▁tos	-7779
heads	-7780
itage	-7781
▁Init	-7782
▁Lamb	-7783
▁Look	-7784
▁Mine	-7785
▁Orig	-7786
▁Tell	-7787
▁conj	-7788
▁dung	-7789
▁imag	-7790
▁isol	-7791
▁misc	-7792
▁pity	-7793
▁pome	-7794
▁scut	-7795
▁trav	-7796
▁wasn	-7797
ilkiah	-7798
parted	-7799
rained	-7800
vation	-7801
▁Apart	-7802
▁Cable	-7803
▁Cargo	-7804
▁abhor	-7805
▁bower	-7806
▁claim	-7807
▁hates	-7808
▁layer	-7809
▁opens	-7810
▁pursu	-7811
▁toler	-7812
atabase	-7813
▁Effect	-7814
▁Ethiop	-7815
▁Others	-7816
▁Savior	-7817
▁absent	-7818
▁becket	-7819
▁chiefs	-7820
▁coiled	-7821
▁eleven	-7822
▁feasts	-7823
▁hardly	-7824
▁memory	-7825
▁origin	-7826
▁sheath	-7827
▁sheets	-7828
▁waited	-7829
▁Article	-7830
▁Jutland	-7831
▁acceler	-7832
▁afflict	-7833
▁balance	-7834
▁breasts	-7835
▁combust	-7836
▁courage	-7837
▁cushion	-7838
▁ferries	-7839
▁gangway	-7840
▁pressed	-7841
▁removal	-7842
▁seeking	-7843
▁sinking	-7844
▁strakes	-7845
▁tribute	-7846
▁typical	-7847
▁violent	-7848
▁Consider	-7849
▁Egyptian	-7850
▁accuracy	-7851
▁activity	-7852
▁calamity	-7853
▁contains	-7854
▁directed	-7855
▁disciple	-7856
▁gastight	-7857
▁glorious	-7858
▁heritage	-7859
▁incorpor	-7860
▁lifeboat	-7861
▁location	-7862
▁memorial	-7863
▁moreover	-7864
▁pitching	-7865
▁pivoting	-7866
▁pomegran	-7867
▁secretly	-7868
▁squadron	-7869
▁sternway	-7870
▁variable	-7871
▁Standards	-7872
▁abandoned	-7873
▁aluminium	-7874
▁component	-7875
▁readiness	-7876
▁regarding	-7877
▁shoulders	-7878
▁swallowed	-7879
▁automation	-7880
▁commercial	-7881
▁complement	-7882
▁connecting	-7883
▁conscience	-7884
▁resolution	-7885
▁undertaken	-7886
▁Regulations	-7887
▁accommodate	-7888
▁accompanied	-7889
▁possessions	-7890
▁observations	-7891
▁constitutional	-7892
6,	-7893
LA	-7894
eu	-7895
IRE	-7896
eve	-7897
kel	-7898
mah	-7899
ont	-7900
zed	-7901
▁SP	-7902
▁cu	-7903
."'"	-7904
IEEE	-7905
erus	-7906
hall	-7907
iece	-7908
phem	-7909
thah	-7910
type	-7911
wide	-7912
▁192	-7913
▁Add	-7914
▁Aug	-7915
▁CON	-7916
▁Ent	-7917
▁Jot	-7918
▁Ked	-7919
▁Nun	-7920
▁Pan	-7921
▁dun	-7922
▁eag	-7923
▁fet	-7924
▁unw	-7925
athar	-7926
clock	-7927
iling	-7928
ingle	-7929
ports	-7930
pters	-7931
reign	-7932
▁1960	-7933
▁Batt	-7934
▁Herm	-7935
▁Iron	-7936
▁Sham	-7937
▁Work	-7938
▁alco	-7939
▁figs	-7940
▁myst	-7941
▁peak	-7942
▁rene	-7943
▁sear	-7944
▁sown	-7945
▁spro	-7946
▁team	-7947
▁worm	-7948
▁zone	-7949
angers	-7950
orther	-7951
vettes	-7952
▁Joram	-7953
▁Later	-7954
▁arrow	-7955
▁aware	-7956
▁bathe	-7957
▁chair	-7958
▁climb	-7959
▁cloak	-7960
▁jewel	-7961
▁kills	-7962
▁lifes	-7963
▁recon	-7964
▁remed	-7965
▁sched	-7966
▁shine	-7967
▁spind	-7968
▁surge	-7969
Whoever	-7970
iculars	-7971
ocation	-7972
▁Arabah	-7973
▁Baltic	-7974
▁Nethan	-7975
▁bearer	-7976
▁scroll	-7977
▁whilst	-7978
ondition	-7979
▁Rebekah	-7980
▁Support	-7981
▁amended	-7982
▁blasphe	-7983
▁conform	-7984
▁cringle	-7985
▁extends	-7986
▁fulfill	-7987
▁readily	-7988
▁visited	-7989
▁wrought	-7990
▁Abiathar	-7991
▁Jephthah	-7992
▁Training	-7993
▁Whenever	-7994
▁allowing	-7995
▁captives	-7996
▁compress	-7997
▁concrete	-7998
▁enormous	-7999
▁harbours	-8000
▁hundreds	-8001
▁mounting	-8002
▁profaned	-8003
▁reckoned	-8004
▁removing	-8005
▁severely	-8006
▁sickness	-8007
▁sprinkle	-8008
▁strongly	-8009
▁troubles	-8010
▁Scripture	-8011
▁allocated	-8012
▁clockwise	-8013
▁condemned	-8014
▁confident	-8015
▁fifteenth	-8016
▁obtaining	-8017
▁propelled	-8018
▁proposals	-8019
▁regularly	-8020
▁spiritual	-8021
▁submitted	-8022
▁abundantly	-8023
▁commanding	-8024
▁committees	-8025
▁companions	-8026
▁expression	-8027
▁preventing	-8028
▁scientific	-8029
▁structures	-8030
▁understood	-8031
▁Interactive	-8032
▁complicated	-8033
▁specifically	-8034
▁representation	-8035
2,	-8036
IM	-8037
che	-8038
def	-8039
hum	-8040
ino	-8041
kam	-8042
uly	-8043
▁4.	-8044
▁Di	-8045
▁Hy	-8046
▁RO	-8047
▁XO	-8048
aved	-8049
bors	-8050
isal	-8051
lict	-8052
omen	-8053
prit	-8054
ussi	-8055
▁Bra	-8056
▁Dem	-8057
▁Far	-8058
▁Gom	-8059
▁Hur	-8060
▁Low	-8061
▁pha	-8062
▁suc	-8063
▁wra	-8064
estic	-8065
iable	-8066
ottom	-8067
pered	-8068
rants	-8069
rying	-8070
shack	-8071
staff	-8072
thern	-8073
ulner	-8074
veled	-8075
▁Pole	-8076
▁Said	-8077
▁alto	-8078
▁bunk	-8079
▁clew	-8080
▁gene	-8081
▁mute	-8082
▁nose	-8083
▁rear	-8084
▁ruin	-8085
▁wand	-8086
▁whir	-8087
angles	-8088
edient	-8089
master	-8090
osheth	-8091
suerus	-8092
umping	-8093
▁Judas	-8094
▁Often	-8095
▁Union	-8096
▁abeam	-8097
▁backs	-8098
▁bands	-8099
▁blown	-8100
▁bosom	-8101
▁burst	-8102
▁clove	-8103
▁condu	-8104
▁disem	-8105
▁flows	-8106
▁hypoc	-8107
▁ideas	-8108
▁imple	-8109
▁initi	-8110
▁males	-8111
▁murde	-8112
▁rides	-8113
▁swept	-8114
▁tempt	-8115
▁thank	-8116
keeping	-8117
loaders	-8118
raction	-8119
retched	-8120
▁Author	-8121
▁Carmel	-8122
▁Hebrew	-8123
▁Jeshua	-8124
▁Safety	-8125
▁Uzziah	-8126
▁couple	-8127
▁drives	-8128
▁endure	-8129
▁errors	-8130
▁hazard	-8131
▁lubric	-8132
▁mallet	-8133
▁models	-8134
▁motors	-8135
▁muster	-8136
▁nearer	-8137
▁saving	-8138
▁select	-8139
▁termed	-8140
▁window	-8141
aircraft	-8142
▁Between	-8143
▁Gershon	-8144
▁Hilkiah	-8145
▁Shaphan	-8146
▁admiral	-8147
▁attract	-8148
▁closing	-8149
▁distant	-8150
▁dragged	-8151
▁elastic	-8152
▁imposed	-8153
▁instant	-8154
▁nettles	-8155
▁pasture	-8156
▁stowing	-8157
▁succeed	-8158
▁tapered	-8159
▁tucking	-8160
▁unbelie	-8161
▁useless	-8162
▁Barnabas	-8163
▁European	-8164
▁Hananiah	-8165
▁Military	-8166
▁Ministry	-8167
▁altering	-8168
▁attitude	-8169
▁controls	-8170
▁creature	-8171
▁disaster	-8172
▁earliest	-8173
▁flashing	-8174
▁grievous	-8175
▁halyards	-8176
▁inquired	-8177
▁instance	-8178
▁lifeline	-8179
▁marriage	-8180
▁occurred	-8181
▁proposed	-8182
▁splicing	-8183
▁sprocket	-8184
▁westward	-8185
▁Ahasuerus	-8186
▁batteries	-8187
▁clearance	-8188
▁confusion	-8189
▁dependent	-8190
▁detection	-8191
▁discussed	-8192
▁explosive	-8193
▁generated	-8194
▁gradually	-8195
▁obviously	-8196
▁programme	-8197
▁resources	-8198
▁telephone	-8199
▁altogether	-8200
▁comparison	-8201
▁consistent	-8202
▁lifesaving	-8203
▁subsequent	-8204
▁illustrated	-8205
▁quarterdeck	-8206
▁seventeenth	-8207
▁intermediate	-8208
▁consideration	-8209
▁extinguishers	-8210
▁administrative	-8211
no	-8212
⁄4	-8213
ERS	-8214
iii	-8215
ugg	-8216
▁36	-8217
▁8-	-8218
▁lb	-8219
Tell	-8220
asha	-8221
book	-8222
bove	-8223
cked	-8224
iram	-8225
keep	-8226
onic	-8227
ouse	-8228
pite	-8229
rong	-8230
tion	-8231
vior	-8232
▁(4)	-8233
▁179	-8234
▁Bre	-8235
▁Fed	-8236
▁Lat	-8237
▁Tob	-8238
▁dip	-8239
▁dom	-8240
▁ora	-8241
▁uns	-8242
▁upp	-8243
angle	-8244
ceans	-8245
erves	-8246
icate	-8247
otted	-8248
rinks	-8249
rites	-8250
speed	-8251
vings	-8252
▁Bear	-8253
▁Call	-8254
▁Coll	-8255
▁Elam	-8256
▁Rope	-8257
▁Rule	-8258
▁Sove	-8259
▁True	-8260
▁afar	-8261
▁bitt	-8262
▁cred	-8263
▁debt	-8264
▁doub	-8265
▁fans	-8266
▁gale	-8267
▁gras	-8268
▁impl	-8269
▁kick	-8270
▁pool	-8271
▁sank	-8272
▁unne	-8273
▁wool	-8274
attery	-8275
istant	-8276
mented	-8277
otting	-8278
rusted	-8279
▁Above	-8280
▁Amnon	-8281
▁Human	-8282
▁Langu	-8283
▁Russi	-8284
▁Tamar	-8285
▁Until	-8286
▁Zerah	-8287
▁alarm	-8288
▁grows	-8289
▁heels	-8290
▁hoses	-8291
▁ideal	-8292
▁medic	-8293
▁spend	-8294
▁weeks	-8295
riented	-8296
rolling	-8297
▁Abijah	-8298
▁Arctic	-8299
▁Caesar	-8300
▁Design	-8301
▁Kadesh	-8302
▁Marine	-8303
▁Portug	-8304
▁agreed	-8305
▁assume	-8306
▁cleats	-8307
▁crying	-8308
▁diagon	-8309
▁estate	-8310
▁floats	-8311
▁forged	-8312
▁icebre	-8313
▁labour	-8314
▁mirror	-8315
▁nearby	-8316
▁paddle	-8317
▁palace	-8318
▁perpet	-8319
▁poison	-8320
▁police	-8321
▁remote	-8322
▁signed	-8323
▁starts	-8324
▁tended	-8325
▁widows	-8326
▁Horizon	-8327
▁Italian	-8328
▁Warrior	-8329
▁bracket	-8330
▁content	-8331
▁driving	-8332
▁encount	-8333
▁ensures	-8334
▁gathers	-8335
▁glorify	-8336
▁harness	-8337
▁inshore	-8338
▁invited	-8339
▁lanyard	-8340
▁plucked	-8341
▁screwed	-8342
▁thirsty	-8343
▁vacancy	-8344
▁valleys	-8345
▁wearing	-8346
▁Administ	-8347
▁Director	-8348
▁benefits	-8349
▁blasphem	-8350
▁commonly	-8351
▁enlarged	-8352
▁estimate	-8353
▁examples	-8354
▁portions	-8355
▁precepts	-8356
▁presents	-8357
▁relation	-8358
▁rendered	-8359
▁unnecess	-8360
▁velocity	-8361
▁watching	-8362
▁Automated	-8363
▁anointing	-8364
▁auxiliary	-8365
▁companies	-8366
▁currently	-8367
▁dedicated	-8368
▁desirable	-8369
▁honorable	-8370
▁naturally	-8371
▁partially	-8372
▁perceived	-8373
▁receiving	-8374
▁applicable	-8375
▁completion	-8376
▁compressed	-8377
▁employment	-8378
▁fourteenth	-8379
▁indicating	-8380
▁indication	-8381
▁separation	-8382
▁appreciable	-8383
▁conjunction	-8384
▁electricity	-8385
▁maintaining	-8386
▁manufacture	-8387
▁satisfactory	-8388
▁unrighteousness	-8389
7,	-8390
AD	-8391
An	-8392
RU	-8393
ni	-8394
rm	-8395
ta	-8396
”.	-8397
Isn	-8398
fol	-8399
god	-8400
hud	-8401
hur	-8402
ina	-8403
oah	-8404
zen	-8405
▁(5	-8406
▁90	-8407
▁Gl	-8408
ANDF	-8409
acia	-8410
anah	-8411
aret	-8412
cass	-8413
ctim	-8414
dles	-8415
gent	-8416
gins	-8417
rite	-8418
viet	-8419
wall	-8420
xide	-8421
▁198	-8422
▁Dec	-8423
▁Get	-8424
▁Lay	-8425
▁Rig	-8426
▁Zib	-8427
▁gle	-8428
▁han	-8429
CTION	-8430
arded	-8431
erate	-8432
groom	-8433
iders	-8434
remon	-8435
venth	-8436
▁1860	-8437
▁Boaz	-8438
▁Book	-8439
▁Ezra	-8440
▁Four	-8441
▁None	-8442
▁Wire	-8443
▁Word	-8444
▁ampl	-8445
▁bowl	-8446
▁flax	-8447
▁idol	-8448
▁loft	-8449
▁opin	-8450
▁scor	-8451
▁span	-8452
ansion	-8453
coming	-8454
nament	-8455
worthy	-8456
▁2,000	-8457
▁Frequ	-8458
▁Green	-8459
▁Maced	-8460
▁Organ	-8461
▁Phine	-8462
▁Point	-8463
▁alien	-8464
▁elder	-8465
▁input	-8466
▁lodge	-8467
▁predi	-8468
▁shoes	-8469
▁steal	-8470
Teacher	-8471
ections	-8472
pounder	-8473
▁August	-8474
▁Baasha	-8475
▁Levite	-8476
▁Persia	-8477
▁Soviet	-8478
▁United	-8479
▁acacia	-8480
▁affirm	-8481
▁bulwar	-8482
▁clothe	-8483
▁failed	-8484
▁margin	-8485
▁muzzle	-8486
▁oceans	-8487
▁roller	-8488
▁switch	-8489
▁victim	-8490
▁vulner	-8491
▁Instead	-8492
▁Through	-8493
▁chafing	-8494
▁enacted	-8495
▁eunuchs	-8496
▁failure	-8497
▁interfe	-8498
▁mercies	-8499
▁percent	-8500
▁popular	-8501
▁racking	-8502
▁rebuked	-8503
▁residue	-8504
▁stirred	-8505
▁swallow	-8506
▁topping	-8507
▁transom	-8508
▁twisted	-8509
▁visions	-8510
abilities	-8511
▁Jebusite	-8512
▁Language	-8513
▁Sabbaths	-8514
▁Tarshish	-8515
▁belonged	-8516
▁contract	-8517
▁examined	-8518
▁fairlead	-8519
▁perverse	-8520
▁reliable	-8521
▁withered	-8522
sibilities	-8523
▁commander	-8524
▁consisted	-8525
▁downwards	-8526
▁exercised	-8527
▁hydraulic	-8528
▁magazines	-8529
▁mechanism	-8530
▁nominated	-8531
▁northward	-8532
▁qualified	-8533
▁sixteenth	-8534
▁sprinkled	-8535
▁uppermost	-8536
▁Instrument	-8537
▁bridegroom	-8538
▁experiment	-8539
▁functional	-8540
▁inhabitant	-8541
▁processing	-8542
▁projecting	-8543
▁pronounced	-8544
▁prosperity	-8545
▁breastplate	-8546
▁consumption	-8547
▁determining	-8548
▁efficiently	-8549
▁encountered	-8550
▁Architecture	-8551
▁institutions	-8552
PP	-8553
▁&	-8554
(1)	-8555
ETT	-8556
igs	-8557
ppa	-8558
sur	-8559
▁1,	-8560
abil	-8561
abor	-8562
amed	-8563
appe	-8564
arim	-8565
ault	-8566
bulk	-8567
itor	-8568
ller	-8569
neys	-8570
phel	-8571
plex	-8572
stic	-8573
uese	-8574
▁000	-8575
▁188	-8576
▁400	-8577
▁DOs	-8578
▁Esh	-8579
▁Loc	-8580
▁Mac	-8581
▁Mis	-8582
▁Pen	-8583
▁USA	-8584
▁gau	-8585
▁sam	-8586
▁tum	-8587
cribe	-8588
hetic	-8589
inary	-8590
iture	-8591
pipes	-8592
uming	-8593
urion	-8594
▁Adam	-8595
▁Kish	-8596
▁Mach	-8597
▁Naam	-8598
▁answ	-8599
▁cask	-8600
▁dawn	-8601
▁deed	-8602
▁fund	-8603
▁lots	-8604
▁plus	-8605
▁site	-8606
▁volt	-8607
ground	-8608
iently	-8609
loaded	-8610
melech	-8611
ortion	-8612
rother	-8613
▁Being	-8614
▁Greek	-8615
▁Haven	-8616
▁Press	-8617
▁Seven	-8618
▁belly	-8619
▁cakes	-8620
▁covet	-8621
▁evild	-8622
▁filth	-8623
▁flash	-8624
▁foils	-8625
▁habit	-8626
▁haste	-8627
▁ignor	-8628
▁knife	-8629
▁sisal	-8630
▁slugg	-8631
▁spite	-8632
▁suspe	-8633
▁taste	-8634
▁tiers	-8635
▁tools	-8636
▁trunk	-8637
turning	-8638
▁Baruch	-8639
▁Edward	-8640
▁Forces	-8641
▁abound	-8642
▁behavi	-8643
▁encamp	-8644
▁enters	-8645
▁escort	-8646
▁guided	-8647
▁hanged	-8648
▁jewels	-8649
▁kissed	-8650
▁lovers	-8651
▁patrol	-8652
▁pulpit	-8653
▁rounds	-8654
▁seemed	-8655
▁shells	-8656
▁spaced	-8657
▁throat	-8658
▁wholly	-8659
▁yawing	-8660
▁Beloved	-8661
▁Running	-8662
▁Shallum	-8663
▁Whereas	-8664
▁Without	-8665
▁adverse	-8666
▁alcohol	-8667
▁battens	-8668
▁bending	-8669
▁bowline	-8670
▁buoyant	-8671
▁complex	-8672
▁conning	-8673
▁cooling	-8674
▁crossed	-8675
▁defects	-8676
▁descend	-8677
▁differs	-8678
▁disease	-8679
▁falsely	-8680
▁painter	-8681
▁palaces	-8682
▁plagues	-8683
▁plunder	-8684
▁swimmer	-8685
▁tightly	-8686
▁transit	-8687
▁uncover	-8688
▁winches	-8689
▁wrapped	-8690
▁Contrast	-8691
▁Gedaliah	-8692
▁bulwarks	-8693
▁captured	-8694
▁creeping	-8695
▁crossing	-8696
▁dragging	-8697
▁endanger	-8698
▁fullness	-8699
▁involves	-8700
▁markings	-8701
▁marveled	-8702
▁perished	-8703
▁planning	-8704
▁righting	-8705
▁stringed	-8706
▁stripped	-8707
▁Macedonia	-8708
▁Ministers	-8709
▁Sovereign	-8710
▁ascertain	-8711
▁deceitful	-8712
▁encounter	-8713
▁liferafts	-8714
▁marvelous	-8715
▁obedience	-8716
▁preaching	-8717
▁southward	-8718
▁stumbling	-8719
▁suspended	-8720
▁uttermost	-8721
▁combustion	-8722
▁conversion	-8723
▁distressed	-8724
▁horsepower	-8725
▁respective	-8726
▁Development	-8727
▁certificate	-8728
▁functioning	-8729
▁lamentation	-8730
▁lifejackets	-8731
▁obstruction	-8732
▁replacement	-8733
▁Alternatively	-8734
▁concentration	-8735
▁simultaneously	-8736
AB	-8737
Oh	-8738
SE	-8739
Un	-8740
].	-8741
oz	-8742
wl	-8743
cul	-8744
ias	-8745
run	-8746
top	-8747
uge	-8748
▁5.	-8749
▁6.	-8750
▁LO	-8751
▁La	-8752
▁PO	-8753
avel	-8754
east	-8755
eria	-8756
just	-8757
nine	-8758
oman	-8759
rift	-8760
rove	-8761
ulse	-8762
unne	-8763
will	-8764
zero	-8765
▁Ach	-8766
▁Hiv	-8767
▁Hos	-8768
▁Mah	-8769
▁Ner	-8770
▁Pet	-8771
▁Six	-8772
▁Tir	-8773
▁hun	-8774
▁sel	-8775
▁twe	-8776
▁woe	-8777
eries	-8778
osure	-8779
sight	-8780
▁CHAP	-8781
▁Didn	-8782
▁List	-8783
▁Mast	-8784
▁Mesh	-8785
▁Rout	-8786
▁Stra	-8787
▁Town	-8788
▁Zeru	-8789
▁bomb	-8790
▁hamm	-8791
▁heir	-8792
▁lash	-8793
▁rods	-8794
▁seag	-8795
▁spun	-8796
▁zero	-8797
IATION	-8798
ainted	-8799
isance	-8800
itably	-8801
itches	-8802
izings	-8803
makers	-8804
rigged	-8805
▁Appro	-8806
▁Arnon	-8807
▁Cruis	-8808
▁Eight	-8809
▁Exper	-8810
▁Super	-8811
▁bowls	-8812
▁cheer	-8813
▁chest	-8814
▁coils	-8815
▁laced	-8816
▁ramps	-8817
▁thief	-8818
▁tombs	-8819
▁tramp	-8820
▁twent	-8821
amation	-8822
diction	-8823
ickness	-8824
mission	-8825
orthern	-8826
viation	-8827
▁Course	-8828
▁Jotham	-8829
▁Maacah	-8830
▁Nelson	-8831
▁Return	-8832
▁Single	-8833
▁States	-8834
▁amazed	-8835
▁annual	-8836
▁assign	-8837
▁attrib	-8838
▁basins	-8839
▁bigger	-8840
▁candid	-8841
▁combat	-8842
▁cotton	-8843
▁cradle	-8844
▁exists	-8845
▁favour	-8846
▁flower	-8847
▁forbid	-8848
▁geneal	-8849
▁hangar	-8850
▁harbor	-8851
▁invent	-8852
▁overse	-8853
▁petrol	-8854
▁pounds	-8855
▁prompt	-8856
▁prover	-8857
▁recent	-8858
▁sunset	-8859
▁Abishai	-8860
▁Amorite	-8861
▁Defence	-8862
▁Gazette	-8863
▁Shemesh	-8864
▁Warfare	-8865
▁Whether	-8866
▁burdens	-8867
▁circles	-8868
▁circuit	-8869
▁commits	-8870
▁concept	-8871
▁crushed	-8872
▁dealing	-8873
▁disappe	-8874
▁gearing	-8875
▁inwards	-8876
▁learned	-8877
▁parents	-8878
▁porters	-8879
▁portfol	-8880
▁praying	-8881
▁sources	-8882
▁spindle	-8883
▁streams	-8884
▁sustain	-8885
▁valiant	-8886
▁victory	-8887
▁virgins	-8888
▁whistle	-8889
▁Adonijah	-8890
▁Division	-8891
▁Magnetic	-8892
▁bowsprit	-8893
▁contempt	-8894
▁coupling	-8895
▁decrease	-8896
▁derricks	-8897
▁earrings	-8898
▁foredeck	-8899
▁foremast	-8900
▁multiple	-8901
▁ornament	-8902
▁positive	-8903
▁provoked	-8904
▁research	-8905
▁rotation	-8906
▁spraying	-8907
▁stranded	-8908
▁trunking	-8909
▁valuable	-8910
romagnetic	-8911
▁Afterward	-8912
▁Technical	-8913
▁depending	-8914
▁expansion	-8915
▁explosion	-8916
▁falsehood	-8917
▁neighbors	-8918
▁persuaded	-8919
▁prisoners	-8920
▁telescope	-8921
▁afterwards	-8922
▁capacities	-8923
▁geographic	-8924
▁instructed	-8925
▁redemption	-8926
▁successive	-8927
▁synagogues	-8928
▁Headquarters	-8929
▁nevertheless	-8930
▁proclamation	-8931
▁subsequently	-8932
▁Unfortunately	-8933
DU	-8934
.).	-8935
ANT	-8936
Com	-8937
ask	-8938
bet	-8939
had	-8940
ipt	-8941
ius	-8942
oub	-8943
pow	-8944
rad	-8945
ras	-8946
zah	-8947
▁42	-8948
▁Ek	-8949
▁OR	-8950
▁RE	-8951
▁Zo	-8952
▁od	-8953
ahaz	-8954
ebru	-8955
geon	-8956
hach	-8957
iest	-8958
ieth	-8959
othy	-8960
ours	-8961
riel	-8962
stri	-8963
▁20-	-8964
▁250	-8965
▁Alt	-8966
▁Aud	-8967
▁End	-8968
▁Ins	-8969
▁Lac	-8970
▁Mon	-8971
▁Pac	-8972
▁cro	-8973
▁fan	-8974
▁fee	-8975
▁jur	-8976
▁mal	-8977
▁nod	-8978
▁sie	-8979
Every	-8980
babel	-8981
class	-8982
cting	-8983
dness	-8984
enced	-8985
ength	-8986
imate	-8987
ounce	-8988
rails	-8989
storm	-8990
works	-8991
▁Abel	-8992
▁Cain	-8993
▁Turk	-8994
▁Wood	-8995
▁dign	-8996
▁grid	-8997
▁guid	-8998
▁hire	-8999
▁hosp	-9000
▁huge	-9001
▁kins	-9002
▁lays	-9003
▁mans	-9004
▁roar	-9005
▁veer	-9006
▁vice	-9007
▁wart	-9008
Listen	-9009
essels	-9010
ometer	-9011
▁5,000	-9012
▁Nebat	-9013
▁SANDF	-9014
▁Zerub	-9015
▁blank	-9016
▁blows	-9017
▁divor	-9018
▁docks	-9019
▁draft	-9020
▁index	-9021
▁legal	-9022
▁loops	-9023
▁meets	-9024
▁numer	-9025
▁owing	-9026
▁rests	-9027
▁seize	-9028
▁shipw	-9029
▁songs	-9030
▁tests	-9031
▁unpro	-9032
gressed	-9033
nthetic	-9034
oration	-9035
▁Ahijah	-9036
▁Darius	-9037
▁Greeks	-9038
▁Jabesh	-9039
▁Ramoth	-9040
▁Unless	-9041
▁absorb	-9042
▁assent	-9043
▁attach	-9044
▁bottle	-9045
▁costly	-9046
▁devise	-9047
▁dissol	-9048
▁drinks	-9049
▁emphas	-9050
▁ensign	-9051
▁evildo	-9052
▁jacket	-9053
▁joints	-9054
▁joyful	-9055
▁locked	-9056
▁minute	-9057
▁mouths	-9058
▁pledge	-9059
▁refers	-9060
▁reveal	-9061
▁settle	-9062
▁swings	-9063
▁unique	-9064
▁warned	-9065
▁wounds	-9066
▁yellow	-9067
carrying	-9068
ordinary	-9069
▁Average	-9070
▁CHAPTER	-9071
▁Lachish	-9072
▁Micaiah	-9073
▁Pacific	-9074
▁Station	-9075
▁Timothy	-9076
▁William	-9077
▁Zeruiah	-9078
▁absence	-9079
▁aerials	-9080
▁benefit	-9081
▁carcass	-9082
▁citadel	-9083
▁cutters	-9084
▁demonst	-9085
▁equator	-9086
▁exerted	-9087
▁feather	-9088
▁floated	-9089
▁grounds	-9090
▁housing	-9091
▁permits	-9092
▁pontoon	-9093
▁shouted	-9094
▁spliced	-9095
▁tablets	-9096
▁trusted	-9097
▁waiting	-9098
▁watched	-9099
stretched	-9100
▁Chaplain	-9101
▁commands	-9102
▁duration	-9103
▁effected	-9104
▁lengthen	-9105
▁nowadays	-9106
▁overhead	-9107
▁polluted	-9108
▁seagoing	-9109
▁seizings	-9110
▁strictly	-9111
▁sweeping	-9112
▁Generally	-9113
▁Meshullam	-9114
▁Similarly	-9115
▁affecting	-9116
▁breathing	-9117
▁displaced	-9118
▁displayed	-9119
▁envisaged	-9120
▁explained	-9121
▁initially	-9122
▁liquefied	-9123
▁merchants	-9124
▁navigator	-9125
▁petitions	-9126
▁precisely	-9127
▁resultant	-9128
▁thickness	-9129
▁Commanding	-9130
▁Navigation	-9131
▁Portuguese	-9132
▁Zerubbabel	-9133
▁classified	-9134
▁correction	-9135
▁department	-9136
▁recompense	-9137
▁represents	-9138
▁proceedings	-9139
▁capabilities	-9140
30	-9141
DB	-9142
II	-9143
OM	-9144
OT	-9145
So	-9146
dy	-9147
▁=	-9148
▁x	-9149
AST	-9150
Did	-9151
ORT	-9152
bow	-9153
but	-9154
dod	-9155
eem	-9156
eps	-9157
ext	-9158
idd	-9159
rez	-9160
▁2,	-9161
▁2-	-9162
Amen	-9163
Here	-9164
IONS	-9165
aith	-9166
arks	-9167
atho	-9168
ebel	-9169
held	-9170
hers	-9171
ibre	-9172
leep	-9173
mark	-9174
yarn	-9175
▁127	-9176
▁184	-9177
▁32-	-9178
▁Glo	-9179
▁Mel	-9180
▁Oho	-9181
▁Tri	-9182
▁Was	-9183
▁Zac	-9184
▁cel	-9185
▁hal	-9186
▁mad	-9187
▁pip	-9188
▁spy	-9189
Shall	-9190
areth	-9191
arted	-9192
chron	-9193
ctors	-9194
decks	-9195
glass	-9196
locks	-9197
orrah	-9198
▁1950	-9199
▁Anti	-9200
▁Bath	-9201
▁COMP	-9202
▁Decl	-9203
▁Haul	-9204
▁Meas	-9205
▁Side	-9206
▁Thir	-9207
▁cens	-9208
▁damp	-9209
▁grap	-9210
▁indu	-9211
▁noon	-9212
▁pard	-9213
▁pots	-9214
▁rust	-9215
▁user	-9216
aseiah	-9217
castle	-9218
celled	-9219
estial	-9220
laying	-9221
leness	-9222
opters	-9223
othing	-9224
ounted	-9225
retion	-9226
semble	-9227
ubilee	-9228
▁About	-9229
▁Angle	-9230
▁Below	-9231
▁Bilge	-9232
▁Coast	-9233
▁Death	-9234
▁Ekron	-9235
▁Elias	-9236
▁Hiram	-9237
▁Local	-9238
▁Order	-9239
▁Perez	-9240
▁Right	-9241
▁Speed	-9242
▁Staff	-9243
▁catap	-9244
▁eagle	-9245
▁exert	-9246
▁flush	-9247
▁heaps	-9248
▁laden	-9249
▁leech	-9250
▁lists	-9251
▁merid	-9252
▁mould	-9253
▁noted	-9254
▁parce	-9255
▁piped	-9256
▁pivot	-9257
▁plumb	-9258
▁polar	-9259
▁roots	-9260
▁shoot	-9261
▁study	-9262
▁train	-9263
▁trial	-9264
▁ungod	-9265
▁wants	-9266
▁whirl	-9267
▁yeast	-9268
cruiser	-9269
gregate	-9270
ificial	-9271
istance	-9272
pective	-9273
surface	-9274
▁Ashdod	-9275
▁Associ	-9276
▁Hezron	-9277
▁Machir	-9278
▁Modern	-9279
▁adulte	-9280
▁ascent	-9281
▁contro	-9282
▁deeply	-9283
▁disple	-9284
▁dreams	-9285
▁events	-9286
▁exclud	-9287
▁handed	-9288
▁layers	-9289
▁leader	-9290
▁masted	-9291
▁mocked	-9292
▁oracle	-9293
▁ration	-9294
▁states	-9295
▁string	-9296
▁swords	-9297
▁treads	-9298
atellite	-9299
othering	-9300
rability	-9301
▁Compass	-9302
▁Jezebel	-9303
▁Johanan	-9304
▁Quarter	-9305
▁actions	-9306
▁affairs	-9307
▁altered	-9308
▁baptism	-9309
▁ceremon	-9310
▁charged	-9311
▁dangers	-9312
▁defense	-9313
▁fouling	-9314
▁hitches	-9315
▁holders	-9316
▁jamming	-9317
▁knocked	-9318
▁lockers	-9319
▁offices	-9320
▁returns	-9321
▁tempted	-9322
▁triumph	-9323
▁unknown	-9324
▁version	-9325
▁warping	-9326
▁wartime	-9327
▁welding	-9328
etermined	-9329
iguration	-9330
▁Gomorrah	-9331
▁Handling	-9332
▁Nautical	-9333
▁Nazareth	-9334
▁Phinehas	-9335
▁Province	-9336
▁Victoria	-9337
▁absolute	-9338
▁boarding	-9339
▁compound	-9340
▁cultural	-9341
▁dishonor	-9342
▁inflated	-9343
▁machines	-9344
▁projects	-9345
▁recently	-9346
▁shifting	-9347
▁sleeping	-9348
▁supposed	-9349
▁survivor	-9350
▁terminal	-9351
▁weakness	-9352
▁Commander	-9353
▁agreement	-9354
▁behaviour	-9355
▁celestial	-9356
▁conspired	-9357
▁converter	-9358
▁corvettes	-9359
▁entrusted	-9360
▁extension	-9361
▁inflation	-9362
▁minesweep	-9363
▁overthrow	-9364
▁perpetual	-9365
▁pronounce	-9366
▁replacing	-9367
▁suffering	-9368
▁technique	-9369
▁twentieth	-9370
▁bitterness	-9371
▁facilitate	-9372
▁previously	-9373
▁repentance	-9374
▁bondservant	-9375
▁distinction	-9376
▁forevermore	-9377
▁helicopters	-9378
▁simulations	-9379
▁testimonies	-9380
▁commissioned	-9381
▁electrically	-9382
▁insufficient	-9383
▁determination	-9384
▁characteristic	-9385
▁identification	-9386
27	-9387
AM	-9388
AV	-9389
FF	-9390
FT	-9391
OL	-9392
QU	-9393
SR	-9394
kk	-9395
May	-9396
eba	-9397
eor	-9398
mri	-9399
old	-9400
ole	-9401
omi	-9402
osh	-9403
xic	-9404
▁0.	-9405
▁70	-9406
▁76	-9407
▁ON	-9408
▁Ve	-9409
▁wi	-9410
,500	-9411
Then	-9412
aren	-9413
kind	-9414
pled	-9415
pril	-9416
rays	-9417
rine	-9418
whel	-9419
▁(18	-9420
▁174	-9421
▁181	-9422
▁Elk	-9423
▁HIV	-9424
▁Imp	-9425
▁Jet	-9426
▁PRO	-9427
▁Rim	-9428
▁SAS	-9429
▁Sto	-9430
▁Sup	-9431
▁aud	-9432
▁bon	-9433
▁bru	-9434
▁dan	-9435
▁gen	-9436
▁mut	-9437
▁sce	-9438
▁sym	-9439
▁tin	-9440
chers	-9441
ector	-9442
euver	-9443
inner	-9444
irmed	-9445
ivery	-9446
joice	-9447
▁1980	-9448
▁Aram	-9449
▁Asia	-9450
▁Fail	-9451
▁Falk	-9452
▁Fear	-9453
▁Hagg	-9454
▁Hold	-9455
▁Joel	-9456
▁Song	-9457
▁Thom	-9458
▁Very	-9459
▁acqu	-9460
▁bone	-9461
▁fold	-9462
▁guys	-9463
▁knee	-9464
▁lean	-9465
▁node	-9466
▁rans	-9467
▁reci	-9468
▁scho	-9469
▁seer	-9470
▁sham	-9471
▁tact	-9472
▁text	-9473
alling	-9474
aution	-9475
eneral	-9476
oubted	-9477
person	-9478
porary	-9479
urable	-9480
▁Ephes	-9481
▁Febru	-9482
▁Hanan	-9483
▁Haran	-9484
▁Labor	-9485
▁Radar	-9486
▁Range	-9487
▁Types	-9488
▁adopt	-9489
▁arrog	-9490
▁bends	-9491
▁bloss	-9492
▁coals	-9493
▁consp	-9494
▁cruel	-9495
▁cycle	-9496
▁deals	-9497
▁drums	-9498
▁frank	-9499
▁hover	-9500
▁lusts	-9501
▁scoff	-9502
▁scour	-9503
▁truck	-9504
▁weren	-9505
ourable	-9506
rothers	-9507
usually	-9508
▁Hazael	-9509
▁Perizz	-9510
▁Rimmon	-9511
▁bodily	-9512
▁bowman	-9513
▁breach	-9514
▁carbon	-9515
▁detect	-9516
▁expert	-9517
▁export	-9518
▁haught	-9519
▁hollow	-9520
▁impose	-9521
▁levels	-9522
▁sinner	-9523
▁stabil	-9524
▁strops	-9525
▁terrif	-9526
▁visual	-9527
ensively	-9528
jections	-9529
onscious	-9530
stitutes	-9531
▁Firstly	-9532
▁Medical	-9533
▁amongst	-9534
▁aspects	-9535
▁charges	-9536
▁coaming	-9537
▁connect	-9538
▁deceive	-9539
▁despite	-9540
▁dignity	-9541
▁disconn	-9542
▁discuss	-9543
▁earthqu	-9544
▁economy	-9545
▁involve	-9546
▁labored	-9547
▁lateral	-9548
▁mankind	-9549
▁mystery	-9550
▁optimum	-9551
▁praised	-9552
▁rounded	-9553
▁shipped	-9554
▁topmast	-9555
▁veering	-9556
▁watches	-9557
▁Astronom	-9558
▁Maaseiah	-9559
▁Mercator	-9560
▁Multiple	-9561
▁Officers	-9562
▁Secondly	-9563
▁balanced	-9564
▁boundary	-9565
▁casualty	-9566
▁citizens	-9567
▁entities	-9568
▁exchange	-9569
▁moisture	-9570
▁overwhel	-9571
▁perceive	-9572
▁produces	-9573
▁promptly	-9574
▁searched	-9575
▁Australia	-9576
▁Authority	-9577
▁elsewhere	-9578
▁governors	-9579
▁implement	-9580
▁offspring	-9581
▁persecute	-9582
▁sheltered	-9583
▁soundings	-9584
▁terminals	-9585
▁whirlwind	-9586
▁Originally	-9587
▁Processing	-9588
▁abominable	-9589
▁accessible	-9590
▁beforehand	-9591
▁catamarans	-9592
▁discovered	-9593
▁discretion	-9594
▁nineteenth	-9595
▁protective	-9596
▁recognised	-9597
▁registered	-9598
▁stretching	-9599
▁subjection	-9600
▁triangular	-9601
▁vegetation	-9602
▁vulnerable	-9603
▁Maintenance	-9604
▁Operational	-9605
▁authorities	-9606
▁declaration	-9607
▁preparation	-9608
▁subdivision	-9609
▁unnecessary	-9610
▁bondservants	-9611
▁individually	-9612
▁successfully	-9613
▁representative	-9614
DE	-9615
Lo	-9616
OD	-9617
ae	-9618
.5-	-9619
0°.	-9620
ASS	-9621
Cur	-9622
Woe	-9623
add	-9624
ait	-9625
pha	-9626
tar	-9627
tor	-9628
veh	-9629
▁Og	-9630
▁ec	-9631
MSMP	-9632
anse	-9633
bark	-9634
cles	-9635
erge	-9636
illa	-9637
rime	-9638
roke	-9639
shad	-9640
uals	-9641
uate	-9642
umer	-9643
wich	-9644
▁Asc	-9645
▁CAR	-9646
▁Det	-9647
▁Hen	-9648
▁Jan	-9649
▁Mir	-9650
▁Rab	-9651
▁Rud	-9652
▁Sep	-9653
▁bit	-9654
▁jer	-9655
▁myr	-9656
▁tam	-9657
▁via	-9658
eroth	-9659
eties	-9660
ichri	-9661
iques	-9662
layer	-9663
lings	-9664
marks	-9665
stone	-9666
urbed	-9667
▁Alex	-9668
▁Amas	-9669
▁Aren	-9670
▁Comb	-9671
▁Elis	-9672
▁Euph	-9673
▁Fast	-9674
▁Gaza	-9675
▁Geor	-9676
▁Lond	-9677
▁Nile	-9678
▁Nine	-9679
▁Qual	-9680
▁Salt	-9681
▁Shel	-9682
▁Stri	-9683
▁Tide	-9684
▁asks	-9685
▁baby	-9686
▁brig	-9687
▁buck	-9688
▁dove	-9689
▁educ	-9690
▁grat	-9691
▁hoof	-9692
▁lend	-9693
▁melt	-9694
▁rigs	-9695
▁rows	-9696
▁sequ	-9697
▁sphe	-9698
▁whar	-9699
iments	-9700
irtual	-9701
onents	-9702
ramble	-9703
▁April	-9704
▁Grace	-9705
▁Hazor	-9706
▁Heavy	-9707
▁Hence	-9708
▁Horon	-9709
▁Ports	-9710
▁Which	-9711
▁accus	-9712
▁books	-9713
▁coral	-9714
▁crush	-9715
▁dread	-9716
▁exalt	-9717
▁fears	-9718
▁giant	-9719
▁hoped	-9720
▁immin	-9721
▁incom	-9722
▁manif	-9723
▁overl	-9724
▁ruled	-9725
▁siege	-9726
▁smart	-9727
▁subdu	-9728
▁tithe	-9729
▁uncom	-9730
▁undue	-9731
General	-9732
battery	-9733
burning	-9734
defence	-9735
powered	-9736
proofed	-9737
▁Achish	-9738
▁Agency	-9739
▁Circle	-9740
▁Entity	-9741
▁Ground	-9742
▁Person	-9743
▁Supply	-9744
▁Thomas	-9745
▁Threat	-9746
▁Towing	-9747
▁asleep	-9748
▁breech	-9749
▁cedars	-9750
▁denied	-9751
▁encirc	-9752
▁fouled	-9753
▁gentle	-9754
▁gently	-9755
▁magnet	-9756
▁manual	-9757
▁mostly	-9758
▁overfl	-9759
▁racing	-9760
▁relief	-9761
▁retire	-9762
▁shapes	-9763
▁stoned	-9764
▁strict	-9765
▁theirs	-9766
▁theory	-9767
▁twined	-9768
▁wasted	-9769
oubtedly	-9770
▁Besides	-9771
▁Despite	-9772
▁Destroy	-9773
▁Elkanah	-9774
▁Failure	-9775
▁Hebrews	-9776
▁Various	-9777
▁amounts	-9778
▁backing	-9779
▁binding	-9780
▁centres	-9781
▁clamped	-9782
▁confirm	-9783
▁fingers	-9784
▁leakage	-9785
▁liberty	-9786
▁mourned	-9787
▁placing	-9788
▁product	-9789
▁raising	-9790
▁reefing	-9791
▁rescued	-9792
▁satisfy	-9793
▁settled	-9794
▁society	-9795
▁travail	-9796
▁Apparent	-9797
▁Pressure	-9798
▁Services	-9799
▁Squadron	-9800
▁arrester	-9801
▁backbone	-9802
▁bitterly	-9803
▁civilian	-9804
▁conflict	-9805
▁contempl	-9806
▁disposal	-9807
▁disposed	-9808
▁document	-9809
▁downwind	-9810
▁drilling	-9811
▁dropping	-9812
▁husbands	-9813
▁mischief	-9814
▁murderer	-9815
▁nuisance	-9816
▁reserved	-9817
▁stopping	-9818
▁youngest	-9819
▁Emergency	-9820
▁Euphrates	-9821
▁accidents	-9822
▁centurion	-9823
▁concubine	-9824
▁disembark	-9825
▁earnestly	-9826
▁encourage	-9827
▁exercises	-9828
▁ironclads	-9829
▁necessity	-9830
▁purchases	-9831
▁somewhere	-9832
▁stationed	-9833
▁waterways	-9834
▁Scriptures	-9835
▁boundaries	-9836
▁controvers	-9837
▁monitoring	-9838
▁precaution	-9839
▁recognized	-9840
▁reflecting	-9841
▁seamanship	-9842
▁separately	-9843
▁alternately	-9844
▁approximate	-9845
▁composition	-9846
▁dreadnought	-9847
▁extensively	-9848
▁flexibility	-9849
▁permanently	-9850
▁rectangular	-9851
▁unconscious	-9852
▁astonishment	-9853
▁outstretched	-9854
▁pomegranates	-9855
▁temperatures	-9856
▁Environmental	-9857
▁municipalities	-9858
▁rationalisation	-9859
▁superstructures	-9860
0,	-9861
Ad	-9862
Al	-9863
bb	-9864
ns	-9865
zy	-9866
ART	-9867
INE	-9868
cue	-9869
fal	-9870
hos	-9871
ogy	-9872
ota	-9873
rod	-9874
rum	-9875
zar	-9876
▁AR	-9877
▁Eg	-9878
▁Pi	-9879
▁er	-9880
Edom	-9881
RAKE	-9882
Will	-9883
area	-9884
arms	-9885
ball	-9886
bolt	-9887
fold	-9888
igue	-9889
lene	-9890
lfth	-9891
lift	-9892
pare	-9893
plan	-9894
play	-9895
uity	-9896
▁20°	-9897
▁40-	-9898
▁Ark	-9899
▁Cus	-9900
▁Dif	-9901
▁Inc	-9902
▁Non	-9903
▁Sil	-9904
▁Sis	-9905
▁Sou	-9906
▁TER	-9907
▁Zim	-9908
▁cab	-9909
▁fid	-9910
▁gaz	-9911
▁jun	-9912
▁kit	-9913
▁lun	-9914
▁toe	-9915
▁ult	-9916
▁una	-9917
▁var	-9918
▁vom	-9919
▁web	-9920
Stand	-9921
adequ	-9922
based	-9923
chion	-9924
comes	-9925
ested	-9926
fours	-9927
hamar	-9928
hitch	-9929
horam	-9930
itals	-9931
plete	-9932
roken	-9933
stays	-9934
utral	-9935
▁21⁄2	-9936
▁BOAT	-9937
▁Blue	-9938
▁Bulk	-9939
▁Cert	-9940
▁Duke	-9941
▁Flag	-9942
▁Mass	-9943
▁Rabb	-9944
▁Tuck	-9945
▁aids	-9946
▁argu	-9947
▁bere	-9948
▁cuts	-9949
▁grab	-9950
▁loos	-9951
▁ramp	-9952
▁zeal	-9953
erting	-9954
falgar	-9955
firing	-9956
habiah	-9957
hophel	-9958
mitted	-9959
rastru	-9960
tering	-9961
urbine	-9962
▁Canal	-9963
▁Extra	-9964
▁India	-9965
▁Nadab	-9966
▁Naomi	-9967
▁Third	-9968
▁Today	-9969
▁Watts	-9970
▁aimed	-9971
▁arbit	-9972
▁banks	-9973
▁cells	-9974
▁crewm	-9975
▁crowd	-9976
▁decor	-9977
▁drops	-9978
▁fever	-9979
▁fiery	-9980
▁flies	-9981
▁harps	-9982
▁locks	-9983
▁minim	-9984
▁seams	-9985
▁sewer	-9986
▁sited	-9987
▁sonar	-9988
▁straw	-9989
▁surve	-9990
▁thund	-9991
▁title	-9992
▁woven	-9993
aithful	-9994
gallant	-9995
incense	-9996
weeping	-9997
▁Assyri	-9998
▁Device	-9999
▁Malchi	-10000
▁Mirror	-10001
▁Naboth	-10002
▁Panama	-10003
▁Secret	-10004
▁Sisera	-10005
▁Ventil	-10006
▁Within	-10007
▁arches	-10008
▁asking	-10009
▁canals	-10010
▁create	-10011
▁diving	-10012
▁driver	-10013
▁extrem	-10014
▁fisher	-10015
▁formal	-10016
▁fulfil	-10017
▁gotten	-10018
▁hammer	-10019
▁heeled	-10020
▁hinder	-10021
▁housed	-10022
▁intell	-10023
▁keeper	-10024
▁latest	-10025
▁leeway	-10026
▁manage	-10027
▁navies	-10028
▁nights	-10029
▁potter	-10030
▁ransom	-10031
▁replen	-10032
▁review	-10033
▁slower	-10034
▁solely	-10035
▁sounds	-10036
▁valise	-10037
▁varied	-10038
▁wither	-10039
ordinate	-10040
▁Ithamar	-10041
▁Jehoram	-10042
▁Leander	-10043
▁Obadiah	-10044
▁Virtual	-10045
▁Working	-10046
▁accused	-10047
▁avoided	-10048
▁citizen	-10049
▁classed	-10050
▁context	-10051
▁coupled	-10052
▁customs	-10053
▁dreamed	-10054
▁enabled	-10055
▁flashes	-10056
▁highway	-10057
▁impress	-10058
▁inadequ	-10059
▁keepers	-10060
▁lugless	-10061
▁managed	-10062
▁monitor	-10063
▁movable	-10064
▁parting	-10065
▁patches	-10066
▁pertain	-10067
▁prayers	-10068
▁prudent	-10069
▁publish	-10070
▁regards	-10071
▁surging	-10072
▁twelfth	-10073
freeboard	-10074
▁Jehoahaz	-10075
▁Normally	-10076
▁accounts	-10077
▁besieged	-10078
▁builders	-10079
▁catapult	-10080
▁darkened	-10081
▁delivery	-10082
▁downward	-10083
▁eleventh	-10084
▁grounded	-10085
▁ignition	-10086
▁imminent	-10087
▁messages	-10088
▁overflow	-10089
▁receiver	-10090
▁respects	-10091
▁schedule	-10092
▁scrapped	-10093
▁sentence	-10094
▁shouting	-10095
▁smoothly	-10096
▁striking	-10097
▁stubborn	-10098
▁teachers	-10099
▁thirteen	-10100
▁transmit	-10101
▁undertow	-10102
▁Meanwhile	-10103
▁Trafalgar	-10104
▁affection	-10105
▁community	-10106
▁competent	-10107
▁composite	-10108
▁conducted	-10109
▁considers	-10110
▁estimated	-10111
▁evildoers	-10112
▁exemption	-10113
▁existence	-10114
▁genealogy	-10115
▁involving	-10116
▁magnified	-10117
▁meridians	-10118
▁oversight	-10119
▁practices	-10120
▁preceding	-10121
▁preferred	-10122
▁radiation	-10123
▁sheathing	-10124
▁stanchion	-10125
▁torpedoed	-10126
▁Amalekites	-10127
▁accomplish	-10128
▁allowances	-10129
▁comparable	-10130
▁courageous	-10131
▁depression	-10132
▁inevitably	-10133
▁preferably	-10134
▁priesthood	-10135
withstanding	-10136
▁Furthermore	-10137
▁atmospheric	-10138
▁inclination	-10139
▁probability	-10140
▁undoubtedly	-10141
▁frankincense	-10142
▁improvements	-10143
▁intersection	-10144
▁transgressed	-10145
▁treacherously	-10146
▁industrialised	-10147
▁recommendations	-10148
(2	-10149
.[	-10150
1]	-10151
Ne	-10152
OC	-10153
Re	-10154
SA	-10155
Se	-10156
ka	-10157
kl	-10158
sm	-10159
...	-10160
Man	-10161
alt	-10162
col	-10163
fit	-10164
gas	-10165
▁1]	-10166
▁72	-10167
▁AW	-10168
▁HO	-10169
▁Iz	-10170
▁MS	-10171
ache	-10172
atum	-10173
bank	-10174
hiel	-10175
hire	-10176
humb	-10177
ioch	-10178
lend	-10179
obah	-10180
ogen	-10181
pens	-10182
rels	-10183
▁(5)	-10184
▁Ang	-10185
▁Chi	-10186
▁Jok	-10187
▁Rat	-10188
▁San	-10189
▁Say	-10190
▁Syn	-10191
▁Zep	-10192
▁dio	-10193
▁ing	-10194
▁lew	-10195
▁pou	-10196
5,000	-10197
acles	-10198
arers	-10199
bolts	-10200
ccoth	-10201
haiah	-10202
osses	-10203
ouble	-10204
owers	-10205
rooms	-10206
scill	-10207
south	-10208
venge	-10209
verty	-10210
▁11⁄2	-10211
▁Amon	-10212
▁Buoy	-10213
▁Cond	-10214
▁Free	-10215
▁Full	-10216
▁Land	-10217
▁Mart	-10218
▁Real	-10219
▁Repe	-10220
▁cups	-10221
▁cust	-10222
▁dirt	-10223
▁evol	-10224
▁laps	-10225
▁lugs	-10226
▁quar	-10227
▁rely	-10228
▁subs	-10229
▁symb	-10230
adezer	-10231
atting	-10232
herent	-10233
isting	-10234
itched	-10235
ticles	-10236
utches	-10237
▁1278.	-10238
▁Among	-10239
▁Clear	-10240
▁Cyrus	-10241
▁Eliab	-10242
▁Index	-10243
▁Indic	-10244
▁Leave	-10245
▁Nabal	-10246
▁Nahor	-10247
▁Rules	-10248
▁belay	-10249
▁cling	-10250
▁dimin	-10251
▁embar	-10252
▁exped	-10253
▁explo	-10254
▁globe	-10255
▁lofty	-10256
▁nails	-10257
▁nurse	-10258
▁penet	-10259
▁pulse	-10260
▁raven	-10261
▁react	-10262
▁seals	-10263
▁skies	-10264
▁skins	-10265
▁strap	-10266
▁taxes	-10267
▁trail	-10268
▁valid	-10269
▁versa	-10270
handler	-10271
ificant	-10272
mounted	-10273
turbine	-10274
▁Action	-10275
▁France	-10276
▁Jearim	-10277
▁London	-10278
▁Memory	-10279
▁Method	-10280
▁Redeem	-10281
▁Rescue	-10282
▁Rudder	-10283
▁Seeing	-10284
▁Shelah	-10285
▁Signal	-10286
▁angled	-10287
▁barren	-10288
▁bights	-10289
▁calves	-10290
▁cannon	-10291
▁curses	-10292
▁dipped	-10293
▁feeder	-10294
▁floors	-10295
▁footst	-10296
▁guests	-10297
▁gunner	-10298
▁nozzle	-10299
▁parted	-10300
▁prosec	-10301
▁purify	-10302
▁pushed	-10303
▁robber	-10304
▁shrink	-10305
▁shroud	-10306
▁spears	-10307
▁status	-10308
▁troops	-10309
▁trying	-10310
▁unders	-10311
▁wander	-10312
▁weighs	-10313
▁welded	-10314
▁whaler	-10315
entially	-10316
▁Antioch	-10317
▁Deliver	-10318
▁Section	-10319
▁Signals	-10320
▁Succoth	-10321
▁Victory	-10322
▁abandon	-10323
▁apostle	-10324
▁beating	-10325
▁condens	-10326
▁consent	-10327
▁custody	-10328
▁devised	-10329
▁evident	-10330
▁filling	-10331
▁growing	-10332
▁healing	-10333
▁locusts	-10334
▁masters	-10335
▁mortars	-10336
▁poverty	-10337
▁recipro	-10338
▁records	-10339
▁respond	-10340
▁revived	-10341
▁shortly	-10342
▁spreads	-10343
▁talking	-10344
▁thereon	-10345
▁thwarts	-10346
▁varying	-10347
▁western	-10348
operation	-10349
▁Database	-10350
▁Examples	-10351
▁anywhere	-10352
▁attained	-10353
▁boasting	-10354
▁boldness	-10355
▁creation	-10356
▁delights	-10357
▁delivers	-10358
▁deposits	-10359
▁detected	-10360
▁draughts	-10361
▁emission	-10362
▁formerly	-10363
▁governed	-10364
▁hangings	-10365
▁humidity	-10366
▁interpre	-10367
▁ironclad	-10368
▁mainmast	-10369
▁moorings	-10370
▁parables	-10371
▁sequence	-10372
▁smallest	-10373
▁trembled	-10374
▁wickedly	-10375
olutionary	-10376
▁Automatic	-10377
▁Certainly	-10378
▁Frequency	-10379
▁Hadadezer	-10380
▁Secretary	-10381
▁corrected	-10382
▁dwellings	-10383
▁inspected	-10384
▁interfere	-10385
▁manslayer	-10386
▁organised	-10387
▁perfected	-10388
▁preventer	-10389
▁prolonged	-10390
▁spreaders	-10391
▁stretches	-10392
▁supplying	-10393
▁valuation	-10394
▁willingly	-10395
▁winepress	-10396
▁wonderful	-10397
rastructure	-10398
▁Laboratory	-10399
▁absolutely	-10400
▁apparently	-10401
▁blasphemed	-10402
▁brightness	-10403
▁categories	-10404
▁destroying	-10405
▁divisional	-10406
▁earthquake	-10407
▁occurrence	-10408
▁prevailing	-10409
▁reflection	-10410
▁stationary	-10411
▁substances	-10412
▁techniques	-10413
▁trespassed	-10414
▁Association	-10415
▁Constructor	-10416
▁controversy	-10417
▁declination	-10418
▁disobedient	-10419
▁foolishness	-10420
▁proportions	-10421
▁strongholds	-10422
▁supervision	-10423
▁firefighting	-10424
▁legislatures	-10425
▁mathematical	-10426
▁obstructions	-10427
▁representing	-10428
▁thunderstorm	-10429
▁participating	-10430
▁technological	-10431
▁Classification	-10432
▁Notwithstanding	-10433
DA	-10434
ov	-10435
sy	-10436
ye	-10437
BER	-10438
Can	-10439
IST	-10440
RAN	-10441
abe	-10442
aks	-10443
dal	-10444
fin	-10445
ica	-10446
jud	-10447
mes	-10448
nes	-10449
ony	-10450
phi	-10451
ued	-10452
vin	-10453
▁Ev	-10454
▁TA	-10455
DSMC	-10456
Make	-10457
bert	-10458
cern	-10459
chab	-10460
circ	-10461
clus	-10462
hael	-10463
hama	-10464
heme	-10465
izer	-10466
liah	-10467
oret	-10468
otor	-10469
oves	-10470
roth	-10471
rung	-10472
sers	-10473
▁15-	-10474
▁AMP	-10475
▁ANC	-10476
▁Aro	-10477
▁Awn	-10478
▁Cat	-10479
▁Emp	-10480
▁Mep	-10481
▁Nap	-10482
▁Occ	-10483
▁Ped	-10484
▁Tow	-10485
▁jar	-10486
▁jaw	-10487
▁kin	-10488
▁ped	-10489
▁tap	-10490
▁wag	-10491
achin	-10492
aioth	-10493
ariot	-10494
isted	-10495
itess	-10496
leads	-10497
mbles	-10498
oding	-10499
omach	-10500
prise	-10501
uters	-10502
▁Eden	-10503
▁Hore	-10504
▁Know	-10505
▁Lead	-10506
▁Note	-10507
▁Omri	-10508
▁Pray	-10509
▁Prop	-10510
▁Read	-10511
▁Rock	-10512
▁Save	-10513
▁Surv	-10514
▁Whip	-10515
▁Zeal	-10516
▁bags	-10517
▁cars	-10518
▁core	-10519
▁doct	-10520
▁frag	-10521
▁gant	-10522
▁leap	-10523
▁mail	-10524
▁nour	-10525
▁obso	-10526
▁ores	-10527
▁pine	-10528
▁preg	-10529
▁rays	-10530
▁sett	-10531
▁sigh	-10532
▁tier	-10533
▁traw	-10534
▁unre	-10535
▁unst	-10536
Cursed	-10537
abling	-10538
athoth	-10539
bottom	-10540
formed	-10541
hulled	-10542
istent	-10543
ivided	-10544
ograph	-10545
riding	-10546
tected	-10547
zimuth	-10548
▁Allow	-10549
▁Atmos	-10550
▁Check	-10551
▁Heman	-10552
▁Level	-10553
▁Oholi	-10554
▁Peace	-10555
▁Polar	-10556
▁Produ	-10557
▁Steel	-10558
▁accum	-10559
▁agent	-10560
▁alike	-10561
▁alloy	-10562
▁beard	-10563
▁clips	-10564
▁cripp	-10565
▁embra	-10566
▁embro	-10567
▁fract	-10568
▁grief	-10569
▁hurry	-10570
▁infer	-10571
▁juris	-10572
▁laugh	-10573
▁paper	-10574
▁phase	-10575
▁rolls	-10576
▁sakes	-10577
▁scant	-10578
▁sorry	-10579
▁spect	-10580
▁troop	-10581
▁wharf	-10582
▁worst	-10583
cerning	-10584
cieties	-10585
draught	-10586
lexible	-10587
loyment	-10588
ulators	-10589
▁Asahel	-10590
▁Hivite	-10591
▁Keilah	-10592
▁Ladies	-10593
▁Manoah	-10594
▁Michal	-10595
▁Prepar	-10596
▁Tirzah	-10597
▁Uzziel	-10598
▁arrive	-10599
▁blasts	-10600
▁boiled	-10601
▁breeze	-10602
▁builds	-10603
▁cabins	-10604
▁career	-10605
▁crests	-10606
▁deemed	-10607
▁divers	-10608
▁equals	-10609
▁fortun	-10610
▁goodly	-10611
▁grease	-10612
▁harden	-10613
▁marker	-10614
▁melted	-10615
▁midway	-10616
▁pilots	-10617
▁plains	-10618
▁remind	-10619
▁rested	-10620
▁roping	-10621
▁rowing	-10622
▁slides	-10623
▁stocks	-10624
▁straps	-10625
▁tossed	-10626
▁towers	-10627
▁triple	-10628
▁trusts	-10629
▁utmost	-10630
armoured	-10631
division	-10632
operated	-10633
▁Asherim	-10634
▁Auditor	-10635
▁Battles	-10636
▁Compart	-10637
▁Display	-10638
▁Jubilee	-10639
▁Nineveh	-10640
▁Rephaim	-10641
▁Seraiah	-10642
▁anxious	-10643
▁arrived	-10644
▁cleaned	-10645
▁deliber	-10646
▁demands	-10647
▁derived	-10648
▁dioxide	-10649
▁disturb	-10650
▁farmers	-10651
▁fasting	-10652
▁feeding	-10653
▁fellows	-10654
▁galleys	-10655
▁healthy	-10656
▁heating	-10657
▁impract	-10658
▁innards	-10659
▁kinsman	-10660
▁lacking	-10661
▁lowland	-10662
▁mineral	-10663
▁monthly	-10664
▁notable	-10665
▁onshore	-10666
▁privile	-10667
▁remarks	-10668
▁rescuer	-10669
▁robbers	-10670
▁scepter	-10671
▁sloping	-10672
▁stomach	-10673
▁teaches	-10674
▁trodden	-10675
▁washing	-10676
▁whereby	-10677
▁workmen	-10678
condition	-10679
▁Anathoth	-10680
▁Exchange	-10681
▁Judicial	-10682
▁Likewise	-10683
▁Steering	-10684
▁Terminal	-10685
▁Transfer	-10686
▁betrayed	-10687
▁clearing	-10688
▁composed	-10689
▁cruising	-10690
▁crutches	-10691
▁eighties	-10692
▁exceeded	-10693
▁forehead	-10694
▁freewill	-10695
▁moderate	-10696
▁ordained	-10697
▁passages	-10698
▁prevails	-10699
▁prisoner	-10700
▁proceeds	-10701
▁punished	-10702
▁readings	-10703
▁requests	-10704
▁scuttles	-10705
▁substant	-10706
▁watchman	-10707
▁Knowledge	-10708
▁Operating	-10709
▁aftermost	-10710
▁describes	-10711
▁endurance	-10712
▁flagships	-10713
▁gathering	-10714
▁introduce	-10715
▁landmarks	-10716
▁latitudes	-10717
▁motorboat	-10718
▁projected	-10719
▁rejoicing	-10720
▁religious	-10721
▁returning	-10722
▁revolving	-10723
▁Navigating	-10724
▁counselors	-10725
▁determines	-10726
▁elasticity	-10727
▁encouraged	-10728
▁hypocrites	-10729
▁identified	-10730
▁persecuted	-10731
▁proceeding	-10732
▁reinforced	-10733
▁shipwright	-10734
▁temptation	-10735
▁topgallant	-10736
▁Application	-10737
▁acknowledge	-10738
▁alterations	-10739
▁comfortable	-10740
▁considering	-10741
▁distinguish	-10742
▁particulars	-10743
▁shiphandler	-10744
▁unprotected	-10745
▁uprightness	-10746
▁Distribution	-10747
▁consultation	-10748
▁disconnected	-10749
▁geographical	-10750
▁manufactured	-10751
▁Revolutionary	-10752
▁effectiveness	-10753
▁investigation	-10754
▁manoeuvrability	-10755
3]	-10756
8-	-10757
AW	-10758
FI	-10759
NG	-10760
Pe	-10761
wk	-10762
IES	-10763
LES	-10764
Our	-10765
Sir	-10766
bir	-10767
cah	-10768
cor	-10769
cut	-10770
ige	-10771
keh	-10772
lid	-10773
nan	-10774
opy	-10775
sho	-10776
ula	-10777
yre	-10778
▁33	-10779
▁7.	-10780
▁9-	-10781
▁EM	-10782
▁Ga	-10783
▁Ra	-10784
▁TH	-10785
▁gn	-10786
▁ni	-10787
DoDD	-10788
ERAL	-10789
From	-10790
adan	-10791
addu	-10792
amps	-10793
buck	-10794
cour	-10795
dled	-10796
eled	-10797
enai	-10798
erts	-10799
eves	-10800
fish	-10801
hole	-10802
ideo	-10803
ifer	-10804
ille	-10805
item	-10806
mond	-10807
outs	-10808
rect	-10809
wark	-10810
▁10-	-10811
▁175	-10812
▁177	-10813
▁30°	-10814
▁Bay	-10815
▁Cal	-10816
▁Dib	-10817
▁Fac	-10818
▁Nim	-10819
▁Sus	-10820
▁Tal	-10821
▁Tit	-10822
▁Ver	-10823
▁Vis	-10824
▁Zab	-10825
▁Zal	-10826
▁cow	-10827
▁lap	-10828
▁mob	-10829
▁pla	-10830
agger	-10831
andra	-10832
asion	-10833
force	-10834
holds	-10835
iners	-10836
oster	-10837
ource	-10838
pless	-10839
riger	-10840
▁Acts	-10841
▁Bell	-10842
▁Deck	-10843
▁Elie	-10844
▁Foam	-10845
▁Gang	-10846
▁Mill	-10847
▁Near	-10848
▁Nove	-10849
▁Reed	-10850
▁Seam	-10851
▁Seas	-10852
▁Stru	-10853
▁USSR	-10854
▁Well	-10855
▁bund	-10856
▁cart	-10857
▁coff	-10858
▁echo	-10859
▁envy	-10860
▁herb	-10861
▁keys	-10862
▁neat	-10863
▁nest	-10864
▁nuts	-10865
▁obsc	-10866
▁ours	-10867
▁pell	-10868
▁shoe	-10869
athite	-10870
ceness	-10871
contin	-10872
enched	-10873
hauled	-10874
lessly	-10875
making	-10876
penter	-10877
strils	-10878
thites	-10879
▁Agent	-10880
▁Apoll	-10881
▁Aroer	-10882
▁Baals	-10883
▁Bills	-10884
▁Crime	-10885
▁Cross	-10886
▁Error	-10887
▁Field	-10888
▁Horeb	-10889
▁Sarai	-10890
▁alert	-10891
▁belts	-10892
▁binds	-10893
▁bough	-10894
▁chaff	-10895
▁coats	-10896
▁cries	-10897
▁depri	-10898
▁draws	-10899
▁faced	-10900
▁flown	-10901
▁fount	-10902
▁grasp	-10903
▁handy	-10904
▁leper	-10905
▁loses	-10906
▁manna	-10907
▁merry	-10908
▁minds	-10909
▁music	-10910
▁navel	-10911
▁relax	-10912
▁revel	-10913
▁rhumb	-10914
▁robes	-10915
▁rocky	-10916
▁shade	-10917
▁stole	-10918
▁stout	-10919
▁uncon	-10920
changed	-10921
hearted	-10922
legraph	-10923
uations	-10924
▁10,000	-10925
▁Andrew	-10926
▁Better	-10927
▁Danger	-10928
▁Hadley	-10929
▁Libnah	-10930
▁Naaman	-10931
▁Strong	-10932
▁accuse	-10933
▁ambush	-10934
▁backed	-10935
▁carron	-10936
▁clutch	-10937
▁coasts	-10938
▁consol	-10939
▁cooled	-10940
▁cutter	-10941
▁deadly	-10942
▁drifts	-10943
▁evenly	-10944
▁expend	-10945
▁fasted	-10946
▁feeble	-10947
▁flames	-10948
▁heifer	-10949
▁jammed	-10950
▁labors	-10951
▁lodged	-10952
▁losses	-10953
▁murder	-10954
▁murmur	-10955
▁neglig	-10956
▁paraly	-10957
▁pardon	-10958
▁pocket	-10959
▁prepar	-10960
▁protru	-10961
▁refine	-10962
▁relied	-10963
▁remark	-10964
▁rotate	-10965
▁shamef	-10966
▁stable	-10967
▁strips	-10968
▁submit	-10969
▁swears	-10970
▁viewed	-10971
▁wedges	-10972
▁wisely	-10973
inations	-10974
mination	-10975
stituted	-10976
▁Asherah	-10977
▁Ephesus	-10978
▁Manager	-10979
▁Revenue	-10980
▁Weather	-10981
▁adapted	-10982
▁avenger	-10983
▁beached	-10984
▁beacons	-10985
▁biggest	-10986
▁enchant	-10987
▁exceeds	-10988
▁expanse	-10989
▁fatigue	-10990
▁fifties	-10991
▁listens	-10992
▁mercury	-10993
▁pension	-10994
▁pleases	-10995
▁proverb	-10996
▁refuses	-10997
▁revenue	-10998
▁roaring	-10999
▁sliding	-11000
▁steward	-11001
▁subdued	-11002
▁suffice	-11003
▁tacking	-11004
▁tambour	-11005
▁telling	-11006
▁village	-11007
▁whereon	-11008
▁workman	-11009
clockwise	-11010
propelled	-11011
sequently	-11012
▁Caesarea	-11013
▁Councils	-11014
▁Eliashib	-11015
▁Elishama	-11016
▁Portable	-11017
▁capitals	-11018
▁catching	-11019
▁dividing	-11020
▁ensuring	-11021
▁forestay	-11022
▁fountain	-11023
▁heaviest	-11024
▁holiness	-11025
▁humility	-11026
▁imprison	-11027
▁inferior	-11028
▁learning	-11029
▁mightily	-11030
▁mustered	-11031
▁nostrils	-11032
▁pleasing	-11033
▁policies	-11034
▁prophecy	-11035
▁refriger	-11036
▁rejoices	-11037
▁religion	-11038
▁sighting	-11039
▁simplest	-11040
▁traverse	-11041
▁treasury	-11042
▁wireless	-11043
▁Americans	-11044
▁Falklands	-11045
▁Nethaniah	-11046
▁Protector	-11047
▁accounted	-11048
▁alternate	-11049
▁appearing	-11050
▁attaching	-11051
▁collected	-11052
▁confirmed	-11053
▁decisions	-11054
▁emissions	-11055
▁fastening	-11056
▁mountings	-11057
▁peacetime	-11058
▁producing	-11059
▁rebellion	-11060
▁regulated	-11061
▁requested	-11062
▁seventeen	-11063
▁shipowner	-11064
▁shortened	-11065
▁underside	-11066
▁vegetable	-11067
▁withdrawn	-11068
▁Ahithophel	-11069
▁Eighteenth	-11070
▁collection	-11071
▁contribute	-11072
▁crewmember	-11073
▁dependants	-11074
▁displeased	-11075
▁favourable	-11076
▁fellowship	-11077
▁navigating	-11078
▁overthrown	-11079
▁retirement	-11080
▁smothering	-11081
▁Ventilation	-11082
▁accordingly	-11083
▁appreciably	-11084
▁engineering	-11085
▁participate	-11086
▁projections	-11087
▁seasickness	-11088
▁astronomical	-11089
▁economically	-11090
▁jurisdiction	-11091
▁occasionally	-11092
▁classification	-11093
▁electromagnetic	-11094
02	-11095
At	-11096
XX	-11097
bl	-11098
Not	-11099
Put	-11100
UND	-11101
URE	-11102
aum	-11103
don	-11104
flo	-11105
kin	-11106
leb	-11107
mis	-11108
oon	-11109
ork	-11110
oti	-11111
ube	-11112
▁(6	-11113
▁8.	-11114
▁Fe	-11115
▁Kn	-11116
▁Lu	-11117
▁TE	-11118
▁km	-11119
▁tu	-11120
1⁄2-	-11121
Didn	-11122
DoDI	-11123
Send	-11124
alel	-11125
belt	-11126
chen	-11127
comm	-11128
fire	-11129
ggle	-11130
inim	-11131
irts	-11132
isms	-11133
oral	-11134
phib	-11135
ptic	-11136
sook	-11137
ster	-11138
umul	-11139
wkng	-11140
▁360	-11141
▁Ask	-11142
▁Ger	-11143
▁Key	-11144
▁PRE	-11145
▁Pay	-11146
▁Pel	-11147
▁Rib	-11148
▁cig	-11149
▁dar	-11150
▁err	-11151
▁exc	-11152
▁hes	-11153
▁kid	-11154
▁nip	-11155
▁org	-11156
▁rim	-11157
▁tip	-11158
▁unl	-11159
▁wel	-11160
ahath	-11161
anker	-11162
apped	-11163
arant	-11164
athed	-11165
chand	-11166
hical	-11167
holes	-11168
igail	-11169
iscal	-11170
mates	-11171
month	-11172
nings	-11173
obile	-11174
orous	-11175
osene	-11176
piece	-11177
plane	-11178
ranch	-11179
rient	-11180
unneh	-11181
urnal	-11182
uthun	-11183
zabad	-11184
zzles	-11185
▁2000	-11186
▁Appe	-11187
▁Atha	-11188
▁Ball	-11189
▁Beam	-11190
▁Code	-11191
▁Eber	-11192
▁Five	-11193
▁Geba	-11194
▁Half	-11195
▁Heth	-11196
▁Jair	-11197
▁Link	-11198
▁Much	-11199
▁Neth	-11200
▁Prec	-11201
▁Ziba	-11202
▁cook	-11203
▁cymb	-11204
▁deaf	-11205
▁dedu	-11206
▁eart	-11207
▁fame	-11208
▁gray	-11209
▁gyps	-11210
▁idle	-11211
▁inex	-11212
▁oint	-11213
▁soil	-11214
▁unsu	-11215
apping	-11216
arette	-11217
artial	-11218
asures	-11219
atered	-11220
atural	-11221
bettes	-11222
boards	-11223
empted	-11224
ernaum	-11225
liance	-11226
nowled	-11227
oining	-11228
ourage	-11229
shakeh	-11230
umbers	-11231
verted	-11232
▁5000.	-11233
▁Along	-11234
▁Ammin	-11235
▁Amram	-11236
▁China	-11237
▁Decks	-11238
▁House	-11239
▁Ident	-11240
▁Intro	-11241
▁Mahan	-11242
▁Major	-11243
▁Meshe	-11244
▁Rehob	-11245
▁Ropes	-11246
▁Steam	-11247
▁Stren	-11248
▁Teach	-11249
▁admin	-11250
▁awake	-11251
▁bribe	-11252
▁coinc	-11253
▁convi	-11254
▁datum	-11255
▁decis	-11256
▁fatal	-11257
▁flare	-11258
▁foref	-11259
▁frost	-11260
▁glean	-11261
▁godly	-11262
▁graph	-11263
▁leach	-11264
▁lunar	-11265
▁mains	-11266
▁novel	-11267
▁plast	-11268
▁plead	-11269
▁skirt	-11270
▁slave	-11271
▁sport	-11272
▁votes	-11273
engined	-11274
itional	-11275
ounding	-11276
ultural	-11277
▁Ahikam	-11278
▁Ensign	-11279
▁Ensure	-11280
▁Establ	-11281
▁Follow	-11282
▁George	-11283
▁Global	-11284
▁Hermon	-11285
▁Rechab	-11286
▁Remove	-11287
▁Review	-11288
▁Tables	-11289
▁advent	-11290
▁ceases	-11291
▁cement	-11292
▁crafts	-11293
▁credit	-11294
▁execut	-11295
▁hunger	-11296
▁injust	-11297
▁landed	-11298
▁levers	-11299
▁lugged	-11300
▁metals	-11301
▁mortar	-11302
▁packed	-11303
▁rarely	-11304
▁recess	-11305
▁regain	-11306
▁seabed	-11307
▁signet	-11308
▁socket	-11309
▁sprung	-11310
▁stitch	-11311
▁supper	-11312
▁termin	-11313
▁thirds	-11314
▁tumult	-11315
Oriented	-11316
chandise	-11317
▁100,000	-11318
▁Abigail	-11319
▁Against	-11320
▁Amariah	-11321
▁Central	-11322
▁Charles	-11323
▁Docking	-11324
▁Element	-11325
▁Graphic	-11326
▁Jehoash	-11327
▁Missile	-11328
▁Netwkng	-11329
▁Quality	-11330
▁Require	-11331
▁Russian	-11332
▁Theater	-11333
▁Turning	-11334
▁answers	-11335
▁attacks	-11336
▁capsize	-11337
▁chiefly	-11338
▁combine	-11339
▁compare	-11340
▁consign	-11341
▁crooked	-11342
▁doubled	-11343
▁drilled	-11344
▁dunnage	-11345
▁electro	-11346
▁erected	-11347
▁farther	-11348
▁forsook	-11349
▁haughty	-11350
▁jetties	-11351
▁motions	-11352
▁opinion	-11353
▁overhan	-11354
▁powered	-11355
▁printed	-11356
▁ranging	-11357
▁renewed	-11358
▁reproof	-11359
▁screens	-11360
▁sounded	-11361
▁stacked	-11362
▁subitem	-11363
▁thicker	-11364
▁torches	-11365
▁torment	-11366
▁Combined	-11367
▁Function	-11368
▁Jeduthun	-11369
▁Nethinim	-11370
▁November	-11371
▁Southern	-11372
▁Standing	-11373
▁capsized	-11374
▁capstans	-11375
▁category	-11376
▁climates	-11377
▁conveyor	-11378
▁covetous	-11379
▁develops	-11380
▁diseases	-11381
▁domestic	-11382
▁dressing	-11383
▁envisage	-11384
▁farthest	-11385
▁handsome	-11386
▁hatchway	-11387
▁helpless	-11388
▁incident	-11389
▁instruct	-11390
▁lewdness	-11391
▁limiting	-11392
▁maneuver	-11393
▁operates	-11394
▁policing	-11395
▁promises	-11396
▁prospect	-11397
▁regulate	-11398
▁retained	-11399
▁rotating	-11400
▁sliprope	-11401
▁software	-11402
▁steamers	-11403
▁swimming	-11404
▁throwing	-11405
▁thunders	-11406
▁triangle	-11407
▁withheld	-11408
▁Amminadab	-11409
▁Capernaum	-11410
▁Greenwich	-11411
▁Jephunneh	-11412
▁Mattaniah	-11413
▁Rabshakeh	-11414
▁Righteous	-11415
▁amplitude	-11416
▁barbettes	-11417
▁broadcast	-11418
▁differing	-11419
▁discarded	-11420
▁dispersed	-11421
▁footstool	-11422
▁godliness	-11423
▁hazardous	-11424
▁pipelines	-11425
▁preparing	-11426
▁prospects	-11427
▁purchased	-11428
▁shipborne	-11429
▁shoreward	-11430
▁turnround	-11431
▁Reubenites	-11432
▁Watertight	-11433
▁accounting	-11434
▁capability	-11435
▁casualties	-11436
▁collectors	-11437
▁compensate	-11438
▁concubines	-11439
▁corruption	-11440
▁everywhere	-11441
▁exercising	-11442
▁fierceness	-11443
▁inadequate	-11444
▁industries	-11445
▁percentage	-11446
▁profitable	-11447
▁revolution	-11448
▁travelling	-11449
▁treasuries	-11450
▁unfaithful	-11451
▁Chairperson	-11452
▁compression	-11453
▁convocation	-11454
▁embarkation	-11455
▁imagination	-11456
▁institution	-11457
▁merchandise	-11458
▁practically	-11459
▁utilisation	-11460
▁Construction	-11461
▁conveniently	-11462
▁dreadnoughts	-11463
▁illustration	-11464
▁authorisation	-11465
▁deterioration	-11466
▁Administration	-11467
▁uncircumcision	-11468
5-	-11469
62	-11470
;)	-11471
CY	-11472
OW	-11473
rh	-11474
▁;	-11475
ERT	-11476
FOR	-11477
any	-11478
ddo	-11479
des	-11480
kah	-11481
lee	-11482
ouv	-11483
riv	-11484
urs	-11485
van	-11486
▁-1	-11487
▁26	-11488
▁28	-11489
▁5,	-11490
▁5-	-11491
▁AL	-11492
▁AS	-11493
▁Nu	-11494
▁VE	-11495
▁yd	-11496
Look	-11497
RESS	-11498
Rabb	-11499
With	-11500
alog	-11501
atha	-11502
axer	-11503
baal	-11504
bite	-11505
edan	-11506
edne	-11507
erah	-11508
from	-11509
idel	-11510
ilge	-11511
inth	-11512
kins	-11513
klag	-11514
maaz	-11515
nets	-11516
ocks	-11517
onor	-11518
orth	-11519
oths	-11520
phab	-11521
rees	-11522
rors	-11523
rule	-11524
skin	-11525
upon	-11526
wash	-11527
word	-11528
▁170	-11529
▁Arp	-11530
▁Dom	-11531
▁GEN	-11532
▁Gas	-11533
▁Gos	-11534
▁Ice	-11535
▁Jah	-11536
▁Meg	-11537
▁Obs	-11538
▁Pat	-11539
▁Rec	-11540
▁Ten	-11541
▁Tor	-11542
▁Wes	-11543
▁bay	-11544
▁odd	-11545
▁ree	-11546
▁ren	-11547
▁scu	-11548
▁ske	-11549
▁sta	-11550
▁wol	-11551
Peace	-11552
acity	-11553
agram	-11554
aphim	-11555
assad	-11556
drach	-11557
eshur	-11558
gment	-11559
iriam	-11560
lfare	-11561
odore	-11562
opard	-11563
ratic	-11564
retch	-11565
tween	-11566
ulfur	-11567
vedge	-11568
▁1970	-11569
▁Arms	-11570
▁Bani	-11571
▁Bapt	-11572
▁Beau	-11573
▁Bela	-11574
▁Cast	-11575
▁Elah	-11576
▁Fort	-11577
▁HAND	-11578
▁Iddo	-11579
▁Ishb	-11580
▁Lift	-11581
▁Peor	-11582
▁Rece	-11583
▁Reef	-11584
▁Spec	-11585
▁Task	-11586
▁Trop	-11587
▁bale	-11588
▁bulb	-11589
▁bush	-11590
▁cake	-11591
▁cant	-11592
▁coir	-11593
▁cris	-11594
▁dash	-11595
▁dict	-11596
▁ding	-11597
▁issu	-11598
▁pigs	-11599
▁plow	-11600
▁rare	-11601
▁sang	-11602
▁thru	-11603
▁tran	-11604
▁trig	-11605
anding	-11606
ateral	-11607
azarus	-11608
ednego	-11609
ersion	-11610
hazzar	-11611
headed	-11612
houses	-11613
ocking	-11614
peller	-11615
phabet	-11616
racted	-11617
rolabe	-11618
thirds	-11619
uaries	-11620
▁Amasa	-11621
▁BOATS	-11622
▁BRAKE	-11623
▁Break	-11624
▁Dagon	-11625
▁Dress	-11626
▁Gezer	-11627
▁Guard	-11628
▁Jerub	-11629
▁Lower	-11630
▁TERMS	-11631
▁Teman	-11632
▁Treat	-11633
▁Valid	-11634
▁Zimri	-11635
▁brace	-11636
▁brows	-11637
▁casts	-11638
▁cater	-11639
▁dying	-11640
▁exhib	-11641
▁flats	-11642
▁fluid	-11643
▁greed	-11644
▁hides	-11645
▁holid	-11646
▁imped	-11647
▁incur	-11648
▁myrrh	-11649
▁penal	-11650
▁prest	-11651
▁rebel	-11652
▁recre	-11653
▁refit	-11654
▁reply	-11655
▁safer	-11656
▁saves	-11657
▁sends	-11658
▁shoal	-11659
▁slope	-11660
▁sober	-11661
▁solve	-11662
▁speck	-11663
▁surre	-11664
▁throt	-11665
▁unpun	-11666
▁urged	-11667
▁whips	-11668
VIATION	-11669
axerxes	-11670
fulness	-11671
keepers	-11672
ometric	-11673
rigates	-11674
utation	-11675
vessels	-11676
▁Ahitub	-11677
▁Always	-11678
▁Benjam	-11679
▁Damage	-11680
▁Double	-11681
▁Geshur	-11682
▁Goshen	-11683
▁Guards	-11684
▁Jehiel	-11685
▁Living	-11686
▁Magdal	-11687
▁Middle	-11688
▁Miriam	-11689
▁Period	-11690
▁Rabbah	-11691
▁Tobiah	-11692
▁Twenty	-11693
▁Wooden	-11694
▁Ziklag	-11695
▁adrift	-11696
▁barges	-11697
▁boughs	-11698
▁checks	-11699
▁chocks	-11700
▁defend	-11701
▁engage	-11702
▁fleets	-11703
▁graves	-11704
▁hatred	-11705
▁incons	-11706
▁insert	-11707
▁insult	-11708
▁junior	-11709
▁mildew	-11710
▁native	-11711
▁oldest	-11712
▁option	-11713
▁outfit	-11714
▁partic	-11715
▁prejud	-11716
▁raises	-11717
▁resemb	-11718
▁restra	-11719
▁salute	-11720
▁scarce	-11721
▁scheme	-11722
▁splend	-11723
▁supers	-11724
▁supple	-11725
▁tithes	-11726
▁wagons	-11727
▁worker	-11728
aminated	-11729
ellation	-11730
ferences	-11731
fortable	-11732
measures	-11733
▁Ahimaaz	-11734
▁Applied	-11735
▁Ascents	-11736
▁Bearing	-11737
▁Counter	-11738
▁Eliakim	-11739
▁Eliezer	-11740
▁GENERAL	-11741
▁Meshach	-11742
▁Mooring	-11743
▁Zealand	-11744
▁assured	-11745
▁avenged	-11746
▁baskets	-11747
▁coiling	-11748
▁confine	-11749
▁conspic	-11750
▁cymbals	-11751
▁density	-11752
▁emerged	-11753
▁flatter	-11754
▁founded	-11755
▁hangars	-11756
▁inspect	-11757
▁jackals	-11758
▁jackets	-11759
▁kidneys	-11760
▁logical	-11761
▁opposed	-11762
▁pilings	-11763
▁playing	-11764
▁plotted	-11765
▁proudly	-11766
▁refined	-11767
▁rollers	-11768
▁seasons	-11769
▁smoking	-11770
▁stamped	-11771
▁stubble	-11772
▁travels	-11773
▁travers	-11774
▁tropics	-11775
▁ungodly	-11776
▁wailing	-11777
▁welfare	-11778
▁whipped	-11779
hibosheth	-11780
operative	-11781
▁Abednego	-11782
▁Athaliah	-11783
▁Baptizer	-11784
▁Dockyard	-11785
▁Ethiopia	-11786
▁February	-11787
▁Internal	-11788
▁Latitude	-11789
▁Moabites	-11790
▁Redeemer	-11791
▁Shadrach	-11792
▁Shipping	-11793
▁applying	-11794
▁attacked	-11795
▁avoiding	-11796
▁belaying	-11797
▁boltrope	-11798
▁checking	-11799
▁criteria	-11800
▁critical	-11801
▁damaging	-11802
▁defeated	-11803
▁definite	-11804
▁delegate	-11805
▁destroys	-11806
▁detained	-11807
▁doctrine	-11808
▁enabling	-11809
▁facility	-11810
▁gunboats	-11811
▁hammered	-11812
▁hospital	-11813
▁ignorant	-11814
▁independ	-11815
▁leavened	-11816
▁lighting	-11817
▁magazine	-11818
▁murmured	-11819
▁packages	-11820
▁petition	-11821
▁pilotage	-11822
▁plotting	-11823
▁pontoons	-11824
▁promoted	-11825
▁purposed	-11826
▁reconcil	-11827
▁register	-11828
▁resolved	-11829
▁routines	-11830
▁sailboat	-11831
▁selvedge	-11832
▁steerage	-11833
▁stitches	-11834
▁summoned	-11835
▁whomever	-11836
▁withdraw	-11837
▁wondrous	-11838
controlled	-11839
▁Ahimelech	-11840
▁Assistant	-11841
▁Boatswain	-11842
▁Hashabiah	-11843
▁Malchijah	-11844
▁Mediation	-11845
▁achieving	-11846
▁acknowled	-11847
▁actuation	-11848
▁attribute	-11849
▁automated	-11850
▁complaint	-11851
▁detention	-11852
▁disturbed	-11853
▁execution	-11854
▁fairleads	-11855
▁governing	-11856
▁guardrail	-11857
▁indicator	-11858
▁injustice	-11859
▁intensity	-11860
▁intention	-11861
▁intercept	-11862
▁magicians	-11863
▁maintains	-11864
▁ministers	-11865
▁overcomes	-11866
▁overthrew	-11867
▁partakers	-11868
▁poisonous	-11869
▁prospered	-11870
▁referring	-11871
▁seaworthy	-11872
▁terrified	-11873
▁testifies	-11874
▁Artaxerxes	-11875
▁Conversely	-11876
▁Federation	-11877
▁Kohathites	-11878
▁anchorages	-11879
▁attachment	-11880
▁completing	-11881
▁components	-11882
▁conference	-11883
▁counteract	-11884
▁diagonally	-11885
▁explosives	-11886
▁impressive	-11887
▁ministered	-11888
▁occasional	-11889
▁partiality	-11890
▁positioned	-11891
▁practition	-11892
▁situations	-11893
▁succession	-11894
▁unpunished	-11895
▁Atmospheric	-11896
▁Integration	-11897
▁astronomers	-11898
▁circulation	-11899
▁consecrated	-11900
▁controlling	-11901
▁cylindrical	-11902
▁deadweights	-11903
▁acceleration	-11904
▁companionway	-11905
▁consequences	-11906
▁contribution	-11907
▁incorporated	-11908
▁intelligence	-11909
▁transmitting	-11910
▁Configuration	-11911
▁environmental	-11912
▁impracticable	-11913
▁relationships	-11914
▁uncomfortable	-11915
▁specifications	-11916
7-	-11917
AC	-11918
Am	-11919
Ar	-11920
EM	-11921
IB	-11922
LY	-11923
PE	-11924
UD	-11925
ca	-11926
gg	-11927
wt	-11928
°.	-11929
(2)	-11930
ALS	-11931
EAR	-11932
HLA	-11933
IND	-11934
ISS	-11935
REE	-11936
She	-11937
akk	-11938
bra	-11939
gor	-11940
imp	-11941
ios	-11942
iry	-11943
mai	-11944
rub	-11945
sop	-11946
uah	-11947
▁29	-11948
▁31	-11949
▁AT	-11950
▁Ce	-11951
▁Ir	-11952
▁MO	-11953
▁Ol	-11954
▁SC	-11955
▁SE	-11956
▁SW	-11957
▁Sk	-11958
▁ug	-11959
(1),	-11960
ABLE	-11961
ANCE	-11962
ARBO	-11963
ATER	-11964
Call	-11965
NING	-11966
amet	-11967
azer	-11968
cees	-11969
gged	-11970
guys	-11971
hazi	-11972
icit	-11973
lete	-11974
miel	-11975
mill	-11976
phaz	-11977
phir	-11978
phis	-11979
qual	-11980
quet	-11981
term	-11982
this	-11983
tops	-11984
turn	-11985
vage	-11986
▁165	-11987
▁90°	-11988
▁Aff	-11989
▁Alb	-11990
▁Ans	-11991
▁Ara	-11992
▁Bez	-11993
▁Bow	-11994
▁Cho	-11995
▁Due	-11996
▁Gog	-11997
▁HMS	-11998
▁Hyd	-11999
▁Jam	-12000
▁Joi	-12001
▁Lif	-12002
▁Nic	-12003
▁Oil	-12004
▁Peo	-12005
▁Rez	-12006
▁Rot	-12007
▁Sem	-12008
▁Tek	-12009
▁Won	-12010
▁Zur	-12011
▁axe	-12012
▁deb	-12013
▁lev	-12014
▁sew	-12015
▁wax	-12016
Chief	-12017
agues	-12018
atile	-12019
bread	-12020
elope	-12021
hampt	-12022
humbs	-12023
itary	-12024
ittim	-12025
izzen	-12026
orted	-12027
rator	-12028
ridge	-12029
tieth	-12030
uster	-12031
usual	-12032
weigh	-12033
▁1870	-12034
▁2014	-12035
▁2016	-12036
▁4.5-	-12037
▁7227	-12038
▁Cush	-12039
▁Kare	-12040
▁Loss	-12041
▁Move	-12042
▁PORT	-12043
▁Poly	-12044
▁Prob	-12045
▁Self	-12046
▁Senn	-12047
▁Shes	-12048
▁Shun	-12049
▁Step	-12050
▁Tack	-12051
▁Vert	-12052
▁Walk	-12053
▁Ziph	-12054
▁bald	-12055
▁beli	-12056
▁bite	-12057
▁butt	-12058
▁crim	-12059
▁curv	-12060
▁elig	-12061
▁eval	-12062
▁evap	-12063
▁fins	-12064
▁jute	-12065
▁leaf	-12066
▁lyre	-12067
▁mire	-12068
▁obst	-12069
▁oven	-12070
▁pear	-12071
▁phen	-12072
▁sows	-12073
▁unse	-12074
▁wail	-12075
ATIONS	-12076
Return	-12077
allets	-12078
altiel	-12079
ancing	-12080
asonry	-12081
banked	-12082
cating	-12083
cation	-12084
culiar	-12085
gorith	-12086
illing	-12087
lemiah	-12088
length	-12089
liding	-12090
oustic	-12091
rising	-12092
sheets	-12093
▁Avoid	-12094
▁Barak	-12095
▁Close	-12096
▁Count	-12097
▁Debir	-12098
▁Fixed	-12099
▁Hamor	-12100
▁Izhar	-12101
▁Joppa	-12102
▁Lines	-12103
▁Malta	-12104
▁Motor	-12105
▁Rahab	-12106
▁Saddu	-12107
▁Scale	-12108
▁Still	-12109
▁Terah	-12110
▁Terms	-12111
▁Using	-12112
▁Would	-12113
▁Zobah	-12114
▁admon	-12115
▁baked	-12116
▁cheap	-12117
▁cheek	-12118
▁clump	-12119
▁disgu	-12120
▁drown	-12121
▁drugs	-12122
▁flatt	-12123
▁frogs	-12124
▁grind	-12125
▁groan	-12126
▁herbs	-12127
▁match	-12128
▁necks	-12129
▁rails	-12130
▁reeve	-12131
▁schem	-12132
▁shave	-12133
▁shook	-12134
▁sloop	-12135
▁snuff	-12136
▁spark	-12137
▁spies	-12138
▁stain	-12139
▁taper	-12140
▁tucks	-12141
▁unlay	-12142
▁vomit	-12143
▁wedge	-12144
▁wines	-12145
anctify	-12146
breadth	-12147
current	-12148
fection	-12149
issible	-12150
portion	-12151
rations	-12152
viously	-12153
▁Anyone	-12154
▁Colour	-12155
▁Corpor	-12156
▁Domain	-12157
▁Ephron	-12158
▁Gunter	-12159
▁Hushai	-12160
▁Island	-12161
▁Manual	-12162
▁Mobile	-12163
▁Passen	-12164
▁Prosec	-12165
▁Secure	-12166
▁Syrian	-12167
▁appeal	-12168
▁budget	-12169
▁butter	-12170
▁casing	-12171
▁center	-12172
▁chased	-12173
▁confer	-12174
▁crisis	-12175
▁crowns	-12176
▁curves	-12177
▁denote	-12178
▁detest	-12179
▁dinner	-12180
▁discri	-12181
▁disgra	-12182
▁doctor	-12183
▁dragon	-12184
▁exclus	-12185
▁expand	-12186
▁farmer	-12187
▁floods	-12188
▁groove	-12189
▁guards	-12190
▁hanger	-12191
▁harder	-12192
▁heated	-12193
▁heaved	-12194
▁honour	-12195
▁injury	-12196
▁kindly	-12197
▁launch	-12198
▁mobile	-12199
▁negoti	-12200
▁offici	-12201
▁openly	-12202
▁organs	-12203
▁picked	-12204
▁presum	-12205
▁proxim	-12206
▁recoil	-12207
▁repeat	-12208
▁robbed	-12209
▁shaved	-12210
▁skirts	-12211
▁sleeve	-12212
▁sooner	-12213
▁steved	-12214
▁storms	-12215
▁strive	-12216
▁sulfur	-12217
▁surged	-12218
▁symmet	-12219
▁tailed	-12220
▁talent	-12221
▁tingle	-12222
▁tracks	-12223
▁transp	-12224
▁unfair	-12225
▁unship	-12226
▁volunt	-12227
chronous	-12228
distance	-12229
ibration	-12230
misphere	-12231
phibious	-12232
pressure	-12233
▁COMPASS	-12234
▁Gadites	-12235
▁Gershom	-12236
▁January	-12237
▁Michael	-12238
▁Repulse	-12239
▁Sailors	-12240
▁Subject	-12241
▁Supreme	-12242
▁advised	-12243
▁angular	-12244
▁apprent	-12245
▁archers	-12246
▁azimuth	-12247
▁blossom	-12248
▁chamber	-12249
▁compact	-12250
▁diamond	-12251
▁divorce	-12252
▁dungeon	-12253
▁emptied	-12254
▁fetched	-12255
▁formula	-12256
▁girders	-12257
▁goosene	-12258
▁guarant	-12259
▁honored	-12260
▁ignored	-12261
▁implies	-12262
▁induced	-12263
▁jumpers	-12264
▁masonry	-12265
▁missing	-12266
▁nozzles	-12267
▁numeral	-12268
▁obliged	-12269
▁partner	-12270
▁payment	-12271
▁perplex	-12272
▁pockets	-12273
▁profile	-12274
▁rebuild	-12275
▁sayings	-12276
▁shining	-12277
▁showers	-12278
▁sighted	-12279
▁soldier	-12280
▁starter	-12281
▁stature	-12282
▁stripes	-12283
▁survive	-12284
▁turtled	-12285
ergencies	-12286
uthorised	-12287
▁Beaufort	-12288
▁Continue	-12289
▁Cruisers	-12290
▁HANDLING	-12291
▁Mahanaim	-12292
▁Variable	-12293
▁allotted	-12294
▁alphabet	-12295
▁ambassad	-12296
▁analysis	-12297
▁assuming	-12298
▁attempts	-12299
▁behavior	-12300
▁boatrope	-12301
▁coloured	-12302
▁conceive	-12303
▁contents	-12304
▁currents	-12305
▁delicate	-12306
▁dockside	-12307
▁drawings	-12308
▁eligible	-12309
▁feathers	-12310
▁groaning	-12311
▁identify	-12312
▁interior	-12313
▁isolated	-12314
▁lashings	-12315
▁meditate	-12316
▁ministry	-12317
▁northern	-12318
▁ointment	-12319
▁peculiar	-12320
▁phenomen	-12321
▁pregnant	-12322
▁reasoned	-12323
▁rewarded	-12324
▁scramble	-12325
▁sluggard	-12326
▁steadily	-12327
▁suitably	-12328
▁terrible	-12329
▁watchmen	-12330
▁weighted	-12331
▁DEVIATION	-12332
▁Institute	-12333
▁Interoper	-12334
▁Perizzite	-12335
▁Sadducees	-12336
▁Victorian	-12337
▁breakdown	-12338
▁cleansing	-12339
▁comparing	-12340
▁compasses	-12341
▁construed	-12342
▁curvature	-12343
▁diligence	-12344
▁dishonest	-12345
▁elections	-12346
▁entreated	-12347
▁equitable	-12348
▁furniture	-12349
▁galleries	-12350
▁generator	-12351
▁instantly	-12352
▁observing	-12353
▁occurring	-12354
▁operators	-12355
▁preserved	-12356
▁recording	-12357
▁requiring	-12358
▁stranding	-12359
▁travelled	-12360
▁variables	-12361
▁violently	-12362
▁worthless	-12363
eorological	-12364
▁Difference	-12365
▁Validation	-12366
▁adjustment	-12367
▁administer	-12368
▁artificial	-12369
▁delegation	-12370
▁distribute	-12371
▁divination	-12372
▁electronic	-12373
▁filthiness	-12374
▁guardrails	-12375
▁inevitable	-12376
▁performing	-12377
▁recovering	-12378
▁revelation	-12379
▁signalling	-12380
▁sufferings	-12381
▁visitation	-12382
▁Battlefield	-12383
▁Precautions	-12384
▁Preparation	-12385
▁competition	-12386
▁deliverance	-12387
▁expectation	-12388
▁overflowing	-12389
▁permissible	-12390
▁steadfastly	-12391
▁Compartments	-12392
▁Consequently	-12393
▁Mephibosheth	-12394
▁commissioner	-12395
▁disciplinary	-12396
▁investigated	-12397
▁professional	-12398
▁proportional	-12399
▁opportunities	-12400
▁Infrastructure	-12401
▁unconventional	-12402
▁representatives	-12403
CM	-12404
TA	-12405
UB	-12406
UM	-12407
UO	-12408
ev	-12409
hr	-12410
ik	-12411
sh	-12412
ua	-12413
’.	-12414
!'"	-12415
.59	-12416
.”.	-12417
IDE	-12418
Yet	-12419
adr	-12420
cam	-12421
can	-12422
dam	-12423
dis	-12424
fed	-12425
fts	-12426
hea	-12427
hit	-12428
hoe	-12429
key	-12430
lla	-12431
oty	-12432
phy	-12433
umm	-12434
yss	-12435
▁44	-12436
▁75	-12437
▁9.	-12438
▁93	-12439
▁Ec	-12440
▁NB	-12441
▁PL	-12442
▁iv	-12443
▁vo	-12444
CHOR	-12445
TERN	-12446
alon	-12447
bear	-12448
comb	-12449
etic	-12450
fled	-12451
half	-12452
iety	-12453
imet	-12454
irty	-12455
llen	-12456
loyd	-12457
olen	-12458
onom	-12459
osit	-12460
paul	-12461
pple	-12462
rict	-12463
ruly	-12464
rush	-12465
shon	-12466
took	-12467
urry	-12468
wear	-12469
weed	-12470
▁13.	-12471
▁600	-12472
▁60°	-12473
▁Abs	-12474
▁Bed	-12475
▁Bir	-12476
▁Cam	-12477
▁EQU	-12478
▁Hod	-12479
▁Hog	-12480
▁Ill	-12481
▁Leg	-12482
▁Mak	-12483
▁Mil	-12484
▁NAV	-12485
▁Nob	-12486
▁Pie	-12487
▁Ret	-12488
▁SEA	-12489
▁Zel	-12490
▁cav	-12491
▁cis	-12492
▁cod	-12493
▁cud	-12494
▁cul	-12495
▁fug	-12496
▁hom	-12497
▁lit	-12498
▁lur	-12499
▁mic	-12500
▁urg	-12501
Rabbi	-12502
abbas	-12503
being	-12504
block	-12505
cible	-12506
elles	-12507
enses	-12508
estus	-12509
ethan	-12510
forth	-12511
guard	-12512
inent	-12513
innom	-12514
kelon	-12515
onday	-12516
otsam	-12517
ropri	-12518
smith	-12519
ument	-12520
yssop	-12521
▁(1).	-12522
▁(2),	-12523
▁1977	-12524
▁Amoz	-12525
▁Bank	-12526
▁Corn	-12527
▁Down	-12528
▁Dred	-12529
▁Ephr	-12530
▁Happ	-12531
▁Hard	-12532
▁Hatt	-12533
▁Hood	-12534
▁Hull	-12535
▁Last	-12536
▁Lion	-12537
▁Load	-12538
▁Mich	-12539
▁Nebo	-12540
▁Pash	-12541
▁Ruth	-12542
▁SAIL	-12543
▁Sept	-12544
▁User	-12545
▁Wave	-12546
▁Whom	-12547
▁Wide	-12548
▁beds	-12549
▁clip	-12550
▁club	-12551
▁cope	-12552
▁crab	-12553
▁fits	-12554
▁hing	-12555
▁itch	-12556
▁lent	-12557
▁liar	-12558
▁mira	-12559
▁puff	-12560
▁rash	-12561
▁ribs	-12562
▁rush	-12563
▁sale	-12564
▁sash	-12565
▁soap	-12566
▁summ	-12567
▁surn	-12568
▁tool	-12569
▁tram	-12570
▁trap	-12571
▁upro	-12572
▁vast	-12573
▁warn	-12574
anders	-12575
atches	-12576
ilated	-12577
inadab	-12578
isible	-12579
ivated	-12580
ointer	-12581
riment	-12582
▁1942.	-12583
▁3,000	-12584
▁Aided	-12585
▁Based	-12586
▁Eglon	-12587
▁Enoch	-12588
▁Exerc	-12589
▁Going	-12590
▁Hagar	-12591
▁Hazar	-12592
▁Henry	-12593
▁Hoses	-12594
▁Incre	-12595
▁Invin	-12596
▁Jahaz	-12597
▁Jazer	-12598
▁Maker	-12599
▁Merib	-12600
▁Night	-12601
▁Ophir	-12602
▁Owing	-12603
▁Start	-12604
▁Storm	-12605
▁Titus	-12606
▁celeb	-12607
▁chase	-12608
▁dates	-12609
▁dozen	-12610
▁faked	-12611
▁fills	-12612
▁flees	-12613
▁fluke	-12614
▁gauge	-12615
▁happy	-12616
▁inval	-12617
▁ivory	-12618
▁liver	-12619
▁looms	-12620
▁meals	-12621
▁minel	-12622
▁mirth	-12623
▁noble	-12624
▁pains	-12625
▁reefs	-12626
▁reflo	-12627
▁scorp	-12628
▁shone	-12629
▁squee	-12630
▁stirs	-12631
▁tells	-12632
▁tooth	-12633
▁whale	-12634
Neither	-12635
acherib	-12636
cession	-12637
cluding	-12638
control	-12639
ifiable	-12640
manship	-12641
omorrow	-12642
pending	-12643
portant	-12644
rically	-12645
urement	-12646
zaradan	-12647
▁ANCHOR	-12648
▁Adjust	-12649
▁Branch	-12650
▁Canada	-12651
▁Commer	-12652
▁Custom	-12653
▁Festus	-12654
▁Format	-12655
▁Gather	-12656
▁Hinnom	-12657
▁Indies	-12658
▁Megidd	-12659
▁Melchi	-12660
▁Napole	-12661
▁Oholib	-12662
▁Orders	-12663
▁People	-12664
▁Pieces	-12665
▁Remote	-12666
▁Survey	-12667
▁Surviv	-12668
▁Taking	-12669
▁Unlike	-12670
▁abrupt	-12671
▁ascend	-12672
▁cheeks	-12673
▁clench	-12674
▁compre	-12675
▁decked	-12676
▁disast	-12677
▁docked	-12678
▁enthus	-12679
▁finest	-12680
▁folded	-12681
▁forgot	-12682
▁furled	-12683
▁hiding	-12684
▁intent	-12685
▁ladies	-12686
▁mizzen	-12687
▁oscill	-12688
▁parcel	-12689
▁paying	-12690
▁pellet	-12691
▁refres	-12692
▁reigns	-12693
▁remedy	-12694
▁renown	-12695
▁rocket	-12696
▁ruined	-12697
▁sentry	-12698
▁sickle	-12699
▁spared	-12700
▁steers	-12701
▁stormy	-12702
▁tallow	-12703
▁territ	-12704
▁thinks	-12705
▁tunnel	-12706
▁turban	-12707
▁turbul	-12708
▁uphold	-12709
▁5000.59	-12710
▁Eliphaz	-12711
▁Jedaiah	-12712
▁Justice	-12713
▁Lazarus	-12714
▁Nahshon	-12715
▁Pashhur	-12716
▁Perhaps	-12717
▁Rigging	-12718
▁Society	-12719
▁Terrain	-12720
▁Torpedo	-12721
▁anticip	-12722
▁assumes	-12723
▁banquet	-12724
▁briefly	-12725
▁ceiling	-12726
▁charted	-12727
▁cistern	-12728
▁convert	-12729
▁decades	-12730
▁delayed	-12731
▁endless	-12732
▁flotsam	-12733
▁flowers	-12734
▁forbear	-12735
▁helpful	-12736
▁maidens	-12737
▁manager	-12738
▁neutral	-12739
▁nursing	-12740
▁outcome	-12741
▁overlay	-12742
▁pitched	-12743
▁pledged	-12744
▁receipt	-12745
▁reeving	-12746
▁relieve	-12747
▁reprove	-12748
▁revolve	-12749
▁rooster	-12750
▁rotates	-12751
▁rubbing	-12752
▁savings	-12753
▁scourge	-12754
▁shingle	-12755
▁staying	-12756
▁strains	-12757
▁terrors	-12758
▁unusual	-12759
▁Ashkelon	-12760
▁Brothers	-12761
▁Distance	-12762
▁Floating	-12763
▁Interval	-12764
▁Nethanel	-12765
▁Remaliah	-12766
▁Vertical	-12767
▁abundant	-12768
▁announce	-12769
▁assemble	-12770
▁assisted	-12771
▁boathook	-12772
▁brackets	-12773
▁breeches	-12774
▁chastise	-12775
▁compiled	-12776
▁concepts	-12777
▁concerns	-12778
▁decisive	-12779
▁depended	-12780
▁derision	-12781
▁deserted	-12782
▁diligent	-12783
▁distinct	-12784
▁doubtful	-12785
▁equality	-12786
▁expenses	-12787
▁flogging	-12788
▁guidance	-12789
▁hydrants	-12790
▁impurity	-12791
▁inherent	-12792
▁judicial	-12793
▁lookouts	-12794
▁midships	-12795
▁momentum	-12796
▁necessit	-12797
▁obsolete	-12798
▁pastures	-12799
▁pressing	-12800
▁quenched	-12801
▁settings	-12802
▁sidewall	-12803
▁teraphim	-12804
▁touching	-12805
▁traffick	-12806
▁transits	-12807
▁unbroken	-12808
▁upstream	-12809
▁voltages	-12810
ventilated	-12811
worthiness	-12812
▁Initially	-12813
▁Jebusites	-12814
▁Jerubbaal	-12815
▁adjusting	-12816
▁astrolabe	-12817
▁backwards	-12818
▁basically	-12819
▁cancelled	-12820
▁certainty	-12821
▁computers	-12822
▁corrupted	-12823
▁detriment	-12824
▁dissolved	-12825
▁dockyards	-12826
▁elevation	-12827
▁encircled	-12828
▁forecasts	-12829
▁foregoing	-12830
▁freighter	-12831
▁gooseneck	-12832
▁graduated	-12833
▁guiltless	-12834
▁invention	-12835
▁portfolio	-12836
▁pressures	-12837
▁proximity	-12838
▁reasoning	-12839
▁seriously	-12840
▁shipyards	-12841
▁wandering	-12842
▁worldwide	-12843
▁Conference	-12844
▁Particular	-12845
▁Portsmouth	-12846
▁acceptance	-12847
▁assignment	-12848
▁candidates	-12849
▁collateral	-12850
▁compressor	-12851
▁confession	-12852
▁consequent	-12853
▁conspiracy	-12854
▁descending	-12855
▁dispossess	-12856
▁distortion	-12857
▁eliminated	-12858
▁fastenings	-12859
▁federation	-12860
▁lengthened	-12861
▁manoeuvred	-12862
▁noticeable	-12863
▁projection	-12864
▁remarkable	-12865
▁thirteenth	-12866
▁variations	-12867
▁wastewater	-12868
▁Alternative	-12869
▁Nebuzaradan	-12870
▁Sennacherib	-12871
▁backsliding	-12872
▁communities	-12873
▁concentrate	-12874
▁departments	-12875
▁disposition	-12876
▁establishes	-12877
▁limitations	-12878
▁obligations	-12879
▁treacherous	-12880
▁Requirements	-12881
▁administered	-12882
▁applications	-12883
▁contemporary	-12884
▁experimental	-12885
▁interference	-12886
▁minesweepers	-12887
▁practitioner	-12888
▁unauthorised	-12889
▁exceptionally	-12890
▁participation	-12891
▁progressively	-12892
▁reciprocating	-12893
▁considerations	-12894
):	-12895
7)	-12896
DF	-12897
Ka	-12898
Le	-12899
MO	-12900
NE	-12901
ez	-12902
va	-12903
(3)	-12904
-1;	-12905
.),	-12906
3),	-12907
ALL	-12908
ATE	-12909
DER	-12910
ECT	-12911
Rem	-12912
SMC	-12913
Say	-12914
Sit	-12915
UOY	-12916
ann	-12917
cip	-12918
eed	-12919
eer	-12920
fig	-12921
gah	-12922
hil	-12923
hyl	-12924
lor	-12925
oat	-12926
pol	-12927
rep	-12928
uez	-12929
ulg	-12930
zad	-12931
▁00	-12932
▁47	-12933
▁6,	-12934
▁65	-12935
▁AF	-12936
▁IS	-12937
▁Ly	-12938
▁Ni	-12939
▁OP	-12940
▁QU	-12941
▁UN	-12942
ICAL	-12943
INES	-12944
Kaap	-12945
Rise	-12946
TING	-12947
alls	-12948
angs	-12949
apse	-12950
arib	-12951
arit	-12952
arse	-12953
drew	-12954
eded	-12955
edee	-12956
gain	-12957
hany	-12958
hash	-12959
iser	-12960
late	-12961
name	-12962
pace	-12963
pert	-12964
rass	-12965
rene	-12966
sets	-12967
ubal	-12968
uels	-12969
umps	-12970
uten	-12971
zill	-12972
▁(6)	-12973
▁10.	-12974
▁30-	-12975
▁Alf	-12976
▁Ann	-12977
▁DRA	-12978
▁Der	-12979
▁Dor	-12980
▁Enc	-12981
▁Fun	-12982
▁Gen	-12983
▁Gol	-12984
▁Hav	-12985
▁Ith	-12986
▁Law	-12987
▁Lee	-12988
▁Mec	-12989
▁Pis	-12990
▁Ren	-12991
▁Rod	-12992
▁SAN	-12993
▁Shu	-12994
▁Tah	-12995
▁Thi	-12996
▁Tig	-12997
▁Top	-12998
▁Uri	-12999
▁Wis	-13000
▁apt	-13001
▁bub	-13002
▁gut	-13003
▁hed	-13004
▁lag	-13005
▁nut	-13006
▁owl	-13007
▁peg	-13008
ITION	-13009
Which	-13010
aanah	-13011
addan	-13012
amech	-13013
anges	-13014
ascar	-13015
brevi	-13016
burgh	-13017
chiah	-13018
eling	-13019
enary	-13020
equal	-13021
erant	-13022
erers	-13023
estal	-13024
geons	-13025
henna	-13026
hions	-13027
ieval	-13028
ifier	-13029
insie	-13030
isson	-13031
leton	-13032
lique	-13033
metal	-13034
munna	-13035
north	-13036
nting	-13037
orned	-13038
pents	-13039
rable	-13040
rafts	-13041
rippa	-13042
rones	-13043
sheba	-13044
siale	-13045
sided	-13046
trees	-13047
ushan	-13048
zadak	-13049
▁(1),	-13050
▁7662	-13051
▁Acha	-13052
▁Agag	-13053
▁Anah	-13054
▁Band	-13055
▁Dard	-13056
▁Dece	-13057
▁Ebed	-13058
▁Gitt	-13059
▁Infl	-13060
▁July	-13061
▁MAIN	-13062
▁Node	-13063
▁Oath	-13064
▁Redu	-13065
▁Room	-13066
▁Seek	-13067
▁Send	-13068
▁Shah	-13069
▁Sheb	-13070
▁Stow	-13071
▁Suez	-13072
▁Tele	-13073
▁abst	-13074
▁ages	-13075
▁arcs	-13076
▁baul	-13077
▁blot	-13078
▁busy	-13079
▁chal	-13080
▁clas	-13081
▁cork	-13082
▁dain	-13083
▁drug	-13084
▁emit	-13085
▁foil	-13086
▁fron	-13087
▁fury	-13088
▁jets	-13089
▁lazy	-13090
▁limb	-13091
▁moth	-13092
▁oils	-13093
▁pist	-13094
▁plum	-13095
▁rage	-13096
▁rive	-13097
▁slot	-13098
▁snug	-13099
▁vent	-13100
▁vile	-13101
▁ward	-13102
ancies	-13103
angled	-13104
atched	-13105
athaim	-13106
bearer	-13107
called	-13108
ceanic	-13109
esting	-13110
gallon	-13111
ilight	-13112
lights	-13113
masted	-13114
orious	-13115
reated	-13116
risons	-13117
rupted	-13118
taroth	-13119
ulsory	-13120
zillai	-13121
▁1914.	-13122
▁Abihu	-13123
▁Agree	-13124
▁Chain	-13125
▁Civil	-13126
▁Corps	-13127
▁Crete	-13128
▁Dedan	-13129
▁Heber	-13130
▁Hoist	-13131
▁Huram	-13132
▁Italy	-13133
▁Jerah	-13134
▁Judge	-13135
▁Kedar	-13136
▁Lloyd	-13137
▁Mahli	-13138
▁Medes	-13139
▁Netop	-13140
▁Ornan	-13141
▁Parts	-13142
▁Silas	-13143
▁Speak	-13144
▁Surve	-13145
▁Tabor	-13146
▁Zebah	-13147
▁abuse	-13148
▁acute	-13149
▁bells	-13150
▁bulky	-13151
▁camel	-13152
▁cares	-13153
▁clamp	-13154
▁compr	-13155
▁crude	-13156
▁decay	-13157
▁deton	-13158
▁doves	-13159
▁fewer	-13160
▁fring	-13161
▁gains	-13162
▁grand	-13163
▁gypsy	-13164
▁harsh	-13165
▁ineff	-13166
▁irons	-13167
▁irres	-13168
▁keels	-13169
▁piles	-13170
▁plent	-13171
▁rated	-13172
▁risks	-13173
▁roast	-13174
▁sacks	-13175
▁sandy	-13176
▁scrub	-13177
▁shark	-13178
▁sinks	-13179
▁solar	-13180
▁story	-13181
▁volts	-13182
▁vowed	-13183
▁waits	-13184
▁waved	-13185
▁weeds	-13186
▁wells	-13187
▁worry	-13188
ervious	-13189
hathite	-13190
logical	-13191
looking	-13192
masters	-13193
nection	-13194
onsider	-13195
phatiah	-13196
rechiah	-13197
regular	-13198
umbered	-13199
ustomed	-13200
▁Except	-13201
▁Galile	-13202
▁Gehazi	-13203
▁Hannah	-13204
▁Health	-13205
▁Hoshea	-13206
▁Kareah	-13207
▁Kedesh	-13208
▁Lamech	-13209
▁Martha	-13210
▁Models	-13211
▁Powers	-13212
▁Proced	-13213
▁Robert	-13214
▁Seaman	-13215
▁Social	-13216
▁Timnah	-13217
▁Zichri	-13218
▁adding	-13219
▁avenge	-13220
▁babies	-13221
▁banner	-13222
▁beware	-13223
▁boldly	-13224
▁bowels	-13225
▁brooks	-13226
▁bucket	-13227
▁burial	-13228
▁centri	-13229
▁define	-13230
▁detain	-13231
▁dinghy	-13232
▁disreg	-13233
▁embras	-13234
▁emerge	-13235
▁fathom	-13236
▁fright	-13237
▁goings	-13238
▁headed	-13239
▁hoists	-13240
▁homing	-13241
▁hyssop	-13242
▁idolat	-13243
▁lacing	-13244
▁lacked	-13245
▁morsel	-13246
▁namely	-13247
▁orange	-13248
▁panels	-13249
▁payout	-13250
▁piling	-13251
▁portal	-13252
▁racial	-13253
▁ranges	-13254
▁respir	-13255
▁rifled	-13256
▁sector	-13257
▁sights	-13258
▁singly	-13259
▁sinker	-13260
▁stolen	-13261
▁subsid	-13262
▁suited	-13263
▁swarms	-13264
▁symbol	-13265
▁traded	-13266
▁transl	-13267
▁transo	-13268
▁urgent	-13269
▁vested	-13270
▁voices	-13271
▁warped	-13272
▁weaker	-13273
▁weaned	-13274
▁wearer	-13275
formance	-13276
ittingly	-13277
ogeneous	-13278
together	-13279
▁Agrippa	-13280
▁Apollos	-13281
▁Azimuth	-13282
▁Bethany	-13283
▁Declare	-13284
▁Dynamic	-13285
▁Equator	-13286
▁Gangway	-13287
▁Gehenna	-13288
▁Improve	-13289
▁Jonadab	-13290
▁Koerant	-13291
▁Megiddo	-13292
▁Mercury	-13293
▁Prepare	-13294
▁Rejoice	-13295
▁Revenge	-13296
▁Samarit	-13297
▁Science	-13298
▁Shushan	-13299
▁Storage	-13300
▁Zebedee	-13301
▁approve	-13302
▁barrels	-13303
▁behaved	-13304
▁bonnets	-13305
▁bottles	-13306
▁braided	-13307
▁casings	-13308
▁commend	-13309
▁cradles	-13310
▁crosses	-13311
▁disobey	-13312
▁disqual	-13313
▁earthen	-13314
▁evolved	-13315
▁feeling	-13316
▁fetters	-13317
▁fleshly	-13318
▁gardens	-13319
▁greased	-13320
▁grouped	-13321
▁gunnery	-13322
▁handful	-13323
▁harmful	-13324
▁interse	-13325
▁justify	-13326
▁lantern	-13327
▁leagues	-13328
▁lioness	-13329
▁longest	-13330
▁longing	-13331
▁loosely	-13332
▁magnify	-13333
▁marline	-13334
▁mirrors	-13335
▁moulded	-13336
▁omitted	-13337
▁onboard	-13338
▁organis	-13339
▁pallets	-13340
▁pervers	-13341
▁picture	-13342
▁pitcher	-13343
▁plainly	-13344
▁platter	-13345
▁pointer	-13346
▁pushing	-13347
▁sharply	-13348
▁smartly	-13349
▁sorrows	-13350
▁spacing	-13351
▁suffers	-13352
▁sweeper	-13353
▁tabling	-13354
▁targets	-13355
▁theoret	-13356
▁thrones	-13357
▁tideway	-13358
▁tonight	-13359
▁trading	-13360
▁uttered	-13361
▁vinegar	-13362
▁watered	-13363
amination	-13364
ertaining	-13365
ordinates	-13366
overboard	-13367
ronometer	-13368
ronounced	-13369
telephone	-13370
▁Abinadab	-13371
▁Absolute	-13372
▁Aircraft	-13373
▁Altitude	-13374
▁Complete	-13375
▁Exercise	-13376
▁Facility	-13377
▁Nowadays	-13378
▁Pharisee	-13379
▁Securing	-13380
▁Tropical	-13381
▁Zalmunna	-13382
▁acquired	-13383
▁annually	-13384
▁arrested	-13385
▁bullring	-13386
▁careless	-13387
▁commerce	-13388
▁cringles	-13389
▁daylight	-13390
▁descript	-13391
▁desiring	-13392
▁diagonal	-13393
▁differed	-13394
▁disgrace	-13395
▁displace	-13396
▁district	-13397
▁embarked	-13398
▁exposure	-13399
▁flourish	-13400
▁foresail	-13401
▁gantline	-13402
▁garrison	-13403
▁gratings	-13404
▁interven	-13405
▁mightier	-13406
▁numerous	-13407
▁occupier	-13408
▁overhand	-13409
▁overhaul	-13410
▁overtook	-13411
▁prestige	-13412
▁realised	-13413
▁relating	-13414
▁scarcely	-13415
▁serpents	-13416
▁shipment	-13417
▁shortest	-13418
▁slinging	-13419
▁sluggish	-13420
▁southern	-13421
▁thimbles	-13422
▁trampled	-13423
▁trembles	-13424
▁turnbuck	-13425
▁ultimate	-13426
▁withdrew	-13427
▁withhold	-13428
ominations	-13429
▁Anchoring	-13430
▁Barzillai	-13431
▁Broadcast	-13432
▁Deviation	-13433
▁Logistics	-13434
▁Longitude	-13435
▁Magdalene	-13436
▁Newcastle	-13437
▁Provinsie	-13438
▁September	-13439
▁Shealtiel	-13440
▁Societies	-13441
▁Synthetic	-13442
▁altitudes	-13443
▁arbitrary	-13444
▁arrogance	-13445
▁battering	-13446
▁belonging	-13447
▁blessings	-13448
▁candidate	-13449
▁compelled	-13450
▁decreased	-13451
▁delighted	-13452
▁descended	-13453
▁documents	-13454
▁fashioned	-13455
▁fendering	-13456
▁finishing	-13457
▁forwarded	-13458
▁handmaids	-13459
▁handwheel	-13460
▁immersion	-13461
▁inserting	-13462
▁invisible	-13463
▁lifebuoys	-13464
▁lowermast	-13465
▁mustering	-13466
▁offensive	-13467
▁perplexed	-13468
▁presiding	-13469
▁reinforce	-13470
▁retaining	-13471
▁satellite	-13472
▁simulated	-13473
▁sorrowful	-13474
▁subtended	-13475
▁suggested	-13476
▁surveying	-13477
▁surveyors	-13478
▁synthetic	-13479
▁telegraph	-13480
▁watercour	-13481
▁Automation	-13482
▁Concerning	-13483
▁Napoleonic	-13484
▁Shephatiah	-13485
▁adulteress	-13486
▁approached	-13487
▁background	-13488
▁collisions	-13489
▁compliance	-13490
▁conductors	-13491
▁consulting	-13492
▁continuing	-13493
▁definition	-13494
▁fortresses	-13495
▁lampstands	-13496
▁population	-13497
▁portfolios	-13498
▁shipowners	-13499
▁shortening	-13500
▁slipstream	-13501
▁threatened	-13502
▁traditions	-13503
▁trespasses	-13504
▁Certificate	-13505
▁Provinsiale	-13506
▁accountable	-13507
▁affirmation	-13508
▁association	-13509
▁blamelessly	-13510
▁circulating	-13511
▁comfortably	-13512
▁consequence	-13513
▁descendants	-13514
▁emergencies	-13515
▁frequencies	-13516
▁habitations	-13517
▁icebreakers	-13518
▁interpreted	-13519
▁introducing	-13520
▁overwhelmed	-13521
▁prostitutes	-13522
▁righteously	-13523
▁significant	-13524
▁unbelieving	-13525
▁understands	-13526
▁unwittingly	-13527
▁workmanship	-13528
▁Instructions	-13529
▁Organisation	-13530
▁Transmission	-13531
▁Verification	-13532
▁advantageous	-13533
▁condemnation	-13534
▁extinguished	-13535
▁imprisonment	-13536
▁inconsistent	-13537
▁intervention	-13538
▁preparations	-13539
▁relationship	-13540
▁stubbornness	-13541
▁transoceanic	-13542
▁Extraordinary	-13543
▁contemplation	-13544
▁extraordinary	-13545
▁independently	-13546
▁modifications	-13547
▁predetermined	-13548
▁transportation	-13549
▁representations	-13550
4-	-13551
45	-13552
Ab	-13553
CA	-13554
IF	-13555
KS	-13556
PA	-13557
RI	-13558
ga	-13559
lb	-13560
ym	-13561
za	-13562
-3]	-13563
ACK	-13564
ASH	-13565
EAD	-13566
IPS	-13567
ORD	-13568
bai	-13569
cet	-13570
dim	-13571
eus	-13572
icy	-13573
occ	-13574
oda	-13575
sey	-13576
sim	-13577
str	-13578
xis	-13579
▁."	-13580
▁34	-13581
▁41	-13582
▁48	-13583
▁AD	-13584
▁Ib	-13585
▁NP	-13586
▁PR	-13587
▁SO	-13588
▁Uz	-13589
▁Ye	-13590
▁eg	-13591
GING	-13592
Turn	-13593
acht	-13594
amal	-13595
ario	-13596
aske	-13597
berg	-13598
cock	-13599
dies	-13600
ends	-13601
erer	-13602
even	-13603
hour	-13604
iary	-13605
icia	-13606
iler	-13607
lips	-13608
look	-13609
lyne	-13610
mave	-13611
mets	-13612
noon	-13613
olis	-13614
oner	-13615
onst	-13616
ophe	-13617
rame	-13618
real	-13619
redi	-13620
ruit	-13621
urim	-13622
vels	-13623
wake	-13624
▁10°	-13625
▁12.	-13626
▁176	-13627
▁178	-13628
▁18-	-13629
▁68-	-13630
▁Age	-13631
▁Aij	-13632
▁Ari	-13633
▁BER	-13634
▁Big	-13635
▁Boz	-13636
▁Fel	-13637
▁Fig	-13638
▁Hol	-13639
▁Isc	-13640
▁Kid	-13641
▁LNG	-13642
▁Mad	-13643
▁Mam	-13644
▁OFF	-13645
▁Oct	-13646
▁Opt	-13647
▁Ore	-13648
▁Rap	-13649
▁Slo	-13650
▁Too	-13651
▁Tou	-13652
▁Try	-13653
▁WOR	-13654
▁cot	-13655
▁ray	-13656
▁sed	-13657
▁vig	-13658
,000-	-13659
Aided	-13660
anias	-13661
azine	-13662
claim	-13663
dient	-13664
dress	-13665
eding	-13666
emuel	-13667
epart	-13668
erest	-13669
ester	-13670
hames	-13671
hauls	-13672
iance	-13673
iated	-13674
idesp	-13675
ilies	-13676
inoam	-13677
limin	-13678
manac	-13679
pings	-13680
scale	-13681
sheet	-13682
zedek	-13683
▁Ammi	-13684
▁Chem	-13685
▁Crit	-13686
▁Dead	-13687
▁Diam	-13688
▁Edin	-13689
▁Exec	-13690
▁Flat	-13691
▁Graf	-13692
▁Gulf	-13693
▁Joah	-13694
▁Less	-13695
▁Mate	-13696
▁Pall	-13697
▁Prom	-13698
▁Rate	-13699
▁Remo	-13700
▁Spee	-13701
▁Swim	-13702
▁Uzzi	-13703
▁Wail	-13704
▁Warm	-13705
▁Year	-13706
▁acid	-13707
▁aged	-13708
▁boys	-13709
▁brim	-13710
▁carb	-13711
▁colt	-13712
▁cubs	-13713
▁depi	-13714
▁dial	-13715
▁dues	-13716
▁elev	-13717
▁fade	-13718
▁lake	-13719
▁mars	-13720
▁mate	-13721
▁oaks	-13722
▁pays	-13723
▁phos	-13724
▁pile	-13725
▁proc	-13726
▁sapp	-13727
▁sire	-13728
▁symp	-13729
▁toil	-13730
▁toss	-13731
▁unho	-13732
Should	-13733
arding	-13734
attice	-13735
ballat	-13736
covery	-13737
ective	-13738
enders	-13739
estone	-13740
imetre	-13741
maveth	-13742
onduct	-13743
otilla	-13744
ounced	-13745
ouvres	-13746
plates	-13747
ppings	-13748
rieval	-13749
stones	-13750
terday	-13751
▁Alpha	-13752
▁Block	-13753
▁Cause	-13754
▁Child	-13755
▁Dibon	-13756
▁Drink	-13757
▁EMISS	-13758
▁Early	-13759
▁Fresh	-13760
▁Grand	-13761
▁Hades	-13762
▁Hanun	-13763
▁Happy	-13764
▁Jeiel	-13765
▁MSETT	-13766
▁March	-13767
▁Michm	-13768
▁Nazir	-13769
▁Paran	-13770
▁Pekah	-13771
▁Reuel	-13772
▁Rezin	-13773
▁Roman	-13774
▁Round	-13775
▁Sever	-13776
▁Store	-13777
▁Zacha	-13778
▁advoc	-13779
▁ample	-13780
▁bosun	-13781
▁camps	-13782
▁conve	-13783
▁crime	-13784
▁cured	-13785
▁flint	-13786
▁fours	-13787
▁fuels	-13788
▁fumes	-13789
▁galle	-13790
▁guest	-13791
▁hangs	-13792
▁heirs	-13793
▁inlet	-13794
▁keyed	-13795
▁lacks	-13796
▁ledge	-13797
▁limbs	-13798
▁panic	-13799
▁perse	-13800
▁petty	-13801
▁poult	-13802
▁pours	-13803
▁reeds	-13804
▁renew	-13805
▁resil	-13806
▁sells	-13807
▁slots	-13808
▁sowed	-13809
▁stagh	-13810
▁tacks	-13811
▁unint	-13812
▁unity	-13813
▁unmar	-13814
▁wares	-13815
▁wider	-13816
Admiral	-13817
Stretch	-13818
amental	-13819
anelles	-13820
athites	-13821
hampton	-13822
illance	-13823
itative	-13824
masting	-13825
[...]
